[PAD]
[UNK]
[CLS]
[SEP]
[MASK]
##ㅇㅡᆯ
##ᆫ
##ㄷㅏ⑨
##ㅇㅢ⑨
##ㅎㅏ⑨
##ㅇㅣ⑨
##ㅇㅔ⑨
##ㄴㅡᆫ
##ㄱㅗ⑨
##ㄹㅡᆯ
##ㅇㅓᆻ
##ㅇㅡᆫ
##ㄱㅏ⑨
##ㅇㅓ⑨
##ᆯ
##ㄷㅗ⑨
##ㄷㅡᆯ
##ㅇㅡ⑨ㄹㅗ⑨
##ㅇㅔ⑨ㅅㅓ⑨
##ㄱㅔ⑨
##ㅈㅓᆨ
##ㄹㅗ⑨
##ㄷㅚ⑨
##ᆫㄷㅏ⑨
##ㅈㅣ⑨
##ㄱㅣ⑨
##ㄱㅘ⑨
##ㅁㅕᆫ
##ㄷㅓᆫ
##ㅇㅘ⑨
##ㅁㅏᆫ
##ㅁㅕ⑨
##ㅇㅔ⑨ㄱㅔ⑨
##ㅇㅓ⑨ㅅㅓ⑨
##ㄴㅡᆫㄷㅔ⑨
##ㄲㅏ⑨ㅈㅣ⑨
##ㅈㅣ⑨ㅁㅏᆫ
##ㄱㅔᆻ
##ㄷㅏ⑨ㄴㅡᆫ
##ㅁㅕᆫㅅㅓ⑨
##ㅅㅣ⑨
##ㄹㅏ⑨ㄴㅡᆫ
##ㄷㅏ⑨ㄱㅗ⑨
##ㅅㅓᆼ
##ㄹㅏ⑨ㄱㅗ⑨
##ㄹㅏ⑨
##ㅇㅓ⑨ㅇㅑ⑨
##ᆷ
##ㅂㅗ⑨ㄷㅏ⑨
##ㅎㅘ⑨
##ㅂㅜ⑨ㅌㅓ⑨
##ㅊㅓ⑨ㄹㅓᆷ
##ㅇㅣ⑨ㄴㅏ⑨
##ᆫㄷㅏ⑨ㄴㅡᆫ
##ㅅㅣ⑨ㅋㅣ⑨
##ㅇㅑ⑨
##ㄴㅣᆷ
##ㅇㅡ⑨ㅁㅕ⑨
##ㅇㅡ⑨ㅁㅕᆫ
##ㄴㅏ⑨
##ㄷㅏ⑨ㄱㅏ⑨
##ㄷㅗ⑨ㄹㅗᆨ
##ᆫㄷㅔ⑨
##ㅈㅏ⑨
##ㄴㅣ⑨
##ㅅㅓ⑨
##ㄱㅓ⑨ㄴㅏ⑨
##ᆫㄷㅏ⑨ㄱㅗ⑨
##ㄱㅜ⑨
##ㄱㅝᆫ
##ㄴㅣ⑨ㄲㅏ⑨
##ᆫㄱㅏ⑨
##ㅅㅡ⑨ㄹㅓᆸ
##ㅇㅓ⑨ㄷㅗ⑨
##ᆫㅈㅣ⑨
##ㄴㅡᆫㅈㅣ⑨
##ㅇㅡ⑨ㄴㅏ⑨
##ㅇㅕ⑨
##ㅂㅏᆩㅇㅔ⑨
##ㄹㅗ⑨ㅅㅓ⑨
##ㅈㅔ⑨
##ㄷㅏ⑨ㅁㅕᆫ
##ㅇㅡᆷ
##ㅇㅣ⑨ㄹㅏ⑨ㄱㅗ⑨
##ㄹㅏᆫ
##ㄹㅏ⑨ㄷㅗ⑨
##ᆯㄲㅏ⑨
##ㅆㅣᆨ
##ㄷㅐ⑨
##ㅎㅏᆫㅌㅔ⑨
##ᆫㄷㅏ⑨ㅁㅕᆫ
##ㄱㅖ⑨
##ㅁㅏ⑨ㄷㅏ⑨
##ㅇㅡ⑨ㄹㅗ⑨ㅆㅓ⑨
##ㄹㅕ⑨ㄱㅗ⑨
##ㅂㅣ⑨
##ㅅㅏᆼ
##ㄷㅓ⑨ㄴㅣ⑨
##ㅉㅐ⑨
##ㄹㅗᆫ
##ㄴㅑ⑨
##ㅃㅜᆫ
##ㄹㅕ⑨ㄴㅡᆫ
##ㅎㅕᆼ
##ㅇㅡ⑨ㄹㅗ⑨ㅅㅓ⑨
##ㄹㅗᆸ
##ㄹㅗ⑨ㅂㅜ⑨ㅌㅓ⑨
##ㄹㅏ⑨ㅁㅕᆫ
##ㅅㅐᆼ
##ㄷㅓ⑨ㄹㅏ⑨ㄷㅗ⑨
##ㅇㅡᆯㄲㅏ⑨
##ㅇㅡ⑨ㄴㅣ⑨
##ㄴㅔ⑨
##ㄷㅜ⑨
##ㄷㅡᆫ
##ㅇㅡ⑨ㅁㅕᆫㅅㅓ⑨
##ᆯㅈㅣ⑨
##ㄷㅡᆺ
##ㄷㅐ⑨ㄹㅗ⑨
##ㅇㅡ⑨ㄹㅗ⑨ㅂㅜ⑨ㅌㅓ⑨
##ㅇㅡ⑨ㅅㅣ⑨
##ㅇㅛᆼ
##ㄹㅏ⑨ㅁㅕ⑨
##ㅇㅣ⑨ㄹㅏᆫ
##ㄷㅡᆺㅇㅣ⑨
##ㄹㅕ⑨
##ㅂㅕᆯ
##ㄹㅓ⑨
##ㅊㅡᆼ
##ㄱㅗ⑨ㅈㅏ⑨
##ㄹㅠᆯ
##ㅎㅏ⑨ㄱㅗ⑨
##ㅈㅗ⑨ㅊㅏ⑨
##ㅁㅡ⑨ㄹㅗ⑨
##ㅇㅠᆯ
##ㄱㅣ⑨ㅇㅔ⑨
##ㅇㅗ⑨
##ᆯㅅㅜ⑨ㄹㅗᆨ
##ㅉㅡᆷ
##ㄱㅏᇀㅇㅣ⑨
##ㅈㅣᆯ
##ㄱㅗᆫ
##ㄷㅡᆫㅈㅣ⑨
##ㄴㅡ⑨ㄴㅑ⑨
##ㄹㅕ⑨ㅁㅕᆫ
##ㄲㅔ⑨ㅅㅓ⑨
##ㅇㅓᆻㅇㅓᆻ
##ㅈㅏ⑨ㄴㅡᆫ
##ㄱㅗ⑨ㅅㅓ⑨
##ㅇㅡ⑨ㅁㅡ⑨ㄹㅗ⑨
##ㅁㅏᆫㅋㅡᆷ
##ㄷㅏᆼ
##ㅈㅏ⑨ㅁㅕᆫ
##ㄴㅡᆫㄷㅏ⑨ㄴㅡᆫ
##ㄱㅏᆫ
##ㄲㅜᆫ
##ㅂㅏᆮ
##ㅁㅏ⑨ㅈㅓ⑨
##ㄷㅏᆼㅎㅏ⑨
##ㄷㅏᆸ
##ㅂㅏᆫ
##ㅉㅏ⑨ㄹㅣ⑨
##ㅇㅔ⑨ㄱㅔ⑨ㅅㅓ⑨
##ㄹㅠ⑨
##ㅇㅡᆯㅈㅣ⑨
##ㄲㅣ⑨ㄹㅣ⑨
##ㅎㅏᆫ
##ㅈㅏ⑨ㄱㅗ⑨
##ㅇㅓ⑨ㄷㅏ⑨
##ㄷㅏᆫ
##ㅂㅜᆫ
##ㅇㅓ⑨ㄹㅏ⑨
##ㅇㅔ⑨ㅅㅓ⑨ㅂㅜ⑨ㅌㅓ⑨
##ㅊㅗ⑨
##ㄲㅔ⑨
##ㄹㅗ⑨ㅆㅓ⑨
##ㅈㅏ⑨ㅁㅏ⑨ㅈㅏ⑨
##ㄴㅡᆫㄷㅏ⑨ㄱㅗ⑨
##ㄷㅏ⑨ㅁㅕ⑨
##ㅇㅡ⑨ㄹㅕ⑨ㄱㅗ⑨
##ㄱㅕᆼ
##ㅊㅣ⑨
##ㄴㅡ⑨ㄹㅏ⑨
##ㅂㅜ⑨
##ㄴㅡᆫㄷㅏ⑨ㅁㅕᆫ
##ㄴㅑ⑨ㄴㅡᆫ
##ㄱㅜᆫ
##ㅅㅏᆫ
##ㄱㅏ⑨ㄹㅑᆼ
##ㄹㅏ⑨ㅁㅕᆫㅅㅓ⑨
##ㅇㅣᆫ
##ㅅㅜ⑨
##ㄱㅏᆷ
##ㄹㅕᆨ
##ㄴㅏᆯ
##ㄷㅔ⑨
##ㄱㅓᆺ
##ㅅㅣᆨ
##ㄱㅡᆸ
##ㅈㅜ⑨
##ㅍㅏᆫ
##ㄱㅏᇀ
##ㄷㅓ⑨
##ㅅㅏ⑨
##ㅈㅣᆨ
##ㅎㅐ⑨
##ㅈㅓᆫ
##ㄷㅏᆯ
##ㅁㅜᆫ
##ㅇㅝᆫ
##ㅇㅣ⑨ㅅㅏ⑨
##ㅊㅏ⑨
##ㅁㅕᆼ
##ㅍㅏ⑨
##ㅊㅡᆨ
!
"
#
$
%
&
'
(
)
*
+
,
-
.
/
0
1
2
3
4
5
6
7
8
9
:
;
<
=
>
?
@
[
]
^
_
`
a
b
c
d
e
f
g
h
i
j
k
l
m
n
o
p
q
r
s
t
u
v
w
x
y
z
{
|
}
~
§
°
±
²
³
´
·
¹
×
α
δ
а
б
в
г
д
е
ж
з
и
к
л
м
н
о
п
р
с
т
у
х
ц
ч
ы
ь
ю
я
ᆞ
ᆨ
ᆩ
ᆪ
ᆫ
ᆬ
ᆭ
ᆮ
ᆯ
ᆰ
ᆱ
ᆲ
ᆴ
ᆵ
ᆶ
ᆷ
ᆸ
ᆹ
ᆺ
ᆻ
ᆼ
ᆽ
ᆾ
ᆿ
ᇀ
ᇁ
ᇂ
–
—
―
‘
’
“
”
•
․
‥
…
‧
′
※
℃
ℓ
ⅰ
ⅱ
ⅲ
ⅳ
↑
→
↓
⇒
∙
∼
≪
≫
⊙
⋅
①
②
③
④
⑤
⑥
⑦
⑧
⑨
⑩
⑴
⑵
⑶
ⓒ
─
━
│
┃
┤
■
□
▣
▲
△
▶
▷
▼
▽
◀
◆
◇
◈
◉
○
◎
●
★
☎
☏
☞
♣
♥
。
〃
〈
〉
《
》
「
」
『
』
【
】
〔
〕
て
・
ㄱ
ㄲ
ㄴ
ㄷ
ㄸ
ㄹ
ㅁ
ㅂ
ㅃ
ㅅ
ㅆ
ㅇ
ㅈ
ㅉ
ㅊ
ㅋ
ㅌ
ㅍ
ㅎ
ㅏ
ㅐ
ㅑ
ㅒ
ㅓ
ㅔ
ㅕ
ㅖ
ㅗ
ㅘ
ㅙ
ㅚ
ㅛ
ㅜ
ㅝ
ㅞ
ㅟ
ㅠ
ㅡ
ㅢ
ㅣ
ㆍ
㈎
㈏
㈐
㈑
㈜
㉠
㉡
㎎
㎏
㎖
㎜
㎝
㎞
㎡
㎢
㎥
㎾
㎿
㏄
㏊
一
丁
七
三
上
下
不
世
丙
中
主
之
乎
乙
九
也
亂
事
二
于
五
井
亞
交
亦
京
人
仁
今
他
仙
代
令
以
件
任
企
伊
位
何
佛
作
使
來
例
係
俗
保
信
修
倍
借
假
傳
債
價
儀
儒
償
元
先
光
克
入
內
全
兩
八
公
六
共
兵
其
典
再
出
分
刑
初
判
別
利
制
券
則
前
創
劉
力
功
加
動
務
勝
勞
化
北
十
千
半
協
南
博
印
危
卷
卽
原
去
參
及
友
反
取
受
口
古
可
台
史
右
司
各
合
吉
同
名
向
君
吳
吾
告
周
命
和
品
員
哲
唐
商
問
善
喪
四
回
因
國
圖
團
土
在
地
城
執
基
堂
報
場
境
士
壬
壽
夏
外
多
夜
大
天
太
夫
失
奇
契
女
好
如
始
委
子
孔
字
存
孝
孟
孫
學
守
安
宋
完
宗
官
定
客
宣
宮
害
家
容
富
寒
實
寧
審
寶
寺
將
對
小
少
尙
尹
居
展
履
山
島
崔
川
州
工
左
己
市
帝
師
常
平
年
序
府
度
康
廣
延
建
式
引
弗
弘
張
强
形
律
後
徐
得
從
御
復
德
心
必
志
忠
念
思
性
情
惠
惡
想
意
愛
感
慶
憲
應
成
我
戰
所
手
承
抗
指
接
推
提
損
播
擔
支
改
放
政
故
效
敎
敬
數
文
料
新
斷
方
於
族
日
昌
明
易
星
春
昭
是
時
晋
景
智
曰
更
書
最
會
月
有
望
朝
期
木
未
末
本
朱
朴
李
村
東
松
林
果
柳
査
校
株
根
格
梁
條
楊
業
極
樂
機
檢
權
次
欲
歌
止
正
此
武
歷
歸
死
殺
母
比
氏
民
氣
水
永
求
江
決
沈
沙
河
治
法
泰
洋
洞
洪
活
流
海
消
深
淸
渡
湖
源
準
溪
滅
滿
漢
澤
濟
火
無
然
營
爭
爲
父
版
物
特
狀
獨
玄
玉
王
現
理
環
生
産
用
田
由
甲
申
男
界
異
畵
當
疏
病
登
發
白
百
的
皆
皇
益
盡
監
盧
目
直
相
省
眞
督
矣
知
石
破
硏
示
社
祖
神
祭
禁
福
禪
禮
秀
私
秋
科
秘
移
稅
程
種
究
空
立
章
竹
第
等
管
節
範
精
紀
約
紅
純
終
組
結
給
統
絶
經
編
縣
總
續
置
羅
美
義
習
老
考
者
而
聖
聞
聯
聲
職
背
胡
能
臣
臨
自
至
致
臺
與
興
舊
船
良
色
花
若
苦
英
茶
草
華
萬
落
藏
藝
藤
蘇
虎
處
虛
號
血
衆
行
術
衛
表
被
裁
補
西
要
見
規
視
親
覺
觀
解
言
計
記
訟
設
許
訴
詩
話
認
語
誠
說
調
請
論
諸
謂
講
證
識
議
護
讀
變
谷
象
財
責
貴
買
貸
費
賃
資
賢
賣
質
起
趙
足
路
身
車
軍
轉
辨
辭
辯
辰
農
近
退
送
逆
通
造
連
進
遊
運
過
道
達
遠
適
選
遺
還
郞
郡
部
都
鄕
鄭
酒
醫
釋
里
重
野
金
銀
錄
鎭
鐵
長
門
開
間
關
防
阿
附
限
院
除
陰
陳
陸
陽
險
集
雜
離
難
雪
雲
電
靈
靑
靜
非
面
韓
音
順
領
頭
題
類
風
飛
食
養
餘
首
香
馬
體
高
魚
鮮
麗
黃
黑
點
黨
齊
齋
龍
＂
％
＆
（
）
＋
，
－
．
：
；
＜
＝
＞
［
］
＿
ｍ
ｔ
｜
｢
｣
･
￦
##б
##к
##о
##м
##ㅗ
##ᆼ
##ㅋ
##ㅏ
##⑨
##ㅇ
##ㅡ
##y
##m
##e
##t
##r
##i
##ㅜ
##ㅊ
##ㅓ
##ㅍ
##ㅔ
##ㅈ
##ᆨ
##ㅅ
##ㅣ
##ㄹ
##ㅖ
##ㅆ
##ㄱ
##ㅑ
##ㅌ
##ㅐ
##ㅂ
##ㄴ
##ㅘ
##ㅝ
##ㄷ
##ᆸ
##ㅕ
##ㅠ
##c
##u
##a
##l
##o
##s
##p
##n
##ㅛ
##x
##v
##ᆺ
##ㅁ
##d
##h
##f
##ᆰ
##ㄸ
##ㅟ
##b
##ㅎ
##k
##ᆻ
##ㅢ
##ㅙ
##z
##ㅚ
##ㄲ
##ㅉ
##ᆲ
##ᆭ
##g
##ㅞ
##w
##2
##9
##1
##в
##е
##т
##а
##ㅒ
##0
##j
##ㅃ
##7
##4
##у
##р
##с
##и
##5
##л
##д
##н
##п
##ь
##8
##3
##q
##ᆽ
##6
##×
##г
##ы
##ᇁ
##α
##δ
##ᆶ
##ч
##я
##ᆮ
##х
##±
##ㆍ
##ю
##ц
##ᆩ
##ᆾ
##━
##ᇀ
##з
##´
##ᇂ
##ᆞ
##○
##⑴
##ж
##て
##＋
##●
##→
##⑩
##⑦
##ᆹ
##ⅲ
##²
##ᆿ
##◎
##ᆱ
##ᆬ
##③
##°
##⑵
##⑶
##⑥
##³
##▷
##＝
##ᆵ
##④
##ｔ
##㎿
##◉
##─
##①
##ⅱ
##♥
##ᆪ
##②
##↑
##㉡
##ⅳ
##¹
##㈜
##◆
##㎥
##㎝
##⑤
##↓
##ᆴ
##★
##ｍ
##ⅰ
##㎞
##♣
##⋅
##⑧
##㏊
##∼
##▶
##▼
##▲
##㎾
##│
##□
##■
##▽
##△
##㈑
##㎡
##◀
##┃
##∙
##◈
##ⓒ
##◇
##＞
##￦
##⊙
##㈐
##㈏
##㉠
##㏄
##㎜
##ℓ
##㎖
##℃
##☞
##☏
##㎏
##┤
##ㅏ⑨
##ㅣ⑨
##ㅗ⑨
##ㅓ⑨
##ㅔ⑨
ㅇㅡ
##ㅜ⑨
ㅇㅣ⑨
ㅎㅏ⑨
##ㅐ⑨
##ㅡᆫ
##ㅏᆫ
##ㅡ⑨
##ㅏᆼ
ㄴㅡᆫ
ㅇㅔ⑨
ㅇㅓ
##ㅢ⑨
##ㅡᆯ
ㄷㅏ
ㅇㅡᆯ
ㅇㅢ⑨
ㅇㅓ⑨
ㅇㅣ
##ㅓᆫ
ㅇㅓᆻ
##ㅕᆫ
##ㅗᆼ
##ㅓᆼ
##ㅚ⑨
##ㅘ⑨
ㅇㅡᆫ
##ㅕᆼ
ㄱㅏ⑨
ㄱㅗ⑨
##ㅣᆫ
##ㅜᆫ
ㄹㅡᆯ
ㅈㅣ⑨
##ㅏᆯ
##ㄹㅣ⑨
##ㅏᆨ
##ㅕ⑨
##ㅜᆨ
ㄷㅐ⑨
ㅇㅣᆻ
##ㅝᆫ
##ㅜᆯ
ㅇㅡ⑨
##ㅛ⑨
##ㅏᆷ
##ㅓᆨ
##ㅗᆨ
ㄱㅣ⑨
ㄷㅗ⑨
ㄷㅚ⑨
##ㅏ⑨ㅇ
##ㅡᆼ
ㄱㅡ⑨
##ㅟ⑨
##ㅣᆯ
ㄱㅓ
##ㄷㅏ
ㅇㅡ⑨ㄹㅗ⑨
##ㅏ⑨ㄱ
##ㅐᆼ
##ㅣᆷ
ㅇㅔ⑨ㅅㅓ⑨
##ㅖ⑨
ㄷㅡᆯ
ㅅㅜ⑨
ㄱㅘ⑨
##ㅓᆸ
##ㅏ⑨ㄹ
##ㅕᆨ
ㅅㅣ⑨
ㄹㅗ⑨
##ㅗᆫ
##ㅘᆫ
##ㅠ⑨
##ㅈㅏᆼ
##ㅏ⑨ㄴ
ㄱㅓᆺ
ㅇㅣᆯ
ㅂㅗ⑨
##ㅡᆷ
##ㅜᆼ
ㅈㅓᆨ
##ㅣᆨ
ㅈㅓᆼ
##ㅓᆯ
##ㅈㅓᆼ
##ㅓᆷ
##ㅕᆯ
ㅈㅜ⑨
ᆫㄷㅏ
ㅈㅓᆫ
##ㅏ⑨ㄱㅗ⑨
ㄱㅔ⑨
##ㅐᆨ
ㅂㅜ⑨
##ㅇㅑ
ㅎㅏᆫ
ㅁㅏᆫ
ㅇㅟ⑨
##ㄱㅜᆨ
ㄱㅕᆼ
##ㅅㅡ⑨
ㅇㅘ⑨
ㅁㅕᆫ
ㅇㅏ
ㄴㅏ⑨
ㄱㅗᆼ
##ㅗᆯ
ㄱㅜᆨ
ㅇㅣᆫ
##ㅡᆨ
##ㅡᆸ
ㄷㅡᆼ
ㅈㅏ⑨
ㅅㅏ⑨
ㅇㅣ⑨ㄹ
ㅈㅜᆼ
##ㅛᆼ
##ㅏ⑨ㄴㅡᆫ
ㅅㅏᆼ
ㅈㅗ⑨
##ㅎㅚ⑨
##ㅎㅣ⑨
ㅇㅗ⑨
ㅁㅕ⑨
##ㅣᆸ
ㄱㅐ⑨
##ㄷㅗᆼ
##ㅂㅗ⑨
ㅇㅕ⑨
##ㅑᆼ
ㄱㅘᆫ
##ㅏᆸ
ㅁㅏᆯ
ㄱㅡ⑨ㄹ
ㅅㅓᆼ
ㅈㅔ⑨
ㄴㅕᆫ
ㅂㅏ
##ㅏ⑨ㅁ
ㅁㅗ⑨
ㅂㅣ⑨
ㅅㅓᆫ
ㅇㅏᆭ
##ㅡ⑨ㄹ
ㅇㅓᆹ
ㄴㅐ⑨
ㅅㅗ⑨
ㅇㅝᆫ
ㅁㅜᆫ
ㄱㅓ⑨
ㅇㅠ⑨
ㄱㅗ
ㅅㅓ⑨
##ㅏ⑨ㅈㅣ⑨
ㄸㅐ⑨
ㅁㅏ
##ㅁㅣᆫ
ㅅㅔ⑨
##ㅘᆼ
ㅇㅕᆫ
##ㅜᆷ
##ㅅㅣᆫ
##ㅌㅓ⑨
ㅇㅏᆫ
##ㅇㅓᆸ
ㅈㅓ⑨
ㅇㅜ⑨
##ㄴㅣ⑨ㄷㅏ
##ㅇㅜ⑨
ㄷㅏᆼ
ㅅㅐᆼ
ㅁㅣ⑨
##00
ㅅㅣᆫ
##ㅅㅓᆫ
##ㅅㅗ⑨
ㄷㅐ⑨ㅎㅏ⑨
ㅇㅓ⑨ㅅㅓ⑨
ㄱㅜ⑨
ㄱㅏ
ㅂㅏᆼ
##ㅊㅔ⑨
##ㅝᆯ
ㅌㅗᆼ
##ㅌㅡ⑨
##ㅍㅛ⑨
ㅎㅘ
ㅂㅜᆫ
##ㅎㅐᆼ
ㄷㅗᆼ
ㅂㅏᆯ
ㄷㅏ⑨
ㅎㅜ⑨
##ㅏ⑨ㅇㅣ⑨
ㅁㅜ⑨
##ㅁㅜ⑨
##ㅈㅐ⑨
ㅎㅚ⑨
ㅊㅚ⑨
ㅇㅓ⑨ㅇㅑ⑨
##ㅌㅗᆼ
ㄱㅛ⑨
ㅅㅏ⑨ㄹ
ㄷㅓᆫ
ㄱㅏᆼ
##ㅗᆺ
ㅈㅏᆼ
##ㄱㅘᆫ
ㄱㅣᆷ
##ㄹㅡ⑨
ㅇㅏ⑨
ㅇㅔ⑨ㄱㅔ⑨
ㅁㅕᆼ
ㅇㅖ⑨
ㅎㅕᆫ
##ㅓᆺ
ㄷㅓ⑨
##ㅇㅏᆫ
##ㅎㅏᆨ
##ㅏ⑨ㄴㅣ⑨
ㄱㅖ⑨
ㅇㅟ⑨ㅎㅏ⑨
##ㅇㅟ⑨
##ㄷㅡ⑨
##ㄱㅡᆷ
ㅎㅘ⑨
##ㄴㅐ⑨
##ㅅㅣᆯ
ㅅㅣᆯ
##ㅇㅕᆨ
##ㄱㅓ⑨
ㅇㅕᆼ
ㄱㅕᆯ
##ㄱㅏᆨ
ㄹㅏ⑨ㄱㅗ⑨
ᆫㄷ
ㅈㅣᆫ
ㅁㅕᆫㅅㅓ⑨
##ㅕᆸ
ㄲㅏ⑨ㅈㅣ⑨
ㄷㅏᆫ
ㅈㅐ⑨
ㅎㅐ⑨
ㅇㅝᆯ
##ㅁㅣ⑨
##ㅈㅗ⑨
##ㅇㅠ
ㅂㅏᆮ
##ㅈㅣᆫ
ㅇㅏ⑨ㄴㅣ⑨
##ㅏ⑨ㄹㅡ⑨
ㅂㅜᆯ
##ㅇㅛ⑨
##ㅣᆼ
ㄷㅏ⑨ㄴㅡᆫ
##ㅇㅏ⑨
ㅂㅏᆫ
##ㅇㅣᆯ
ㅅㅏ⑨ㅇ
##ㅓᇂ
ㄴㅗ⑨
ㅇㅑ
##ㅇㅕᆼ
##ㄱㅗᆼ
ㅅㅡᆸ
ㄱㅏᇀ
##ㅅㅣᆷ
##ㅅㅔ⑨
ㄱㅔ
##ㄹㅕᆼ
##ㄱㅛ⑨
##ㅅㅗᆨ
ㅌㅡᆨ
ㄱㅔᆻ
ㄴㅏᆷ
##ㄹㅗᆨ
ㅊㅓ⑨
ㄹㅏ⑨
ㅅㅡ⑨
ㅅㅏ⑨ㄹㅏᆷ
##ㅅㅓᆨ
20
ㅇㅣ⑨ㄹㅏ⑨ㄱㅗ⑨
ㄱㅏᆷ
##ㅗᇂ
ㄸㅗ⑨
ㅎㅏᆨ
ㅅㅡᆸㄴㅣ⑨ㄷㅏ
##ㅁㅜᆯ
ㅊㅜ⑨
ㄷㅜ⑨
ㅁㅏ⑨
ㄹㅏ⑨ㄴㅡᆫ
##ㅔᆫ
##ㅋㅣ⑨
##ㅂㅏᆼ
ㅂㅏᆨ
ㅇㅏᆯ
ㄷㅏ⑨ㄱㅗ⑨
ㄹㅏ⑨ㅁ
ㅁㅣᆫ
ㅇㅜ⑨ㄹㅣ⑨
ㄷㅏᆯ
##ㅏ⑨ㄱㅏ⑨
ㅇㅣᆸ
ㅎㅘᆨ
ㅎㅐᆼ
##ㅂㅏᆯ
##ㅎㅜ⑨
ㅂㅐ⑨
ㅂㅏ⑨
##ㅂㅓᆸ
ㅍㅕᆼ
ㄱㅝᆫ
ㅊㅜᆯ
ㅁㅐ⑨
##ㅇㅠ⑨
ㅊㅓᆼ
ㄷㅐ⑨ㅍㅛ⑨
##ㅏ⑨ㅇㅗ⑨
##ㅊㅜᆯ
ㅁㅏᆭ
ㅇㅕᆯ
##ㅈㅏᆨ
ㅇㅕᆨ
ㄷㅡ
##ㅗᆷ
ㅅㅓᆯ
19
ㅎㅏᆫㄱㅜᆨ
##ㅎㅗ⑨
ㅎㅜ⑨ㅂㅗ⑨
##ㅗᆸ
##ㅇㅛ
##ㅇㅕᆫ
ㅁㅜᆯ
##ㅍㅜᆷ
ㄱㅓᆫ
ㅇㅠ
##ㅈㅜᆼ
##ㅁㅏ⑨
ㄷㅔ⑨
ㅂㅓᆸ
ㅇㅗᆯ
##ㅏ⑨ㄹㅏ⑨
ㅌㅜ⑨
ㅈㅏᆨ
##ㄴㅡᆼ
ㄸㅐ⑨ㅁㅜᆫ
ㅇㅢ⑨ㅇㅝᆫ
##ㅇㅜᆯ
ㄱㅡ⑨ㄹㅓ⑨
ᆸㄴㅣ⑨ㄷㅏ
ㄷㅐ⑨ㅌㅗᆼ
ㅋㅡ⑨
##ㅇㅣᆷ
ㅍㅗ⑨
ㅁㅗᆺ
##ㄹㅐ⑨
ㄷㅐ⑨ㅌㅗᆼㄹㅕᆼ
ㅇㅛ⑨
##ㅈㅓᆷ
ㅈㅣ⑨ㅁㅏᆫ
ㅇㅜᆫ
ㅊㅏᆷ
ㅈㅣᆸ
ㅊㅏ⑨
##ㅎㅏᆸ
ㅅㅐ⑨
ㅂㅜ⑨ㅌㅓ⑨
##ㅅㅓᆯ
ㅈㅣᆨ
##ㅁㅗ⑨
##ㅕᆷ
ㅇㅚ⑨
ㅈㅓᆷ
##ㅔ⑨ㅇㅣ⑨
ㄹㅏ⑨ㅁㅕ⑨
##ㄱㅕᆨ
##ㅊㅓᆼ
ㅊㅗᆼ
ㅂㅗ⑨ㄷㅏ⑨
ㅅㅏᆯ
ㄱㅡᆷ
ㅌㅗᆼㅎㅏ⑨
ㅂㅏᆰ
ㅇㅏᇁ
##ㄹㅕᆫ
ㄱㅏᆫ
##ㄱㅡᆫ
##ㅅㅜᆯ
ㅂㅗ⑨ㅇㅣ⑨
##ㅌㅐ⑨
ㅅㅏᆫ
##ㄴㅕᆫ
ㅈㅓᆼㅂㅜ⑨
##ㅇㅣᆸ
##ㅂㅗᆫ
ㅇㅟ⑨ㅇㅝᆫ
ㅈㅣ⑨ㅇㅕᆨ
##ㅔᆯ
ㅅㅐᆼㄱㅏᆨ
ㅁㅜᆫㅈㅔ⑨
ㅁㅣ
ㅎㅕᆼ
##ㅇㅑᆼ
ㅈㅣ⑨ㄴㅏ⑨
##ㅏᆽ
##ㅈㅗᆼ
ㅁㅕ
##ㄴㅏᆫ
10
##ㅊㅓᆫ
##ㅊㅐᆨ
ㄱㅜᆨㅁㅣᆫ
ㄱㅓᆷ
ㅇㅑᆼ
ㅂㅏᆰㅎㅣ⑨
ㅎㅘᆯ
ㅍㅣ⑨
ㅎㅕᆸ
ㅂㅜᆨ
ㅎㅏᆷ
##ㅎㅓᆷ
ㅅㅣᆷ
##ㅈㅜᆫ
##ㅇㅠᆨ
##ㄹㅛ⑨
ㅍㅣᆯ
ㅊㅗ⑨
##ㅇㅑᆨ
ㅈㅏ⑨ㅇ
##ㅎㅚ
ㅂㅕᆫ
ㅊㅔ⑨
##ㄷㅣ⑨
##ㅐᆫ
##ㅏ⑨ㄹㅡᆫ
ㅎㅗ⑨
ㅂㅓᆫ
ㅁㅗᆨ
##ㅊㅏᆯ
##ㄱㅐ⑨
ㅈㅗᆼ
ㅇㅣᆷ
ㄸㅏ⑨ㄹㅡ⑨
ㅈㅏ⑨ㅅㅣᆫ
ㅇㅓᆨ
##ㄱㅕᆯ
##ㄴㅏᆷ
201
ㅍㅏᆫ
##ㅏ⑨ㅇㅡᆷ
ㅊㅣ⑨
ㅇㅓ⑨ㄸ
ㅅㅏ⑨ㅇㅓᆸ
ㄱㅜᆫ
##ㅎㅘ
##ㅍㅡ⑨
ㅆㅣ⑨
##ㅈㅓ⑨
ㅈㅡᆼ
ㄱㅘᆫㄱㅖ⑨
ㄱㅕᆼㅇㅜ⑨
##ㅇㅓ⑨ㅈㅣ⑨
ㅅㅓ⑨ㅇㅜᆯ
ㄱㅠ⑨
ㅎㅘᆫ
ㅁㅏᆫㄷㅡᆯ
ㅅㅗᆨ
##ㅈㅗᆨ
##ㅁㅏᆼ
ㄴㅏ⑨ㅇㅗ⑨
##ㅂㅓᆫ
ㅅㅏ⑨ㅎㅚ⑨
ㅇㅡᆷ
ㅈㅗᇂ
ㄴㅗ
##ㅎㅑᆼ
ㄱㅣ⑨ㅇㅓᆸ
ㅇㅡ⑨ㅁ
ㄱㅡ⑨ㄹㅣ⑨
##ㄷㅏᆷ
ㅂㅗᆫ
ㄴㅗᇁ
##ㅋㅡ⑨
##ㅎㅘᆼ
200
ㅅㅣ⑨ㅋㅣ⑨
ㅇㅣ⑨ㄴㅏ⑨
##ㅍㅗ⑨
ㅎㅏᆷㄲㅔ⑨
ㅍㅛ⑨
ㅅㅗᆫ
ㄷㅟ⑨
ㄱㅏᆨ
##ㅎㅕᆫ
ㄱㅕᆼㅈㅔ⑨
ㅅㅣ⑨ㅈㅏᆼ
ㄹㅣ⑨
ㅇㅓᆸ
ㄱㅘᆫㄹㅕᆫ
ㅁㅣ⑨ㄱㅜᆨ
##ㅂㅜᆨ
ㄱㅏ⑨ㄴㅡᆼ
##ㅡ⑨ㄹㅗ⑨
ㅁㅏᆽ
ㄷㅗᆯ
ㄱㅡ⑨ㄹㅓᇂ
##ㄱㅏ
ㄱㅘᆼ
ㅇㅣ⑨ㅅㅏᆼ
ᆫㄷㅏ⑨ㄴㅡᆫ
##ㅁㅏ
ㅈㅏᆯ
ㅇㅓᆫ
ㅇㅑᆨ
##ㄹㅣᆸ
ㅂㅗᆨ
ㄴㅗᆫ
##ㅓ⑨ㅈㅣ⑨
ㄷㅗ⑨ㄹㅗᆨ
##ㅅㅡᆼ
ㅁㅣᆾ
##ㅍㅕᆫ
##ㅣᆺ
ㅅㅣ⑨ㄱㅏᆫ
##ㄹㅓᆷ
##ㅌㅐᆨ
ㄷㅏ⑨ㄹㅡᆫ
ㅈㅏ⑨ㄱ
ㅊㅏᆼ
##ㅌㅗ⑨
##ㅊㅜ⑨
ㅊㅐ⑨
ㄱㅜᆨㅎㅚ⑨
##ㅂㅗᆨ
##ㅡᆯㄹ
ㄱㅛ⑨ㅇㅠᆨ
##ㅁㅐ⑨
ㅇㅛᆼ
ㅅㅣ
ㅍㅣᆯㅇㅛ⑨
ㅇㅑ⑨
ㅎㅏᆸ
ㅁㅣᆫㅈㅜ⑨
ㅈㅓᆼㅊㅣ⑨
##ㅅㅡᆸ
ㅎㅣᆷ
ㅊㅓᆫ
ㅅㅔ⑨ㄱㅖ⑨
##ㅈㅐᆼ
ㅇㅓ⑨ㄹ
ㅅㅏᆷ
##ㄱㅓᆫ
ㅈㅣ⑨ㄴㅏᆫ
ㅊㅟ⑨
ㅈㅣ⑨ㅇㅝᆫ
ㅅㅣ⑨ㅈㅏᆨ
ㄱㅏ⑨ㅈㅣ⑨
ㄱㅕᆼㄱㅣ⑨
ㄱㅡ⑨ㄹㅓᆫ
ㄷㅡᆮ
##ㅎㅚᆨ
ㄷㅗᆨ
ㄱㅡᆫ
ㄴㅡ⑨
ㅊㅐᆨ
##ㅇㅚ⑨
##ㅝ⑨
ㅅㅣᆨ
ㅅㅏ⑨ㅅㅣᆯ
ㄱㅡ⑨ㄹㅓ⑨ㄴㅏ⑨
ㅅㅏ⑨ㄱ
ㅅㅓᆫㄱㅓ⑨
##ㅁㅗᆨ
##ㅡᆺ
ㅇㅣ⑨ㅂㅓᆫ
ㄹㅕ⑨
ㄱㅏ⑨ㅈㅏᆼ
ㅅㅜᆫ
##ㅐᆷ
ㄴㅜᆫ
##ㅈㅓᆯ
##ㅇㅓᆫ
##ㅓ⑨ㄹㅣ⑨
ㅎㅏ⑨ㅈㅣ⑨ㅁㅏᆫ
ㅊㅜᆼ
ㅊㅏᆽ
##ㅎㅘᆫ
ㅇㅣ⑨ㄴㅏᆯ
ㄷㅏ⑨ㅁ
##ㅇㅓ
##ㅈㅡᆼ
##ㅙ⑨
ㅍㅕᆫ
ㅇㅏ⑨ㅇㅣ⑨
##ㄱㅕᆫ
ㅊㅓ⑨ㄹㅓᆷ
ㅆㅡ⑨
##ㅇㅓ⑨ㄴㅏ⑨
ㅈㅓᆯ
ㅅㅡᆼ
##ㄹㅑᆼ
ㄷㅏᆷ
##ㅅㅓ
ㅈㅣᆯ
##ㅅㅗᆼ
ㄲㅡ
ㅅㅏᆼㅎㅘᆼ
##ㅇㅜᆫ
ㄴㅜ⑨
##ㅅㅡ⑨ㅌ
ㅋㅗ⑨
ㅌㅐ⑨
ㅇㅣ⑨ㅎㅜ⑨
ㅈㅣ⑨ㄱㅡᆷ
ㅈㅜᆼㄱㅜᆨ
ㅁㅗ⑨ㄷㅜ⑨
ㅈㅜᆯ
##ㅍㅣ⑨
ㅈㅗ⑨ㅅㅏ⑨
##ㄲㅏ
ㄴㅣ⑨
##ㄱㅏᆼ
ㅇㅠᆫ
ㅇㅣᆯㅂㅗᆫ
ㅂㅜᆨㅎㅏᆫ
##ㅏ⑨ㄴㅏ⑨
##ㅡ⑨ㄹㅣ⑨
ㄱㅜᆨㄱㅏ⑨
ㄱㅗᆺ
ㅈㅓᆼㅊㅐᆨ
##ㅎㅏᆼ
ㄴㅗᆼ
ㅌㅗ⑨
##ㅂㅕᆫ
##ㄷㅗᆨ
ㄷㅏ⑨ㅅㅣ⑨
ㄱㅓᆯ
##ㅊㅜᆨ
ㄱㅡ⑨ㄹㅣ⑨ㄱㅗ⑨
ㅇㅡ⑨ㅁㅕᆫ
12
ㄱㅣᆯ
ㅊㅣᆫ
ㅇㅣ⑨ㄹㅓᆫ
##ㅊㅓ⑨
ㅂㅕᆯ
##ㅠᆯ
ㅈㅓᆼㄷㅗ⑨
ㅂㅕᆼ
ㅎㅏ⑨ㄴㅏ⑨
##ㄷㅡᆼ
ㅇㅓᆯ
ㅇㅕᆫㄱㅜ⑨
ㅇㅓ⑨ㄷㅗ⑨
##ㅈㅏ
ㅊㅓᆯ
ㅇㅘᆫ
ㅎㅏᆼ
ㄱㅕᆯㄱㅘ⑨
11
ㅈㅣ⑨ㅁㅏ
##ㅅㅏ
##ㅜᆺ
ㅂㅐᆨ
ㄴㅓᆷ
##ㅌㅣ⑨
ㅁㅜᆫㅎㅘ⑨
ㄱㅏᆽ
##ㅈㅣᆸ
##ㄷㅡᆨ
##ㅌㅏ⑨
##ㅇㅣᆨ
ㄴㅗᇂ
ㅈㅣᆫㅎㅐᆼ
##ㅂㅏᆨ
ㅈㅔ
ㄴㅓ⑨
##ㅂㅕᆼ
ㅎㅑᆼ
ㅅㅏ⑨ㅇㅛᆼ
ㅍㅡ⑨ㄹㅗ⑨
ㄴㅡᆯ
ㄷㅡᆯㅇㅓ⑨
ㅎㅗᆼ
##ㅁㅏᆯ
ㅇㅕᆯㄹㅣ⑨
##ㄹㅜ⑨
ㅌㅡᆨㅎㅣ⑨
ㅇㅣ⑨ㅇㅓ⑨
ㄱㅡ⑨ㄱㅓᆺ
ㄱㅡᆸ
ㅍㅏ⑨
ㅎㅕᆫㅈㅐ⑨
ㅇㅓ⑨ㅇㅛ
ㅁㅗ⑨ㄷㅡᆫ
ㅇㅝ
ㄱㅖ⑨ㅎㅚᆨ
ㅊㅡᆨ
##ㄴㅕ⑨
##ㄱㅐᆨ
##ㅎㅘᆯ
ㄱㅐ⑨ㅂㅏᆯ
ㅌㅜ⑨ㅈㅏ⑨
30
##ㄱㅘᆼ
ㅂㅓᆯ
ㅇㅣ⑨ㄹㅜ⑨
##ㄹㅏᆨ
ㅎㅓ⑨
ㄴㅏᆯ
##ㅈㅓᆸ
ㅃㅜᆫ
ㅊㅚ⑨ㄱㅡᆫ
##ㅂㅜᆯ
##ㅇㅝᆯ
ㄱㅘ⑨ㅈㅓᆼ
##ㅈㅣ
ㅈㅣ⑨ㄴㅏᆫㅎㅐ⑨
ㅇㅏ⑨ㅁ
ㅇㅗᆫ
##ㅂㅐ⑨
ㅅㅓᆯㅁㅕᆼ
##ㅜ⑨ㄹㅣ⑨
ㅎㅛ⑨
ㅈㅏᆸ
ㅈㅜ⑨ㅈㅏᆼ
ㄱㅣ⑨ㅅㅜᆯ
15
ᆫㄷㅏ⑨ㄱㅗ⑨
##ㅑ⑨
ㅎㅘᆯㄷㅗᆼ
ㅈㅜᆫ
##ㅔᆷ
ㄴㅡᆫㄷㅏ
ㅅㅏᆫㅇㅓᆸ
##ㄱㅡᆨ
ㄲㅡᇀ
##ㄴㅡᆯ
##ㅅㅐᆨ
ㄷㅡᆺ
ㄷㅐ⑨ㅅㅏᆼ
ㅍㅕᆼㄱㅏ⑨
##ㅔᆨ
ㅁㅏ⑨ㅇㅡᆷ
##ㅎㅢ⑨
ㄱㅡᆯ
##ㅈㅗᆫ
ㅅㅣᇁ
ㅂㅜ⑨ㅂㅜᆫ
##ㅠᆫ
ㅈㅓᆫㅁㅜᆫ
ㄷㅏ⑨ㅇ
ㅁㅏᆨ
ㄱㅜᆨㄴㅐ⑨
ㄷㅏ⑨ㅇㅡᆷ
ㅅㅏ⑨ㅇㅣ⑨
##ㅇㅣ
ㄱㅕᆯㅈㅓᆼ
##ㅏ⑨ㅇㅣᆫ
18
ㅈㅓᆸ
##ㅊㅓᆯ
ㅈㅜᆼㅇㅛ⑨
ㄷㅡ⑨ㄹ
##ㅇㅡᆼ
ㅌㅏ⑨
##ㄹㅔ⑨
ㄴㅐ⑨ㅇㅛᆼ
ㅁㅗ⑨ㄹㅡ⑨
ㄷㅏᆼㅅㅣ⑨
ㄱㅘᆫㄹㅣ⑨
ㅇㅓ⑨ㄸㅓᆫ
##ㅎㅏᆷ
ㅇㅛ
ㅇㅗᆯㅎㅐ⑨
ㅊㅜ⑨ㅈㅣᆫ
##ㄲㅣ⑨
ㅂㅏᆩ
ㅅㅐ⑨ㄹㅗᆸ
ㄱㅓ⑨ㄴㅏ⑨
ㅈㅓ
##ㅋㅗ⑨
##ㅇㅕᆯ
ㅊㅜᆨ
##ㅔᆺ
ㅍㅗᆨ
ㅇㅐ⑨
ㅌㅣᆷ
ㅈㅏ
ㄴㅏ⑨ㅌ
ㄱㅘᆫㄱㅖ⑨ㅈㅏ⑨
##ㅊㅣᆷ
ㅁㅣᆫㅈㅜ⑨ㄷㅏᆼ
##ㅈㅡ⑨
##ㅋㅡᆷ
ㄴㅏ
##ㅡ⑨ㄹㅓᆸ
ㅈㅗᆫ
##ㅜᇀ
ㅇㅜᆫㅇㅕᆼ
ㅈㅓᆼㅂㅗ⑨
ㅇㅣ⑨ㅇㅑ⑨
##ㄴㅕᆷ
ㅊㅓᆺ
ㅇㅓ⑨ㄸㅓᇂ
ㅍㅐ⑨
ㅈㅏᆼㄱㅘᆫ
##ㄱㅡ⑨ㄹ
ㅎㅚ⑨ㅇㅢ⑨
ㄷㅐ⑨ㅎㅏᆨ
##ㅇㅜᆷ
##ㅅㅜᆫ
ㅇㅓ⑨ㄹㅕᆸ
ㄱㅏᆼㅈㅗ⑨
##ㅂㅓ⑨
ㅇㅡ⑨ㅁㅕ⑨
ㅇㅟ⑨ㅇㅝᆫㅈㅏᆼ
ㅁㅔ⑨
ㄴㅏ⑨ㄱㅏ⑨
##ㅈㅓ
##ㅜᆮ
ㅎㅘᆫㄱㅕᆼ
ㅈㅏ⑨ㄹㅣ⑨
ㅇㅣ⑨ㅇㅠ⑨
ㅇㅣ⑨ㅁㅣ⑨
ㅇㅣ⑨ㅇㅛᆼ
##ㄹㅑ
ㅇㅕ⑨ㄹㅓ⑨
##ㅇㅠᆼ
##ㅁㅓ⑨
##ㅜᆸ
ㄷㅏ⑨ㅇㅑᆼ
ㅇㅟ⑨ㅇㅝᆫㅎㅚ⑨
ㅁㅗ⑨ㅅㅡᆸ
ㅇㅣ⑨ㄹㅓᇂ
##ㅂㅓᆷ
ㅈㅜᆨ
##er
ㅁㅏᆫㄴㅏ⑨
ㄹㅏᆫ
ㅁㅓᆨ
100
ㄴㅔ⑨
ㅈㅏ⑨ㅇㅠ⑨
ㅎㅘᆼ
ㄷㅗᆼㅇㅏᆫ
##ㅂㅓᆯ
ㄱㅣ⑨ㄹㅗᆨ
ㅋㅏ⑨
##ㅁㅏᆨ
##ㅈㅜ⑨ㅇㅢ⑨
ㅇㅣᆸㅈㅏᆼ
ㄱㅡᆨ
##ㅇㅏᆨ
ㄱㅏ⑨ㅇㅜᆫ
ㅈㅣ⑨ㅂㅏᆼ
ㅇㅕ⑨ㄱㅣ⑨
ㅇㅖ⑨ㅈㅓᆼ
ㅊㅚ⑨ㄱㅗ⑨
ㅅㅣ⑨ㅁㅣᆫ
##ㅅㅕᆫ
ㅊㅏᆷㅇㅕ⑨
ㅅㅜ⑨ㄷㅗ⑨
ㄱㅏ⑨ㅇㅜᆫㄷㅔ⑨
ㅇㅓᆹㅇㅣ⑨
ㅈㅣ
ㅇㅣ⑨ㅇㅑ⑨ㄱㅣ⑨
ㅁㅏ⑨ㄹ
ㄸㅗ⑨ㅎㅏᆫ
ㅇㅕ⑨ㅅㅓᆼ
ㅇㅡ⑨ㅁㅕ
ㄱㅣ⑨ㅈㅏ⑨
ㅇㅢ⑨ㅁㅣ⑨
##ㅇㅐ⑨
ㄷㅗ⑨ㅅㅣ⑨
ㅇㅏᆯㄹㅣ⑨
ㅎㅏᆨㅅㅐᆼ
ㄷㅣ⑨
ㅎㅐᆨ
ㅂㅏᆯㅍㅛ⑨
ㅇㅣᆫㅅㅏ⑨
##ㅟᆸ
##ㅎㅖ⑨
ㅂㅏᆯㅈㅓᆫ
ㅎㅚ⑨ㅅㅏ⑨
ㄱㅗᆯ
ㄱㅣ
ㅊㅓ⑨ㅇㅡᆷ
##ㅏ⑨ㅇㅣᆯ
ㅈㅏᆷ
ㄸㅓ⑨
ㄱㅣ⑨ㄱㅘᆫ
ㅇㅣ⑨ㅈㅔ⑨
##ㄹㅑᆨ
ㄴㅣᆷ
##ㄹㅣᆷ
ㅁㅗᆷ
ㅇㅛ⑨ㄱㅜ⑨
ㅅㅏ
ㅅㅏ⑨ㄱㅓᆫ
ㅁㅏᆭㅇㅣ⑨
##ㅇㅏᆼ
ㄱㅠ⑨ㅁㅗ⑨
##ㄴㅡ⑨
ㅈㅓᆫㅎㅏ⑨
ㄴㅜ⑨ㄱㅜ⑨
ㄱㅡᆷㅇㅠᆼ
ㄱㅓᆷㅊㅏᆯ
ㅇㅜᆯ
ㅎㅏᆨㄱㅛ⑨
ㅎㅢ⑨
##ㅇㅐᆨ
ㄱㅏᇀㅇㅣ⑨
ㅈㅓᆼㅅㅏᆼ
##ㅂㅏ⑨
ㅁㅏᆫㅋㅡᆷ
##ㅐᆫㄷㅡ⑨
ㅂㅓᆷ
##ㄴㅗ⑨
13
##ㅇㅜᆨ
ㄱㅗᆼㄷㅗᆼ
ㅂㅏ⑨ㄹㅗ⑨
ㄱㅜᆨㅈㅔ⑨
##ㅇㅏ
ㄴㅡ
ㅇㅓᆷ
ㅇㅜᆫㄷㅗᆼ
ㄱㅡ⑨ㄹㅐ⑨
ㅅㅓᆼㅈㅏᆼ
ㅊㅓᆼㅇㅘ⑨
ㅊㅓᆼㅇㅘ⑨ㄷㅐ⑨
##in
ㅈㅣ⑨ㅈㅓᆨ
##ㅋㅏ⑨
##ㅅㅣ⑨ㅇㅏ⑨
ㅈㅏ⑨ㄱㅣ⑨
##ㅍㅕᆼ
##ㅞ⑨
ᆫㄷㅏ⑨ㅁ
##ㄱㅠ⑨
ㅈㅏ⑨ㄹ
ㄷㅏ⑨ㄱㅏ⑨
ㅈㅣ⑨ㅈㅣ⑨
ㄴㅏ⑨ㅌㅏ⑨ㄴㅏ⑨
##ㄴㅏ
ㅇㅕᆼㅎㅘ⑨
ㅅㅐᆼㅎㅘᆯ
16
ㅅㅗᆼ
ㅇㅢ⑨ㅎㅏ⑨
ㄹㅏ
ㅁㅣ⑨ㄹㅐ⑨
ㅎㅘᆨㅇㅣᆫ
ㅁㅏ⑨ㄹㅕᆫ
ㄸㅓᆯ
##ㅎㅏᆯ
##ㅇㅓᆹ
##ㄱㅜ
ㅈㅣᆨㅈㅓᆸ
ㅈㅜᆼㅅㅣᆷ
##ㅅㅡ⑨ㅌㅡ⑨
ㅇㅣᆫㄱㅏᆫ
##ㅅㅡ
ㅊㅡᆼ
##ㄲㅏ⑨
##ㅅㅣ
ㄱㅕᆼㅈㅐᆼ
ㅍㅡ⑨ㄹ
ㅊㅏ⑨ㄹ
ㄱㅣ⑨ㄷㅐ⑨
##ㅊㅡ⑨
ㅅㅜ⑨ㅅㅏ⑨
ㄷㅏᆸ
ㅊㅐᆨㅇㅣᆷ
ㅂㅏᆯㅅㅐᆼ
##ㅊㅏᆼ
ㄱㅜ⑨ㅅㅓᆼ
ㅅㅡ⑨ㄹㅓᆸ
ㅇㅙ⑨
ㄴㅏ⑨ㄹㅏ⑨
ㅂㅜ⑨ㅅㅏᆫ
ㅇㅏ⑨ㄹ
ㅇㅕᆨㅅㅏ⑨
ㅅㅔᆫ
##ㅂㅣ⑨ㅅㅡ⑨
ㅇㅗ⑨ㅎㅜ⑨
ㄱㅕᆼㅊㅏᆯ
ㄱㅏᆯ
ㄴㅗ⑨ㄷㅗᆼ
ㅂㅏᆼㅂㅓᆸ
##ㄲㅜ⑨
ㅅㅏ⑨ㄹㅏᆼ
ㅈㅜᆫㅂㅣ⑨
ㄱㅘᆫㅅㅣᆷ
ㄱㅖ⑨ㅅㅗᆨ
##ㅊㅏᆨ
ㄱㅛ⑨ㅅㅜ⑨
##on
ㄱㅡ⑨ㄴㅕ⑨
ㄷㅔ
ㅅㅓᆫㅅㅜ⑨
199
ㅇㅏᆫㅈㅓᆫ
ㅅㅏᆷㅅㅓᆼ
ㅂㅡ⑨ㄹ
ㅇㅗ⑨ㄴㅡᆯ
ㅇㅠᆯ
ㄷㅏ⑨ㅁㅕᆫ
##ㅊㅏᆫ
##ㄱㅜᆯ
ㅇㅘᆼ
ㅅㅡ⑨ㅌ
ㅁㅜᆯㄹㅗᆫ
14
25
ㄷㅗᆫ
ㅂㅜᆫㅅㅓᆨ
ㅂㅣ⑨ㄹ
ㅈㅓᆫㅊㅔ⑨
ㄴㅡᆫㄷㅔ⑨
ㄷㅐ⑨ㅅㅓᆫ
ㄱㅐ⑨ㅎ
ㄷㅏᆫㅊㅔ⑨
##ㅉㅗᆨ
ㅇㅣᆯㅂㅜ⑨
ㅇㅣ⑨ㄹㅓ⑨
ㅎㅕᆨ
##ㅇㅡ⑨
ㅂㅓ⑨ㄹㅣ⑨
ㅌㅏᆫ
ㅅㅓᆨ
ㅍㅗ⑨ㅎㅏᆷ
ㅈㅔ⑨ㅍㅜᆷ
ㅊㅣᆷ
ㅌㅡᆨㅂㅕᆯ
ㄱㅣ⑨ㅈㅜᆫ
ㅋㅣ⑨
ㅅㅏᆼㄷㅐ⑨
17
##ㄷㅗ
ㅂㅕᆫㅎㅘ⑨
ㅈㅓᆫㄱㅜᆨ
ㄱㅟ⑨
ㅁㅜ⑨ㅇ
ㄴㅡ⑨ㄲㅣ⑨
ㅎㅐᆼㅅㅏ⑨
ㅂㅏᆼㅅㅗᆼ
##ㅏ⑨ㄴㅐ⑨
ㅎㅕᆫㄷㅐ⑨
ㅇㅗ⑨ㄹㅡ⑨
##ㄹㅗ
ㅌㅡ⑨ㄹ
ㅈㅡᆨ
##ㅌㅜ⑨
ㅂㅣ⑨ㅍㅏᆫ
##ㅇㅏ⑨ㄱㅏ⑨
##000
##ㄱㅡ⑨
ㄷㅐ⑨ㄱㅜ⑨
ㅅㅓ⑨ㅂㅣ⑨ㅅㅡ⑨
ㄴㅗ⑨ㄹㅕᆨ
ㄴㅏ⑨ㅅㅓ⑨
ㅅㅐᆼㅅㅏᆫ
ㅅㅣ⑨ㄷㅐ⑨
##ㅂㅏ
ㄱㅗᆼㄱㅐ⑨
##ㅌㅔ⑨
ㅎㅏᆫㅍㅕᆫ
ㅎㅚ⑨ㅈㅏᆼ
ㅁㅜᆮ
##ㄹㅡᆷ
ㅅㅏᆼㅌㅐ⑨
ㅇㅓ⑨ㄴㅡ⑨
ㅈㅔ⑨ㄱㅗᆼ
ᆫㅈㅣ⑨
ㄱㅏᆷㄷㅗᆨ
ㄹㅏ⑨ㅁㅕᆫ
ㅇㅕᆨㅅㅣ⑨
ㅁㅜ⑨ㅇㅓᆺ
ㅂㅔ⑨
ㄱㅣ⑨ㄱㅏᆫ
##ㄱㅠᆫ
ㄴㅠ⑨
ㄴㅏ⑨ㄴ
##ㅎㅗᆨ
##ㅂㅐᆨ
ㅇㅓᆮ
ㅂㅏ⑨ㄹㅏ⑨
ㅂㅓ⑨
ㅅㅓᆼㄱㅗᆼ
ㄹㅗ⑨ㅅㅓ⑨
##ㅇㅖ⑨
ㅂㅗ⑨ㄴㅐ⑨
ㅇㅣ⑨ㅎㅐ⑨
ㄷㅡᆯㅇㅓ⑨ㄱㅏ⑨
ㄸㅡᆺ
ㅇㅠᆨ
##ㅏᆯㄹㅣ⑨
ㄱㅏ⑨ㄱㅕᆨ
ㅇㅝᆫㄴㅐ⑨
ㄴㅡᆼ
ㅍㅖ⑨
ㄱㅐ⑨ㅇㅣᆫ
ㅈㅜ⑨ㅁㅣᆫ
ㅇㅓᆸㅊㅔ⑨
ㅍㅣ⑨ㅎㅐ⑨
ㅊㅚ⑨ㄷㅐ⑨
ㅎㅘᆨㄷㅐ⑨
ㅅㅜ⑨ㅈㅜᆫ
ㅎㅐᆼㅈㅓᆼ
ㅇㅗᆯㄹㅣ⑨
ㄱㅏᆼㅎㅘ⑨
ㄷㅜᆯ
ㅁㅓᆫ
ㅅㅣ⑨ㅅㅓᆯ
ㅎㅛ⑨ㄱㅘ⑨
ㅇㅏᇁㅅㅓ⑨
##ㄹㅓᆸ
ㄷㅓ⑨ㅇㅜᆨ
ㅅㅟᆸ
ㅇㅣᆫㅌㅓ⑨
ㅁㅣᆯ
##ㅎㅕᆸ
50
ㅍㅜᆯ
##ㅗᆯㄹㅣ⑨
ㅇㅣᆯㅂㅏᆫ
ㅌㅗᆼㅎㅏᆸ
##ㅏ⑨ㄱㅣ⑨
ㅇㅏᆨ
ㅁㅜᆫㅈㅐ⑨
ㅇㅣ⑨ㄱㅓᆺ
ㅂㅗᆼ
##ㄱㅘ
ㅂㅏᆼㅁㅜᆫ
ㄷㅓ⑨ㅂㅜᆯ
ㅇㅕᆼㅎㅑᆼ
##ㅆㅓ⑨
ㅇㅗ
ㄱㅜ⑨ㅈㅗ⑨
##ㅊㅗᆼ
ㅇㅏ⑨ㅈㅣᆨ
ㅇㅕᆨㅎㅏᆯ
ㅁㅜᆫㅈㅐ⑨ㅇㅣᆫ
ㄴㅐ⑨ㄹㅣ⑨
ㅂㅜᆫㅇㅑ⑨
ㄷㅐ⑨ㅎㅚ⑨
ㄴㅓ⑨ㅁㅜ⑨
ㅇㅡᆼ
##en
ㅇㅖ⑨ㅅㅏᆫ
##ㅁㅓ⑨ㄴㅣ⑨
ㅎㅗᆫ
##ㅐᆺ
##ㄴㅏ⑨ㄹㅏ⑨
ㄴㅏᆽ
ㅍㅏᆫㅁㅐ⑨
##ㅜᇀㅇㅣ⑨
##ㄴㅓ⑨
ㅇㅏ⑨ㅁㅜ⑨
ㅂㅏᆼㅅㅣᆨ
ㅈㅣᆺ
ㅁㅏᇀ
ㅇㅣ⑨ㄹㅡᆷ
ㄱㅡ⑨ㄹㅓᆫㄷㅔ⑨
ㄹㅓ⑨
ㅇㅗ⑨ㅈㅓᆫ
ㄴㅡᆫㄷ
ㅌㅏᆯ
ㅈㅓᆫㄹㅑᆨ
##ㅁㅣᆫㅈㅜ⑨
ㄷㅐ⑨ㅎㅏᆫ
##ㄱㅓ⑨ㄹㅣ⑨
ㅈㅔ⑨ㄷㅗ⑨
ㅅㅗ⑨ㄹㅣ⑨
ㄱㅏ⑨ㅈㅗᆨ
##ㅐᆯ
ㅁㅕᆾ
##ㅁㅣᆯ
ㄴㅗᆫㅇㅢ⑨
##ㅍㅐ⑨
ᆫㄷㅏ⑨ㅁㅕᆫ
ㅎㅠ⑨
##ㅇㅏ⑨ㅇㅗ⑨
##ㅈㅣᆼ
ㅈㅓᆫㅁㅏᆼ
ㄱㅕᆼㅇㅕᆼ
ㅅㅏᆱ
ㅈㅗ⑨ㅈㅣᆨ
ㄹㅠᆯ
ㅅㅣᆯㅈㅔ⑨
ㅈㅡᆼㄱㅏ⑨
ㅍㅜᆼ
##ㅒ⑨
ㅂㅏᆫㄷㅐ⑨
ㄴㅗᇁㅇㅣ⑨
ㅎㅕᆸㄹㅕᆨ
##ㅅㅗ⑨ㄹㅣ⑨
ㅌㅔ⑨
##ㅂㅡ⑨
ㅈㅗ⑨ㅅㅓᆫ
ㄲㅔ⑨
ㅍㅡ⑨ㄹㅗ⑨ㄱㅡ⑨ㄹ
##ㅅㅡᆫ
ㅌㅓ⑨
21
ㄱㅗ⑨ㄱㅐᆨ
##ㅎㅗᆫ
ㄱㅏ⑨ㅊㅣ⑨
ᆫㄱㅏ⑨
ㅎㅐ⑨ㄱㅕᆯ
ㄱㅕᆯㄱㅜᆨ
ㅁㅏ⑨ㅇ
##ㄱㅣᆯ
ㄷㅐ⑨ㅊㅐᆨ
##an
ㄸㅗ⑨ㄴㅡᆫ
ㄷㅏᆯㄹㅣ⑨
ㅇㅡ⑨ㄴㅏ⑨
##ar
ㅈㅏ⑨ㅇㅕᆫ
ㅈㅛ
##ㄹㅖ⑨
ㅂㅐ⑨ㅇㅜ⑨
ㅎㅘᆯㅇㅛᆼ
##ㄱㅗᆺ
##ㄱㅓᆷ
##ㅅㅜ
ㅇㅒ⑨
ㅅㅗ⑨ㅂㅣ⑨
ㅂㅏᆩㅇㅔ⑨
ㅈㅗᆷ
ㄸㅓᆯㅇㅓ⑨ㅈㅣ⑨
ㅎㅕᆫㅈㅏᆼ
##ㄷㅓᆨ
##ti
##ㅇㅝ
ㄹㅏ⑨ㄷㅗ⑨
##ㅎㅏᆨㄱㅛ⑨
ㅊㅓ⑨ㄹㅣ⑨
ㄸㅟ⑨
ㅇㅕ⑨ㅈㅏ⑨
ㅇㅕ
ㅈㅗᆫㅈㅐ⑨
ㅂㅣ⑨ㄹㅗᆺ
ㅌㅜ⑨ㅍㅛ⑨
ㄷㅡᆫ
ㅇㅟ⑨ㄱㅣ⑨
ㄴㅡ⑨ㄴ
ㄱㅜᆨㅈㅓᆼ
ㅇㅏ⑨ㅇ
ㅎㅕᆫㅅㅣᆯ
ㄴㅗᆯ
##ㅗᆾ
ㅇㅢ⑨ㄱㅕᆫ
ㅈㅜ⑨ㅌㅐᆨ
ㅊㅏᆷㅅㅓᆨ
##or
ㅇㅖ⑨ㅅㅏᆼ
ㄹㅔ⑨
ㅁㅝ⑨
ㅇㅠ⑨ㅈㅣ⑨
24
ㄷㅡ⑨ㄹㅓ⑨
ㄱㅕᆨ
ㅈㅜᆼㅇㅏᆼ
ㄱㅘᆫㄱㅘᆼ
ㅎㅏᆯ
ㅍㅡ⑨ㄹㅗ⑨ㄱㅡ⑨ㄹㅐᆷ
ㅈㅣ⑨ㄷㅗ⑨
ㅅㅔᆫㅌㅓ⑨
ᆫㄷㅔ⑨
ㄱㅐ⑨ㅅㅓᆫ
ㄱㅐ⑨ㅎㅕᆨ
##ㅅㅏᆯ
ㅇㅒ⑨ㄱㅣ⑨
ㅇㅣ⑨ㄹㅡ⑨
ㅇㅓᆫㄹㅗᆫ
ㅈㅓᆨㄱㅡᆨ
ㄱㅓᆫㅅㅓᆯ
ㄹㅗ⑨ㅂㅜ⑨ㅌㅓ⑨
##ㅌㅏᆫ
ㅅㅏ⑨ㄱㅗ⑨
ㄲㅡᆯ
##ㅏ⑨ㅇㅝᆫ
ㄴㅏ⑨ㄴㅜ⑨
ㅇㅣᆫㅊㅓᆫ
ㅈㅓᆼㅅㅣᆫ
ㅈㅏᆨㅍㅜᆷ
ㅅㅏᆼㅍㅜᆷ
##ㅊㅣᆨ
ㄱㅘᆫㅎㅏ⑨
ㄱㅡ⑨ㄹㅐ⑨ㅅㅓ⑨
##ㄴㅓ⑨ㅈㅣ⑨
ㅍㅏ⑨ㅇ
ㅂㅣ
ㅆㅣᆨ
ㅊㅓ
ㅍㅏᆫㄷㅏᆫ
##ㅍㅔ⑨
##ㄷㅗᆯ
ㅈㅏ⑨ㅊㅔ⑨
##ㅈㅓᆫㅎㅣ⑨
ㅇㅏᆸ
##ㄹㅣ
ㅁㅏ⑨ㅊㅣ⑨
ㅎㅚ⑨ㄷㅏᆷ
ㅈㅜ⑨ㅇㅛ⑨
ㄱㅘᆼㅈㅜ⑨
ㅇㅣᆫㅈㅓᆼ
ㄱㅘ⑨ㅎㅏᆨ
ㅇㅏ⑨ㅂ
ㅅㅓᆫㅌㅐᆨ
ᆫㄱㅏ
ㅎㅏᆸㅇㅢ⑨
ㅅㅓ
ㅁㅓᆫㅈㅓ⑨
ㅈㅏ⑨ㄷㅗᆼ
##al
ㅂㅗ⑨ㄷㅗ⑨
ㅅㅣᆯㅅㅣ⑨
40
ㄹㅗᆸ
ㅎㅓᆫ
ㅊㅜ⑨ㄱㅏ⑨
##ㅎㅏ
ㅎㅐ⑨ㄷㅏᆼ
ㅂㅜ⑨ㄹㅡ⑨
ㅋㅓ⑨
22
23
ㄱㅣ⑨ㅈㅗᆫ
ㄷㅐ⑨ㄹㅗ⑨
ㄲㅐ⑨
ㅅㅏ⑨ㅁㅜ⑨
##ㅇㅓᆨ
##ㄷㅗᆼㅇㅏᆫ
##ㅈㅚ⑨
ㄱㅏ⑨ㄲ
##ㅊㅚ⑨
ㅁㅏ⑨ㄷㅏ⑨
ㅅㅐᆼㄱㅣ⑨
ㅉㅗᆨ
ㅎㅐ⑨ㅇㅚ⑨
ㄴㅐ⑨ㄴㅕᆫ
ㄷㅡ⑨ㄹㅣ⑨
##ㄷㅡᆯㅇㅣ⑨
ㅇㅓᆯㄱㅜᆯ
ㅈㅣ⑨ㅅㅗᆨ
ㅈㅔ⑨ㄱㅣ⑨
ㅇㅜ⑨ㅅㅓᆫ
ㅅㅔ⑨ㅅㅏᆼ
##ㅊㅐ⑨
##ㅈㅏ⑨ㄹㅣ⑨
ㄴㅡᆼㄹㅕᆨ
ㄷㅗ
ㄱㅗ⑨ㄹㅕ⑨
ㅇㅣ⑨ㅇㅓ⑨ㅈㅣ⑨
ㄱㅣ⑨ㅂㅗᆫ
ㅈㅣ⑨ㅋㅣ⑨
ㅁㅗᆨㅍㅛ⑨
ㅇㅓᆸㅁㅜ⑨
ㅇㅚ⑨ㄱㅜᆨ
##ㄴㅣ⑨ㄲㅏ
ㄱㅐ⑨ㅇㅝᆯ
##ㅏ⑨ㄹㅏᆷ
##ㅎㅘᆨ
ㄷㅐ⑨ㅂㅣ⑨
ㅍㅕᆼㅎㅘ⑨
ㅍㅛ⑨ㅎㅕᆫ
##ㅍㅓ⑨
ㄷㅏᆼㅅㅣᆫ
##ㅂㅗᆼ
ㅅㅏ⑨ㅈㅏᆼ
##ㅌㅏᆨ
ㄱㅣ⑨ㄴㅡᆼ
ᆯㅈㅣ⑨
##es
ㅇㅚ⑨ㄱㅛ⑨
ㄱㅕᆼㅎㅓᆷ
ㅈㅡᆯ
##ㅁㅣᆫㅈㅜ⑨ㄷㅏᆼ
ㅂㅗ⑨ㄱㅗ⑨
ㄸㅏ⑨ㄹㅏ⑨
ㅎㅜ⑨ㅂㅗ⑨ㅈㅏ⑨
ㅈㅣᆨㅇㅝᆫ
##ㄷㅡ
ㅇㅣ⑨ㅈㅓᆫ
ㄹㅗ
##ㅎㅜᆫ
ㅍㅏᆯ
ㄱㅓᆫㄱㅏᆼ
##ㄱㅗᆨ
ㅇㅜᆺ
ㄱㅓ⑨ㄹㅐ⑨
ㅈㅓᆨㅇㅛᆼ
##ㄴㅓᆯ
##ㅅㅜᆨ
ㅇㅡ⑨ㄹㅗ⑨ㅅㅓ⑨
ㅍㅜᆷ
ㄱㅖ⑨ㅇㅑᆨ
ㄷㅓ⑨ㅂㅜᆯㅇㅓ⑨
##ㄱㅣ
ㅈㅗ⑨ㅈㅓᆼ
ㅅㅣ⑨ㅅㅡ⑨ㅌ
ㄷㅏᆯㄹㅓ⑨
ㄴㅏᆷㅂㅜᆨ
ㅇㅢ⑨ㅎㅗᆨ
ㄲㅜᆷ
ㅎㅜᆫ
ㅁㅣᆮ
ㅎㅏ⑨ㄹㅜ⑨
ㅎㅗᆷ
##ㄴㅗᇂ
ㅈㅣᆸㅈㅜᆼ
ㄱㅣ⑨ㅎㅚ⑨
ㄹㅕ⑨ㄴㅡᆫ
ㄷㅏ⑨ㄹㅡ⑨
ㄷㅏᆼㅎㅏ⑨
##ㅎㅕ⑨
ㅇㅣᆺ
ㄷㅓ⑨ㅂㅜᆯㅇㅓ⑨ㅁㅣᆫㅈㅜ⑨ㄷㅏᆼ
ㅇㅡᆫㅎㅐᆼ
ㄱㅕᆫ
ㅅㅓ⑨ㄹㅗ⑨
##ㅇㅓᆹㅇㅣ⑨
ㅅㅓᆯㅊㅣ⑨
ㅈㅏ⑨ㄹㅛ⑨
ㅎㅐᆼㅇㅟ⑨
ㄱㅕ
##ㅈㅏᆸ
ㅂㅜ⑨ㄷㅏᆷ
ㅈㅓᆫㅎㅘ⑨
ㅇㅢ⑨ㅅㅏ⑨
##ㅌㅚ⑨
ㅈㅓᆼㄷㅏᆼ
ㅇㅜ⑨ㄹㅕ⑨
##ㅈㅡᆫ
ㅁㅗᆯ
ㅎㅕᆸㅇㅢ⑨
ㅊㅗᆨ
27
ㅁㅗᆨㅅㅗ⑨ㄹㅣ⑨
ㄱㅘ⑨ㄱㅓ⑨
ㄷㅐ⑨ㅇㅡᆼ
ㄱㅣᇁ
ㅂㅗᆨㅈㅣ⑨
ㅎㅘᆨㅂㅗ⑨
ㅊㅣᆫㄱㅜ⑨
##ㅇㅕᆷ
##ㅏᇂ
ㄱㅕ⑨
ㄱㅓ⑨ㄹㅣ⑨
ㅇㅣᆯㅈㅓᆼ
ㅅㅏᆼㅅㅡᆼ
ㅅㅔ⑨ㅇㅜ⑨
ㅈㅓᆼㄱㅝᆫ
ㅈㅣᆯㅁㅜᆫ
##ㅊㅟ⑨
ㄷㅐ⑨ㅎㅘ⑨
##ㅇㅝ⑨
ㄷㅏᆫㄱㅖ⑨
ㄹㅕ⑨ㄱㅗ⑨
ㅇㅜᆷ
ㄴㅗᆫㄹㅏᆫ
ㅇㅗ⑨ㄹ
ㅂㅗ⑨ㅎㅓᆷ
ㅎㅕᆷ
ㅇㅣᆫㅎㅏ⑨
ㅂㅏ⑨ㄲㅜ⑨
ㄷㅏ⑨ㄱ
ㄱㅏᆷㅅㅏ⑨
ㅇㅓ⑨ㄷㅣ⑨
ㄱㅏᆨㄱㅏᆨ
26
ㅇㅣᆯㅇㅓ⑨ㄴㅏ⑨
ㅈㅗ⑨ㅅㅓᆼ
ㅅㅏ⑨ㅈㅣᆫ
ㅎㅐᆨㅅㅣᆷ
ㅊㅜᆯㅅㅣᆫ
ㅁㅏ⑨ㅈㅣ⑨
##ㅃㅡ⑨
ㅊㅗᆼㄹㅣ⑨
##ㅂㅜᇀㅇㅣ⑨
ㅇㅏ⑨ㅍㅏ⑨
ㄴㅏᆷㅈㅏ⑨
ㄸㅏ⑨ㄹㅏ⑨ㅅㅓ⑨
ㅇㅣᆰ
##ㅋㅔ⑨
ㅈㅓᆫㅈㅐᆼ
ㅎㅡᆫ
ㅂㅏᆯㅇㅓᆫ
ㄷㅐ⑨ㅂㅕᆫ
ㅅㅗ⑨ㅅㅗᆨ
28
ㅁㅐ⑨ㅇㅜ⑨
ㅂㅕᆼㅇㅝᆫ
ㅈㅗ⑨ㅊㅣ⑨
ㅂㅗ⑨ㅎㅗ⑨
198
th
ㅈㅏᆨㅇㅓᆸ
ㅈㅓᆫㅁㅜᆫㄱㅏ⑨
##ㅅㅡ⑨ㄹㅗ⑨
ㅇㅏᆷ
ㅅㅗ⑨ㄷㅡᆨ
ㅅㅣ⑨ㅅㅡ⑨ㅌㅔᆷ
ㅈㅗ⑨ㄱㅡᆷ
##ㄹㅓᆫ
ㄱㅗᆮ
ㅈㅔ⑨ㅅㅣ⑨
ㅅㅜᆷ
ㅎㅕᆨㅅㅣᆫ
ㅂㅏᆷ
##ㅇㅢ⑨ㄷㅏᆼ
ㅍㅕᆯ
ㄱㅏᆼㅎㅏ⑨
ㄱㅗᆼㄱㅡᆸ
ㅅㅜᆨ
ㅇㅏ⑨ㅂㅓ⑨ㅈㅣ⑨
ㄱㅣᆫ
ㄱㅗᆼㄱㅏᆫ
ㅅㅏᆼㄷㅏᆼ
ㅇㅓ⑨ㅉ
ㅂㅜ⑨ㄷㅗᆼ
ㄱㅠ⑨ㅈㅓᆼ
##ㅍㅣᆼ
ㅁㅏ⑨ㅈㅣ⑨ㅁㅏᆨ
ㄷㅏᆼㅅㅓᆫ
ㄱㅏᆸ
ㄸㅏ⑨
ㅊㅏᆨ
ㄸㅓ⑨ㄴㅏ⑨
##ㅈㅜ
ㄷㅗᆼㅅㅣ⑨
ㅇㅏᆫㅈㅓᆼ
ㄷㅗ⑨ㅇㅜᆷ
##ㅌㅣᆼ
ㅂㅗ⑨ㅅㅜ⑨
##ㄱㅡᆯ
ㄱㅐ⑨ㅈㅓᆼ
ㅇㅏ⑨ㅍㅏ⑨ㅌㅡ⑨
ㅁㅏᆼ
ᆯㄲㅏ
##ㅅㅓᆸ
##ㅇㅕ
##ㅌㅡ
ㅅㅡ⑨ㅅㅡ⑨ㄹㅗ⑨
ㅈㅗ
##ㅕ⑨ㅂㅗ⑨
ㅂㅣ⑨ㅇㅛᆼ
##ㅂㅜ
##ㅁㅏ⑨ㅌㅡ⑨
ㅎㅐᆼㄷㅗᆼ
ㅇㅡ⑨ㄹㅗ⑨ㅆㅓ⑨
##ㅅㅐ⑨
ㅎㅕᆸㅅㅏᆼ
ㄱㅓᆷㅌㅗ⑨
ㅊㅣ⑨ㄹㅛ⑨
ㅂㅏ⑨ㄹㅏᆷ
ㅇㅖ⑨ㅅㅜᆯ
ㅈㅐ⑨ㅈㅓᆼ
ㄱㅗᆼㅅㅏ⑨
##ㅈㅓᆫㅈㅏ⑨
ㅌㅚ⑨
ㅁㅗ⑨ㅇㅡ⑨
ㅇㅡ⑨ㄹㅗ
ㅅㅣ⑨ㅎㅐᆼ
ㄷㅗ⑨ㅇㅣᆸ
ㅂㅏᆫㅁㅕᆫ
ㅂㅏᆨㄱㅡᆫ
ㅋㅐ⑨
ㅈㅘ⑨
ㅎㅚ
ㅈㅔ⑨ㄷㅐ⑨ㄹㅗ⑨
ㅅㅓᆫㅈㅓᆼ
ㄴㅏᆫ
ㄷㅏᆫㅈㅣ⑨
ㅁㅓ⑨ㄹㅣ⑨
ㅎㅗᆨ
##ㅁㅜ
ㅎㅣᆷㄷㅡᆯ
ㄱㅗᆼㄱㅕᆨ
##ㅏ⑨ㅇㅛ
ㅈㅣ⑨ㄴㅏᆫㄷㅏᆯ
##ㅁㅣᆫㄱㅜᆨ
ㅈㅓᆼㅁㅏᆯ
##ㄴㅜ⑨ㄹㅣ⑨
ㅁㅏ⑨ㅇㅡᆯ
ㅇㅣ⑨ㅇㅣᆨ
ㄷㅐ⑨ㅅㅣᆫ
ㄷㅓᆺ
ㅅㅜ⑨ㅊㅜᆯ
ㅇㅣᆫㅅㅣᆨ
ㅅㅜ⑨ㅇㅣᆨ
ㄱㅗᆼㅅㅣᆨ
##ㅎㅐᆨ
ㅂㅣ⑨ㅎㅏ⑨
ㅈㅗ⑨ㄱㅓᆫ
ㄱㅐ⑨ㅊㅚ⑨
##ㅅㅗᆫ
ㅇㅕ⑨ㄹㅗᆫ
ㅈㅣ⑨ㅅㅏ⑨
ㅊㅏ⑨ㄹㅖ⑨
ㄹㅗᆫ
ㅁㅣ⑨ㅊㅣ⑨
ㄱㅏᆽㅊㅜ⑨
##ㄱㅓᆸ
ㄷㅐ⑨ㅎㅏᆫㅁㅣᆫㄱㅜᆨ
ㄱㅣ⑨ㅎㅚᆨ
ㅃㅏ⑨ㅈㅣ⑨
ㅂㅜ⑨ㅈㅗᆨ
ㅊㅓᆼㄴㅕᆫ
ㅅㅣ⑨ㅈㅡᆫ
##ㅇㅛᆨ
ㄱㅓᆷㅅㅏ⑨
ㅅㅜ⑨ㅅㅓᆨ
ㅁㅏᆯㅆ
ㅅㅐ⑨ㄴㅜ⑨ㄹㅣ⑨
ㅂㅜᆫㅁㅕᆼ
##ㅇㅏ⑨ㅈㅣ⑨
ㅇㅟ⑨ㅎㅓᆷ
##ㄹㅚ⑨
##ㅇㅘᆼ
ㅇㅜᆷㅈㅣᆨ
ㅋㅗᆫ
##ㅍㅣᆨ
ㅈㅐ⑨ㅍㅏᆫ
##ㅡᆯㄹㅣ⑨
ㄸㅏ⑨ㄹㅡᆫ
ㅋㅐᆷ
ㄱㅗᆼㅈㅓᆼ
ㄴㅗᆨ
ㅈㅜ⑨ㅂㅕᆫ
##ㅎㅡᆼ
ㄴㅏᆨ
ㅂㅜ⑨ㄷㅗᆼㅅㅏᆫ
ㅇㅠ⑨ㄹㅓᆸ
ㅅㅓᆫㅇㅓᆫ
ㅂㅏᆨㄱㅡᆫㅎㅖ⑨
##ㄹㅠ
ㅍㅡᆯㄹ
ㅇㅑ⑨ㄷㅏᆼ
ㄱㅓᆮ
##ㅏ⑨ㅁㅏ⑨
ㄱㅓ⑨ㅊㅣ⑨
##ㅂㅕᆨ
ㅊㅏ⑨ㅇㅣ⑨
ㅎㅕᆷㅇㅢ⑨
##ㅂㅣ
ㅊㅏ⑨ㅈㅣ⑨
##ㅁㅗᆺ
29
ㅍㅕᆼㄱㅠᆫ
ㅌㅗ⑨ㄹㅗᆫ
ㅈㅣᆼ
ㄱㅗᆼㅇㅕᆫ
ㅂㅜᆫㅇㅟ⑨
ㄱㅡᆯㄹㅗ⑨
ㅂㅗᆫㅂㅜ⑨
ㅂㅏᆯㄱㅕᆫ
ㅈㅏᆫ
ㄱㅜᆨㅂㅏᆼ
ㄱㅕᆼㄴㅏᆷ
ㄱㅗᆼㄱㅗᆼ
##ㄹㅣ⑨ㅇㅏ⑨
ㅎㅔ⑨
##ㄷㅔᆯ
ㄷㅓ⑨ㄹㅏ⑨ㄷㅗ⑨
ㄱㅛ⑨ㅌㅗᆼ
##ㄷㅏ⑨ㄹㅣ⑨
ㅁㅗᆨㅈㅓᆨ
ㄷㅏ⑨ㅁㅏᆫ
ㅂㅜ
ㅊㅜᆯㅁㅏ⑨
ㄴㅑ
ㅈㅜᆼㅅㅗ⑨
##ㄴㅔᆺ
ㅇㅢ⑨ㄹㅛ⑨
ㄷㅓᆺㅂㅜᇀㅇㅣ⑨
##ㅌㅏᆼ
ㅇㅡ⑨ㄴㅣ⑨
ㅈㅏ⑨ㄱㅡᆷ
ㄱㅓ⑨ㅇㅢ⑨
ㅅㅐ⑨ㄴㅜ⑨ㄹㅣ⑨ㄷㅏᆼ
##ㅊㅜᆼ
##ㄲㅡᆯ
##bs
ㅂㅓᆺ
##ㅍㅗᆫ
ㄹㅜ⑨
ㅇㅕ⑨ㅎㅐᆼ
##ㄹㅕ
ㅅㅣ⑨ㄱㅣ⑨
ㅁㅓ⑨
ㅁㅏᆯㅆㅡᆷ
##ㅋㅓ⑨
ㅂㅏᆼㅎㅑᆼ
ㅎㅡ⑨ㄹ
ㄷㅐ⑨ㅂㅕᆫㅇㅣᆫ
ㅇㅏ⑨ㄷㅡᆯ
##ㅎㅛ⑨
ㅈㅓᆱ
ㅂㅓᆫㅉㅐ⑨
ㅁㅓᆯ
ㅉㅐ⑨
ㅁㅏᆽㅊㅜ⑨
ㄸㅏᆼ
ㅈㅏ⑨ㄷㅗᆼㅊㅏ⑨
ㅇㅔ⑨ㄴㅓ⑨ㅈㅣ⑨
ㅂㅜᆫㅇㅟ⑨ㄱㅣ⑨
ㅊㅜᆼㅂㅜᆫ
ㅎㅜᆫㄹㅕᆫ
##ㅂㅗ⑨ㅇㅣ⑨
tv
ㄱㅜ⑨ㅊㅔ⑨
ㅈㅔ⑨ㅈㅏᆨ
ㄱㅡᆯㄹㅗ⑨ㅂㅓᆯ
ㅅㅓ⑨ㅇㅜᆯㅅㅣ⑨
##ㅈㅔ
ㅂㅡ⑨ㄹㅐᆫㄷㅡ⑨
##ㅁㅜ⑨ㅇㅝᆫ
ㅊㅗᆼㅈㅏᆼ
##ㅂㅗ
##ㅏ⑨ㅇㅜᆫ
ㄱㅡ⑨ㄷㅗᆼㅇㅏᆫ
##ㅡ⑨ㄹㅏ⑨
##ㄷㅣ⑨ㅇㅓ⑨
ㅅㅣᆫㅊㅓᆼ
##ㄹㅏ
##ㅍㅗᆨ
ㅇㅓᆫㄱㅡᆸ
ㄴㅕᆫㄷㅐ⑨
ㅇㅣ⑨ㅅㅏ⑨
##is
ㅇㅕ⑨ㅇㅑ⑨
ㅇㅡᆷㅇㅏᆨ
ㅈㅓᆫㅌㅗᆼ
ㅇㅣ⑨ㄷㅗᆼ
##ㅌㅔᆯ
ㄱㅔ⑨ㅇㅣᆷ
ㅇㅢ⑨ㅅㅣᆨ
ㅂㅜ⑨ㅈㅓᆼ
ㅇㅗ⑨ㅎㅣ⑨
ㅇㅢ⑨ㅈㅏᆼ
ㅇㅕᆼㄱㅜᆨ
ㅇㅔ
##ㅊㅣ
ㅌㅗᆼㅇㅣᆯ
ㅈㅔ⑨ㅇㅏᆫ
ㅇㅛ⑨ㅊㅓᆼ
ㅇㅗ⑨ㅎㅣ⑨ㄹㅕ⑨
ㄴㅕ
##ㄱㅣ⑨ㅇㅓᆸ
ㅇㅡ⑨ㄹㅗ⑨ㅂㅜ⑨ㅌㅓ⑨
ㅌㅗᆼㅅㅣᆫ
ㅇㅏᇁㄷㅜ⑨
ㅅㅜᆯ
##ic
ㅇㅣ⑨ㄲㅡᆯ
ㅅㅓᆼㄱㅘ⑨
ㅇㅣ⑨ㄹㅏᆫ
ㅊㅏ⑨ㅇㅝᆫ
ㄴㅡᆯㅇㅓ⑨ㄴㅏ⑨
ㅇㅟ⑨ㅊㅣ⑨
##ㅔ⑨ㅇㅣ⑨ㅅㅡ⑨
ㅅㅣ⑨ㅈㅓᆯ
ㅁㅐ⑨ㅊㅜᆯ
ㅃㅏ⑨ㄹㅡ⑨
ㅈㅗᆼㅎㅏᆸ
ㅇㅕ⑨ㅂㅜ⑨
60
ㄲㅣ⑨
ㅇㅣ⑨ㅎㅏ⑨
##ㅇㅓ⑨ㄷㅡᆯ
ㄱㅡ⑨ㄹㅜᆸ
ㅇㅢ⑨ㅈㅣ⑨
ㄱㅣ⑨ㅅㅏ⑨
ㅇㅓ⑨ㅁㅓ⑨ㄴㅣ⑨
ㄴㅐ⑨ㄹㅕ⑨
ㅈㅣ⑨ㄱㅜ⑨
ㅈㅏᆼㅇㅐ⑨
ㄷㅏ⑨ㄴㅣ⑨
##ㄱㅏ⑨ㅈㅣ⑨
ㅇㅏ⑨ㅈㅜ⑨
ㅇㅏᆫㅂㅗ⑨
ㅂㅜ⑨ㅁㅗ⑨
ㄱㅕᆼㄱㅣ⑨ㄷㅗ⑨
ㅍㅡ⑨ㄹㅏᆼ
ㅂㅓᆯㅇㅣ⑨
##ㅈㅡᆷ
ㅇㅓᆫㅈㅔ⑨
ㅎㅕᆼㅌㅐ⑨
ㅇㅣ⑨ㅈㅐ⑨
ㅈㅏᆯㅁㅗᆺ
##ㄷㅏᆨ
ㄱㅜᆨㅁㅜ⑨
ㅇㅏᆬ
ㅈㅣ⑨ㄱㅡᆸ
ㄷㅡᆯㅇㅓ⑨ㅇㅗ⑨
##ㅆㅣ⑨
ㄱㅡ⑨ㄹㅣᆷ
ㅇㅛᆨ
ㄸㅡ⑨
ㅇㅣᆯㅈㅏ⑨ㄹㅣ⑨
##ㅅㅣᆸ
##ㄱㅗ
##ㅎㅟ⑨
ㅍㅔ⑨
ㅂㅣ⑨ㄱㅛ⑨
ㄱㅡ⑨ㄷㅐ⑨ㄹㅗ⑨
ㄷㅗᆨㅇㅣᆯ
ㄷㅣ⑨ㅈ
ㄱㅓᆯㄹㅣ⑨
ㄱㅠ⑨ㅈㅔ⑨
ㅈㅏᆨㄱㅏ⑨
ㅊㅔ⑨ㅈㅔ⑨
ㅂㅣᆯ
ㅇㅠ⑨ㅊㅣ⑨
ㅈㅓᆫㅎㅕ⑨
ㄱㅜᆫㅅㅏ⑨
ㅈㅓᆫㅅㅣ⑨
ㅇㅣᆫㅅㅏᆼ
##ㄷㅐ
ㄴㅓᇂ
ㅎㅢ⑨ㅁㅏᆼ
ㅎㅘᆫㅈㅏ⑨
##ㅡ⑨ㄹㅔ⑨
ㄹㅗᆺ
the
ㅈㅓᆫㅎㅘᆫ
##ㄹㅏᆼ
##ㅅㅗ
ㅇㅝ⑨
ㅈㅜ⑨ㅁㅗᆨ
ㄴㅐ⑨ㅂㅜ⑨
ㄱㅣ⑨ㅇㅓᆨ
ㅁㅏᆺ
##ㅆㅏ⑨
ㅊㅔ⑨ㄱㅖ⑨
ㅇㅓ⑨ㄹㅣ⑨
##ㄹㅏᆷ
ㄱㅗ⑨ㅈㅏ⑨
ㅎㅐᆼㅂㅗᆨ
ㅂㅓᆸㅇㅝᆫ
ㅈㅜ⑨ㅅㅣᆨ
ㅊㅚ⑨ㅊㅗ⑨
ㄱㅣᆷㅈㅓᆼ
ㅈㅔ⑨ㅈㅜ⑨
ㅅㅏ⑨ㄹㅖ⑨
ㅇㅓᆯㅁ
ㄱㅏᆨㅈㅗᆼ
ㅅㅓᆫㅅㅐᆼ
ㅇㅣᆫㅌㅓ⑨ㄴㅔᆺ
##ㅌㅡᆯ
##ㅓᆲ
ㅍㅏ⑨ㄱ
ㄷㅓᆨ
ㅅㅡ⑨ㅁㅏ⑨ㅌㅡ⑨
##ㅔᆫㅌㅡ⑨
ᆫㄷㅏ⑨
ㅊㅗᆼㅅㅓᆫ
ㄱㅗᆼㅈㅏᆼ
ㄱㅜᆼ
ㅇㅑᆨㅅㅗᆨ
ㅅㅜᆫㄱㅏᆫ
ㅂㅏᆫㅇㅕᆼ
ㄲㅜ⑨
ㅁㅜᆫㅎㅏᆨ
ㅈㅔ⑨ㅎㅏᆫ
ㅇㅢ⑨ㅎㅚ⑨
ㅈㅓᆫㄷㅏᆯ
ㄷㅗᆸ
ㄱㅗ⑨ㅇㅛᆼ
ㅇㅣᆫㅁㅜᆯ
ㄱㅕᆩ
ㄴㅑ⑨
ㄱㅜ⑨ㅊㅜᆨ
ㅅㅗ⑨ㅂㅣ⑨ㅈㅏ⑨
ㅇㅟ
ㄱㅏ⑨ㅈㅓᆼ
ㅁㅜ⑨ㅅㅡᆫ
lg
ㄱㅏᆯㄷㅡᆼ
##ㅇㅡᆫㅎㅐᆼ
ㅅㅓᆷ
ㅇㅕᆼㅇㅓᆸ
ㅇㅕᆷ
ㅇㅓᆯㅁㅏ⑨ㄴㅏ⑨
##ㅍㅜᆼ
##ㅂㅏᆫㄷㅗ⑨
ㅇㅓ⑨ㄹㅣᆫ
ㅇㅗᆯㄹㅣᆷ
ㄷㅏᆷㄷㅏᆼ
ㅃㅐ⑨
ㅇㅡᆷㅅㅣᆨ
##ㅌㅓᆫ
##ㅊㅏ
ㄷㅗᆯㅇㅏ⑨ㅇㅗ⑨
##ㅁㅐᆼ
ㅅㅡᆼㄹㅣ⑨
ㅈㅓᆯㅊㅏ⑨
ㅇㅖ
ㄹㅗᆺㄷㅔ⑨
ㅅㅛ⑨
ㄱㅣ⑨ㄴㅕᆷ
ㅊㅚ⑨ㅈㅗᆼ
ㅇㅣᆫㄷㅗ⑨
ㅊㅔ⑨ㅎㅓᆷ
##ㅏ⑨ㅇㅜ⑨
ㅈㅏᆼㄱㅣ⑨
ㅇㅣᆫㄱㅣ⑨
ㄴㅣ
ㅈㅜ⑨ㅇㅣᆫ
ㅇㅡᆯㄲㅏ
ㄱㅗᆼㅁㅜ⑨ㅇㅝᆫ
ᆫㄷㅔ
##ㅊㅗᆫ
ㄱㅣ⑨ㅂㅏᆫ
##ㅅㅡᆷ
ㅊㅏᆷㄱㅏ⑨
sk
ㅇㅕᆫㄱㅕᆯ
ㄱㅣ⑨ㄷㅏ⑨ㄹㅣ⑨
ㅈㅜᆯㅇㅣ⑨
##ㅈㅕ⑨
ㅎㅡᆼ
##it
ㄷㅐ⑨ㅊㅜᆯ
ㅈㅏ⑨ㄴ
ㄱㅗᆼㅂㅜ⑨
ㅅㅣ⑨ㅎㅓᆷ
ㅊㅏᆫ
ㅂㅗᆫㄱㅕᆨ
ㅅㅜ⑨ㅎㅐᆼ
ㅇㅏ⑨ㄹㅐ⑨
ㅇㅣᆶ
ㅎㅐ⑨ㅅㅓᆨ
##ㅁㅔ⑨
##ㅊㅏᆷ
ㅎㅖ⑨
ㄷㅗᆯㅇㅏ⑨ㄱㅏ⑨
##ㄷㅡ⑨ㅅㅣ⑨
ㅈㅜ⑨ㄷㅗ⑨
##ㅎㅏᆫㄱㅜᆨ
ㄱㅕᆼㅂㅜᆨ
ㄷㅡᆼㄹㅗᆨ
##ㅇㅣᆫㅌㅡ⑨
ㄱㅕᆯㅎㅗᆫ
31
ㅇㅕᆫㅎㅏᆸ
ㅋㅓᆫ
ㅂㅏᆮㅇㅏ⑨
ㅁㅣᆫㄱㅏᆫ
ㅇㅣᆷㄱㅡᆷ
ㅂㅜᆯㄱㅘ⑨
ㅇㅔᆫ
ㅈㅓᆼㅎㅏ⑨
ㄴㅏ⑨ㅇㅣ⑨
ㅎㅕᆫㅅㅏᆼ
ㅈㅣ⑨ㅅㅣᆨ
ㄱㅗᆼㅇㅑᆨ
##ㅏ⑨ㄹㅜ⑨
ㅇㅝᆫㅇㅣᆫ
##ㄴㅑᆼ
ㄱㅜ
ㅂㅏᆫㄷㅡ⑨ㅅㅣ⑨
ㄷㅐ⑨ㅈㅓᆫ
##ㅊㅓᆨ
ㅂㅜ⑨ㅇㅣᆫ
ㄱㅗᆫ
ㅂㅜᆯㄹㅣ⑨
##ㅈㅘ⑨
##ㅡᆺㅎㅏ⑨
ㅇㅗᆱ
ㅎㅏᆫㅂㅏᆫㄷㅗ⑨
ㅈㅜ
ㅂㅗ⑨ㅈㅏᆼ
ㅅㅐᆼㅁㅕᆼ
ㄱㅝᆫㄹㅕᆨ
ㅍㅕᆯㅊㅣ⑨
ㅅㅗ⑨ㄱㅐ⑨
ㅇㅗᆯㄹㅣᆷㅍㅣᆨ
##ㅏ⑨ㄱㅘᆫ
ㅋㅏ⑨ㄷㅡ⑨
ㄱㅣ⑨ㅊㅗ⑨
ㅅㅏ⑨ㅈㅓᆫ
ㄷㅐ⑨ㅎㅕᆼ
ㅂㅜᆫㅇㅑᆼ
ㅅㅡ⑨ㅋ
##ㅇㅟ⑨ㅇㅝᆫ
ㄱㅓᆫㅊㅜᆨ
##ed
ㅊㅓᆼㅅㅗ⑨
ㅅㅏ⑨ㅅㅏᆼ
##ㅍㅡᆯ
ㅊㅏ⑨ㄹㅑᆼ
70
ㅈㅓᆼㅎㅘᆨ
ㅅㅔ⑨ㄹㅕᆨ
##ㅍㅖ⑨
ㅅㅐᆨ
ㅂㅜ⑨ㅁㅜᆫ
ㅍㅓᆫ
ㄲㅗᆨ
ㅅㅏ⑨ㅌㅐ⑨
ㅈㅏ⑨ㅅㅔ⑨
ㅇㅗᆯㄹ
ㅁㅣ⑨ㅅ
ㅎㅚ⑨ㅂㅗᆨ
ㅂㅕᆫㅎㅗ⑨
ㅂㅣ⑨ㅅㅓ⑨
ㅅㅜ⑨ㅇㅛ⑨
ㄲㅡᆭ
ㅂㅏ⑨ㅇㅣ⑨
ㅈㅡᆯㄱㅣ⑨
ㅁㅗ⑨ㄷㅔᆯ
ㅈㅔ⑨ㅊㅜᆯ
ㄱㅡᆷㄹㅣ⑨
ㅈㅏ⑨ㅇㅝᆫ
2000
ㅈㅣ⑨ㅇㅛ
ㅍㅡ⑨ㄹㅏᆼㅅㅡ⑨
ㅅㅓᆯㄹㅣᆸ
ㄴㅡᆫㄷㅔ
ㄷㅡ⑨ㄹㅓ⑨ㄴㅏ⑨
##ㅊㅣᆼ
ㅌㅗᆼㄱㅘ⑨
##ㅐᆸ
ㅋㅡᆯㄹ
ㅂㅏᆫㅇㅡᆼ
ㄱㅗ⑨ㅁㅣᆫ
##ㄱㅗᆯ
ㅌㅐᆨ
##ㅇㅓᆷ
ㄱㅓᆫㅁㅜᆯ
ㅇㅕ⑨ㅈㅓᆫㅎㅣ⑨
##ㅍㅣᆯ
ㅈㅗᆯ
ㅎㅕᆫㅈㅣ⑨
ㅅㅔ⑨ㄷㅐ⑨
ㄷㅗ⑨ㄹㅗ⑨
ㅍㅏ⑨ㅇㅏᆨ
ㅂㅣᆫ
ㄱㅕᆼㅅㅓᆫ
ㅇㅜᆯㅅㅏᆫ
ㅎㅏᆫㄱㅜᆨㄷㅏᆼ
##ㅊㅓ
ㄴㅡ⑨ㄴㅑ
ㄴㅏᆷㄱㅣ⑨
ㅇㅝᆫㅊㅣᆨ
##ㅎㅏᆫㄱㅜᆨㄷㅏᆼ
ㅈㅣᆫㅊㅜᆯ
ㄱㅠᆫ
##at
##om
ㄷㅡᆼㅈㅏᆼ
ㄴㅏ⑨ㅇ
ㅂㅏᆮㅇㅏ⑨ㄷㅡᆯㅇㅣ⑨
ㅇㅏ⑨ㄹㅡᆷ
ㅈㅏ⑨ㅅㅏᆫ
##ㅌㅏᆯ
ㅇㅕᆫㄱㅣ⑨
##ㅇㅡ⑨ㅋㅣ⑨
##ㅇㅏᆸ
##ㅇㅘᆫ
197
ㄷㅏᆫㅅㅜᆫ
ㄴㅐ⑨ㄴㅗᇂ
ㄱㅓᆨ
ㄱㅏᆼㄹㅕᆨ
ㄴㅏᆸ
ㅎㅘᆯㅅㅓᆼ
ㅇㅏ⑨ㅍㅡ⑨
##ㅇㅏ⑨ㅂㅗ⑨
ㅇㅗᆱㄱㅣ⑨
ㄱㅏᆷㅅㅗ⑨
ㅂㅏ⑨ㄹㅡ⑨
##ㅂㅔ⑨
ㄲㅗᆾ
ㅈㅣ⑨ㅈㅓᆼ
##ㅈㅣᆺ
##ㅉㅏ⑨
ㅇㅓ⑨ㄹㅣᆫㅇㅣ⑨
##ㅂㅡᆯ
ㅅㅜ⑨ㅇㅣᆸ
ㅇㅓᆷㅁㅏ⑨
##ㄹㅓ
ㅈㅏ⑨ㅇㅠ⑨ㅎㅏᆫㄱㅜᆨㄷㅏᆼ
ㅅㅣᆫㅁㅜᆫ
ㅂㅜᆯㅂㅓᆸ
ㅈㅔ⑨ㅇㅚ⑨
##ㅉㅏᆨ
##ㅂㅏᆫㄱㅣ⑨
ㅎㅕᆼㅅㅓᆼ
##ㄲㅟ⑨
ㄷㅗᆨㄹㅣᆸ
ㅇㅡ⑨ㅁㅕᆫㅅㅓ⑨
ㅍㅜ⑨
ㅈㅏ⑨ㅂㅗᆫ
ㄱㅛ⑨ㅅㅏ⑨
##ㅓᆷㅍㅡ⑨
ㄸㅏᆯ
ㄹㅓ⑨ㅅㅣ⑨ㅇㅏ⑨
ㅊㅟ⑨ㅎㅏ⑨
##ㅅㅜ⑨ㄹㅗᆨ
ㅂㅏᆼㅊㅣᆷ
ㄱㅐ⑨ㄴㅕᆷ
ㅂㅣᆾ
ㅅㅡ⑨ㅍㅗ⑨
ㅉㅡᆷ
ㅈㅜ⑨ㅇㅢ⑨
##ㅟᆺ
ㅂㅓᆸㅇㅏᆫ
ㄱㅗᆨ
ㅎㅏ⑨ㄴ
ㄱㅓᆨㅈㅓᆼ
ㅇㅣᆫㅅㅜ⑨
ㄱㅘᆼㄱㅗ⑨
##ㅁㅕ
ㅈㅜ⑨ㅈㅔ⑨
ㄱㅏ⑨ㄲㅏᆸ
ㅇㅣ⑨ㄱㅗᆺ
ㅇㅓᆸㄱㅖ⑨
ㄱㅏ⑨ㅇㅣᆸ
ㅅㅡᆯ
ㅈㅏ⑨ㅊㅣ⑨
in
ㅅㅡ⑨ㅌㅏ⑨
ㅈㅚ⑨
ㅈㅓᆫㄱㅣ⑨
##ㄷㅏ⑨ㅂㅗ⑨
ㅊㅜᆯㅇㅕᆫ
ㅈㅣ⑨ㄴㅐ⑨
ㅍㅗ⑨ㅇㅣᆫㅌㅡ⑨
ㅍㅓ⑨
ㅅㅣᆫㄱㅗ⑨
##ㅎㅓ⑨
ㅅㅣᆷㅅㅏ⑨
##ㄱㅟ⑨
##ㅇㅔᆫ
ㄷㅏᆯㅎㅏ⑨
ㅇㅕ⑨ㄷㅏᆼ
ㄷㅏᆼㄱㅜᆨ
##ㅇㅞ⑨
ㄱㅡ⑨ㅁㅏᆫ
ㅇㅜ⑨ㅅㅜ⑨
ㅅㅔ⑨ㄱㅣ⑨
ㅎㅕᆯ
ㅂㅏ⑨ㄲㅟ⑨
ㄱㅗᆼㅊㅓᆫ
ㅈㅜᆼㅇㅣᆫ
ㄹㅏ⑨ㅁㅕᆫㅅㅓ⑨
ㅅㅣᆯㅈㅔ⑨ㄹㅗ⑨
##ㅅㅔ⑨ㅇㅜ⑨
2012
##ㅔ⑨ㅇㅣ⑨ㅅㅕᆫ
ㅌㅗᆼㅎㅘ⑨
ㅅㅓᆫㅂㅗ⑨ㅇㅣ⑨
ㅇㅣ⑨ㄹㅜ⑨ㅇㅓ⑨ㅈㅣ⑨
ㅅㅗ⑨ㅅㅓᆯ
ㅊㅚ⑨ㅅㅗ⑨
ㄱㅏ⑨ㄱㅜ⑨
ㅂㅗᆯ
ㅇㅣᆨ
ㄴㅠ⑨ㅅㅡ⑨
ㅂㅡᆯㄹ
ㅇㅏ⑨ㄹㅡᆷㄷㅏᆸ
##ㄱㅡ
ㅎㅘᆨㅈㅓᆼ
##bc
ㄱㅜ⑨ㅅㅗᆨ
ㅌㅣ⑨
ㅌㅏᆷ
ㄱㅏᆼㅇㅝᆫ
##ㄹㅕ⑨ㅇㅜᆷ
ㅂㅏ⑨ㄹㅏ⑨ㅂㅗ⑨
ㅅㅣᆯㅍㅐ⑨
ㅎㅚ⑨ㄱㅕᆫ
ㄹㅠ⑨
ㅂㅗ⑨ㅇㅠ⑨
ㄴㅡ⑨ㄴㅑ⑨
ㅁㅏ⑨ㅊㅏᆫ
##ㅌㅓᆯ
##ㄹㅣᆼ
##ㅇㅏᆷ
ㅁㅐᆨ
ㅁㅣᆫㅈㅗᆨ
ㄱㅏ⑨ㅅㅡᆷ
ㅇㅠ⑨ㅁㅕᆼ
ㄲㅔ⑨ㅅㅓ⑨
ㅌㅡᆨㅈㅓᆼ
ㅅㅣᆫㄹㅚ⑨
ㅈㅜᆼㄷㅏᆫ
ㄴㅐᆼ
ㄴㅏᆷㅅㅓᆼ
ㅂㅣ⑨ㅅ
ㅇㅜ⑨ㅅㅡᆼ
##ㅎㅓᆫ
ㅇㅗᆨ
ㄷㅗ⑨ㅈㅓᆫ
ㅁㅜ⑨ㄷㅐ⑨
ㅋㅣ⑨ㅇㅜ⑨
ㅇㅐᆨ
ㅊㅜᆯㅅㅣ⑨
##ㅏᆺ
ㅇㅠᆫㅅㅓᆨ
ㄲㅗᆸ
ㄱㅘ⑨ㅈㅔ⑨
ㅎㅗᆼㅂㅗ⑨
##ㅇㅗᆫ
ㅇㅝᆫㅎㅏ⑨
ㅅㅏ⑨ㄹㅏ⑨ㅈㅣ⑨
ㅇㅕᇁ
ㅎㅏᆼㄱㅗᆼ
ㄷㅗᆼㅇㅢ⑨
ㄱㅛ⑨ㅎㅚ⑨
ㅎㅑᆼㅎㅜ⑨
ㅎㅏ⑨ㄹㅏᆨ
ㄱㅓ⑨ㅂㅜ⑨
ㅌㅡ⑨ㄹㅓᆷㅍㅡ⑨
500
ㅋㅏᆯ
ㄱㅖ⑨ㄱㅣ⑨
##ㅘᆯ
ㅅㅓᆫㅂㅏᆯ
ㅈㅗ⑨ㅊㅏ⑨
2010
ㅈㅜᆼㅅㅗ⑨ㄱㅣ⑨ㅇㅓᆸ
ㅁㅏ⑨ㅊㅏᆫㄱㅏ⑨ㅈㅣ⑨
ㅈㅣᆫㅈㅓᆼ
ㄱㅏ⑨ㄹㅡ⑨
ㅅㅏ⑨ㅎㅏᆼ
ㅈㅣᆸㄷㅏᆫ
ㄷㅔ⑨ㅇㅣ⑨
##el
##ㅁㅣ
##ㅎㅚ⑨ㅇㅢ⑨
ㅁㅗ⑨ㅇㅑᆼ
ㅁㅣ⑨ㅅㅏ⑨ㅇㅣᆯ
ㅅㅔᆷ
ㅅㅏ⑨ㄱㅘ⑨
ㄷㅜᆯㄹㅓ⑨
##ㅇㅜ
ㅅㅠ⑨
ㄷㅣ⑨ㅈㅏ⑨ㅇㅣᆫ
##ㅅㅏᆷ
ㅂㅓᆷㅈㅚ⑨
##ㄷㅡᆼㅎㅏᆨㄱㅛ⑨
ㅍㅐᆫ
##ㅂㅠ⑨
ㅇㅗ⑨ㄹㅐ⑨
ㅈㅓᆫㄴㅏᆷ
ㅇㅚ⑨ㄱㅜᆨㅇㅣᆫ
ㅇㅣᆫㄱㅜ⑨
ㅈㅓᆼㄹㅣ⑨
ㅇㅜ⑨ㄹㅣ⑨ㄴㅏ⑨ㄹㅏ⑨
##ㄷㅣ⑨ㅇㅗ⑨
ㄴㅡᆽ
ㅇㅖ⑨ㅂㅣ⑨
##ㅅㅡ⑨ㅌㅓ⑨
ㅊㅗᆨㄱㅜ⑨
ㄹㅕ⑨ㅁㅕᆫ
ㄱㅏᆷㅈㅓᆼ
ㄱㅜᆨㅁㅣᆫㅇㅢ⑨ㄷㅏᆼ
ㅈㅓᆫㅈㅏ⑨
ㅇㅕᆼㅅㅏᆼ
ㄴㅗ⑨ㅈㅗ⑨
ㄴㅓᆲ
ㅎㅣ⑨
ㅂㅣ⑨ㅇㅠᆯ
ㅈㅐ⑨ㅅㅏᆫ
ㅎㅘᆨㅅㅣᆯ
##st
##ㄹㅣᆫ
ㅊㅣ⑨ㄹㅡ⑨
ㅇㅣ⑨ㄱㅣ⑨
ㄷㅐ⑨ㅈㅜᆼ
ㅅㅗ⑨ㅈㅐ⑨
##ㄲㅣᆷ
ㅎㅗᆯ
ㅅㅗᆯ
##ㅊㅣᆯ
ㄱㅡᆫㄹㅗ⑨
80
ㅅㅜ
ㅈㅣ⑨ㅎㅏ⑨
ㄷㅡ⑨
ㅈㅏᆨㅇㅛᆼ
ㄴㅏ⑨ㅁㅜ⑨
ㅅㅡ⑨ㅍㅗ⑨ㅊㅡ⑨
ㄱㅡ⑨ㄱㅓ⑨
ㅉㅣᆨ
ㅎㅗᆨㅇㅡᆫ
ㅍㅓᆫㄷㅡ⑨
ㅋㅗ⑨ㄹㅗ⑨
ㅁㅗ⑨ㅇㅣ⑨
ㅅㅣᆫㄱㅕᆼ
##ㅈㅗ
##nd
ㅎㅓᆫㅂㅓᆸ
##ou
ㅂㅜᆫㄱㅣ⑨
##ㅆㅣᆫ
2014
ㄷㅏᆫㅇㅣᆯ
ㅂㅜᇀ
ㄱㅡᆫㄱㅓ⑨
ㄱㅕᆷ
##ol
ㅆㅗ
ㅋㅓᆷ
##ㅇㅓᆯ
ㄷㅓᆫㅈㅣ⑨
##ㄸㅐ⑨
ㅅㅗ⑨ㅌㅗᆼ
##ㅔᆨㅅㅡ⑨
ㅆㅏᇂ
ㅇㅝᆫㅈㅏᆼ
ㅂㅐ⑨ㅊㅣ⑨
ㅆㅗᆮ
ㅎㅚ⑨ㅇㅝᆫ
ㅂㅓᆸㅇㅣᆫ
ㅂㅓᆺㅇㅓ⑨ㄴㅏ⑨
ㅂㅜ⑨ㄷㅐ⑨
ㄱㅡᆫㅁㅜ⑨
##ec
##tion
ㅇㅢ⑨ㅁㅜ⑨
ㅅㅔ⑨ㅇㅝᆯ
ㅎㅏ⑨ㄴㅡᆯ
ㄷㅡ⑨ㄹㅓ⑨ㄴㅐ⑨
ㅂㅓᆯㅇㅓ⑨ㅈㅣ⑨
ㄷㅗᆯㄹㅣ⑨
##ㅇㅢ
ㄴㅓᆷㅇㅓ⑨
##ㅌㅓ
ㄴㅡᆯㄹㅣ⑨
##ㅊㅗᆼㄹㅣ⑨
ㅇㅏ⑨ㅅㅣ⑨ㅇㅏ⑨
ㅇㅣᆯㅇㅡ⑨ㅋㅣ⑨
35
ㄷㅐ⑨ㅊㅔ⑨
2011
ㅍㅣ⑨ㅂㅜ⑨
ㅇㅖᆺ
ㅇㅣᆷㅁㅕᆼ
##ㅇㅠᆫ
2015
ㅅㅣ⑨ㄷㅗ⑨
ㄴㅚ⑨
ㅅㅏᆯㄹㅣ⑨
##ㅅㅠ⑨
ㄲㅡᇀㄴㅏ⑨
ㅈㅗᆼㄱㅛ⑨
ㅌㅐ⑨ㄷㅗ⑨
ㄴㅗ⑨ㄹㅐ⑨
##ㄱㅕ
ㅎㅏᆨㅅㅡᆸ
ㅇㅗᆺ
##ㅇㅗᆨ
##ing
ㅎㅏᆫㅁㅣ⑨
##ㅂㅓ
ㄷㅏᆼㅇㅕᆫ
ㄱㅕᆼㅈㅐᆼㄹㅕᆨ
ㅇㅜᆷㅈㅣᆨㅇㅣ⑨
ㅂㅜᆯㅇㅏᆫ
ㅇㅕᆫㅅㅗᆨ
ㅊㅟ⑨ㅇㅓᆸ
##ㄴㅣ
ㅅㅏᆯㅍ
ㄴㅗ⑨ㄷㅗᆼㅈㅏ⑨
ㅇㅣᆯㄷㅏᆫ
ㄷㅟᆺ
ㄴㅏᆷㅍㅕᆫ
ㅊㅔ⑨ㅇㅠᆨ
##ㅈㅏ⑨ㄱㅣ⑨
ㅈㅣ⑨ㄴㅣ⑨
ㅅㅣ⑨ㅊㅓᆼ
ㅁㅛ⑨
ㅅㅏ⑨ㅁㅏᆼ
ㅇㅏ⑨ㅁㅏ⑨
ㅅㅣᆷㄱㅏᆨ
ㅊㅓᆼㅁㅜᆫ
ㅂㅕᆫㅎㅗ⑨ㅅㅏ⑨
ㅇㅣᆫㄱㅝᆫ
ㅇㅠᆫㅅㅓᆨㅇㅕᆯ
ㅇㅣᆫㄹㅕᆨ
ㅁㅏ⑨ㅁ
ㅇㅣ⑨ㅁㅣ⑨ㅈㅣ⑨
ㅅㅏᆯㅍㅕ⑨ㅂㅗ⑨
ㅇㅣᆫㅌㅓ⑨ㅂㅠ⑨
ㅁㅔ⑨ㅅㅣ⑨
ㄱㅘ
ㄲㅏ⑨
ㅇㅓ⑨ㄹㅏ
ㄱㅡᆷㅈㅣ⑨
ㅂㅔᆫ
ㅈㅣ⑨ㅂㅐ⑨
##ㄱㅓᆯ
196
ㅂㅓᆸㄹㅠᆯ
ㅂㅏ⑨ㅌㅏᆼ
ㅈㅓᆼㅇㅢ⑨
ㅈㅔ⑨ㅈㅗ⑨
ㄱㅓᆯㅊㅣ⑨
##ㅏ⑨ㄴㅣᆷ
ㅈㅜ⑨ㄹㅗ⑨
##ㅆㅡ⑨
ㅇㅏ⑨ㅊㅣᆷ
ㅇㅓᆻㅇㅓᆻ
ㅁㅕᆼㅇㅢ⑨
ㅁㅐ
ㄹㅏ⑨ㅇㅣ⑨
ㅇㅏᆫㅊㅓᆯ
ㅅㅗᆨㄷㅗ⑨
ㅈㅓᆼㄱㅠ⑨
ㅇㅡ⑨ㄹㅕ⑨
ㅅㅓᆼㅈㅓᆨ
ㄴㅡ⑨ㄲㅣᆷ
ㅇㅔᆯ
ㅊㅏ⑨ㅂㅕᆯ
ㅎㅏᆨㄴㅕᆫ
ㅊㅏᆼㅇㅓᆸ
ㅎㅕᆨㅁㅕᆼ
ㅅㅜ⑨ㅇㅛᆼ
ㄷㅡᆺㅇㅣ⑨
ㄴㅗ⑨ㅇㅣᆫ
ㅇㅟ⑨ㅂㅏᆫ
ㄴㅔ
##ㅅㅔᆫ
2013
ㅎㅘᆨㅅㅏᆫ
ㅇㅓᆯㅁㅏ⑨
ㅈㅓᆸㄱㅡᆫ
##ㅊㅗᆨ
ᆸㄴㅣ⑨ㄲㅏ
ㄱㅏ⑨ㄹㅣ⑨
ㄷㅐ⑨ㄷㅏᆸ
##ㅎㅐ
ㅇㅣᆫㅅㅐᆼ
ㅅㅗ⑨ㅅㅣᆨ
ㅈㅏᆨㄴㅕᆫ
ㄱㅜ⑨ㅁㅐ⑨
ㅂㅜᆯㄱㅜ⑨
##ㄹㅏ⑨ㅇㅣᆫ
ㅊㅏᆼㅈㅗ⑨
ㅎㅝᆯ
ㅅㅣᆯㅈㅓᆨ
ㅊㅡᆨㅁㅕᆫ
ㅅㅜ⑨ㅅㅏᆼ
ㄱㅓ⑨ㄷㅜ⑨
##ㅇㅗ⑨ㄹㅡ⑨
2009
ㅌㅏ⑨ㅇ
ㅊㅓᆨ
ㅈㅣᆸㅎㅐᆼ
ㄱㅛ⑨ㅊㅔ⑨
ㅇㅣ⑨ㄹㅗᆫ
ㅊㅜᆨㄱㅜ⑨
ㅇㅕᆼㅇㅕᆨ
ㄴㅏ⑨ㅁ
ㅊㅓᆷ
ㅇㅠ⑨ㅌㅗᆼ
ㅇㅣᆷㄷㅐ⑨
ㄱㅗ⑨ㅇㅟ⑨
ㅅㅓᆼㄱㅕᆨ
ㅈㅏ⑨ㄴㅕ⑨
ㄷㅓ⑨ㄴㅣ⑨
ㅂㅕᆨ
ㅇㅕᆼㅇㅓ⑨
ㅈㅏ⑨ㅈㅜ⑨
ㅎㅟ⑨
ㅁㅜ⑨ㅇㅕᆨ
##ㅂㅣᆾ
ㅇㅏᆫㅊㅓᆯㅅㅜ⑨
ㅊㅓᆼㅅㅗ⑨ㄴㅕᆫ
ㅎㅝᆯㅆㅣᆫ
ㅅㅟ⑨
2008
ㄱㅗ⑨ㅌㅗᆼ
ㅈㅣ⑨ㅅㅣ⑨
ㄱㅚ⑨
ㄷㅡ⑨ㄹㅏ⑨ㅁㅏ⑨
ㄷㅏ⑨ㄹㅜ⑨
ㅇㅣᆫㄱㅡᆫ
ㅂㅏᆼㅇㅏᆫ
##ㄴㅠ⑨
ㄱㅗᆼㅈㅣᆨ
ㄱㅓ⑨ㄱㅣ⑨
ㅊㅜᆯㅂㅏᆯ
ㅅㅡᆸㄴㅣ⑨ㄲㅏ
ㅁㅏᆫㅈㅗᆨ
##ㅋㅜ⑨
ㅈㅓᆯㄷㅐ⑨
ㅇㅕ⑨ㄹㅡᆷ
ㅅㅣ⑨ㄱㅏᆨ
##ㅅㅙ⑨
##ㅅㅓᆺ
ㅅㅗ⑨ㅇㅠ⑨
ㅇㅓᆫㅇㅓ⑨
ㅇㅓ⑨ㅉㅓ⑨
ㅎㅏ⑨ㄱㅗ⑨
ㅇㅣ⑨ㅈㅐ⑨ㅁㅕᆼ
##ㄸㅡ⑨ㄹㅣ⑨
##ㅡᆯㄹㅓ⑨
ㅇㅖ⑨ㅂㅏᆼ
ㅈㅓᆫㄴㅏᆯ
ㄱㅗ⑨ㄱㅐ⑨
##ㅇㅟ
##ㅍㅔ⑨ㅇㅣ⑨
ㅅㅓᆯㄱㅖ⑨
ㅂㅗᆫㅇㅣᆫ
ㅅㅓᆫㅁㅜᆯ
ㅋㅗ⑨ㅅㅡ⑨
ㅉㅏ⑨
ㄱㅏ⑨ㄹㅑᆼ
ㅅㅏᆷㅅㅓᆼㅈㅓᆫㅈㅏ⑨
ㅎㅏ⑨ㄴㅏ⑨ㄴㅣᆷ
ㄱㅡᆼ
ㅈㅣᆫㅂㅗ⑨
##ㅅㅔ
of
ㄷㅡᆨ
ㅎㅗ⑨ㅌㅔᆯ
ㅊㅜ⑨ㅊㅓᆫ
ㅆㅣ
ㅅㅜ⑨ㅅㅜᆯ
ㅇㅞ
ㄲㅗ⑨
ㅃㅗᆸ
ㅇㅚ⑨ㅂㅜ⑨
##ㅏ⑨ㅇㅟ⑨
ㅊㅓᆯㅎㅏᆨ
ㅍㅗ⑨ㄱㅣ⑨
ㅁㅏᆫㅇㅑᆨ
ㄷㅐ
##ㅅㅡ⑨ㅋㅡ⑨
ㅁㅐ⑨ㅇㅣᆯ
ㅅㅣᆷㄹㅣ⑨
##ㅌㅔᆫ
ㅅㅗ⑨ㅅㅗᆼ
ㄱㅗᆼㅎㅏᆼ
ㅌㅏ⑨ㄱ
ㅅㅔ⑨ㅈㅗᆼ
ㅍㅡ⑨ㄹㅣ⑨
ㅊㅘᆯ
ㅎㅏᆫㄴㅏ⑨ㄹㅏ⑨
ㄷㅐ⑨ㅂㅜᆨ
ㅁㅏ⑨ㅇㅣ⑨
ㅁㅏ⑨ㅁㅜ⑨ㄹㅣ⑨
ㅊㅓᆯㅈㅓ⑨
ㅂㅕᆫㅎㅏ⑨
ㅇㅠ⑨ㄹㅣ⑨
300
ㅅㅣᆯㅊㅓᆫ
ㅌㅡᆨㅅㅓᆼ
ㅂㅏᆫㅂㅏᆯ
ㅇㅕᆫㄷㅐ⑨
##ㅋㅣᆼ
ㄷㅡᆺㅎㅏ⑨
ㅎㅡᆫㄷㅡᆯ
202
ㄷㅏᆯㅅㅓᆼ
##ㅁㅓᆫ
ㅍㅏᆫㄱㅕᆯ
##ㅏ⑨ㅇㅜᆷ
ㅂㅏᆯㅅㅏ⑨
##ㅏ⑨ㄹㅏᆨ
ㅇㅕ⑨ㄹㅓ⑨ㅂㅜᆫ
ㄱㅜᆨㅌㅗ⑨
ㅇㅑ⑨ㄱㅜ⑨
##ㄷㅡᆸ
ㅊㅏᆼㅊㅜᆯ
ㅈㅡᆼㄱㅝᆫ
ㅇㅛ⑨ㅅㅗ⑨
##ㄱㅘᆯ
1000
ㄷㅏ⑨ㅁㅕ⑨
ㅅㅏ⑨ㅌㅚ⑨
ㅅㅣᆯㅎㅓᆷ
ㅁㅜ
ㅁㅜ⑨ㄹ
ㅁㅔ⑨ㅅㅣ⑨ㅈㅣ⑨
ㅊㅘᆯㅇㅕᆼ
ㄱㅜ⑨ㅎㅏ⑨
ㄱㅕ⑨ㅇㅜᆯ
ㅈㅗᆯㅇㅓᆸ
ㅇㅣᆽ
##ㄹㅕᆯ
##re
ㅁㅏ⑨ㄹㅡ⑨
##ㄷㅣᆼ
ㅁㅐᆽ
ㄱㅡᆷㅇㅐᆨ
ㅂㅓᆸㅁㅜ⑨
ㅎㅛ⑨ㅇㅠᆯ
ㅇㅠ⑨ㅇㅣᆯ
ㅂㅗᆼㅅㅏ⑨
ㅈㅓᆷㄱㅓᆷ
ㄹㅣ⑨ㄱㅡ⑨
ㅌㅡᆨㅈㅣᆼ
ㅂㅜ⑨ㅊㅓ⑨
ㅇㅡᆯㅈㅣ⑨
ㄱㅜᆮ
ㅂㅣ⑨ㅅㅡᆺㅎㅏ⑨
##ㅍㅡᆯㄹ
ㅇㅘᆫㅈㅓᆫㅎㅣ⑨
##ㄹㅣᆨ
##ㄱㅏᆸ
ㄹㅣ⑨ㄷㅓ⑨
ㄱㅡᆼㅈㅓᆼ
ㅈㅏᆼㅅㅗ⑨
##ㄹㅣ⑨ㅅㅡ⑨
ㅂㅗ⑨ㄱㅗ⑨ㅅㅓ⑨
##ㄹㅕᆷ
ㄱㅝᆫㄹㅣ⑨
ㅇㅣ⑨ㅂ
ㅇㅝᆯㄷㅡ⑨
ㅍㅔ⑨ㅇㅣ⑨ㅅㅡ⑨
ㅁㅜᆯㅈㅣᆯ
ㅁㅣᇀ
ㅊㅐ⑨ㅇㅛᆼ
##ㄱㅕ⑨
ㅅㅣᆯㅎㅕᆫ
ㄱㅏ⑨ㅈㅕ⑨
##ㅇㅢ⑨ㅇㅝᆫ
2016
ㄷㅡᆯㄹㅣ⑨
ㅂㅏ⑨ㄷㅏ⑨
ㅍㅣ⑨ㅎㅏ⑨
ㄱㅡᆨㅂㅗᆨ
ㅇㅗᆫㄹㅏ⑨ㅇㅣᆫ
##ㅅㅡ⑨ㅋㅗ⑨
ㅈㅓᆫㄹㅕᆨ
ㅈㅏ⑨ㄱㅕᆨ
ㅇㅕᆫㅈㅏᆼ
ㄴㅏ⑨ㅇㅏ⑨ㄱㅏ⑨
ㅅㅣᆼ
ㅍㅛ⑨ㅈㅓᆼ
ㅇㅓ⑨ㄹㅕ⑨ㅇㅜᆷ
ㅎㅐ⑨ㅇㅑᆼ
##ㅍㅏ
ㅈㅗ⑨ㅎㅏᆸ
ㅇㅏᆫㅌㅏ⑨
ㅈㅓ⑨ㄴ
ㅅㅣᆷㅎㅏ⑨
ㅅㅜ⑨ㅇㅝᆫ
ㅎㅗᆫㅈㅏ⑨
ㅂㅣ⑨ㅅㅏᆼ
ㅂㅣ⑨ㅈㅜᆼ
ㅂㅕᆫㄱㅕᆼ
ㅌㅜ⑨ㅇㅣᆸ
ㅇㅘᆫㅅㅓᆼ
ㅁㅡ⑨ㄹㅗ⑨
##ㄱㅗᆼㅅㅏ⑨
##ㅈㅔᆨ
ㄱㅜᆨㅂㅏᆼㅂㅜ⑨
st
ㄸㅗᆨ
ㄱㅡ⑨ㄹㅣ⑨ㅅㅡ⑨
ㅃㅏᆯㄹㅣ⑨
ㅇㅣ⑨ㅁㅕᆼ
ㄴㅏ⑨ㅌㅏ⑨ㄴㅐ⑨
ㅎㅏᆼㅅㅏᆼ
ㅈㅜᆨㅇㅡᆷ
##ㄲㅏ⑨ㅇㅛ
##ㅜᆯㄹㅓ⑨
ㅅㅏᆼㅇㅣᆷ
ㅅㅔ⑨ㅇㅛ
##ㅅㅡᆯ
ㅎㅏᆫㄴㅏ⑨ㄹㅏ⑨ㄷㅏᆼ
ㅇㅕᆫㄱㅜ⑨ㅇㅝᆫ
ㄲㅡᆯㅇㅓ⑨
ㄱㅐᆨ
##ㄴㅏ⑨ㄱㅏ⑨
ㅎㅡᆨ
ㅅㅣ⑨ㅈㅓᆷ
ㅊㅜᆼㅂㅜᆫㅎㅣ⑨
ㅁㅏ⑨ㅋㅔ⑨
##et
ㄱㅣᆷㅇㅕᆼ
##il
ㄷㅏᆷㄱㅣ⑨
ㅍㅡ⑨ㄹㅗ⑨ㅈㅔᆨ
ㅈㅣᆨㅈㅏᆼ
ㅎㅏ⑨ㅇㅣ⑨
ㅊㅓᆼㄱㅜ⑨
ㄴㅗᇁㅇㅏ⑨ㅈㅣ⑨
ㅌㅡᆨㅅㅜ⑨
ㄴㅏ⑨ㅁㅓ⑨ㅈㅣ⑨
ㅊㅗ⑨ㄱㅣ⑨
ㅊㅜᆨㅈㅔ⑨
##ㅌㅡ⑨ㄹ
ㅇㅟ⑨ㅎㅕᆸ
ㄱㅠᆫㅎㅕᆼ
ㄱㅓᆷㅈㅡᆼ
ㅅㅣᆨㅍㅜᆷ
ㅅㅣᆫㅇㅛᆼ
ㅁㅏ⑨ㅅㅣ⑨
ㄷㅡᆯㅇㅣ⑨
ㅇㅡ⑨ㄴㅏ
##ㅁㅗᆯ
ㅊㅟ⑨ㅇㅣᆷ
##ㅂㅣᆫ
ㅈㅏᆷㅅㅣ⑨
ㅈㅜ⑨ㄱㅏ⑨
ㅂㅣ⑨ㄴㅏᆫ
ㄱㅗᆼㅇㅠ⑨
##ㄴㅣᆼ
ㅊㅐ⑨ㄱㅝᆫ
ㄴㅜ⑨ㄹㅣ⑨
##as
ㅂㅣᆽ
ㅎㅏᆫㅌㅔ⑨
ㄱㅗᆯㅍㅡ⑨
kt
##ㄷㅡ⑨ㄹ
ㅎㅘ⑨ㅈㅏᆼ
ㄱㅝᆫㅎㅏᆫ
ㅇㅣᆯㅅㅏᆼ
ㅎㅖ⑨ㅌㅐᆨ
ㅎㅏᆫㅂㅓᆫ
ㅋㅗ⑨ㄹㅗ⑨ㄴㅏ⑨
ㅈㅔ⑨ㅈㅐ⑨
000
ㄷㅐ⑨ㅅㅏ⑨
ㅂㅐ⑨ㄱㅕᆼ
##ㅇㅗ
ㅇㅡᆼㄷㅏᆸ
ㄷㅗ⑨ㅊㅏᆨ
ㅈㅓᆫㅂㅏᆫ
ㅅㅗ
ㅂㅓ⑨ㅅㅡ⑨
ㅎㅡ⑨ㄹㅡ⑨
ㅇㅛ⑨ㅈㅡᆷ
ㅈㅜᆯㅇㅓ⑨ㄷㅡᆯ
ㄴㅓᆷㄱㅣ⑨
ㄱㅡ⑨ㄴㅑᆼ
##ㅍㅜᆯ
ㅊㅜᆯㅂㅓᆷ
ㅂㅓᆷㅇㅟ⑨
ㅇㅕ⑨ㅇㅢ⑨
ㅋㅜ⑨
ㄱㅛ⑨ㄱㅘ⑨
ㄴㅗᆯㄹㅏ⑨
5000
##ㅃㅏ⑨
ㄱㅣ⑨ㅇㅜᆯ
2007
ㅁㅣᆫㅈㅜ⑨ㅈㅜ⑨ㅇㅢ⑨
ㅍㅣ⑨ㅎㅐ⑨ㅈㅏ⑨
ㅈㅓ⑨ㄴㅕᆨ
ㄱㅓ⑨ㄷㅡᆸ
##ㄱㅜᆼ
ㅈㅏᆨㅅㅓᆼ
ㄴㅣ⑨ㄲㅏ⑨
45
ㅃㅜ⑨ㄹㅣ⑨
ㅌㅡ⑨
ㅅㅣᆷㄱㅏᆨㅎㅏ⑨
ㅅㅣᆫㄱㅠ⑨
ㅅㅜ⑨ㅇㅓᆸ
ㄱㅏᆹ
##ㄷㅏᆷㅎㅚ⑨
ㅅㅏᆼㅈㅣᆼ
ㅇㅣᆫㅈㅐ⑨
ㅇㅣᆫㅎㅏᆫ
ㅅㅏ⑨ㅂㅓᆸ
ㅌㅏ⑨ㅇㅣ⑨
ㄷㅗᆨㅈㅏ⑨
##ㅅㅏ⑨ㅈㅏ⑨
ㄹㅕᆨ
ㅅㅡ⑨ㅌㅏ⑨ㅇㅣᆯ
ㅇㅓ⑨ㅅㅓ
##ㅍㅔ⑨ㅇㅣᆫ
ㄱㅏᆸㅈㅏ⑨ㄱㅣ⑨
ㅂㅗ⑨ㅅㅏᆼ
ㅂㅜ⑨ㅂㅜ⑨
ㅊㅚ⑨ㅅㅓᆫ
ㅉㅏ
ㅌㅐ⑨ㅇㅓ⑨ㄴㅏ⑨
36
ㄴㅏ⑨ㄹ
ㅈㅐ⑨ㅁㅣ⑨
ㅁㅔ⑨ㅇㅣ⑨
ㅂㅜ⑨ㅇㅕ⑨
ㅇㅗᆯㄹㅏ⑨ㄱㅏ⑨
ㅇㅘᆫㅎㅘ⑨
ㅁㅐ⑨ㄴㅕᆫ
##ㅅㅣ⑨ㅈㅏᆼ
ㅊㅔ⑨ㄱㅕᆯ
ㄱㅗᆼㅇㅝᆫ
##ㅍㅠ⑨
ㅅㅣᆸ
33
ㅂㅏᆸ
##ㅅㅣᆼ
##ㅈㅣ⑨ㅅㅏ⑨
ㅎㅕᆼㅅㅣᆨ
##ㅚᆫ
ㄷㅗᆼㅇㅣᆯ
32
ㅈㅜ⑨ㅈㅏ⑨
##ㅈㅡ
ㅈㅓᆫㅇㅛᆼ
ㅂㅗ⑨ㄱㅓᆫ
ㅁㅣ⑨ㅅㅜᆯ
ㄷㅡᆯㅇㅓ⑨ㅅㅓ⑨
ㅈㅓᆨㅈㅓᆯ
ㅁㅏ⑨ㄹㅣ⑨
ㅈㅣ⑨ㄷㅗ⑨ㅂㅜ⑨
ㅈㅐ⑨ㄷㅏᆫ
ㅁㅏ⑨ㄱ
90
ㅌㅡᆯ
ㅇㅢ⑨ㄷㅗ⑨
ㅉㅏᆲ
ㅂㅗ⑨ㅌㅗᆼ
ㄹㅏ⑨ㅇㅣᆫ
ㅎㅚᆨ
ㅎㅐ⑨ㅅㅗ⑨
ㅊㅜᆼㄴㅏᆷ
ㄱㅏᆼㄴㅏᆷ
##ac
ㄱㅣ⑨ㅇㅕ⑨
##ㄷㅡᆷ
##ㅅㅡ⑨ㅋ
ㅂㅗᆷ
ㅅㅏᆼㅎㅗ⑨
ㅂㅏᆼㅈㅣ⑨
ㅇㅕ⑨ㅇㅢ⑨ㄷㅗ⑨
ㅊㅓᆼㅁㅜᆫㅎㅚ⑨
ㅇㅏ⑨ㅇㅜᆯㄹㅓ⑨
##ㄴㅏ⑨ㅁㅜ⑨
ㅇㅜᆫㅇㅛᆼ
ㅇㅛ⑨ㅇㅣᆫ
##ㄲㅐ⑨
ㅍㅗᆨㄹㅕᆨ
ㅊㅟ⑨ㅈㅣ⑨
ᆯㄲㅏ⑨
ㅁㅏ⑨ㅋㅔ⑨ㅌㅣᆼ
ㄸㅓ⑨ㅇㅗ⑨ㄹㅡ⑨
ㅈㅣᆷ
ㅂㅜ⑨ㄷ
ㄷㅗᆼㅁㅜᆯ
ㄴㅗᆫㄹㅣ⑨
ㅇㅠᆨㅅㅓᆼ
##ㅎㅗᆼ
ㅇㅣ⑨ㄷㅏᆯ
ㅈㅏᆼㅇㅐ⑨ㅇㅣᆫ
ㄷㅏᆼㅈㅏᆼ
ㅂㅜ⑨ㅅㅏᆼ
ㅍㅔ⑨ㅇㅣ⑨ㅅㅡ⑨ㅂㅜᆨ
ㅂㅜᇀㅇㅣ⑨
2017
ㅋㅓᆷㅍㅠ⑨
##ㄴㅏᆨ
kbs
ㄱㅜᆨㄹㅣᆸ
##ㅇㅜᆺ
##ㅎㅗ
ㅈㅣᆫㄷㅏᆫ
pr
##ㅅㅜᆷ
##ㅌㅔᆫㅊㅡ⑨
ㅇㅢ⑨ㅅㅣᆷ
ㄱㅏᆫㄷㅏᆷㅎㅚ⑨
ㅊㅜᆫ
ㅎㅏ
ㅇㅕᆫㄱㅖ⑨
ㅅㅏ⑨ㅈㅓᆼ
##ㄴㅣ⑨ㅅㅡ⑨
ㅈㅣ⑨ㅈㅏ⑨
##ㅊㅜᆫ
ㅎㅏᆫㄱㅖ⑨
ㅅㅡ⑨ㅁㅏ⑨ㅌㅡ⑨ㅍㅗᆫ
ㅈㅜ⑨ㅁㅜᆫ
ㄱㅖ⑨ㅇㅕᆯ
ㄱㅕᆯㅋㅗ⑨
ㅈㅣ⑨ㅋ
##ㅅㅣᆷㅎㅣ⑨
##ㄹㅛᆼ
ㅎㅏᆯㅇㅣᆫ
ㅇㅑ⑨ㄱㅝᆫ
##ㅎㅕ
ㅇㅏ⑨ㄴㅐ⑨
ㅈㅣᆨㅎㅜ⑨
ㅂㅗᆨㅎㅏᆸ
ㅇㅗ⑨ㅍ
##op
ㅌㅏᆸ
ㄷㅏ⑨ㄹㅣ⑨
ㅅㅜ⑨ㄷㅏᆫ
ㅇㅑᆼㄱㅜᆨ
ㅈㅓᆫㅌㅜ⑨
##ㅋㅔᆺ
ㅇㅣᆷㅅㅣ⑨
ㅂㅜᆯㅍㅕᆫ
ㅇㅠ⑨ㅇㅔᆫ
ㄴㅜᆫㅁㅜᆯ
##ent
ㅁㅏ⑨ㅈㅓ⑨
ㅁㅗ⑨ㅂ
##ㅎㅚ⑨ㅈㅏᆼ
##ㄷㅜᆼ
##ㅈㅣᆷ
ㅁㅣ⑨ㄷㅣ⑨ㅇㅓ⑨
ㅌㅗᆼㅈㅔ⑨
ㅅㅏᆼㅅㅏᆼ
ㅁㅐᆫ
ㅈㅓᆼㅇㅢ⑨ㄷㅏᆼ
ㅈㅏᆼㅁㅕᆫ
ㅎㅗᆷㅍㅔ⑨ㅇㅣ⑨
ㅊㅓ⑨ㅂㅓᆯ
ㅌㅏᆺ
ㅇㅏ⑨ㅁㅜ⑨ㄹㅣ⑨
ㅅㅐ⑨ㄹㅗ⑨
ㅈㅡᆼㄱㅓ⑨
ㅂㅏᆫㅂㅗᆨ
ㅅㅏᆼㄷㅏᆷ
##ㅋㅓᆸ
ㅅㅣᆯㅈㅣᆯ
ㄴㅗ⑨ㅁㅜ⑨
ㄱㅣᆫㅈㅏᆼ
##ㅔᆯㄹㅔ⑨
ㅊㅚ⑨ㅈㅓ⑨
##ㄱㅖ
ㄹㅔ⑨ㅇㅣ⑨
ㅂㅓ
ㄷㅏᆼㅅㅓᆫㅇㅣᆫ
ㅂㅣ⑨ㅎㅐᆼ
##ㅐᆼㄱㅣ⑨
ㅎㅑᆼㅅㅏᆼ
ㅈㅣ⑨ㅈㅏ⑨ㅊㅔ⑨
ㄴㅏ⑨ㅃㅡ⑨
##ㄹㅠᆨ
##ㄱㅏᆯ
ㅍㅡ⑨ㄹㅗ⑨ㅈㅔᆨㅌㅡ⑨
##ㄱㅡ⑨ㄹㅜᆸ
ㄱㅗᆼㄱㅏᆷ
ㅈㅓᆼㅂㅣ⑨
ㄱㅣ⑨ㅂㅜᆫ
ㅋㅡ⑨ㄹ
ㅌㅗᆼㅅㅏᆼ
ㅈㅓᆫㅎㅕᆼ
ㄱㅜᆯ
##ㄹㅓ⑨ㅅㅡ⑨
ㄱㅛ⑨ㄹㅠ⑨
2018
ㄱㅐ⑨ㅍㅕᆫ
ㅎㅏᆸㄹㅣ⑨
ㅋㅐᆷㅍㅡ⑨
ㄷㅡᆼㄱㅡᆸ
ㅎㅓ⑨ㅇㅛᆼ
ㄱㅐ⑨ㅈㅓᆼㅇㅏᆫ
ㅎㅗ⑨ㄴㅏᆷ
ㅇㅣ⑨ㅁㅕᆼㅂㅏᆨ
ㅅㅓᆫㅈㅣᆫ
ㄱㅜ⑨ㅇㅕᆨ
ㅈㅣᆫㅅㅣᆯ
ㅈㅏᆼㅂㅣ⑨
ㄱㅓ⑨ㄹㅗᆫ
ㅁㅕᆼㅇㅖ⑨
ㅇㅗ⑨ㄹㅐᆫ
ㅍㅕᆼㅅㅗ⑨
ㄴㅡᆫㄱㅏ
ㅇㅓ⑨ㄷ
##ㅎㅠ⑨
ㄱㅣ⑨ㅅㅗ⑨
ᆯㅅㅜ⑨ㄹㅗᆨ
ㅂㅜ⑨ㅈㅣ⑨
##ㅇㅣ⑨ㅌㅡ⑨
##ㅌㅡᆫ
ㅈㅓᆫㅁㅕᆫ
##ㅇㅛ⑨ㅇㅣᆯ
ㅂㅜᆯㄱㅏ⑨
ㅇㅣ⑨ㄹㅡᆫ
ㅎㅕᆫㅇㅏᆫ
ㅈㅣ⑨ㅅㅏᆼ
ㄱㅡ⑨ㅊㅣ⑨
ㅇㅣ⑨ㄹㅡᆫㅂㅏ⑨
ㅈㅜ⑨ㅊㅔ⑨
ㅎㅠ⑨ㄷㅐ⑨
ㅇㅕᆫㄱㅜ⑨ㅅㅗ⑨
ㄱㅏ⑨ㄷㅡᆨ
ㅇㅣ⑨ㄱㅓ⑨
##ㅈㅐ
ㅊㅏᆼㅇㅝᆫ
ㄱㅣᆷㅈㅗᆼ
ㅅㅓ⑨ㅇㅜᆯㄷㅐ⑨
##ㅍㅡ⑨ㅌㅡ⑨
ㅁㅜ⑨ㄱㅣ⑨
ㅊㅓᆯㄷㅗ⑨
ㅂㅜ⑨ㅈㅏᆼ
ㅎㅘᆨㅈㅏᆼ
##ㄱㅏᆹ
##ㄱㅝᆫㅈㅏ⑨
ㅇㅏ⑨ㅅ
ㄱㅕᆯㄹㅗᆫ
ㅋㅓᆷㅍㅠ⑨ㅌㅓ⑨
ㅊㅓ⑨ㅂㅜᆫ
ㅇㅜ⑨ㅈㅜ⑨
ㄴㅡᆫㅈㅣ⑨
ㅎㅡ⑨ㄹㅡᆷ
ㅂㅏᆨㅅㅏ⑨
ㄱㅜ⑨ㅇㅣᆸ
ㄲㅜ⑨ㅈㅜᆫ
ㅌㅜ⑨ㅈㅏ⑨ㅈㅏ⑨
195
##ㅇㅣᆻ
ㅈㅜ⑨ㄴㅕᆫ
ㄱㅏᆼㅈㅔ⑨
ㅇㅏᆸㅂㅏᆨ
ㅍㅖ⑨ㅈㅣ⑨
ㅁㅣ⑨ㄱㅜᆫ
ㄷㅏ⑨ㅅㅜ⑨
##ㅊㅕ⑨
ㄱㅣ⑨ㅇㅔ⑨
##ㄹㅏ⑨ㅈㅣ⑨
ㅂㅡ⑨ㄹㅣ⑨
ㅎㅡᆸ
ㅅㅜ⑨ㅈㅓᆼ
ㄷㅓ
ㅇㅕᆨㄹㅑᆼ
ㅊㅣᆯ
ㅁㅕᆼㄹㅕᆼ
ㅈㅣᆨㅇㅓᆸ
ㅇㅣᆸㅈㅜ⑨
ㅈㅣ⑨ㅅㅜ⑨
ㅈㅓᆯㅂㅏᆫ
mbc
ㅌㅗ⑨ㅈㅣ⑨
##ㅇㅗᆯㄹㅣ⑨
38
ㅅㅐᆼㅌㅐ⑨
ㅇㅣ⑨ㅎㅐᆼ
ㄷㅐ⑨ㅂㅜ⑨
##am
ㅈㅓᆼㄱㅣ⑨
ㄷㅗ⑨ㅅㅓ⑨
ㅁㅐᆼ
ㄱㅐ⑨ㅇㅣᆸ
ㅌㅏᆫㅎㅐᆨ
ㅋㅗᆫㅌㅔᆫㅊㅡ⑨
34
ㅈㅜᆼㄱㅏᆫ
ㅊㅐᆼㄱㅣ⑨
ㅁㅜᆯㄹㅣ⑨
ㅍㅕᆫㅇㅢ⑨
##ㅉㅣᆨ
ㅇㅘᆫㅈㅓᆫ
ㅎㅗ⑨ㅅㅗ⑨
ㅂㅜᆨㅁㅣ⑨
ㄸㅟ⑨ㅇㅓ⑨ㄴㅏ⑨
ㅋㅗᆯ
ㅈㅜᆨㅇㅣ⑨
ㄱㅜᆨㅈㅓᆼㅇㅝᆫ
ㅊㅜ⑨ㄱㅜ⑨
##ㅂㅏ⑨ㅇㅣ⑨
ㅂㅗᆫㅎㅚ⑨ㅇㅢ⑨
ㄷㅏ⑨ㄴ
ㅌㅜ⑨ㅈㅐᆼ
##ㄷㅏᆮ
ㅇㅚᆫ
ㅈㅐᆼ
ㄷㅣ⑨ㅈㅣ⑨
194
ㅅㅔ⑨ㄱㅡᆷ
ㅁㅐ⑨ㅈㅏᆼ
ㅋㅔ⑨ㅇㅣ⑨
ㅎㅕᆸㅎㅚ⑨
ㅇㅕᆯㅅㅣᆷㅎㅣ⑨
ㅆㅏᆼ
ㅇㅓ⑨ㅈㅔ⑨
ㅈㅣ⑨ㅋㅕ⑨ㅂㅗ⑨
ㅎㅢ⑨ㅅㅐᆼ
ㅁㅣ⑨ㄹㅣ⑨
ㅇㅕᆫㅊㅜᆯ
ㅇㅠᆼ
ㅁㅓᆷ
ㄷㅐ⑨ㅇㅏᆫ
##ㅎㅕᆯ
ㄴㅗᆼㅇㅓᆸ
ㅈㅏ⑨ㄹㅏᆼ
ㅈㅏᆭ
ㄴㅔ⑨ㅌㅡ⑨
ㄴㅐ⑨ㅅㅔ⑨ㅇㅜ⑨
ㅅㅓᆯㅈㅓᆼ
ㄱㅣ⑨ㄱㅜ⑨
##ㅎㅡᆸ
ㅅㅜ⑨ㅅㅜ⑨
ㅁㅜᆨ
ㅇㅜᆫㅈㅓᆫ
##ㅙᆫ
ㅇㅕᆫㄱㅡᆷ
##ㅊㅏᆭ
ㅅㅡ⑨ㅍ
ㅅㅜ⑨ㅁㅏ
ㅈㅣ⑨ㄴㅏ⑨ㅊㅣ⑨
ㄱㅏ⑨ㄹㅡ⑨ㅊㅣ⑨
ㅅㅣ⑨ㅅㅓᆫ
ㅅㅛ⑨ㅍㅣᆼ
ㅅㅜ⑨ㅁㅏᆭ
ㅃㅏ⑨
ㄸㅢ⑨
ㅅㅓᆫㄷㅐ⑨
ㅅㅣᆶ
##ㅇㅜᆼ
ㅇㅓᆷㅊㅓᆼ
##ㄷㅏ⑨ㄹ
ㅆㅏ⑨ㅇㅜ⑨
##le
##ation
##ㅎㅘ⑨ㅈㅓᆷ
ㅌㅐ⑨ㅇㅑᆼ
ㅇㅜᆷㅈㅣᆨㅇㅣᆷ
ㅌㅓᆯ
ㄴㅠ⑨ㅇㅛᆨ
ㅇㅝᆫㅈㅓᆫ
ㅇㅏ⑨ㄷㅗᆼ
ㅈㅣ⑨ㅎㅟ⑨
and
ㅇㅏ⑨ㄴ
ㅁㅗ⑨ㅂㅏ⑨ㅇㅣᆯ
ㅂㅓᆸㅁㅜ⑨ㅂㅜ⑨
ㅂㅕᆯㄷㅗ⑨
ㅍㅛ⑨ㅅㅣ⑨
##ㄷㅡ⑨ㄹㅣ⑨
ㅊㅜ⑨ㅈㅓᆼ
ㄱㅡᆫㅂㅗᆫ
ㅎㅏᆨㅂㅜ⑨
ㅇㅔ⑨ㅅㅓ
ㅁㅜᆯㄱㅓᆫ
##ㅇㅏ⑨ㄴ
ㅅㅓᆫㄱㅗ⑨
##ㄹㅏ⑨ㅇ
ㄱㅜᆨㅎㅚ⑨ㅇㅢ⑨ㅇㅝᆫ
ㄷㅏᆸㅂㅕᆫ
##ㄷㅗᆫ
ㅁㅗ
ㅅㅔ⑨ㅇㅝᆯㅎㅗ⑨
ㅇㅕᆫㄱㅏᆫ
ㄸㅔ⑨
ㅈㅗ⑨ㄱㅜᆨ
ㅇㅣ⑨ㅂㅔᆫㅌㅡ⑨
ㅁㅓᆷㅊㅜ⑨
ㅂㅔ⑨ㅌㅡ⑨
ㄱㅣ⑨ㅇㅜᆯㅇㅣ⑨
##ㅌㅡᆨ
ㄷㅣ⑨ㅈㅣ⑨ㅌㅓᆯ
ㅁㅜ⑨ㄹㅣ⑨
ㅅㅣᆨㅅㅏ⑨
##ㄷㅏᆯㄹㅣ⑨
ᆸㅅㅣ⑨
##ㅇㅕᆫㅎㅏᆸ
ㄷㅏᆯㄹㅏ⑨
ㅁㅗ⑨ㅈㅣᆸ
##ch
ㅂㅔ⑨ㅇㅣ⑨
ㄴㅏᇂ
ㄱㅏ⑨ㄲㅏ⑨ㅇㅣ⑨
##ig
ㄴㅏᆼ
ㅊㅐ⑨ㅇㅜ⑨
ㄱㅖ⑨ㅅㅣ⑨
##ㅇㅟ⑨ㅇㅝᆫㅈㅏᆼ
##ur
##ㅇㅏ⑨ㄴㅐ⑨
ㅌㅏᆨ
ㅈㅜ⑨ㅇㅣᆫㄱㅗᆼ
ㅂㅜᆫㅁㅕᆼㅎㅣ⑨
ㄱㅣ⑨ㅂㅜ⑨
ㄱㅕᆼㅎㅑᆼ
ㄷㅏ⑨ㅅㅗ⑨
ㄴㅔ⑨ㅌㅡ⑨ㅇㅝ⑨
##ㅇㅜ⑨ㅅㅡ⑨
##ㅊㅜᆷ
ㅈㅗ⑨ㄱㅣ⑨
ㅅㅣᆯㅈㅏᆼ
ㅁㅗ⑨ㅇㅣᆷ
ㅁㅠ⑨
ㅂㅏᆯㅎㅐᆼ
##ㅁㅓᆨ
ㄷㅗᆼㅇㅝᆫ
##ㅅㅏ⑨ㄱㅘᆫ
ㄱㅘ⑨ㅇㅕᆫ
##ㅁㅜᆫㅎㅘ⑨
ㅎㅘ⑨ㅎㅏᆨ
ㄲㅓ⑨
ㅂㅣ⑨ㄹㅣ⑨
ㅇㅝᆫㄹㅐ⑨
ㅎㅜᆯ
ㅆㅡ⑨ㅇㅣ⑨
it
ㅊㅐ⑨ㅌㅐᆨ
ㅍㅡᆯ
ㄷㅓᆯ
##ㄴㅏᆸ
ㅅㅓᆫㅊㅜᆯ
ㄷㅜᆯㄹㅓ⑨ㅆㅏ⑨
ㅅㅣᆷㅇㅢ⑨
ㄱㅡ⑨ㄸㅐ⑨
ㅅㅣᆯㅁㅜ⑨
ㄷㅏ⑨ㅇㅣ⑨
ㅅㅜ⑨ㄹㅣᆸ
ㅈㅓᆫㄱㅐ⑨
ㅂㅣ⑨ㄹㅖ⑨
ㅂㅡᆯ
ㄷㅏ⑨ㅁㅕ
ㄱㅗᆼㄷㅗᆼㅊㅔ⑨
##ㅏ⑨ㅁㅔ⑨
ㅇㅞ⑨
ㅋㅔ⑨
ㅊㅏᆽㅇㅏ⑨ㅇㅗ⑨
ㅇㅖ⑨ㅊㅡᆨ
ㄷㅏᆫㅇㅟ⑨
ㄱㅣᆫㄱㅡᆸ
ㅊㅟ⑨ㅈㅐ⑨
##ᆩㅇㅣ⑨
ㄷㅐ⑨ㄹㅣ⑨
ㄴㅗ⑨ㅁㅜ⑨ㅎㅕᆫ
ㄷㅏᆼㅂㅜ⑨
ㅅㅜ⑨ㅎㅏᆨ
ㅇㅣᆯㅈㅔ⑨
ㅈㅏ⑨ㅇㅠᆯ
ㄴㅏ⑨ㅅㅓᆫ
ㄱㅘᆫㅊㅡᆨ
##ㅋㅓᆫ
##ㄸㅏ⑨ㄹㅡ⑨
ㄱㅡ⑨ㄹㅐ⑨ㄷㅗ⑨
ㄱㅕᆼㄱㅖ⑨
ㄱㅗ⑨ㅂㅏᆯ
te
2006
ㅇㅛ⑨ㄱㅡᆷ
ㅈㅣᆸㅎㅚ⑨
ㅈㅓᆫㄴㅕᆫ
ㅈㅓᆼㅊㅣ⑨ㅇㅣᆫ
ㄴㅗᆷ
ㄸㅡ⑨ㄱㅓᆸ
ㅎㅕᆸㅇㅑᆨ
ㅅㅜᇁ
ㅅㅣ⑨ㄹㅣ⑨
##ㄹㅣ⑨ㅋㅏ⑨
ㅆㅏ⑨ㅇㅜᆷ
ㅇㅣᆸㅂㅓᆸ
ㅈㅗᆼㅁㅗᆨ
ㅈㅜ⑨ㄱㅓ⑨
ㄷㅔ⑨ㅇㅣ⑨ㅌㅓ⑨
##ㅅㅕ⑨
ㅊㅜᆼㄱㅕᆨ
ㅈㅓ⑨ㅈㅣ⑨
ㅇㅖ⑨ㅇㅛ
ㅈㅗ⑨ㅈㅏᆨ
ㅅㅏᆨ
ㄱㅗᆼㅁㅗ⑨
ㅂㅗᆫㅂㅜ⑨ㅈㅏᆼ
ㅁㅜ⑨ㅅㅣ⑨
##ㄹㅕ⑨ㅈㅣ⑨
ㄱㅖ⑨ㅅㅏᆫ
##ㅏ⑨ㅁㅕᆫ
##ㄴㅡ
ㅅㅗᆫㅎㅐ⑨
##ㅁㅏᆯㄹㅗ⑨
sn
##ㅈㅜᆯ
##ㅅㅣᆯㅈㅏᆼ
##ㅊㅔ
ㅊㅜᆯㅈㅓᆫ
ㄷㅡᆫㅈㅣ⑨
ㅁㅜᆯㄹㅓ⑨
ㅅㅡᆼㅂㅜ⑨
##ㄱㅓ
37
ㅋㅓᆯ
##ㄱㅛ
ㅂㅗ⑨ㅈㅗ⑨
##ㅁㅗ
ㄷㅏᆼㅇㅝᆫ
ㄱㅡ⑨ㄹㅣᆫ
ㄱㅣ⑨ㄱㅖ⑨
ㄷㅗ⑨ㄷㅓᆨ
ㄱㅐ⑨ㅎㅓᆫ
ㅈㅓᆷㅈㅓᆷ
ㅅㅣ⑨ㅇㅟ⑨
ㄱㅗ⑨ㅅㅗᆨ
ㅈㅟ⑨
ㅅㅣ⑨ㄱㅏ
##ㄷㅏᆫㅎㅏ⑨
ㅇㅣᆷㄱㅣ⑨
ㅌㅡᆨㄱㅓᆷ
ㅍㅕᆫㅈㅣ⑨
ㅅㅏ⑨ㅇㅣ⑨ㅌㅡ⑨
ㅍㅐ⑨ㅅㅕᆫ
ㅂㅜᆫㄹㅣ⑨
ㄱㅏ⑨ㅂ
ㅇㅓᆼ
ㅇㅜᆺㅇㅡᆷ
ㅈㅏ⑨ㄹㅏ⑨
ㅈㅓᆼㄱㅠ⑨ㅈㅣᆨ
ㅊㅏᆽㅇㅏ⑨ㄱㅏ⑨
ㄴㅏᆺ
ㅇㅚ⑨ㄱㅛ⑨ㅂㅜ⑨
ㅁㅐ⑨ㄹㅕᆨ
ㅇㅝᆯㄷㅡ⑨ㅋㅓᆸ
ㅇㅓᆷㅊㅓᆼㄴㅏ⑨
ㅂㅔ⑨ㅌㅡ⑨ㄴㅏᆷ
ㄱㅗ⑨ㅎㅑᆼ
ㅁㅜ⑨ㄹㅛ⑨
##oc
ㅁㅏᆫㄷㅡ⑨
ㅎㅜ⑨ㅇㅝᆫ
ㅊㅗᆼㅎㅚ⑨
##ul
ㄱㅏᆷㅇㅕᆷ
ㄸㅗᆨㄱㅏᇀ
##ㅇㅏ⑨ㄴㅏ⑨
ㅇㅡ⑨ㅅㅣ⑨
ㅌㅓ⑨ㅈㅣ⑨
ㅊㅗ⑨ㅊㅓᆼ
##ㄸㅡᆺ
ㅂㅜ⑨ㅍㅜᆷ
ㄷㅏᆼㅊㅗ⑨
##art
ㅇㅕᆫㅅㅓᆯ
ㄲㅡ⑨
##ㅎㅕᆨ
ㄱㅓ⑨ㅈㅣᆺ
ㄷㅏᆼㄴㅐ⑨
ㅁㅕᆫㅅㅓ
ㅊㅟ⑨ㅅㅗ⑨
ㅈㅓ⑨ㅎㅢ⑨
ㅎㅔᆯ
ㅈㅔ⑨ㅇㅣᆯ
ㄱㅗ⑨ㅇㅑᆼ
##ia
##ㅂㅔᆯ
ㅂㅣᆨ
ㄲㅗᆸㅎㅣ⑨
##ㅁㅐᆨ
ㅇㅠ⑨ㄱㅏ⑨
##ㅌㅐ
ㅋㅓ⑨ㅍㅣ⑨
##30
ㄴㅗ⑨ㅅㅓᆫ
ㅎㅏᆯㅁㅓ⑨ㄴㅣ⑨
ㅈㅏᆨㅈㅓᆫ
##ㅊㅜ
ㄱㅓ⑨ㄷㅐ⑨
ㄱㅐ
ㄱㅜ⑨ㅂㅜᆫ
ㅊㅏ⑨ㄱㅘᆫ
ㅇㅠᆫㄹㅣ⑨
ㄸㅏ⑨ㅈㅣ⑨
55
##ot
ㄱㅘᆫㄱㅘᆼㄱㅐᆨ
ㅂㅜᆫㄹㅠ⑨
ㄴㅐ⑨ㅇㅣᆯ
ㅈㅣ⑨ㄷㅗ⑨ㅈㅏ⑨
ㄲㅓ⑨ㄴㅐ⑨
ㄱㅡ⑨ㄱㅗᆺ
ㅃㅏᆯ
ㅊㅓᆫㅁㅏᆫ
ㅅㅏᆼㅊㅓ⑨
ㅁㅐ⑨ㅊㅔ⑨
##ㅅㅏᆫㅁㅜᆯ
ㄱㅘᆫㄱㅐᆨ
ㅅㅓᆼㄴㅏᆷ
ㄱㅣᆷㅅㅓᆼ
ㅈㅜ⑨ㅁㅏᆯ
ㅅㅏ⑨ㄹㅕᆼ
ㄷㅐ⑨ㅈㅏᆼ
ㅁㅐ⑨ㄱㅏᆨ
ㄱㅏ⑨ㅈㅕ⑨ㅇㅗ⑨
ㅅㅏᆯㅇㅏ⑨ㄱㅏ⑨
ㅎㅓ⑨ㄱㅏ⑨
ㅇㅠ⑨ㄱㅝᆫㅈㅏ⑨
ㅁㅓᆺ
ㅈㅓᆫㅂㅜᆨ
ㄱㅓ⑨ㅈㅜ⑨
ㅎㅡ
ㅇㅕᆨㄷㅐ⑨
ㄱㅐ⑨ㄱㅜᆨ
ㅅㅣ⑨ㅇㅣᆫ
ㅎㅗᆷㅍㅔ⑨ㅇㅣ⑨ㅈㅣ⑨
ㄷㅐ⑨ㅇㅜ⑨
ㅂㅣ⑨ㅁㅣᆯ
39
##ㅋㅡ
ㅈㅓᆼㅊㅔ⑨
##ㅌㅏ
ㄷㅏᆮ
ㅊㅜᆯㅍㅏᆫ
ㄹㅏ⑨ㄷㅣ⑨ㅇㅗ⑨
ㅂㅣ⑨ㅎㅐᆨ
ㄱㅕᆼㄱㅗ⑨
##ㄷㅏ⑨ㄹㅡ⑨
ㄱㅜᆨㅁㅜ⑨ㅊㅗᆼㄹㅣ⑨
ㅇㅏᆯㄹㅕ⑨ㅈㅣ⑨
ㅍㅜᆷㅈㅣᆯ
ㅌㅜ⑨ㅁㅕᆼ
##id
ㄷㅗᆼㄱㅣ⑨
ㄴㅜᆫㄱㅣᆯ
ㅁㅏᇀㄱㅣ⑨
ㄱㅡ⑨ㄹㅓ⑨ㅁㅕᆫ
ㅇㅔ⑨ㄱㅔ⑨ㅅㅓ⑨
ㅎㅕᆸㅈㅗ⑨
ㅊㅣ⑨ㅇㅕᆯ
ㅂㅏᆯㄱㅜᆯ
ㅅㅣᆫㅅㅓᆯ
ㅊㅣᆼ
ㄱㅏ⑨ㅇㅡᆯ
ㄷㅗᆼㅁㅐᆼ
##ㅁㅜᆨ
ㅇㅣ⑨ㄴㅐ⑨
ㅈㅗᆼㄹㅠ⑨
ㅅㅏ⑨ㅁㅜ⑨ㅅㅣᆯ
ㅅㅗᆫㅅㅣᆯ
ㅅㅏ⑨ㅇㅏᆫ
42
ㄱㅣ⑨ㄷㅗᆨ
ㅁㅣᆫㅅㅐᆼ
ㅅㅣᆯㄹㅕᆨ
##ㅍㅜ
ㅅㅜᆫㅇㅟ⑨
ㅂㅜ⑨ㅌㅏᆨ
ㅈㅣᆸㄱㅝᆫ
##ㅂㅣᆼ
ㅅㅓᆯㄷㅡᆨ
ㅁㅏ⑨ㅊㅣᆷ
ㄴㅑ⑨ㄴㅡᆫ
ㅂㅐ⑨ㅊㅜᆯ
ㄴㅔ⑨ㅌㅡ⑨ㅇㅝ⑨ㅋㅡ⑨
ㅂㅗ⑨ㅈㅡᆼ
ㅅㅣᆯㄹㅣ⑨
ㅁㅗᆯㄹㅣ⑨
ㅇㅡᆯㄲㅏ⑨
ㅋㅡ⑨ㄱㅣ⑨
##ㅇㅕᆸ
ㅇㅕᆫㄹㅏᆨ
ㄱㅖ⑨ㅊㅡᆼ
ㅈㅜ⑨ㅈㅜ⑨
##ㅁㅕᆯ
ㅈㅏᆼㅊㅣ⑨
##lin
ㅇㅏᆫㄴㅐ⑨
ㅊㅐ⑨ㄴㅓᆯ
ㅂㅐ⑨ㅈㅔ⑨
ㅊㅓᆷㄷㅏᆫ
ㅎㅏᆫㅎㅘ⑨
ㅅㅡᆼㅇㅣᆫ
##ㅠᆼ
65
##ㄹㅡᆼ
ㅇㅕᆫㅅㅡᆸ
ㅇㅡ⑨ㅁㅡ⑨ㄹㅗ⑨
##ㄲㅏᆸ
ㅋㅡᆯ
##ㄱㅝᆯ
ㅅㅏ⑨ㅇㅠ⑨
ㅈㅜ⑨ㅇㅣᆯ
##ㄷㅜ⑨ㄹㅡ⑨
ㅅㅏᆼㄱㅗᆼ
ㄱㅘ⑨ㅈㅏᆼ
ㄱㅏ⑨ㄹㅗ⑨
ㅂㅔᆯ
ㅅㅣᆫㅅㅗᆨ
ㅈㅣᆫㅇㅣᆸ
##ㅇㅡ
##ㅜᆶ
ㅅㅗ⑨ㅈㅏᆼ
ㅎㅐ⑨ㅁㅕᆼ
##ㄷㅔ
ㄸㅏᆨ
ㅈㅣᆯㅎㅘᆫ
##os
ㅅㅓ⑨ㅁㅣᆫ
ㄱㅡᆫㄹㅗ⑨ㅈㅏ⑨
ㅈㅣ⑨ㅂㅜᆫ
ㅇㅏ⑨ㅁㅜ⑨ㄹㅓᆫ
ㄴㅡᆫㄷㅏ⑨ㄴㅡᆫ
ㅊㅚ⑨ㄷㅐ⑨ㅎㅏᆫ
ㅁㅕᆫㅈㅓᆨ
##ㅊㅕ⑨ㅈㅣ⑨
ㅈㅣᆯㅅㅓ⑨
ㅈㅣ⑨ㅈㅓᆷ
ㅂㅏ⑨ㄷㅏᆨ
ㄷㅜᆯㅉㅐ⑨
ㅂㅜᆯㅁㅏᆫ
ㄱㅐ⑨ㅂㅏᆼ
ㄴㅗᇂㅇㅣ⑨
##ㄴㅕ
##ㅌㅏᆯㄹㅣ⑨
ㄷㅔᆯ
ㅅㅏᆼㄱㅘᆫ
ㅅㅏᆼㄷㅏᆼㅎㅣ⑨
ㄷㅗᆼㄹㅛ⑨
ㄲㅜᆫ
ㄱㅏ⑨ㄷㅗᆼ
ㅇㅣᆫㅈㅡᆼ
ㅅㅣᆷㅍㅏᆫ
ㅂㅣᆯㄹㅣ⑨
ㄱㅙᆫ
2005
##ㅇㅓ⑨ㄴ
ㅇㅟ⑨ㅇㅏᆫ
##ㄲㅓᆺ
3000
ㅁㅗᆼ
75
ㄱㅣ⑨ㅈㅣ⑨
ㅇㅖ⑨ㅅㅜ⑨
ㅇㅏᆨㅎㅘ⑨
ㄱㅐ⑨ㅅㅓᆼ
ㅂㅗᆨㄱㅟ⑨
ㄱㅘᆫㅈㅓᆷ
ㅇㅛ⑨ㄹㅣ⑨
ㅅㅐ⑨ㅂㅕᆨ
ㅇㅠ⑨ㅅㅏ⑨
##ㅈㅔᆫ
ㅇㅣᆸㅎㅏᆨ
ㅈㅔ⑨ㅈㅓᆼ
ㄲㅐ⑨ㄷㅏᆮ
ㅍㅡ⑨ㄹㅔ⑨
ㅎㅏᆫㄱㅜᆨㅇㅣᆫ
##ㅈㅏ⑨ㄹ
ㅇㅣ⑨ㅅㅠ⑨
##ㅋㅓᆯ
ㄱㅏ⑨ㅅㅜ⑨
##ㄱㅏ⑨ㄹㅏᆨ
ㄱㅣᇁㅇㅣ⑨
##ㄷㅏ⑨ㄴㅣ⑨
ㅈㅏ⑨ㄱㅗ⑨
ㅂㅏᆫㄷㅗ⑨
ㅈㅓᆸㅅㅜ⑨
##xt
ㅈㅏ⑨ㄱㅡᆨ
ㅂㅏᆯㅎㅟ⑨
ㄱㅕᆯㅎㅏᆸ
ㅂㅣ⑨ㅅㅓ⑨ㄱㅘᆫ
ㅍㅕᆫㅅㅓᆼ
ㅇㅠ⑨ㅎㅕᆼ
ㅂㅣ⑨ㅈㅓᆫ
ㄱㅗ⑨ㄱㅡᆸ
ㄱㅛ⑨ㅇㅠᆨㅊㅓᆼ
ㅈㅐ⑨ㄴㅏᆫ
ㅈㅗᆸ
com
ㅆㅏᆯ
ㅂㅡ⑨ㄹㅣ⑨ㅍㅣᆼ
ㅌㅔᆯㄹㅔ⑨
ㄷㅗᆼㅇㅏ⑨
##ta
ㄱㅗ⑨ㅁㅜᆫ
ㅇㅣ⑨ㅅㅓᆼ
ㄱㅣ⑨ㄷㅗ⑨
ㄷㅏᆫㄷㅗᆨ
##ㅇㅣᆯㅂㅗ⑨
ㅅㅓᆫㅂㅏᆨ
48
##ㅇㅗᆯ
ㄱㅘᆼㅇㅕᆨ
ㄷㅗᆼㅂㅏᆫ
ㄱㅐ⑨ㅂㅕᆯ
ㄱㅕᆼㅈㅜ⑨
ㄹㅡ
ㄴㅏ⑨ㅈㅜᆼ
ㅇㅓ⑨ㄲㅐ⑨
ㅈㅔ⑨ㅁㅗᆨ
ㅍㅏ⑨ㄱㅚ⑨
ㅂㅏᆼㅇㅓ⑨
##ㅂㅏ⑨ㄹㅗ⑨
ᆫㄷㅏ⑨ㅁㅕ
ㅂㅗᆨㅈㅏᆸ
44
ㅇㅠ⑨ㄷㅗ⑨
##ㅁㅏᆽ
##ㅅㅐᆼㅎㅘᆯ
ㅈㅜ⑨ㅊㅏ⑨
##ㅏ⑨ㅇㅜᆫㄷㅡ⑨
ㅎㅗ
ㄱㅗ⑨ㄱㅛ⑨
ㄱㅡᆫㄷㅐ⑨
ㅇㅢ
ㅇㅣ⑨ㅇㅜᆺ
ㄱㅏᆼㅇㅝᆫㄷㅗ⑨
ㅎㅏᆨㅇㅝᆫ
ㄱㅏᆼㅇㅢ⑨
ㄱㅣ⑨ㄷㅗᆨㄱㅛ⑨
##em
ㄷㅏ⑨ㄱㅏ⑨ㅇㅗ⑨
ㄱㅐᆯ
ㅈㅣᆼㄱㅖ⑨
ㄱㅘᆫㄹㅏᆷ
ㄱㅏ⑨ㅂㅕᆸ
ㅂㅜ⑨ㅎㅚ⑨ㅈㅏᆼ
ㅉㅏ⑨ㄹㅣ⑨
ㅅㅓ⑨ㅇㅜᆯㅅㅣ⑨ㅈㅏᆼ
ㄱㅖ⑨ㅎㅚ
ㅋㅏ⑨ㅁㅔ⑨
ㅁㅕᆼㅎㅘᆨ
##ㅇㅕᆫㄱㅜ⑨
##ㅚᆼ
ㄴㅏᆽㅊㅜ⑨
ㅇㅑᆼㅅㅓᆼ
ㅅㅏ⑨ㅇㅓᆸㅈㅏ⑨
ㄱㅡ⑨ㅁㅏᆫㅋㅡᆷ
ㄱㅓᆫㄹㅣᆸ
ㅅㅑ⑨
ㅅㅣᆨㄷㅏᆼ
ㅈㅜ⑨ㄱㅘᆫ
ㄱㅣᆷㅎㅕᆫ
##ㅈㅜᆼㅇㅏᆼ
ㅌㅜ⑨ㅅㅜ⑨
##ㄹㅗᆼ
##ㄴㅕᆼ
2004
##ㅂㅓ⑨ㄹㅣ⑨
##ㅋㅡᆯ
ㅈㅏᆼㅈㅓᆷ
ㄷㅏᆫㅇㅓ⑨
ㄲㅜ⑨ㅈㅜᆫㅎㅣ⑨
ㅅㅣᆯㅅㅜ⑨
ㅇㅕᆫㅈㅜ⑨
ㅎㅞ⑨
ㄱㅜ⑨ㄱㅏᆫ
ㅎㅜ⑨ㅂㅏᆫ
ㅈㅓᆫㅈㅔ⑨
ㅇㅑᆨㄱㅏᆫ
ㄷㅐ⑨ㅂㅜ⑨ㅂㅜᆫ
ㅍㅕᆼㅇㅑᆼ
##ㅇㅓᆸㅊㅔ⑨
ㅁㅜᆫㅈㅏ⑨
ㅊㅜᆼㄷㅗᆯ
ch
400
ㄱㅕᆯㅇㅢ⑨
ㅌㅏᆫㅅㅐᆼ
ㅇㅓ⑨ㅉㅣ⑨
ㅇㅓ⑨ㄸㅓ⑨
##ㅋㅙ⑨
ㅇㅣ⑨ㅌㅏᆯㄹㅣ⑨
ㅇㅔ⑨ㅇㅛ
ㅎㅗᆫㄹㅏᆫ
##ㅇㅏ⑨ㅎㅏ⑨
ㅇㅣ⑨ㅅㅡᆼ
ㅍㅡᆯㄹㅔ⑨ㅇㅣ⑨
ㅍㅕᆼㅅㅐᆼ
ㅇㅗ⑨ㄹㅡᆫ
ㅂㅓᆸㅈㅓᆼ
ㅅㅜ⑨ㅊㅣ⑨
ㅌㅗ⑨ㄹㅗᆫㅎㅚ⑨
ㅊㅜᆨㅅㅗ⑨
ㅍㅖ⑨ㄱㅣ⑨
ㅈㅓᆷㅅㅜ⑨
ㄱㅓ⑨ㄷㅡᆫ
ㅈㅗ⑨ㅇㅛᆼ
ㅍㅕᆯㅊㅕ⑨ㅈㅣ⑨
ㅅㅓᆼㅎㅑᆼ
ㅍㅣᆯㅅㅜ⑨
ㅂㅣ⑨ㄹㅗᆨ
ㄷㅐ⑨ㅎㅐᆼ
##ㄱㅗ⑨ㄱㅣ⑨
2002
ㅇㅗ⑨ㅍㅡᆫ
ㄱㅚᆼ
ㅂㅜ⑨ㄷㅏᆼ
##ㅍㅛ
ㅌㅗᆼㄱㅖ⑨
ㅇㅣ⑨ㅌㅡᆯ
ㅂㅗ⑨ㅇㅏᆫ
ㅈㅣᆫㅇㅕᆼ
ㅈㅔ⑨ㄱㅓ⑨
41
ㄱㅗᆼㄱㅣ⑨
##ㅌㅣ⑨ㅂㅡ⑨
##ㅁㅐ
ㅇㅣ⑨ㅈㅏ⑨
ㅎㅕᆼㅅㅏ⑨
ㅇㅢ⑨ㄱㅕᆯ
ㅊㅏᆫㅅㅓᆼ
ㄱㅔ⑨ㄷㅏ⑨ㄱㅏ⑨
ㅇㅘᆫㅂㅕᆨ
##ㅇㅏᆺ
ㅂㅜᆫㄴㅗ⑨
##ㄹㅔ⑨ㅇㅣ⑨
ㅇㅐᆯ
ㅈㅜᆼㄷㅐ⑨
ㄱㅓ⑨ㄴㅏ
ㅂㅏᆼㅇㅕᆨ
ㅅㅏ⑨ㄷㅡ⑨
ㄱㅡ⑨ㄹㅓᆷ
ㅈㅜ⑨ㄹㅕᆨ
##ㅋㅗᆷ
ㅈㅣᆫㅉㅏ⑨
ㅇㅓᆸㅈㅗᆼ
##ㅍㅡ⑨ㄹㅏ⑨
##ㅈㅣᆨㅇㅝᆫ
##ㅈㅜᆨ
ㅎㅏᆨㅂㅜ⑨ㅁㅗ⑨
ㄱㅗᆺㄱㅗᆺ
ㄴㅗ⑨ㄹ
ㄱㅗ⑨ㅁ
ㅁㅏᆽㅅㅓ⑨
ㅇㅣᆫㅇㅝᆫ
ㅈㅏ⑨ㅅㅣᆨ
ㅂㅣ⑨ㅎㅐᆨㅎㅘ⑨
ㅇㅏ⑨ㅃㅏ⑨
ㅂㅏᆰㅎㅕ⑨
##ㅁㅠ⑨
##ㅌㅗ
##ㅣᆽ
ㅇㅚ⑨ㅊㅣ⑨
ㅇㅏ⑨ㅇㅣ⑨ㄷㅣ⑨ㅇㅓ⑨
ㅈㅓᆸㅊㅗᆨ
ㅈㅗᆨ
ㅂㅗᆫㅈㅣᆯ
ㅂㅔᆫㅊㅓ⑨
ㅅㅓᆸ
##ㅅㅡᆯㄹ
##us
ㄸㅜ⑨
ㄴㅐ⑨ㅈㅣ⑨
ㅂㅣ⑨ㅈㅡ⑨
ㅂㅜ⑨ㅊㅐ⑨
ㄷㅓᆨㅂㅜᆫ
ㅍㅕᆫㅈㅣᆸ
52
ㅅㅗ⑨ㅂㅏᆼ
ㅈㅓᆨㅎㅏᆸ
ㅂㅓᆯㅆㅓ⑨
ㄷㅏᆯㄹㅓ
ㅁㅜᆯㄹㅑᆼ
ㅁㅜ⑨ㅅㅏᆼ
ㅇㅔ⑨ㅇㅣ⑨
ㄷㅐ⑨ㄱㅕᆯ
ㅅㅔᆺ
ㅈㅗᇂㅇㅏ⑨ㅎㅏ⑨
ㅇㅓᆫㅈㅔ⑨ㄴㅏ⑨
ㅈㅏ⑨ㅈㅓᆫ
##ㅏ⑨ㅇㅣᆷ
##ce
ㄷㅐ⑨ㄱㅣ⑨
ㅈㅏ⑨ㅁㅜᆫ
ㅅㅐᆼㅈㅗᆫ
ㅇㅕ⑨ㄱㅝᆫ
##ㄹㅠᆼ
##ㅇㅏ⑨ㅂ
ㄱㅣᆷㄷㅐ⑨
ㅎㅏ⑨ㅂㅏᆫㄱㅣ⑨
##ㅎㅏᆨㅅㅐᆼ
ㄱㅜ⑨ㅅㅏᆼ
ㅈㅜ⑨ㅇㅟ⑨
ㅇㅖ⑨ㄱㅗ⑨
ㄱㅡ
ㅍㅕᆼㅊㅏᆼ
ㅇㅣᆺㄸㅏ⑨ㄹㅡ⑨
ㅅㅣᆫㅊㅔ⑨
ㅂㅜ⑨ㅅㅓ⑨
##ㅅㅔ⑨ㄷㅐ⑨
##ㅉㅓᆨ
ㄷㅗ⑨ㅅㅣᆷ
ㅎㅚᆼ
ㅊㅜ⑨ㅅㅔ⑨
##ㅏ⑨ㅇㅣ
ㅈㅓᆼㅇㅝᆫ
ㅊㅏ⑨ㄷㅏᆫ
ㅅㅣ⑨ㄹㅣ⑨ㅈㅡ⑨
ㅍㅏ⑨ㄱㅕᆫ
ㅅㅓ⑨ㄱㅜ⑨
ㅍㅗ⑨ㅎㅏᆼ
##ㅈㅓᆼㅊㅣ⑨
##ㅈㅡᆼㄱㅝᆫ
##ㅈㅏ⑨ㄱ
ㅅㅏᆼㅈㅏᆼ
ㄱㅚᆼㅈㅏᆼ
ㅉㅣ⑨
ㅈㅣᆫㅅㅜᆯ
ㄱㅏᆷㄱㅏᆨ
ㅎㅕᆫㄱㅡᆷ
##ㄱㅗᆼㅎㅏᆼ
##ㅍㅡᆷ
ㅎㅘᆯㅇㅑᆨ
ㅇㅘᆫㄹㅛ⑨
##ㅈㅓᆼㄷㅏᆼ
ㅅㅏᆼㅇㅟ⑨
##ㄴㅗᆼ
ㅂㅏ⑨ㄹㅡᆫ
ㅊㅜ⑨ㄱㅕᆼ
ㄴㅗᆫㅁㅜᆫ
ㅇㅖ⑨ㅈㅓᆫ
##ㄹㅕ⑨ㅇㅗ⑨
ㅈㅣ⑨ㅇㅕᆨㄱㅜ⑨
ㄷㅗ⑨ㅈㅣ⑨ㅅㅏ⑨
##ㅅㅡ⑨ㅌㅏ⑨
ㅊㅓᆫㅇㅏᆫ
ㅈㅣᆨㅁㅜ⑨
ㅎㅗᆼㅈㅜᆫ
##ㅁㅛ⑨
sns
##ㅎㅓ
ㄱㅕᆼㄹㅕᆨ
ㅅㅓᆫㅎㅗ⑨
ㅇㅕ⑨ㄱㅓᆫ
ㄱㅗ⑨ㄹㅡ⑨
ㅂㅣ⑨ㄷㅐ⑨
ㅎㅏᆸㄷㅗᆼ
ㅇㅢ⑨ㅁㅜᆫ
ㄸㅏ⑨ㄹㅗ⑨
ㅂㅡᆯㄹㅐᆨ
##ㅊㅣᆫ
ㅇㅏ⑨ㄹㅡ⑨
ㅇㅓ⑨ㄹㅏ⑨
46
ㄷㅗ⑨ㅂㅏᆯ
ㅎㅕ
##ㄹㅏᆸ
ㄱㅝ
ㄲㅏᆷ
ㅍㅏᆫㅅㅏ⑨
ㅈㅓᆫㅅㅔ⑨
ㄴㅏᆷㄴㅕ⑨
ㅎㅏᆸㄱㅕᆨ
ㅇㅗ⑨ㅇㅕᆷ
ㅆㅏ⑨
ㅅㅏᆼㅂㅏᆫㄱㅣ⑨
##ㄹㅐᆫㄷㅡ⑨
ㄲㅡᇀㄴㅐ⑨
ㄷㅏᆯㄹㅏ⑨ㅈㅣ⑨
ㅅㅣᆫㅂㅜᆫ
ㄷㅏᆼㅅㅏ⑨ㅈㅏ⑨
##ㄱㅓᆫㅅㅓᆯ
ㅇㅢ⑨ㅈㅗᆫ
ㅎㅚ⑨ㄷㅗᆼ
ㅅㅓᆼㅁㅕᆼ
ㅁㅣ⑨ㅅㅗ⑨
ㄱㅏᆷㅅㅣ⑨
ㅇㅝᆫㄹㅣ⑨
ㅊㅕ⑨
##ㅊㅓᆼㅈㅏᆼ
ㅂㅏᆯㄷㅏᆯ
ㄱㅣ⑨ㅌㅏ⑨
ㅇㅕᆫㅅㅜ⑨
ㄱㅡ⑨ㄹㅓ⑨ㅁ
ㅂㅏᆫㅂㅏᆨ
ㄱㅜ⑨ㄴㅏ
ㄴㅕ⑨
ㅈㅡᆯㄱㅓᆸ
ㅈㅜ⑨ㅇㅓ⑨ㅈㅣ⑨
ㅎㅐᆼㅂㅗ⑨
##ㅊㅗᆼㅈㅏᆼ
text
ㄱㅜᆨㅈㅏᆼ
ㅎㅣᆯ
##ㄲㅗᆾ
ㄹㅓᆫ
ㄷㅏᆼㅇㅕᆫㅎㅣ⑨
ㅎㅡᆯㄹㅣ⑨
ㅈㅓᆫㅂㅜ⑨
ㄱㅡ⑨ㄹㅓ⑨ㅁㅡ⑨ㄹㅗ⑨
ㅎㅕᆸㅈㅓᆼ
ㅈㅓᆼㅈㅣ⑨
ㄷㅏ⑨ㅅㅓᆺ
ㅈㅓᆫㅇㅝᆫ
##ㄴㅣᆨ
ㄴㅐᆯ
ㅂㅜᆰ
ㅍㅗᆯ
ㄱㅣᆷㅌㅐ⑨
##ㅁㅜᆯㄱㅘᆫ
43
##ㄹㅕ⑨ㄱㅏ⑨
ㅊㅓ⑨ㅎㅏ⑨
ㅂㅗ⑨ㅈㅘ⑨
##ㅍㅜ⑨
ㅌㅣᆷㅈㅏᆼ
##ㄷㅏ⑨ㄹㅏᇂ
ㅌㅡᆷ
ㅁㅏᆫㄴㅏᆷ
ㅈㅣ⑨ㅎㅑᆼ
ㅈㅐ⑨ㅅㅐᆼ
##ㅍㅗᆷ
kb
ㅂㅏᆲ
ㅅㅡ⑨ㅌㅗ⑨
ㅂㅗ⑨ㅇㅘᆫ
ㅎㅞ⑨ㅅㅗᆫ
ㅌㅗ⑨ㄷㅐ⑨
ㅋㅏ⑨ㅁㅔ⑨ㄹㅏ⑨
##ㅎㅏᆨㅈㅏ⑨
ㄱㅜᆼㄱㅡᆷ
ㄱㅗᆼㅎㅘ⑨
ㄱㅡ⑨ㅈㅓ⑨
##ㅎㅗᆯ
47
ㅈㅓ⑨ㅈㅏ⑨
ㄱㅣ⑨ㅃ
##link
ㅈㅡᆼㅁㅕᆼ
##ㅏ⑨ㄱㅜ⑨
##ad
ㅊㅜᆯㅅㅓᆨ
ㅂㅜ⑨ㄱㅘ⑨
ㄴㅓ⑨ㅁㅜ⑨ㄴㅏ⑨
ㅂㅜ⑨ㅈㅏ⑨
ㄱㅛ⑨ㅇㅠᆨㄱㅏᆷ
ㅅㅓᆼㅇㅣᆫ
ㅆㅗᆮㅇㅏ⑨ㅈㅣ⑨
ㅉㅗᆾ
ㅁㅜ⑨ㄴㅓ⑨ㅈㅣ⑨
ㅎㅘᆯㅂㅏᆯ
ㅂㅕᆯㄹㅗ⑨
##ㅍㅡ
ㄱㅕᆫㅎㅐ⑨
textlink
ㅈㅣᆸㄱㅖ⑨
ㅅㅏ⑨ㄱㅣ⑨
ㄷㅏᆫㄱㅣ⑨
ㄱㅣ⑨ㅇㅝᆫ
ㅈㅣ⑨ㅁㅕᆼ
ㅎㅗᆼㅈㅜᆫㅍㅛ⑨
ㅂㅏᆨㅈㅣ⑨
##ㅅㅣᆫㅁㅜᆫ
ㄴㅓᆷㅇㅓ⑨ㄱㅏ⑨
ㄴㅗᆯㅇㅣ⑨
ㅈㅣ⑨ㄴㅏ⑨ㄱㅏ⑨
##ㅁㅗᆼ
ㄱㅓ⑨ㄷㅡᆫㅇㅛ
ㅎㅜᆯㄹㅠᆼ
##ㅂㅣ⑨ㅇㅏ⑨
ㅍㅡ⑨ㄹㅣ⑨ㅁㅣ⑨
for
ㅍㅗᆨㅂㅏᆯ
ㅌㅜ⑨ㅇㅓ⑨
ㅇㅗᆶ
##ㅏ⑨ㄱㅗ
##ㄹㅕᆸ
ㅈㅏᆸㅎㅣ⑨
ㅍㅛ⑨ㅈㅜᆫ
ㅅㅏ⑨ㄴㅐ⑨
ㅈㅏ⑨ㅈㅓᆫㄱㅓ⑨
ㅅㅣ⑨ㅅㅏ⑨
##ow
##ㅎㅡᆯ
ㅈㅓᆼㅅㅔ⑨
ㅇㅚᆫㅉㅗᆨ
ㄱㅜᆫㄷㅐ⑨
ㅊㅗ⑨ㅂㅏᆫ
##ㅅㅐ
ㅁㅣᆫㅅㅣᆷ
##ㅔᆨㅅㅣ⑨
ㅅㅏᆼㄷㅐ⑨ㅂㅏᆼ
ㄱㅏ⑨ㅅㅡ⑨
ㅎㅘ⑨ㄹㅕ⑨
ㅇㅓ⑨ㅇㅜᆯ
ㄱㅏ⑨ㄱㅔ⑨
ㅊㅐᆷ
##ㅉㅣ⑨
ㅇㅕ⑨ㅇㅠ⑨
ㅇㅣᆫㄱㅗᆼ
ㅇㅣ⑨ㄴㅕᆷ
ㅊㅜᆯㅇㅣᆸ
ㄱㅐ⑨ㅁㅏᆨ
ㄱㅗᆼㅍㅗ⑨
192
##ㅅㅡ⑨ㅌㅣ⑨
ㄴㅓᆷㅇㅓ⑨ㅅㅓ⑨
ㄷㅐ⑨ㅊㅓ⑨
ㅅㅐ⑨ㅈㅓᆼㅊㅣ⑨
ㅎㅕᆫㅎㅐᆼ
##ㅅㅕᆯ
ㅇㅕᆫㅁㅏᆯ
ㅈㅓ⑨ㅊㅜᆨ
ㅂㅜ⑨ㅅㅣᆯ
ㅂㅏᆼㅎㅐ⑨
ㅅㅣᆯㅎㅐᆼ
ㅅㅜᆺ
ㅇㅣ⑨ㅈㅓᆼ
ㅂㅡ⑨ㄹㅏ⑨
ㅇㅠ⑨ㄱㅣ⑨
ㄷㅐ⑨ㄱㅜ⑨ㅅㅣ⑨
##ㅂㅕ
##ㅈㅗ⑨ㅅㅓᆫ
##ㅋㅗᆼ
ㅎㅐ⑨ㄱㅜᆫ
ㅅㅜ⑨ㅅㅣᆸ
ㅌㅏ⑨ㄱㅕᆨ
ㄷㅐ⑨ㄹㅣᆸ
ㄹㅡ⑨
150
ㅅㅓᆫㅇㅣᆷ
2003
ㅇㅣ⑨ㅌㅏᆯㄹㅣ⑨ㅇㅏ⑨
ㅅㅜ⑨ㅂㅣ⑨
##ㅈㅏᆫ
ㄱㅗᆼㅌㅗᆼ
##ㅂㅟ⑨
ㄲㅡᆭㅇㅣᆷ
ㄱㅗ⑨ㄷㅗ⑨
##ㅁㅠ⑨ㄴㅣ⑨
ㄷㅓᇁ
ㅂㅏ⑨ㄹㅡᆫㅈㅓᆼㄷㅏᆼ
##ㅈㅣ⑨ㅇㅓ⑨
ㅇㅕᆯㅈㅓᆼ
ㅁㅐ⑨ㅇㅣᆸ
ㅇㅣᆫㄹㅠ⑨
##ㅁㅐᆫ
ㅍㅏ⑨ㄹㅣ⑨
ㅅㅣᆫㅇㅣᆷ
ㄱㅡ⑨ㄹㅓ⑨ㄴㅣ⑨ㄲㅏ⑨
ㅁㅜᆫㅈㅔ⑨ㅈㅓᆷ
##ㅡ⑨ㄹㅔ⑨ㅅㅡ⑨
ㅊㅓᆺㅉㅐ⑨
ㅇㅏᆫㅌㅏ⑨ㄲㅏᆸ
##od
ㅁㅔᆷ
ㅅㅏᆼㅇㅣᆫ
ㅋㅏ⑨ㅍㅔ⑨
##ㄷㅗ⑨ㄹㅗ⑨
ㅅㅓᆨㅇㅠ⑨
##ir
##ㅅㅏ⑨ㅇㅝᆫ
ㅈㅣᆨㅈㅓᆫ
##ㄹㅏᆫㄷㅡ⑨
ㅈㅗ⑨ㅁㅕᆼ
ㄱㅠ⑨ㅊㅣᆨ
ce
ㅇㅗ⑨ㅂ
ㅅㅣ⑨ㄴㅐ⑨
##ㅋㅗᆯ
ㅇㅜᆫㅁㅕᆼ
ㅂㅣ⑨ㅈㅡ⑨ㄴㅣ⑨ㅅㅡ⑨
ㅇㅣᆫㅍㅡ⑨ㄹㅏ⑨
ㅇㅏ⑨ㅇㅖ⑨
ㅁㅜ⑨ㅅㅓᆸ
ㄱㅜ⑨ㄷㅏᆫ
ㄱㅕᆼㅂㅣ⑨
ㄴㅗᆨㅅㅐᆨ
##ㄷㅏᆫㅎㅣ⑨
ㅎㅘ⑨ㅈㅔ⑨
ㅊㅗᆼㄱㅘᆯ
ㅇㅑᆨㅎㅏ⑨
##ㅇㅓᆸㅈㅏ⑨
##ㄱㅣᆷ
ㅎㅏᆨㅈㅏ⑨
ㅈㅣᆸㅇㅏᆫ
ㅍㅗ⑨ㅅㅡ⑨ㅋㅗ⑨
ㅁㅓᆯㄹㅣ⑨
ㅅㅓ⑨ㄹㅠ⑨
ㅅㅗ⑨ㄴㅕ⑨
49
ㅅㅏᆼㅎㅏ⑨
ㅂㅜᆯㄱㅏ⑨ㅍㅣ⑨
ne
ㄴㅓᆷㅊㅣ⑨
ㄱㅜᆫㅅㅜ⑨
ㅎㅚ⑨ㄱㅖ⑨
ㅈㅡᆼㅅㅏᆼ
ㅊㅏᆼㅇㅢ⑨
ㅈㅓ⑨ㅎㅏᆼ
##ㄹㅡᆫ
ㅈㅣ⑨ㅇㅟ⑨
ㅊㅏ⑨ㄱㅣ⑨
ㄷㅐ⑨ㄱㅏ⑨
##ㄱㅚ⑨
ㅇㅣᆫㅈㅣ⑨
ㅂㅏᆰㅎㅕ⑨ㅈㅣ⑨
ㅎㅕᆸㅇㅢ⑨ㅎㅚ⑨
ㅎㅏᆨㅁㅜᆫ
ㅎㅡᆫㄷㅡᆯㄹㅣ⑨
ㅅㅠ⑨ㅍㅓ⑨
ㅇㅕᆼㅈㅏᆼ
ㄷㅏᆫㅅㅜᆫㅎㅣ⑨
ㅇㅕᆼㅇㅣᆸ
ㅇㅣᆯㄱㅏᆨ
ㄴㅗ⑨ㄹㅣ⑨
ㄴㅐ⑨ㄹㅕ⑨ㄱㅏ⑨
##tv
ㅇㅠ⑨ㅅㅔ⑨
ㅈㅓᆼㅊㅏᆨ
ㅁㅜᆯㄱㅏ⑨
ㅅㅗ⑨ㅎㅘ⑨
ㅂㅜ⑨ㅈㅣᆫ
ㅅㅗ⑨ㅇㅟ⑨
ㅎㅓ⑨ㅇㅟ⑨
ㅅㅓᆯㅂㅣ⑨
ㅇㅟ⑨ㅇㅝᆫㅎㅚ
ㅎㅡᆼㅁㅣ⑨
ㅈㅜ⑨ㅈㅣ⑨
ㅂㅜ⑨ㅊㅗᆼㄹㅣ⑨
ㅎㅕᆫㄷㅐ⑨ㅊㅏ⑨
ㄱㅛ⑨ㄱㅘ⑨ㅅㅓ⑨
ㅅㅚ⑨
ㅇㅣᆫㅇㅛᆼ
ㅈㅓᆸㅎㅏ⑨
ㄱㅚᆼㅈㅏᆼㅎㅣ⑨
ㅂㅐ⑨ㄷㅏᆼ
51
##ㅓᆼㅇㅣ⑨
ㅁㅐ⑨ㅁㅐ⑨
ㅇㅣᆷㅇㅝᆫ
ㄷㅐ⑨ㅍㅗᆨ
ㄱㅠ⑨ㅁㅕᆼ
ㄱㅏᆼㄷㅗ⑨
##ㄱㅗᆼㄷㅏᆫ
ㅎㅠᆼ
ㅅㅗᆨㅎㅏ⑨
##ㄱㅓ⑨ㅈㅣ⑨
ㄴㅓᆯ
ㅋㅓ⑨ㅁㅠ⑨ㄴㅣ⑨
ㅈㅣᆫㅅㅏᆼ
ㄷㅏᆷㅂㅐ⑨
ㅅㅗ⑨ㅈㅜᆼ
ㅅㅜ⑨ㄴㅡᆼ
ㄷㅏᆷㅂㅗ⑨
ㅇㅓ⑨ㅇㅜᆯㄹㅣ⑨
ㅂㅐ⑨ㅅㅏᆼ
ㅊㅗᆺ
ㅊㅓᆼㅅㅏ⑨
ㅁㅓᆫㅈㅣ⑨
ㅈㅔ⑨ㄱㅜᆨ
ㅊㅐᆨㅇㅣᆷㅈㅣ⑨
ㅈㅗᆫㅈㅜᆼ
ㅇㅏ⑨ㅅㅣ⑨
ㅈㅜ⑨ㅊㅚ⑨
ㅈㅜᆼㄷㅗ⑨
##ㅈㅏ⑨ㅇ
ㄲㅗᆷ
##ㅈㅜ⑨ㅅㅣ⑨
ㅍㅏ⑨ㅌㅡ⑨
ㄴㅐ⑨ㄹㅕ⑨ㅇㅗ⑨
ㅅㅣᆷㅈㅣ⑨ㅇㅓ⑨
ㅇㅣᆯㅂㅏᆼ
ㅈㅗ⑨ㅇㅓᆫ
ㅈㅓᆽ
ㄱㅏᆫㅂㅜ⑨
ㅊㅗ⑨ㄷㅡᆼㅎㅏᆨㄱㅛ⑨
ㅂㅕᆫㄷㅗᆼ
ㄴㅐᆷ
ㄷㅗᆼㅅㅐᆼ
ㅈㅓᆷㅊㅏ⑨
ㅅㅏ⑨ㄴ
ㅁㅔᆷㅂㅓ⑨
ㅁㅗᆨㅅㅜᆷ
ㅂㅏ⑨ㄹㅏᆷㅈㅣᆨ
ㅇㅕ⑨ㅅㅏ⑨
ㅈㅡᆨㄱㅏᆨ
ㅇㅕᆫㄹㅕᆼ
ㅈㅏᆷㅈㅐ⑨
ㅍㅕᆼㄷㅡᆼ
ㅈㅗ⑨ㅅㅣᆷ
ㅁㅣ⑨ㄹㅜ⑨
ㅇㅔᆯㄹㅣ⑨
ㄱㅙᆫㅊㅏᆭ
ㅈㅗᆼㄹㅛ⑨
ㅁㅕᆫㅈㅓᆸ
ㅇㅠ⑨ㅅㅡᆼ
##un
ㄱㅏ⑨ㅎㅏ⑨
ㅈㅣ⑨ㅊㅜᆯ
ㄴㅗ⑨ㅊㅜᆯ
ㅅㅏᆯㅍㅣ⑨
ㅌㅡᆨㅇㅟ⑨
ㅊㅏ⑨ㅇ
ㅁㅏ⑨ㄴ
ㄱㅗ⑨ㄷㅡᆼㅎㅏᆨㄱㅛ⑨
ㅈㅜ⑨ㅈㅐ⑨
ㄱㅗ⑨ㅅㅓ⑨
ic
##ㅠᆷ
ㅇㅢ⑨ㅇㅝ
ㅊㅜᆼㅂㅜᆨ
ㅈㅐ⑨ㄱㅐ⑨
ㄷㅗᆼㄴㅔ⑨
ㅇㅓᆹㅇㅐ⑨
ㅇㅏ⑨ㄱㅣ⑨
ㅈㅗ⑨ㅈㅓᆯ
ㅋㅗ⑨ㄹㅣ⑨ㅇㅏ⑨
ㅊㅟ⑨ㄷㅡᆨ
ㅇㅛᆼㅇㅓ⑨
ㅈㅏ⑨ㅅㅣᆫㄱㅏᆷ
ㅎㅗ⑨ㅎㅡᆸ
ㅎㅡᆯㄹㅓ⑨
ㅈㅓᆫㄷㅏᆼ
ㄱㅓ⑨ㅊㅣᆯ
ᆫㅈㅣ
ㄱㅕᆨㅊㅏ⑨
##ve
ㄸㅏ⑨ㄹ
ㅌㅏ⑨ㅈㅏ⑨
##ㅎㅏ⑨ㅁㅕᆫ
##ㄲㅡ⑨ㄹㅓᆸ
ㅈㅣ⑨ㄷㅐ⑨
##ㅌㅣᆫ
ㄷㅔ⑨ㅂㅟ⑨
##ter
ㅊㅜᆼㅊㅓᆼ
ㄱㅛ⑨ㅎㅘᆫ
##ㄷㅐ⑨ㅎㅏᆨㄱㅛ⑨
ㅅㅡ⑨ㄴㅣᆷ
ㅅㅔ⑨ㅌㅡ⑨
ㄱㅓᆫㄴㅓ⑨
ㅃㅏ⑨ㅈㅕ⑨
##ㄲㅓ⑨
ㄱㅕᇀ
ㅍㅜᆼㅂㅜ⑨
ㅋㅐ⑨ㄹㅣᆨ
ㄱㅡᆸㅅㅣᆨ
##ㅁㅔ⑨ㄷㅏᆯ
ㅌㅐᆨㅅㅣ⑨
ㄱㅣ⑨ㄱㅣ⑨
ㅇㅠ⑨ㄹㅕᆨ
191
ㄷㅡᆯㅇㅕ⑨
ㅅㅜᆺㅈㅏ⑨
##ㅇㅝ⑨ㅎㅏ⑨
##ㅋㅗᆫ
ㅁㅓ⑨ㅁㅜᆯ
ㄹㅣ⑨ㄷㅓ⑨ㅅㅣᆸ
ㅂㅏᆨㅈㅓᆼ
ㅌㅔ⑨ㅇㅣ⑨
ㄷㅗᆯㅍㅏ⑨
ㄱㅗᆼㅈㅣᆨㅈㅏ⑨
ㅂㅐᆨㅅㅣᆫ
##ㅐᆼㅋㅡ⑨
1990
ㅎㅐ⑨ㅂㅏᆼ
ㄷㅜ⑨ㅅㅏᆫ
ㄱㅣᆷㄷㅗᆼ
ㅅㅓᆫㄱㅓ⑨ㄱㅜ⑨
ㅂㅏᆯㅇㅢ⑨
ㄱㅗ⑨ㄹㅕᆼ
ㅂㅐᆨㅅㅓᆼ
ㅇㅏ⑨ㄲㅣ⑨
ㄱㅏᆷㄷㅗᆼ
ㅈㅓᆫㄱㅗᆼ
ㅊㅣᆷㅎㅐ⑨
ㅅㅣᆮ
2020
ㅎㅏᆸㅊㅣ⑨
##ㄹㅣᆺ
ㅇㅠ⑨ㅊㅜᆯ
ᆯㄲㅏ⑨ㅇㅛ
ㄱㅐᆨㄱㅘᆫ
km
ㅈㅗ⑨ㄹㅖ⑨
ㅂㅏᆼㅇㅟ⑨
ㄹㅗ⑨ㅆㅓ⑨
ㄷㅗ⑨ㅅㅓ⑨ㄱㅘᆫ
ㅁㅣ⑨ㅅㅔ⑨
##ㄱㅘᆫㅇㅟ⑨
ㅇㅗᆯㄹㅏ⑨ㅇㅗ⑨
ㅍㅏ⑨ㅇㅣ⑨
ㄷㅏᆫㅈㅏᆼ
ㅇㅕᆫㄱㅡᆨ
##ㄹㅔᆫ
ㄴㅗᆼㅁㅣᆫ
##ver
ㅈㅜ⑨ㅎㅏᆫ
ㄱㅘᆼㅈㅏᆼ
##ㄴㅜ⑨
ㅂㅜᆼ
##ㅌㅣ
ㄱㅗ⑨ㅁㅏᆸ
ㅂㅏ⑨ㅃㅡ⑨
ㄱㅣ⑨ㄱㅡᆷ
##ㅌㅡ⑨ㄹㅣ⑨
ㄱㅘᆫㅊㅏᆯ
ㄱㅕᆯㅅㅡᆼ
##ㅌㅓ⑨ㄹㅣ⑨
ㅎㅗ⑨ㅈㅜ⑨
ㅈㅏᆼㅎㅏᆨ
ㅇㅞᆸ
ㄷㅏ⑨ㅈㅣ⑨
##ㅅㅔᆯ
ㅁㅐ⑨ㅅㅜ⑨
ㅅㅏᆼㅇㅓᆸ
##ㅇㅡᆫㅇㅣ⑨
ㅊㅣᆷㅊㅔ⑨
ㄴㅗ⑨ㅅㅏ⑨
ㅂㅜ⑨ㄷㅡ⑨ㄹㅓᆸ
ㅅㅣᆫㅎㅗ⑨
ㄱㅏ⑨ㄴㅏᆫ
ㄷㅗᆼㄹㅕᆨ
ㅇㅣᆯㅉㅣᆨ
ㅊㅗᆺㅂㅜᆯ
ㅎㅠ⑨ㄱㅏ⑨
ㅌㅗᆼㅂㅗ⑨
ㄲㅐ⑨ㄲ
ㅎㅓ⑨ㄹㅣ⑨
ㅇㅟ⑨ㅈㅜ⑨
ㅌㅔ⑨ㄹㅓ⑨
ㅅㅏ⑨ㅁㅜ⑨ㅊㅗᆼㅈㅏᆼ
##ㅁㅜ⑨ㄹㅡ⑨
ㅎㅗᆷㄹㅓᆫ
ㅍㅕ⑨
ㅋㅐ⑨ㄹㅣᆨㅌㅓ⑨
ㄱㅣ⑨ㅇㅏ⑨
85
ㅅㅔ⑨ㅈㅗᆼㅅㅣ⑨
ㅋㅙ⑨
ㄱㅗ⑨ㅈㅓᆼ
##ㄹㅕᆺ
ㅊㅜᆷ
ㅅㅜ⑨ㅅㅐᆨ
ㅂㅓᆫㅎㅗ⑨
ㅊㅟ⑨ㅇㅑᆨ
ㅁㅣᆯㄹㅣ⑨
ㅎㅘᆨㅅㅣᆫ
ㅇㅏᆫㅍㅏ
ㅇㅓ⑨ㄹㅡᆫ
ㅊㅗᆨㅈㅣᆫ
ㅇㅕᆼㅇㅑᆼ
ㅅㅗ⑨ㅅㅜ⑨
ㅇㅕ⑨ㅅㅜ⑨
ㅊㅡᆨㅈㅓᆼ
ㅅㅜ⑨ㅅㅣ⑨
ㄱㅡ⑨ㄹㅣ⑨ㅅㅡ⑨ㄷㅗ⑨
##ㅅㅡ⑨ㅌㅗ⑨
ㄱㅗᆼㅅㅏᆫ
ㅁㅏᆫㅇㅣᆯ
ㅅㅜᆫㅅㅜ⑨
ㄱㅜ⑨ㄷㅗ⑨
ㄷㅗᆯㅇㅏ⑨
ㅈㅗ⑨ㄱㅏᆨ
ㅇㅜᆫㅎㅐᆼ
ㅁㅏ⑨ㅈㅜ⑨
ㅊㅐᆷㅍㅣ⑨
ㄱㅗᆮㅂㅏ⑨ㄹㅗ⑨
ㅇㅛᆼㄱㅣ⑨
ㅊㅗ⑨ㅈㅓᆷ
ㅅㅓᆫㅂㅐ⑨
54
##ess
ㅈㅣᆯㅂㅕᆼ
193
##ㅇㅏ⑨ㅂㅓ⑨ㅈㅣ⑨
ㅋㅏᆫ
ㅇㅙ⑨ㄴㅑ⑨
ㅅㅗ⑨ㄴㅕᆫ
ㅇㅏᆫㅍㅏᆩ
ㅇㅜᆼ
95
ㅌㅏᆯㄷㅏᆼ
ㄹㅗ⑨ㅁㅏ⑨
ㅇㅣᆯㅈㅗᆼ
##ㅋㅡ⑨ㄹ
ㅈㅓᆷㅇㅠ⑨
ㄱㅏᆼㄱㅕᆼ
ㅊㅗ⑨ㄷㅐ⑨
##ㅇㅟ⑨ㅇㅝᆫㅎㅚ⑨
ㅁㅏᆽㅊㅜᆷ
ㅇㅔ⑨ㅅㅓ⑨ㅂㅜ⑨ㅌㅓ⑨
ㅈㅐ⑨ㅁㅜ⑨
ㅂㅜᆯㄱㅛ⑨
ㅎㅐ⑨ㅅㅏᆼ
ㅇㅣᆸㅈㅣ⑨
ㄷㅏ⑨ㅎㅐᆼ
ㅋㅓ⑨ㄷㅏ⑨ㄹㅏᇂ
ㅊㅗ
ㄱㅕ⑨ㄴㅑᆼ
re
##ㅅㅛ⑨
ㅁㅗ⑨ㅅㅐᆨ
ㅂㅏᆫㄷㅗ⑨ㅊㅔ⑨
ㄱㅓᆯㅇㅡᆷ
ㅊㅜᆯㅅㅏᆫ
##ㄹㅔᆨ
##ㄴㅣ⑨ㅇㅏ⑨
ㅅㅓᆫㄱㅓ⑨ㅂㅓᆸ
ㅅㅔ
ㅅㅙ⑨
ㅆㅗ⑨
ㄱㅘᆨ
ㄷㅗᆼㅂㅜ⑨
##ㅈㅗ⑨ㅎㅏᆸ
##ㅇㅡᆸ
ㄱㅓᆫㅇㅢ⑨
ㅎㅘᆫㅇㅠᆯ
ㅌㅟ⑨
ㅅㅔ⑨ㅍㅗ⑨
ㅁㅜᆯㄹㅓ⑨ㄴㅏ⑨
ㄱㅏᆨㅈㅏ⑨
ㅌㅡᆨㅎㅓ⑨
ㅅㅣᆫㅎㅘ⑨
ㅇㅕ⑨ㅇㅣᆫ
ㅍㅐ⑨ㅂㅐ⑨
56
ㅍㅕᆫㅎㅏ⑨
ㅁㅏ⑨ㄱㅏᆷ
ㅇㅜᆯㄹㅣ⑨
ㅅㅓ⑨ㅁㅕᆼ
##ㄹㅓᆨ
ㅈㅏ⑨ㅅㅏᆯ
ww
ㅅㅣᆫㅈㅜᆼ
ㅎㅘ⑨ㄹㅕ⑨ㅎㅏ⑨
ㅇㅏ⑨ㅇㅜ⑨
ㅈㅓᆨㅈㅏ⑨
ㅋㅡᆯㄹㅓᆸ
##ㅂㅏ⑨ㄹㅡ⑨
##ㄷㅓᆯ
ㅇㅗᆼ
ㅇㅔᆫㅈㅣᆫ
ㅎㅗ⑨ㄱㅣ⑨
ㄷㅏᆫㅅㅗᆨ
ㅁㅜ⑨ㄱㅔ⑨
ㅁㅠ⑨ㅈㅣ⑨
##ㅅㅡ⑨ㅌㅏᆫ
ㄱㅗ⑨ㅊㅣ⑨
ㅇㅠ⑨ㅎㅏᆨ
ㅁㅜᆫㅈㅏᆼ
##ㅐᆯㄹㅣ⑨
ㅅㅡ⑨ㅍㅔ⑨ㅇㅣᆫ
ㅎㅘᆼㅈㅔ⑨
##ㄹㅣ⑨ㄱㅡ⑨
ㅂㅗᆨㅇㅝᆫ
ㅍㅛ⑨ㅁㅕᆼ
ㅂㅣᆺ
ㅇㅕᆼㅇㅝᆫ
ㅇㅗ⑨ㄹㅐᆺ
##ㅍㅗ
##ㄷㅔᆫ
ㅈㅣᆫㄹㅛ⑨
ㅈㅡᆨㅅㅣ⑨
ㅎㅡᆫㅎㅣ⑨
ㅅㅣᆷㅈㅏᆼ
ㄴㅗᆼㅊㅗᆫ
ㅅㅡᆸㄱㅘᆫ
##ㅊㅐ
ㄱㅓᆷㅅㅐᆨ
ㅊㅐᆷㅍㅣ⑨ㅇㅓᆫ
ㄴㅗᇂㅊㅣ⑨
ᆸㅅㅣ⑨ㅇㅗ
ㅇㅏ⑨ㅅㅟᆸ
##ㅅㅏ⑨ㄹ
##ㅇㅣ⑨ㅎㅏ⑨
##ㄷㅜᆨ
##ㄱㅗᆼㅇㅓᆸ
ㄴㅏᆯㄹㅣ⑨
ㅎㅕᆼㅈㅔ⑨
ㅎㅘ⑨ㅁㅕᆫ
ㅅㅜ⑨ㅈㅜ⑨
ㅂㅣᆼ
##ㄲㅡᆷ
ㅎㅏᆫㅈㅓᆼ
##ㅊㅓᆫㅅㅣ⑨
ㅇㅗ⑨ㄹㅐᆺㄷㅗᆼㅇㅏᆫ
ㅂㅏᆫㅅㅓᆼ
un
ㅍㅓ⑨ㅈㅣ⑨
ㅇㅙ⑨ㄴㅑ⑨ㅎㅏ⑨ㅁㅕᆫ
##ㅓᆮ
##ㅂㅓ⑨ㅅㅡ⑨
ㄷㅗᆼㅇㅑᆼ
ㄱㅕᆯㅈㅔ⑨
##ㅁㅏ⑨ㄷㅣ⑨
ㅎㅘᆫㅇㅕᆼ
ㄱㅜᆫㅇㅣᆫ
ㅎㅏᆼㅇㅢ⑨
ㅈㅗᆼㅇㅣ⑨
ㅈㅣᆫㅎㅡᆼ
ㅅㅑ
ㅈㅏᆼㄱㅜᆫ
ㅊㅚ⑨ㅅㅗ⑨ㅎㅏᆫ
##ㄸㅏᆼ
ㄱㅣ⑨ㅈㅐ⑨
2001
ㅅㅡ
ㅈㅓᆼㅅㅓ⑨
ㅎㅐᆼㅎㅏ⑨
ㄸㅣ⑨
##ㄱㅛ⑨ㅇㅠᆨ
pc
ㄱㅗᆼㅅㅜ⑨
ㄱㅖ⑨ㅇㅕᆯㅅㅏ⑨
ㅇㅡᆼㅇㅝᆫ
ㅍㅕᆫㅇㅏᆫ
ㅇㅛᆼㅇㅣᆫ
ㅁㅗ⑨ㅅㅣ⑨
ㅁㅣᆫㅇㅝᆫ
##ㅅㅏᆫㅇㅓᆸ
##ㄹㅏ⑨ㅇㅣ⑨
1980
ㅅㅐᆼㅁㅜᆯ
ㅇㅕᆼㄴㅏᆷ
58
ㄷㅗ⑨ㅁㅣᆫ
##ㄲㅏᆯ
ㄴㅕ⑨ㅅㅓᆨ
59
##ag
##ㄷㅗ⑨ㅅㅣ⑨
ㅂㅣ⑨ㅆㅏ⑨
ㅇㅣ⑨ㄴㅏᆨ
ㅇㅣᆼ
ㄹㅏᆼ
##ㄱㅘᆫㄱㅖ⑨
##ㅅㅏ⑨ㅇ
ㅎㅘ⑨ㅈㅐ⑨
ㅇㅗ⑨ㄹㅣ⑨
ㅂㅕᆼㅅㅏ⑨
ㄴㅜ⑨ㄹㅡ⑨
ㅈㅣ⑨ㅍㅛ⑨
ㅈㅔ⑨ㅇㅑᆨ
ㄸㅏ⑨ㄸㅡᆺ
ㅅㅣ⑨ㅈㅓᆼ
ㅂㅗᆫㅅㅏ⑨
ㅅㅓᆼㄴㅡᆼ
600
##im
ㅋㅡᆯㄹㅐ⑨
53
ㅁㅜ⑨ㄱㅓᆸ
fta
ㅅㅓᆼㅂㅜᆫ
ㄴㅔ⑨ㅇㅣ⑨
ㅁㅜ⑨ㄹㅡ
ㅇㅐᆸ
ㄷㅡᆨㅈㅓᆷ
64
ㅇㅢ⑨ㄹㅚ⑨
ㅇㅣᆫㅁㅣᆫ
ㄱㅘ⑨ㄷㅗ⑨
ㅈㅓᆼㅁㅜ⑨
ㅍㅗ⑨ㄹㅓᆷ
ㄴㅡᆫㄷㅏ⑨ㄱㅗ⑨
ㄴㅐ⑨ㄴㅐ⑨
ㅂㅗ⑨ㅍㅕᆫ
ㄴㅔᆨ
##ㄴㅚ⑨
##ㅌㅔᆷ
ㅇㅏᆯㅇㅏ⑨ㅂㅗ⑨
ㅊㅐ⑨ㅁㅜ⑨
ㅅㅜᆷㄱㅣ⑨
4000
ㄸㅐ⑨ㄹㅗ⑨
ㅆㅏᇂㅇㅣ⑨
ㄴㅗᆯㄹㅏᆸ
ㅂㅕ⑨
ㅁㅜ⑨ㄹㅡᇁ
##ㅙ⑨ㅈㅣ⑨
ㅊㅏ⑨ㄱ
ㅊㅏᆷㄱㅗ⑨
ㅇㅣᆯㅊㅣ⑨
ㅁㅕ⑨ㅊㅣᆯ
ㅅㅣ⑨ㅂㅓᆷ
ㅈㅓᆯㄱㅏᆷ
ㅅㅣᆫㅅㅔ⑨
ㅆㅡᆯ
ㅇㅠᆨㄱㅜᆫ
ㅁㅜ⑨ㄹㅕ⑨
##ㅊㅓᆸ
ㅈㅣ⑨ㅎㅏ⑨ㅊㅓᆯ
##ㅅㅗᆯ
##ㅂㅗᆺ
con
ㅇㅕᆫㄱㅘᆫ
ㅂㅕᆫㅅㅜ⑨
ㅍㅡᆯㄹㅐᆺ
to
ㅇㅣ⑨ㄴㅏᆨㅇㅕᆫ
##ㅂㅜᇀ
ㄱㅗᆼㅅㅔ⑨
ㅅㅔᆫㅌㅓ
ㅇㅣ⑨ㅈㅗᆼ
ㅅㅏ⑨ㅁㅜᆯ
ㅈㅣ⑨ㅈㅣᆫ
ㄱㅛ⑨ㅇㅠᆨㅂㅜ⑨
ㅅㅡ⑨ㅌㅡ⑨ㄹㅔ⑨ㅅㅡ⑨
##ㅂㅏᇀ
ㅎㅐᆺ
ㅈㅐ⑨ㅁㅣ⑨ㅇㅣᆻ
ㅈㅣᆼㅇㅕᆨ
##ㅎㅏᆼㄱㅗᆼ
##ㅅㅟ⑨
ㄴㅐᆷㅅㅐ⑨
ㄷㅗ⑨ㅋ
ㅂㅜ⑨ㄹㅣ⑨
ㅅㅗ⑨ㅍㅡ⑨ㅌㅡ⑨
ㄴㅗᆫㅈㅐᆼ
ㅈㅓᆨㅇㅓ⑨ㄷㅗ⑨
ㅎㅏᆸㅂㅕᆼ
##end
##ㅡ⑨ㄹㅓ⑨ㅈㅣ⑨
ㄱㅕ⑨ㅇㅜ⑨
ㅍㅏ
mb
##ㅁㅏ⑨ㅇ
ㅇㅖ⑨ㅅㅏᆫㅇㅏᆫ
ㅇㅟ⑨ㄷㅐ⑨
ㅊㅔ⑨ㅍㅗ⑨
ㄱㅣᆷㅎㅐ⑨
ㄱㅜᆨㄴㅐ⑨ㅇㅚ⑨
ㅇㅗ⑨ㅂㅏ⑨ㅁㅏ⑨
ㅇㅚ⑨ㅎㅘᆫ
ㅅㅜ⑨ㅅㅜ⑨ㄹㅛ⑨
ㅈㅣ⑨ㅎㅖ⑨
ㄲㅓ
ㅊㅗ⑨ㄱㅘ⑨
ㅂㅗ⑨ㅈㅗᆫ
ㅌㅡ⑨ㅇㅟ⑨
ㅊㅓᆯㅎㅚ⑨
##ㄱㅕ⑨ㄴㅏ⑨
##ㅇㅞ⑨ㅇㅓ⑨
57
ㅁㅜᆫㅇㅢ⑨
ㅍㅜᆼㅂㅜ⑨ㅎㅏ⑨
ㅇㅢ⑨ㅈㅓᆼ
ㅁㅓ⑨ㅁㅜ⑨ㄹㅡ⑨
ㅇㅣᆯㄱㅘᆫ
ㅋㅡᆫ
ㄹㅏ⑨ㅇㅜᆫㄷㅡ⑨
ㅁㅏ⑨ㅊㅣᆷㄴㅐ⑨
##ㅁㅗᆫ
ㄷㅗᆼㄱㅖ⑨
ㅈㅜᆼㄱㅜ⑨
ㅊㅓᆯㅈㅓ⑨ㅎㅣ⑨
ㄱㅜ⑨ㅈㅔ⑨
ㅍㅐᆼ
ㅅㅓᆫㅈㅣᆫㄱㅜᆨ
ㅅㅗ⑨ㅁㅜᆫ
ㄱㅕᆯㅅㅣᆷ
im
ㅍㅖ⑨ㅅㅙ⑨
ㅇㅠ⑨ㄷㅐ⑨
ㅅㅏᆯㅇㅣᆫ
##ㅍㅏᆯ
ㅂㅗ⑨ㄱㅘᆫ
ㅈㅗᆼㄹㅗ⑨
ㄱㅣ⑨ㅎㅜ⑨
##if
ㄱㅐ⑨ㅅㅓᆯ
##ㄴㅏ⑨ㅇㅗ⑨
72
66
ㄱㅣ⑨ㅈㅗ⑨
ㅂㅐ⑨ㄹㅕ⑨
ㄷㅏᆫㅊㅔ⑨ㅈㅏᆼ
ㄱㅏ⑨ㄱㅖ⑨
ㅈㅡᆼㅅㅣ⑨
ㅈㅔ⑨ㅈㅜ⑨ㄷㅗ⑨
ㄱㅜᆫㅇㅛ
ㄱㅕᆫㄷㅣ⑨
ㅊㅜ⑨ㅅㅓᆨ
ㅎㅏᆸㄹㅠ⑨
ㄷㅐ⑨ㅎㅏᆨㅇㅝᆫ
ㅅㅏᆼㅅㅐᆼ
ㄱㅝᆫㅇㅟ⑨
ㅈㅘ⑨ㅇㅜ⑨
ㅇㅣᆸㅈㅡᆼ
ㅈㅏ⑨ㅁㅏ⑨
ㄴㅜᆸ
ㅂㅏ⑨ㅇㅣ⑨ㅇㅗ⑨
ㄷㅔ⑨ㄹㅣ⑨
ㅁㅜᆫㅅㅓ⑨
ㅁㅏᆫㄴㅏᆯ
ㅈㅗ⑨ㅎㅏᆼ
ㄸㅜᆶ
ㅃㅕ⑨
ㅇㅘ
ㅈㅣᆫㅎㅘ⑨
ㅈㅗ⑨ㅎㅘ⑨
ㅂㅜᆫㅇㅕᆯ
##ㅍㅣ
ㅍㅏ⑨ㄹ
ㅈㅐ⑨ㄹㅛ⑨
co
##ㅇㅜᆫㄷㅗᆼ
ㅇㅐᆫ
##ㅇㅔᆯ
ㄴㅗᆼㄱㅏ⑨
ㄱㅡᆨㅈㅏᆼ
##ㄹㅓ⑨ㅈㅣ⑨
ㄷㅗᆼㅎㅐ⑨
190
ㄲㅜᆷㄲㅜ⑨
ㅅㅏᆫㅎㅏ⑨
ㅌㅜ⑨ㄱㅣ⑨
ㅈㅓᆨㅇㅡᆼ
ㅇㅣ⑨ㅈㅜᆫ
ㅁㅣᆫㅈㅜᆼ
##ㅅㅏ⑨ㄱ
ㄲㅗᆯ
ㅅㅣ⑨ㄱㅡᆸ
ㅅㅣᆫㅇㅏᆼ
##ㅋㅔ⑨ㅇㅣ⑨ㅅㅕᆫ
##um
ㅇㅏᇁㅈㅏᆼ
ㄴㅏ⑨ㄹㅡᆷ
ㅈㅏ⑨ㄴㅔ⑨
ㅍㅔ⑨ㅇㅣ⑨
ㅇㅑᆼㅅㅏᆼ
ㄲㅡᆭㅇㅣᆷㅇㅓᆹㅇㅣ⑨
ㄹㅣᆼ
ㄲㅡᆫ
ㅇㅙ⑨ㄱㅗᆨ
ㅈㅓᆫㅈㅜ⑨
ㅁㅣᆮㅇㅡᆷ
ㄱㅘ⑨ㅁㅗᆨ
ㄹㅑᆼ
ㄷㅟ⑨ㅈㅣᆸ
ㅅㅓᆼㅍㅗᆨ
ㅌㅚ⑨ㅈㅣᆨ
ㄱㅓᆫㄴㅔ⑨
ㅂㅗ⑨ㄱㅝᆯ
ㅂㅜ⑨ㄱㅏᆨ
ㅅㅣᆼㄱㅏ⑨
ㅁㅏᆨㅎㅣ⑨
ㄱㅏᆼㅇㅕᆫ
ㅊㅓᆼㅅㅏᆫ
ㄱㅜᆸ
##ㅇㅕᆫㅎㅣ⑨
ㅅㅓᆫㄷㅜ⑨
##ㅍㅡ⑨ㄹ
##ut
ㅂㅗ⑨ㄱㅡᆸ
ㅂㅜᆫㅈㅐᆼ
ㄱㅣᆷㅈㅣᆫ
ㄸㅜ⑨ㄹㅕᆺ
ㄱㅜ⑨ㅅㅓᆼㅇㅝᆫ
ㅊㅏᆽㅇㅏ⑨ㅂㅗ⑨
ㄷㅗᆨㅌㅡᆨ
ㅋㅓᆯㄹㅓ⑨
ㅈㅓᆼㅎㅘᆨㅎㅣ⑨
##ㄴㅗᆯ
##ㅂㅔ⑨ㅇㅣ⑨
ㅁㅜ⑨ㅈㅏᆼ
ㅈㅓ⑨ㅈㅣ⑨ㄹㅡ⑨
##ㅅㅕ
##ㅇㅕ⑨ㄱㅡᆷ
ㅎㅏᆫㅁㅏ⑨ㄷㅣ⑨
ㅎㅗᆨㅅㅣ⑨
ㄴㅓᆯㄹㅣ⑨
ㅁㅣ⑨ㅁㅏᆫ
ㅅㅓᆫㄷㅐ⑨ㅇㅟ⑨
sbs
ㄱㅛ⑨ㅅㅓᆸ
ㅇㅖ⑨ㄱㅡᆷ
ㅅㅜᆫㅎㅘᆫ
ㅅㅗᆯㅈㅣᆨ
ㅎㅐ⑨ㅇㅜᆫ
##ㅌㅗᆫ
ㄱㅣᆷㄷㅐ⑨ㅈㅜᆼ
ㅁㅜ⑨ㄹㅕᆸ
ㅎㅏᆼㅁㅗᆨ
ㅃㅓᆫ
ㄴㅜᆫㅊㅣ⑨
ㄴㅏᆾ
ㅊㅏᆷㅁㅗ⑨
ㅅㅓᆫㄱㅘᆫㅇㅟ⑨
ㄱㅗ⑨ㄷㅡᆼ
ㅇㅠᆼㅎㅏᆸ
ㅇㅏ⑨ㅍㅡ⑨ㄹㅣ⑨ㅋㅏ⑨
ㅇㅛᆼㅇㅕᆨ
ㄴㅐ⑨ㄷㅏ⑨ㅂㅗ⑨
ㅅㅜ⑨ㄱㅡᆸ
##ㅇㅓ⑨ㄱㅏ⑨
ㄱㅗ⑨ㄷㅐ⑨
ㅊㅜᆨㅎㅏ⑨
ㄱㅏᆼㅎㅐᆼ
##ㄷㅓ
##ㄷㅔ⑨ㅇㅣ⑨
##ㅌㅏᆸ
##ip
##ㅎㅕᆸㅎㅚ⑨
ㅈㅓᆼㅅㅣᆨ
ㅂㅜ⑨ㅅㅏᆫㅅㅣ⑨
ㄴㅏᆯㅆㅣ⑨
ㅍㅣᆯㄹㅣ⑨
ㅈㅏ⑨ㅁㅕᆫ
ㅁㅗᆨㅅㅏ⑨
##ㄱㅗᆼㅇㅝᆫ
ㅎㅏᆨㄱㅘ⑨
##ap
ㄷㅜ⑨ㄹㅕᆸ
ㅈㅏ⑨ㅁㅏ⑨ㅈㅏ⑨
ㄱㅏᆷㅊㅜ⑨
ㅋㅗᆼ
ㄱㅗᆼㄱㅜᆫ
ㅂㅡ⑨ㄹㅏ⑨ㅈㅣᆯ
ㄱㅏᆷㅅㅏ⑨ㅇㅝᆫ
ㅈㅣ⑨ㅇㅕᆫ
##ㄱㅕᆸ
ㅎㅚᆨㄷㅡᆨ
ㅊㅚ⑨ㅅㅜᆫ
ㄱㅏ⑨ㄹㅣ⑨ㅋㅣ⑨
99
ㅇㅠ⑨ㅊㅣ⑨ㅇㅝᆫ
ㅈㅗ⑨ㄷㅏᆯ
ㅌㅔ⑨ㅁㅏ⑨
##ㅅㅏ⑨ㄱㅗ⑨
ㄸㅓ⑨ㅇㅗᆯㄹㅣ⑨
ㄷㅗᆮ
##ㅈㅏ⑨ㄷㅗᆼ
##ㅂㅔᆫ
ㄱㅣᆷㄱㅕᆼ
ㅅㅏ⑨ㅇㅓ
ㅌㅐ⑨ㅍㅕᆼ
ㅊㅗᆫ
##ㄱㅡᆺ
ㅈㅏᆭㅇ
##ㄴㅠ⑨ㅅㅡ⑨
ㅇㅖᆺㄴㅏᆯ
ㄱㅏ⑨ㅅㅏᆼ
##ㅍㅗ⑨ㄹㅡ⑨
ㅇㅔ⑨ㅇㅓ⑨
ㅂㅜᆯㄹㅓ⑨
ㄷㅗᆨㅅㅓ⑨
ㅂㅐᆨㅎㅘ⑨ㅈㅓᆷ
ㅈㅣᆯㅇㅢ⑨
ㅅㅣᆨㅁㅜᆯ
is
ㄱㅓ⑨ㅅㅔ⑨
ㅇㅛᆨㅁㅏᆼ
ㅅㅏᆼㅅㅣᆯ
ㅌㅏ⑨ㄷㅏᆼ
##ㅁㅣᆼ
ㅇㅗᆸ
ㄱㅡᆸㅈㅡᆼ
ㅇㅑᆼㅅㅣᆨ
ㅈㅏᆭㅇㅏ⑨ㅇㅛ
ㄴㅗᆼㅎㅕᆸ
ㅊㅓᆼㅇㅑᆨ
ㅃㅐ⑨ㅇㅏᆺ
ㄷㅗ⑨ㄴㅐ⑨
ㅇㅏᆼ
ㅅㅜ⑨ㅈㅣᆸ
ㅎㅘ⑨ㅅㅓᆼ
ㄱㅡ⑨ㄱㅏᆫ
ㄱㅜ⑨ㅎㅕᆫ
ㅈㅣ⑨ㅇㅝᆫㄱㅡᆷ
ㄱㅜᆨㅁㅕᆫ
ㅇㅐ⑨ㅍㅡᆯ
ㄱㅕᆨㄹㅕ⑨
ㅇㅣ⑨ㅅㅡ⑨
ㄱㅣᆷㄱㅣ⑨
##ㅇㅏᆯ
ㅅㅜ⑨ㄹㅣ⑨
ㅋㅐ⑨ㄴㅏ⑨
ㅎㅕᆫㅎㅘᆼ
ㅍㅗ⑨ㅈㅏᆼ
##ㅊㅣᆺ
kr
ㅅㅣᆯㅇㅓᆸ
ㅊㅡᆨㄱㅡᆫ
ㄷㅗᆼㄴㅏᆷ
ㅇㅣ⑨ㄹㅏ⑨
ㅇㅣᆯㅅㅣ⑨
ㅇㅗ⑨ㅈㅣᆨ
ㅇㅣᆸㅊㅏᆯ
ㄱㅡᆫㅊㅓ⑨
ㅍㅜ⑨ㄹㅡ⑨
ㅆㅡ⑨ㄹㅔ⑨
62
##ㅊㅓᆷ
ㅊㅏᆼㅈㅏᆨ
ㅊㅏᆷㅅㅏ⑨
ㅂㅏᆨㅁㅜᆯㄱㅘᆫ
ㄱㅘᆼㅈㅜ⑨ㅅㅣ⑨
63
ㅇㅕᆫㅂㅏᆼ
ㅂㅓᆫㅇㅕᆨ
ㅇㅠ⑨ㅅㅡᆼㅁㅣᆫ
ㅈㅓᆫㅎㅜ⑨
ㅇㅓ⑨ㄷㅜᆸ
ㅇㅑᆼㅅㅏᆫ
ㄱㅡᆨㄷㅏᆫ
ㅈㅣ⑨ㄹㅡ⑨
ㅇㅣᆷㅁㅜ⑨
ㅎㅐᆼㅈㅓᆼㅂㅜ⑨
ㅇㅛᆼㅅㅏᆫ
ㄹㅗ⑨ㅂㅗᆺ
ㄱㅟ⑨ㄱㅜᆨ
##ㅇㅣ⑨ㄷㅡ⑨
ㅅㅏᆼㄱㅏ⑨
ㅎㅕᆫㅇㅕᆨ
ㅍㅔᆫ
##ay
ceo
ㄷㅐ⑨ㅅㅏᆼㅈㅏ⑨
##ㅁㅣᆯㅎㅏ⑨
ㅈㅏ⑨ㅇㅕᆼ
ㅅㅣᆫㅎㅏᆫ
ㅎㅘ⑨ㅈㅏᆼㅍㅜᆷ
ㅅㅡ⑨ㅇㅟ⑨
ㅍㅡ⑨ㄹㅣ⑨ㅁㅣ⑨ㅇㅓᆷ
ㅅㅗ⑨ㅇㅚ⑨
ㄱㅡᆸㄱㅕᆨ
ㅂㅜ⑨ㅍㅐ⑨
##ㄴㅣ⑨ㅇㅓ⑨
##ㅂㅡᆯㄹ
ㅁㅗᆪ
ㅋㅐᆷㅍㅔ⑨ㅇㅣᆫ
##ㄹㅗ⑨ㅅㅗ⑨
##ㄱㅝ
ㄹㅓᆫㄷㅓᆫ
##ㅇㅣᆼ
ㅎㅐ⑨ㅈㅔ⑨
ㅅㅜ⑨ㅇㅕᆼ
ㅁㅕᆼㄷㅏᆫ
##ㅈㅣ⑨ㅇㅕᆨ
cj
ㅅㅓ⑨ㄷㅜ⑨ㄹㅡ⑨
ㅊㅕ⑨ㄷㅏ⑨ㅂㅗ⑨
ㅈㅏᆸㅈㅣ⑨
ㄷㅐᆺ
ㄱㅏᆨㄱㅜᆨ
ㅍㅡᆯㄹㅐᆺㅍㅗᆷ
ㄱㅏᆫㅅㅏ⑨
ㅁㅜ⑨ㅎㅏᆫ
ㅅㅣ⑨ㅊㅓᆼㅈㅏ⑨
ㅂㅣ⑨ㅅㅓ⑨ㅅㅣᆯㅈㅏᆼ
ㄷㅗ⑨ㅋㅛ⑨
ㄱㅖ⑨ㄱㅡᆸ
ㅍㅏ⑨ㅇㅓᆸ
al
##ㅂㅐ
##ㄷㅏ⑨ㅅㅣ⑨
ㄴㅗ⑨ㅎㅜ⑨
ㅈㅜ⑨ㄹㅠ⑨
##ㅂㅏ⑨ㄷㅏᆨ
ㅂㅏᆨㄹㅏᆷ
ㅎㅘᆨㅊㅜᆼ
ㅅㅗ⑨ㅎㅘᆫ
ㅋㅓᆫㅅㅓᆯ
ㅅㅣᆫㅎㅏᆨ
ㅇㅣᆷㅈㅣᆨㅇㅝᆫ
ㅅㅜ⑨ㅂㅐᆨ
ㄲㅜ⑨ㅁㅣ⑨
ㅈㅐᆼㅈㅓᆷ
##ㄱㅕᆼㅈㅔ⑨
ㅈㅣ⑨ㅈㅜ⑨
ㅅㅏᆼㅅㅣᆨ
ㄲㅏ⑨ㅈㅣ
ㅇㅏᆸㅅㅜ⑨
ㅈㅓ⑨ㄹㅕᆷ
ㅈㅡᆼㅇㅣᆫ
ㅅㅓᆫㅈㅓᆫ
ㄷㅜᆼ
ㅍㅏᆫㅈㅓᆼ
ㅁㅣ⑨ㅇㅏᆫ
ㄸㅗ⑨ㄷㅏ⑨ㅅㅣ⑨
ㅇㅠ⑨ㅂㅏᆯ
ㅎㅘ⑨ㅁㅜᆯ
ㅇㅡᆫㅌㅚ⑨
ㅎㅚ⑨ㄱㅘᆫ
##ㅋㅠ⑨
ㄱㅡᆸㅇㅕ⑨
ㅇㅏ⑨ㅇㅣ⑨ㅌㅔᆷ
ㅈㅏ⑨ㄹㅡ⑨
ㄱㅘᆫㄹㅛ⑨
74
ㅇㅕ⑨ㅈㅣ⑨
ㄱㅡ⑨ㄹㅓᇂㅈㅣ⑨ㅁㅏᆫ
ㅊㅏᆨㅅㅜ⑨
ㅁㅕᆯ
ㄲㅣ⑨ㅊㅣ⑨
##ㅋㅏᆯ
ㅅㅔ⑨ㅅㅏᆼㅇㅔ⑨
ㅆㅡ⑨ㄹㅔ⑨ㄱㅣ⑨
ㄱㅜ⑨ㅁㅣ⑨
##ㅋㅏ⑨ㄷㅡ⑨
ㅈㅔ⑨ㅈㅏ⑨
ㄷㅜᆫ
##ㅇㅏ⑨ㅇ
##ㅁㅓᆫㅌㅡ⑨
ㅅㅣᆼㄱㅏ⑨ㅍㅗ⑨ㄹㅡ⑨
ㅂㅜᆨㅊㅡᆨ
ㄷㅐ⑨ㅁㅗᆨ
ㅁㅜ⑨ㄹㅕᆨ
ㄲㅏᆯ
ㅋㅗᆫㅅㅓ⑨
ㅍㅏ⑨ㅌㅡ⑨ㄴㅓ⑨
ㅇㅠ⑨ㄴㅣ⑨
ㅅㅣᆫㄹㅏ⑨
ㅁㅜᆫㅎㅘ⑨ㅈㅐ⑨
ㅇㅣᆸㅅㅣ⑨
ㄷㅓᆼ
##ie
ㄷㅗᆼㅊㅏᆷ
ㅇㅏᇁㅈㅏᆼㅅㅓ⑨
ㅇㅕᆫㅇㅖ⑨
ㅅㅡ⑨ㅍㅣ⑨
1996
##ㅇㅛᆼㅊㅏ⑨
ㅁㅜᆯㄹㅠ⑨
ㅅㅏ⑨ㅇㅣ⑨ㅂㅓ⑨
800
##ㄷㅓᆷ
ㅈㅜᆼㅎㅏᆨㄱㅛ⑨
ㅁㅏ⑨ㄷㅏᆼ
##ㄹㅓᇂ
ㄸㅏᆷ
ㄷㅐ⑨ㄹㅠᆨ
##ㄱㅏ⑨ㅅㅡ⑨
ㅂㅣ⑨ㅊㅣ⑨
ㄴㅏᆷㅂㅜ⑨
ㅅㅏ⑨ㄹㅏ
ㄱㅓ⑨ㅈㅣᆺㅁㅏᆯ
ㅌㅡ⑨ㅇㅟ⑨ㅌㅓ⑨
68
ㅁㅜᆩ
ㅇㅗᆯㅂㅏ⑨ㄹㅡ⑨
##ㅁㅓᆼ
ㄷㅗ⑨ㄷㅐ⑨
ㅅㅣᆯㅁㅏᆼ
##ㅇㅏ⑨ㄹㅣ⑨
##ㅇㅞ⑨ㅇㅣ⑨
##ㅇㅏᇁ
ㅉㅗ
ㅍㅣ⑨ㅇㅜ⑨
ㅅㅔ⑨ㅂㅜ⑨
84
ㅂㅏᆨㅇㅕᆼ
ㄷㅐ⑨ㅁㅏᆫ
ㅍㅕᆫㄹㅣ⑨
ㅇㅠ⑨ㄷㅗᆼ
ㅊㅗ⑨ㄹㅐ⑨
61
ㄴㅣ⑨ㄲㅏ
su
ㄷㅙ⑨ㅈㅣ⑨
##ㄹㅓᆯ
ㄱㅓ⑨ㅈㅓᆯ
ㅎㅏᆯㅇㅏ⑨ㅂㅓ⑨ㅈㅣ⑨
ㅂㅏᆨㅅㅜ⑨
ㄲㅣ⑨ㄹㅣ⑨
ㄱㅡᆷㄱㅏᆼ
ㄷㅗᆯㅇㅏ⑨ㅂㅗ⑨
ㅌㅗᆼㅇㅣᆯㅂㅜ⑨
ㄱㅔ⑨ㅅㅣ⑨
ㄷㅏ⑨ㅈㅣᆷ
ㅇㅓᆺ
ㄱㅣ⑨ㅃㅡ⑨
ㅊㅗ⑨ㄷㅡᆼ
ㅍㅏᆯㄹㅣ⑨
##ㅂㅏᆸ
##ㅂㅕᆼㅇㅝᆫ
ㅈㅓ⑨ㄹㅕᆷㅎㅏ⑨
ㅈㅐ⑨ㅍㅏᆫㅂㅜ⑨
ㅇㅠ⑨ㅎㅐᆼ
67
ㄷㅗᆼㅂㅜᆨ
ㅎㅐ⑨ㅊㅔ⑨
ㅍㅜᆷㅁㅗᆨ
##ㄷㅐ⑨ㅍㅛ⑨
ㅎㅗᆼㅋㅗᆼ
ㅇㅏᆸㄷㅗ⑨
ㅊㅚ⑨ㅅㅜᆫㅅㅣᆯ
ㄷㅗ⑨ㄷㅐ⑨ㅊㅔ⑨
ㅂㅜᆺ
ㄷㅗᆨㅈㅐ⑨
ㄱㅕᆸ
ㅈㅓᆨㅂㅏᆯ
ㅈㅓᆱㅇㅡᆫㅇㅣ⑨
ㅇㅗ⑨ㄹㅡᆫㅉㅗᆨ
ㅈㅐ⑨ㅂㅓᆯ
ㅊㅓᆼㅈㅏᆼ
ㅊㅜᆼㅅㅣᆯ
ㅊㅡ
ㄱㅘ⑨ㄱㅏᆷ
ㅈㅏᆼㅇㅏᆨ
ㄱㅗ⑨ㅈㅓᆫ
ㅂㅓ⑨ㅌㅣ⑨
ㅁㅓᆨㅇㅣ⑨
ㅋㅡ⑨ㄹㅣ⑨ㅅㅡ⑨
ㄱㅕᆫㅈㅔ⑨
ㄱㅗ⑨ㅇㅠ⑨
de
ㅁㅓᆺㅈㅣ⑨
##ㅅㅔᆸ
6000
ㅍㅜᆼㄱㅕᆼ
ㅅㅣᆫㅂㅜ⑨
##ㄴㅣ⑨ㄷㅏ⑨
ㅈㅐ⑨ㅈㅓᆼㅂㅜ⑨
ㅌㅓᆨ
1999
ㅁㅏ⑨ㅌㅡ⑨
ㅂㅗ⑨ㅇㅣᆯ
ㅁㅕᆼㅂㅐᆨ
ㅈㅜ⑨ㅅㅓᆨ
ㄱㅗ⑨ㅅㅗ⑨
ㅂㅜᆯㄱㅓ⑨ㅈㅣ⑨
ㄷㅏᆼㅇㅣᆯ
ㄴㅔ⑨ㅇㅛ
120
1998
ㄴㅡ⑨ㄹㅏ⑨
ㄴㅓᆲㅎㅣ⑨
la
ㅅㅏᆼㄱㅗᆼㅇㅣᆫ
ㅅㅓ⑨ㅇㅑᆼ
ㄱㅏᆫㄷㅏᆫㅎㅏ⑨
ㅂㅓᆸㄱㅘᆫ
ㄱㅣᆷㅇㅛᆼ
ㄷㅗᆼㅈㅏᆨ
ㅇㅕᆯㄱㅣ⑨
ㅂㅜ⑨ㄱㅏ⑨
1997
##ㄷㅏᆫㅊㅔ⑨
##ㅎㅏᆨㄱㅘ⑨
ㅅㅏ⑨ㅁㅜ⑨ㅅㅗ⑨
ㄷㅐ⑨ㄱㅓ⑨
ㄱㅕᆼㅅㅏᆼ
ㅊㅓ⑨ㅈㅣ⑨
##ㄱㅔ
##ㄹㅓ⑨ㄹㅣ⑨
ㄴㅔᆺ
ㅇㅕᆫㅂㅗᆼ
ㅁㅜᆫㅁㅕᆼ
ㄱㅗᆼㄷㅏᆫ
ㅎㅘᆼㄱㅛ⑨
ㅅㅗ⑨ㄹㅕᆫ
ㅇㅐᆯㅂㅓᆷ
##ㅟᆫ
ㄱㅕᆼㅁㅐ⑨
ㅅㅜᆷㅈㅣ⑨
ㅁㅏᆰ
ㅇㅣᆫㅇㅕᆫ
sp
ㄷㅗ⑨ㅁㅏᆼ
ㅇㅟ⑨ㄹㅗ⑨
ㅅㅔᆯ
##ㄴㅗ
ㄲㅏᆷㅉㅏᆨ
ㄹㅣᆫ
ㅇㅗ⑨ㄱㅏ⑨
##ㄹㅕ⑨ㄷㅡᆯ
ㄱㅏᆼㅅㅏ⑨
ㄷㅏᇂ
ㄱㅏ⑨ㄲㅡᆷ
ㄱㅣ⑨ㅃㅡᆷ
ㅊㅏ⑨ㄹㅣ⑨
ㅅㅏ⑨ㄹㅗ⑨
ㅁㅕᆼㅍㅜᆷ
ㄷㅐ⑨ㅇㅚ⑨
ㅅㅣᆯㄴㅐ⑨
##ㅍㅔᆫ
##ㅍㅣᆫ
ㅊㅜᆼㅈㅗᆨ
ㅇㅝ⑨ㅅㅣᆼ
ㄴㅗᆫㅍㅕᆼ
ㅍㅣ⑨ㄱㅗ⑨
ㅅㅗ⑨ㅎㅕᆼ
ㅂㅜᆨㅎㅐᆨ
8000
gs
ㄱㅏᆫㅈㅓᆸ
##ㅂㅣ⑨ㅈㅓᆫ
ㄱㅘ⑨ㅅㅔ⑨
ㅇㅣ⑨ㅇㅛᆼㅈㅏ⑨
ㅂㅐ
ㅇㅡᆷㅅㅓᆼ
ㅂㅜ⑨ㅅㅏ⑨
ㅎㅟᆸ
ㄱㅗ⑨ㄱㅣ⑨
ㅌㅐᆨㅎㅏ⑨
ㅈㅐ⑨ㅇㅝᆫ
ㄴㅏ⑨ㅇㅛ
ㅇㅕᆼㅎㅗᆫ
##ㄹㅜᆨ
ㅊㅟ⑨ㄱㅡᆸ
ㅈㅜ⑨ㅎㅐᆼ
ㅇㅓᆷㄱㅕᆨ
##ㅂㅗ⑨ㄴㅐ⑨
ㅈㅏ⑨ㄲㅜ⑨
ㄷㅗ⑨ㅇㅑᆨ
ㅈㅓ⑨ㅈㅏᆼ
ㅂㅜ⑨ㅎㅘᆯ
ㅅㅏᆼㅁㅜ⑨
ㅌㅗᆼㅈㅡᆼ
ㄴㅏ⑨ㄱ
ㅅㅓᆫㅅㅏ⑨
ㄷㅐ⑨ㄱㅜ
ㄱㅖ⑨ㅈㅘ⑨
##ㄹㅣ⑨ㅇㅓ⑨
ㅍㅜᆯㄹㅣ⑨
ㅇㅖ⑨ㅃㅡ⑨
##ist
ㅁㅏᆽㅇㅣ⑨ㅎㅏ⑨
##og
ㅅㅗᆫㄱㅏ⑨ㄹㅏᆨ
ㅅㅗ⑨ㅇㅛ⑨
ㅌㅗᆫ
ㄱㅗᆼㅎㅓᆫ
ㅈㅏ⑨ㄴㅡᆫ
##ㄷㅏᆺ
##ㅡᆯㄹㅣᆷ
ㅅㅣ⑨ㅇㅝᆫ
ㅋㅐ⑨ㄴㅏ⑨ㄷㅏ⑨
ㅍㅣᆫ
ㅂㅜᆯㄱㅏ⑨ㅍㅣ⑨ㅎㅏ⑨
##ㄹㅓᆼ
ㅂㅗᆨㅅㅜ⑨
##ㄴㅛ⑨
ㅇㅣ⑨ㅅㅡ⑨ㄹㅏ⑨ㅇ
ㅈㅏᆼㅅㅏ⑨
ㅇㅑᆼㅈㅏ⑨
ㅇㅏ⑨ㅂㅔ⑨
ㅇㅚ⑨ㅁㅕᆫ
ㅅㅓᆫㄷㅗ⑨
ㄹㅏ⑨ㅁㅕ
ㅇㅗ⑨ㅎㅐ⑨
ㅅㅏ⑨ㄹㅗ⑨ㅈㅏᆸ
77
ㅎㅟᆸㅆ
##ㄲㅗ⑨
ㄱㅣ⑨ㄹㅡ⑨
ㄱㅏ⑨ㄱㅗᆼ
ㅈㅗᆫㄱㅕᆼ
ㄱㅏᆼㅈㅓᆷ
##ㅁㅔᆫ
ㅈㅓᆷㅍㅗ⑨
ㅇㅖ⑨ㅇㅑᆨ
ㅁㅏ⑨ㄹㅏ⑨
ㅎㅏ⑨ㅇㅑ
ㅈㅓᆼㅅㅓᆼ
ㅌㅡ⑨ㄹㅐᆨ
ㄷㅗ⑨ㄱㅜ⑨
ㅈㅏᆼㅅㅣᆨ
ㅈㅣᆫㅈㅣ⑨
ㄱㅣᆷㅈㅐ⑨
ㄷㅗᆼㅇㅕᆼ
ㅁㅕᆫㄷㅏᆷ
ㅈㅣ⑨ㄹㅣ⑨
ㅊㅜ⑨ㅁㅗ⑨
ㅈㅓᆼㅈㅏᆨ
ㅎㅠ⑨ㅅㅣᆨ
##ㅂㅏᆮㅊㅣᆷ
##ㄷㅐ⑨ㅎㅏ⑨
ㄱㅝᆫㄱㅗ⑨
ㅇㅖ⑨ㅈㅓ
ㄱㅏᆯㅅㅜ⑨ㄹㅗᆨ
ㅇㅜᆫㅅㅗᆼ
##ㅎㅜ
ㅋㅓᆸ
ㅂㅗ
ㅅㅣᆯㅈㅓᆼ
ㄱㅏᆨㅇㅗ⑨
ㄷㅐᆺㄱㅡᆯ
##ㅇㅢ⑨ㅎㅚ⑨
ㅅㅣᆷㅅㅏᆼ
ㄱㅣᆷㅅㅏᆼ
##ㄹㅛ
ㄱㅘᆫㅅㅔ⑨
ㅂㅜ⑨ㄷㅣᆽ
##ㅂㅡ
ㅅㅜ⑨ㅅㅏᆫ
ㅈㅏᆼㅅㅜ⑨
##ㄲㅡᆫ
ㅈㅐ⑨ㄴㅡᆼ
##ㅅㅜᆨㅎㅏ⑨
ㅁㅔ⑨ㄹㅡ⑨
ㄱㅗᆸ
ㅊㅏ
ㅂㅔ⑨ㅇㅣ⑨ㅈㅣᆼ
ㅌㅔᆨ
ㅈㅗ⑨ㅎㅏᆸㅇㅝᆫ
##ㅋㅡᆯㄹ
ㅎㅘᆨㅈㅣᆫ
ㄸㅟ⑨ㅇㅓ⑨ㄷㅡᆯ
ㅎㅘᆨㅅㅣᆯㅎㅣ⑨
ㅅㅔᆺㅉㅐ⑨
ㄴㅐ⑨ㅈㅓᆼ
ㅅㅣᆷㅎㅘ⑨
ㅇㅡᆫㄷㅔ⑨
ㄴㅡᆫㄷㅏ⑨ㅁㅕᆫ
ㅈㅣ⑨ㄴㅡᆼ
ㅁㅏ⑨ㅇㅣ⑨ㅋㅡ⑨
ㄱㅗᆼㄹㅑᆨ
ㅁㅜ⑨ㅅㅏᆫ
ㅇㅣᆫㅊㅓᆫㅅㅣ⑨
ㅇㅖ⑨ㅇㅚ⑨
ㅎㅏᆫㅊㅡᆼ
ㅁㅔᆫ
ㅁㅛ⑨ㅅㅏ⑨
ㅎㅐ⑨ㄱㅗ⑨
ㄱㅗᆼㅂㅏᆼ
ㅇㅣ⑨ㅁㅣᆫ
ㄱㅗᆼㅈㅜᆼ
tr
ㄷㅡᆨㅍㅛ⑨
ㅁㅣᆫㄱㅏᆷ
ㅎㅘᆼㄱㅛ⑨ㅇㅏᆫ
ㅇㅣ⑨ㅅㅡ⑨ㄹㅏ⑨ㅇㅔᆯ
##ity
##ㅔ⑨ㅇㅣ⑨ㄷㅡ⑨
ㅎㅏᆫㄱㅏᆼ
ㄱㅗᆯㅁㅗᆨ
ㅆㅗᆯㄹㅣ⑨
ㅁㅏ⑨ㅂㅓᆸ
ㄴㅕᆫㄷㅗ⑨
##ㅋㅏ⑨ㅇㅗ⑨
ㅎㅏ⑨ㅇㅟ⑨
ㄱㅗᆼㅅㅜ⑨ㅊㅓ⑨
ㅁㅕᆼㅅㅣ⑨
##ㅎㅚ⑨ㅅㅏ⑨
ㄱㅗᆼㅈㅔ⑨
ㄷㅏᆼㄷㅏᆼ
##ㄱㅘᆨ
ㄲㅙ⑨
ㄱㅘᆫㅇㅕ⑨
ㅁㅣᆫㅈㅓᆼ
ㄲㅐ⑨ㄲㅡᆺ
##ㅅㅚ⑨
ㄱㅗ⑨ㄹㅣ⑨
ㅊㅓᆫㅇㅕᆫ
##ㅁㅜ⑨ㅅㅓᆼ
ㅂㅓᆫㅈㅣ⑨
ㅍㅡᆯㄹㅏ⑨
##ㅅㅔᆫㅌㅓ⑨
ㄷㅟᆺㅂㅏᆮㅊㅣᆷ
ㅁㅕᆼㅂㅜᆫ
ㅁㅏ⑨ㄷㅣ⑨
ㄸㅐ⑨ㄹㅣ⑨
ㅁㅜᆫㄱㅓᆫ
ㅅㅏᆼㅎㅘᆫ
ㅈㅗᆼㅈㅓᆫ
ㅇㅏᆫㅅㅣᆷ
ㄱㅏᆼㅇㅛ⑨
ㄷㅗᆯㅇㅣᆸ
ㅎㅏᆫㅊㅏᆷ
ㄷㅗᆼㅇㅕᆼㅅㅏᆼ
ㅅㅣ⑨ㄷㅏᆯㄹㅣ⑨
ㄱㅗᆼㅅㅣ⑨
ㅎㅡᆸㅅㅜ⑨
ㅈㅣᆫㅅㅣᆷ
ㅇㅣᆫㅁㅜᆫ
ㅂㅗ⑨ㅈㅘ⑨ㄱㅘᆫ
ㅈㅓᆼㅁㅕᆫ
ㅅㅣᆫㅇㅣᆫ
2019
ㅈㅏ⑨ㄱㅜᆨ
ㅈㅣ⑨ㅊㅣ⑨
##ㅇㅝ⑨ㄷㅡ⑨
ㅁㅕᆼㅊㅣᆼ
700
##ㄱㅡᆷㅇㅠᆼ
##ㅈㅏ⑨ㄹㅕᆨ
ar
ㅁㅠ⑨ㅈㅣ⑨ㅋㅓᆯ
##ㄷㅗᆯㄹㅣ⑨
ㅅㅙ⑨ㅅㅣᆫ
76
ㅁㅗ⑨ㄴㅣ⑨
ㅅㅣᆨㅁㅣᆫ
71
ㄴㅐ⑨ㅁㅕᆫ
ㅈㅣ⑨ㅈㅣ⑨ㅈㅏ⑨
ㅇㅓᆨㅈㅔ⑨
ㅇㅏ⑨ㅁㅏ⑨ㄷㅗ⑨
ㅂㅜᆼㄱㅚ⑨
ㅍㅣᆼ
##ㅎㅡ⑨
##ㅊㅏ⑨ㄹ
ㄱㅣ⑨ㄷㅐ⑨ㄱㅏᆷ
##ㅍㅡᆯㄹㅔ⑨ㅇㅣ⑨
ㅊㅏᆷㄱㅏ⑨ㅈㅏ⑨
ㄷㅏᆨ
ㅅㅜᆼ
##ㅁㅗᆷ
##ㅅㅏ⑨ㅇㅟ⑨
ㅊㅏ⑨ㅈㅏᆼ
ㅈㅓᆫㅈㅣ⑨
ㅇㅣᆸㄱㅜ⑨
ㅅㅏ⑨ㅊㅏᆯ
ㅂㅣ⑨ㅊㅜ⑨
ㅇㅝᆫㅈㅏ⑨
##ㅇㅐᆫ
##ㅋㅟ⑨
ㅂㅗ⑨ㅇㅠᆨ
ㅈㅏᆼㄴㅏᆫ
ㅌㅡᆨㅎㅖ⑨
ㅁㅜᆼ
ㅎㅕᆫㅈㅣᆨ
ㅁㅜᆫㅈㅔ
ㅇㅕᆫㄹㅛ⑨
ㅇㅝ⑨ㅅㅣᆼㅌㅓᆫ
##ㅇㅝᆫㅈㅏᆼ
ㅌㅡ⑨ㄹㅔᆫ
ㄷㅏᆩ
##ㄴㅡᆽ
ㄱㅐ⑨ㅌㅗᆼ
##te
ㅈㅜ⑨ㅊㅏ⑨ㅈㅏᆼ
ㅇㅠ⑨ㅇㅣᆸ
ㅅㅣ⑨ㄱㅖ⑨
ㅊㅜᆯㄱㅡᆫ
ㅈㅜᆼㄷㅗᆼ
ㅈㅓᆸㅈㅗᆼ
ㅇㅏᆸㄹㅕᆨ
ㅁㅕᆾㅁㅕ
ㅅㅏ⑨ㅇㅝᆫ
ㄱㅣ⑨ㅅㅏᆼ
ㅁㅕᆾㅁㅕᆾ
ㅊㅣᆷㅁㅜᆨ
ㅇㅏ⑨ㅅㅔ⑨
ㄷㅐ⑨ㄷㅐ⑨
ㅈㅜᆼㄹㅣᆸ
eu
##ㄲㅏᆫ
78
ㄱㅞ⑨
ㅁㅜ⑨ㄱㅘᆫ
##ㅈㅜᆼㄱㅗᆼㅇㅓᆸ
73
ㄱㅣ⑨ㄹㅡᆷ
ㅈㅣᇁ
ㄱㅛ⑨ㅅㅣᆯ
ㄴㅓ⑨ㅎㅢ⑨
##ㄷㅏᆰ
ㅅㅓᆼㅅㅣᆯ
ㅅㅣᆫㅅㅓᆫ
ㅈㅣ⑨ㅇㅜ⑨
##ㅂㅐᆨㅎㅘ⑨ㅈㅓᆷ
ㄷㅗᆼㄱㅜ⑨
ㅇㅗᆫㄷㅗ⑨
ㅈㅣᆫㄹㅣ⑨
ㄱㅜᆮㅇㅣ⑨
##ㄸㅜᆨ
ㅅㅏᆼㄷㅏᆼㅅㅜ⑨
ㅈㅜᆼㅈㅓᆷ
ㅎㅜ⑨ㅂㅐ⑨
ㅈㅣ⑨ㅊㅣᆷ
##ㅇㅓ⑨ㄴㅐ⑨
##ㅈㅣ⑨ㄱㅓᆷ
ㄱㅗ⑨ㅅㅐᆼ
88
ㅍㅣᆯㅈㅏ⑨
an
##ㅎㅏ⑨ㅇㅜ⑨
ㅈㅓᆷㅅㅣᆷ
7000
ㅍㅕ
ㅇㅟ⑨ㅅㅏᆼ
##ㅇㅢ⑨ㅈㅏ⑨
##ㅈㅓᆯㅎㅏ⑨
ㅅㅜ⑨ㄹㅕᆷ
ㅂㅗ⑨ㅎㅓᆷㄹㅛ⑨
ㅇㅛᆨㄱㅜ⑨
ㅌㅗᆼㅊㅣ⑨
ㅇㅡ⑨ㄹㅣ⑨
ㅋㅗ⑨ㅊㅣ⑨
ㅇㅏᇁㅅㅔ⑨ㅇㅜ⑨
ㅅㅐ⑨ㄱㅣ⑨
ㅇㅕᆯㅊㅏ⑨
ㄱㅓᆫㅈㅗ⑨
ㅇㅓ⑨ㅉㅓ⑨ㅁㅕᆫ
69
ㄴㅚ⑨ㅁㅜᆯ
ㅉㅏᆨ
ㅅㅓ⑨ㅂㅜ⑨
ㅊㅜ⑨ㅇㅓᆨ
ㄱㅡᆫㅇㅠᆨ
ㅈㅓᆼㄱㅜᆨ
ㄱㅓᇀ
as
ㄱㅕᆯㄷㅏᆫ
ㅈㅣᆫㅎㅏᆨ
ㅇㅣ⑨ㅈㅜ⑨
##cc
ㅈㅏᆨㄷㅗᆼ
##ㅈㅗᆯ
ㅅㅡᆼㅈㅣᆫ
ㅇㅏ⑨ㅇㅜᆺ
ㅎㅜ⑨ㅅㅗᆨ
ㄱㅓᆫㅈㅓᆫ
##ㅂㅡ⑨ㄹㅣ⑨
ㄷㅗᆨㄷㅗ⑨
ㄱㅗ⑨ㅅㅜ⑨
##ㄸㅜᆼ
ㅊㅣᆼㅊㅏᆫ
ㅁㅜ⑨ㅊㅓᆨ
ㅂㅣ⑨ㅎㅐᆼㄱㅣ⑨
ㅎㅡᆫㅈㅓᆨ
ㅇㅣᆨㅎㅣ⑨
##ㄱㅓ⑨ㄹㅐ⑨
ㅈㅏ⑨ㅂㅗᆫㅈㅜ⑨ㅇㅢ⑨
##and
ㅊㅏᆷㅇㅡ⑨ㄹㅗ⑨
##ㅁㅏᆺ
ㄷㅏ⑨ㄴㅕ⑨
or
ㅃㅏᆼ
ㅊㅓ⑨ㄹㅓ
ㄱㅡᆷㅁㅔ⑨ㄷㅏᆯ
##ㄱㅏᆽ
ㅇㅕᆫㅎㅠ⑨
ㅇㅡ⑨ㄹㅕ⑨ㄱㅗ⑨
ㅇㅗᆫㄱㅏᆽ
##ㄱㅕᆼㅊㅏᆯ
ㅂㅏ⑨ㅊㅣ⑨
ㄱㅗᆼㅈㅜ⑨
ㅅㅗ⑨ㅈㅣ⑨
ㅇㅢ⑨ㅎㅏᆨ
ㅁㅏᆫㅎㅘ⑨
ㅈㅓᆼㅅㅜ⑨
ㄱㅗᆼㅈㅏᆨ
##ㅌㅔ⑨ㅋㅡ⑨
ㅁㅔ⑨ㄴㅠ⑨
ㄴㅏᆷㅎㅏᆫ
ㅁㅔ⑨ㅇㅣ⑨ㅈㅓ⑨
sh
##ㅈㅏ⑨ㄷㅗᆼㅊㅏ⑨
ㅂㅜᆯㅎㅐᆼ
ㅈㅓᆫㄷㅏᆷ
##ㅌㅗᆯ
##ㄸㅡᆨ
ㅇㅓ⑨ㄷㅏ⑨
ㅅㅛ
##ㅁㅣ⑨ㅌㅓ⑨
ㄷㅜᆯㄹㅓ⑨ㅂㅗ⑨
##ㅅㅡ⑨ㅌㅡ
ㅊㅓᆯㄱㅏᆼ
le
ㄱㅏ⑨ㅅㅣ⑨
ㅅㅏ⑨ㄷㅏᆫ
ㅅㅓᆷㅇㅠ⑨
ㄷㅓ⑨ㄹㅏ
##ㅁㅓ⑨ㄹㅣ⑨
ㅂㅡᆯㄹㅗᆨ
ㅁㅏ⑨ㄸㅏᆼ
ㅈㅗ⑨ㅅㅗᆨ
ㅂㅗ⑨ㅂㅗᆨ
ㅁㅐ⑨ㅊㅜᆯㅇㅐᆨ
ㄱㅗᆼㅈㅗ⑨
new
ㅅㅏ⑨ㅇㅓᆸㅂㅣ⑨
ㄱㅏᆷㅅㅓᆼ
ㅂㅗ⑨ㅈㅓᆫ
ㅈㅜᆼㅇㅢ⑨
ㄱㅕᆼㄱㅣ⑨ㅈㅏᆼ
ㅊㅓᆫㅊㅓᆫ
ㅇㅝᆫㅈㅜ⑨
ㄱㅕᆼㄴㅏᆷㄷㅗ⑨
ㅈㅜᆼㅂㅏᆫ
ㅂㅜᆨㅂㅜ⑨
1970
ㅌㅏᆫㄹㅕᆨ
ㅅㅣ⑨ㅈㅏ
ㅇㅣ⑨ㄷㅔ⑨
ㅎㅘᆼㄱㅡᆷ
ㅎㅗᆯㄹㅗ⑨
ㅁㅜ⑨ㅇㅓ⑨
ㄱㅘᆫㅎㅐᆼ
ㅇㅟ⑨ㅇㅏᆫㅂㅜ⑨
ㄷㅗ⑨ㅈㅜᆼ
ㅈㅣᆫㅈㅓᆫ
ㄱㅗ⑨ㄱㅜ⑨
ㅂㅡᆯㄹㅜ⑨
ㅇㅕᆨㅈㅓᆫ
##ㅇㅕᆫㄱㅜ⑨ㅇㅝᆫ
ㄷㅗ⑨ㄷㅏᆯ
ㅂㅜ⑨ㅈㅏᆨ
ㄲㅏ
ㄱㅣᆷㅈㅓᆼㅇㅡᆫ
ㄱㅗᆼㄱㅗ⑨
##ㅈㅣᆨㅈㅏ⑨
cc
ㅁㅐᆨㅈㅜ⑨
ㅅㅏᆼㅅㅡᆼㅅㅔ⑨
##ㅋㅗ
ㄹㅣ⑨ㅇㅓᆯ
ㅈㅜᆼㅈㅐ⑨
ㄱㅐ⑨ㅂㅗᆼ
ㅁㅔᆯ
ㅂㅏᆯㅈㅓᆫㅅㅗ⑨
ㅎㅡᆰ
##ㅜᆫㄷㅡ⑨
ㅎㅏ⑨ㅇㅕ⑨ㄱㅡᆷ
ㅊㅓᆫㅊㅓᆫㅎㅣ⑨
ㄱㅕᆼㅈㅔ
ㄲㅜ⑨ㄹㅣ⑨
##ㅐᆻ
##ㄹㅗ⑨ㅅㅡ⑨
##ㅎㅘ⑨ㅁㅜᆫ
ㅎㅏᆨㄱㅣ⑨
ㄴㅐ⑨ㄱㅏᆨ
##ㅌㅗᆨ
ㅁㅜ⑨ㅇㅛᆼ
ㄸㅐ⑨ㅁㅜ
ㅅㅣᆫㅈㅗᆼ
##ㅣᆨㅅㅡ⑨
##ㅂㅗᆯ
ㅌㅏᆫㅅㅗ⑨
ㅇㅣᆨㅅㅜᆨㅎㅏ⑨
ㅈㅜ⑨ㄱㅣ⑨
##ㄱㅏ⑨ㅇ
ㅅㅐᆼㄱㅕ⑨ㄴㅏ⑨
ㄱㅏ⑨ㅁㅏᆫ
ㄱㅕᆼㅊㅏᆯㅊㅓᆼ
ㅎㅠ⑨ㄷㅐ⑨ㅍㅗᆫ
ㅈㅏᆼㅂㅕᆼ
ㅌㅏᆫㄷㅗ⑨
ㅈㅣᆨㅈㅏᆼㅇㅣᆫ
ㅅㅡ⑨ㅌㅗ⑨ㄹㅣ⑨
ㅁㅗ⑨ㄴㅣ⑨ㅌㅓ⑨
ㄷㅗᆨㅈㅓᆷ
##ㅇㅏ⑨ㅁ
ㅌㅐ⑨ㅍㅕᆼㅇㅑᆼ
on
ㅍㅏᆫㅁㅜᆫ
ㅊㅜ⑨ㅈㅓᆨ
##ㅇㅓ⑨ㅂㅓ⑨ㄹㅣ⑨
ㅂㅕ
ㅇㅟ⑨ㅅㅓᆼ
ㄷㅐ⑨ㄱㅡᆷ
ㅎㅘᆫㄱㅕᆼㅂㅜ⑨
##ㄹㅗ⑨ㅈㅣ⑨
ㅈㅡᆯㄱㅓ⑨
##ㅈㅓ⑨ㅎㅣ⑨
ㅍㅐᆨ
ㄲㅡᆯㅇㅓ⑨ㅇㅗᆯㄹㅣ⑨
ㅇㅡ⑨ㄴㅣ
ㅅㅏᆼㅈㅓᆼ
ㄷㅡ⑨ㅁㅜᆯ
ㄷㅏᆰ
##ㅋㅣᆫ
ㅅㅓ⑨ㅇㅜᆯㅈㅜᆼㅇㅏᆼ
ㅇㅠ⑨ㅈㅓᆫㅈㅏ⑨
ㅊㅣᆷㄷㅐ⑨
ㄱㅏ⑨ㅅㅗᆨ
ㄱㅐ⑨ㅊㅓᆨ
ㄴㅏᆷㅉㅗᆨ
ㄴㅜᆫㅇㅏᇁ
ㅅㅓ⑨ㅊㅗ⑨
##ㅅㅔᆫㅌㅡ⑨
ㅇㅣ⑨ㅎㅗᆫ
ㅅㅓ⑨ㅎㅐ⑨
ㅅㅣᆯㅌㅐ⑨
ㅇㅕᆫㅍㅕᆼ
ㄱㅏᆫㅎㅗ⑨
ㅈㅓᆨㄷㅏᆼ
##ㅏᆫㅎㅣ⑨
##th
##ㄹㅠᆫ
ㅇㅔᆨㅅㅡ⑨
ㅇㅠ⑨ㅇㅕᆫ
ㅅㅏ⑨ㅎㅚ⑨ㅈㅜ⑨ㅇㅢ⑨
ㅊㅏ⑨ㅈㅣᆯ
##ㅣᆯㄹㅣ⑨
ㄹㅔᆫ
ㅈㅔ⑨ㅈㅗ⑨ㅇㅓᆸ
ㅊㅐᆨㅇㅣᆷㅈㅏ⑨
ㅍㅕᆼㅌㅐᆨ
ㄷㅏᆱ
ㅆㅡ⑨ㄹㅓ⑨ㅈㅣ⑨
ㅇㅡ⑨ㄴㅣ⑨ㄲㅏ⑨
##50
ㅅㅡ⑨ㅋㅣ⑨
ㅎㅐᆼㅌㅐ⑨
ㄱㅣ⑨ㅇㅓᆸㅇㅣᆫ
98
##ati
ㅊㅓᆯㄱㅓ⑨
ㅈㅜ⑨ㄱㅏᆫ
ㅇㅟᆯ
##ㅇㅣᆺ
##ㅂㅓᆨ
ㅍㅕᆼㅂㅓᆷ
ㅇㅣᆷㅎㅏ⑨
ㄱㅕᆼㄹㅗ⑨
##ㅇㅘ
ㅇㅠ⑨ㅈㅗᆨ
ㄱㅡ⑨ㄴㅏ⑨
82
ㅂㅕᆫㅅㅣᆫ
ㅇㅐ⑨ㅆㅡ⑨
ㅂㅏ⑨ㅇㅟ⑨
ㅅㅓᆯㅁㅜᆫ
ㅇㅓ⑨ㄹㅡ⑨
ㄲㅗ⑨ㅈㅣᆸ
ㅌㅏ⑨ㅇㅣᆫ
##ㅎㅔ⑨
ㅇㅏ⑨ㅌㅡ⑨
ㅂㅏᆨㅇㅝᆫ
ㅅㅓᆼㅊㅟ⑨
ㄱㅏ⑨ㅉㅏ⑨
ㄱㅗᆼㅇㅣᆨ
ㅅㅓᆼㅅㅏ⑨
ㅊㅏᆽㅇㅏ⑨ㄴㅐ⑨
ㄱㅜᆨㅌㅗ⑨ㅂㅜ⑨
ㄲㅓᆩ
ㅊㅓᆯㅅㅜ⑨
ㄹㅗᆨ
ㄷㅐ⑨ㄹㅑᆼ
ㅇㅣ⑨ㄹㅣ⑨
ㅅㅓᆸㅊㅟ⑨
##ㅋㅓᆫㄷㅐ⑨
##ㅠ⑨ㅂㅡ⑨
##ri
ㄲㅏ⑨ㄷㅏᆰ
ㄷㅚ⑨ㄷㅗ⑨ㄹㅗᆨ
ㅂㅏᆨㅈㅓᆼㅎㅢ⑨
ㄴㅜ⑨ㅈㅓᆨ
ㅅㅐ⑨ㅈㅓᆼㅊㅣ⑨ㅁㅣᆫㅈㅜ⑨
ㅆㅣᆺ
ㅅㅏ⑨ㅇㅜ⑨
ㅋㅗᆫㅅㅓ⑨ㅌㅡ⑨
ㄷㅐ⑨ㄱㅐ⑨
ㄱㅜ⑨ㄱㅡᆯ
81
ㅈㅜᆼㄱㅖ⑨
ㅂㅣ⑨ㄹㅗ⑨ㅅㅗ⑨
ㅊㅏᆷㅈㅗ⑨
ㅂㅏᆼㅎㅏᆫ
##ㄲㅡ
##ㅜᆷㅊㅣ⑨
ㅅㅓᆼㄹㅣᆸ
ㄷㅗᆯㄹㅕ⑨
ㅅㅜ⑨ㅅㅡᆸ
ㅅㅏᆯㅎㅐ⑨
ㄴㅔ⑨ㅇㅣ⑨ㅂㅓ⑨
ㅈㅜᆼㄱㅜᆨㅇㅣᆫ
ㄱㅜ⑨ㅂㅕᆯ
ㅈㅗᆼㅈㅗᆼ
ㅍㅏᆫㅁㅜᆫㅈㅓᆷ
ㄴㅏᆸㅂㅜ⑨
ㄱㅚ⑨ㄹㅗᆸ
ㅌㅔᆯㄹㅔ⑨ㅂㅣ⑨ㅈㅓᆫ
##ㄴㅜᆫ
##ㅏ⑨ㄴㅗ⑨
ㅇㅐ⑨ㄴㅣ⑨
ㅈㅏ⑨ㅂㅏᆯ
ㅇㅓ⑨ㅉㅐᆻ
ㅈㅗ⑨ㅇㅠᆯ
##ㄹㅡ
ㄱㅐᆯㄹㅓᆨ
ㅌㅡ⑨ㄹㅣ⑨
##ㅍㅏ⑨ㅋㅡ⑨
ㄱㅗᆼㅎㅏᆨ
ㅇㅣᆯㅂㅗᆫㅇㅣᆫ
ㅇㅓᆫㄴㅣ⑨
ㄱㅣ⑨ㅇㅜᆫ
ㅇㅘ⑨ㅇㅣᆫ
ㅊㅜᆯㅈㅏᆼ
ㅅㅜᆫㅅㅓ⑨
ㅇㅢ⑨ㅈㅏ⑨
ㅂㅓᆯㄱㅡᆷ
ㄹㅏ⑨ㄱㅗ
##ㄷㅣ
ㅈㅡᆼㅇㅓᆫ
ㄱㅣ⑨ㅅㅜ
ㅌㅐ⑨ㅇㅜ⑨
ㅇㅐ⑨ㅊㅗ⑨
ㅎㅏᆨㅅㅜᆯ
ㄱㅜᆨㅅㅔ⑨
##ㅂㅓᆫㅇㅔ⑨
ㅈㅡᆼㄷㅐ⑨
ㅈㅏ⑨ㅇㅏ⑨
ㅌㅔ⑨ㅋㅡ⑨
ㅈㅗ⑨ㅁㅏᆫ
ㅇㅝᆫㅈㅓᆼ
ㅈㅓᆼㅁㅣᆯ
ㄷㅐ⑨ㅊㅔ⑨ㄹㅗ⑨
ㅇㅠ⑨ㄹㅗ⑨
ㅊㅚ⑨ㅇㅏᆨ
ㅅㅏ⑨ㅇㅓᆸㅈㅏᆼ
ㅇㅕᆼㅇㅜᆼ
ㅎㅏ⑨ㅇㅑᇂ
ㅅㅣᆫㅇㅣᆸ
ㅎㅐ⑨ㅇㅏᆫ
ㅂㅗᆨㅈㅣ⑨ㅂㅜ⑨
86
ㄷㅐ⑨ㄱㅜᆨ
180
ㄱㅐ⑨ㅂㅏ
##ㄱㅗᆸ
1995
ㅅㅣ⑨ㅈㅜᆼ
ㅈㅓᆫㅅㅣ⑨ㅎㅚ⑨
ㅈㅏᆭㅇㅏ
ㅁㅕᆫㅈㅔ⑨
ㅈㅔ⑨ㄱㅗ⑨
##ts
ㅅㅗᆫㅅㅏᆼ
ㅈㅓᆫㅈㅣᆨ
ㅊㅓᆼㅇㅝᆫ
ㅅㅓ⑨ㅇㅜ
ㅅㅔ⑨ㅁㅣ⑨
ㄷㅡᆯㅇㅕ⑨ㄷㅏ⑨ㅂㅗ⑨
##ㅊㅏᆽ
ㅁㅏᆯㄹㅣ⑨
ㅅㅏᆼㅎㅘ
##ㄱㅓᆯㅇㅡᆷ
kia
ㅇㅣ⑨ㄴㅣᆼ
ㄴㅗᆼㄱㅜ⑨
ㅂㅜᇀㅈㅏᆸ
ㄱㅏ⑨ㅁㅐᆼ
ㄱㅏᆼㄹㅡᆼ
##ㄲㅗᆷ
##ㄷㅓᆨㅇㅣ⑨
ㅂㅏᆨㅈㅜ⑨
ㅁㅐ⑨ㅈㅜ⑨
ㅈㅡᆼㅈㅣᆫ
ㅇㅠ⑨ㅌ
##ㅇㅕᆫㄱㅡᆷ
ㅁㅣ⑨ㄴㅣ⑨
ㅅㅡ⑨ㅋㅡ⑨ㄹ
ㄴㅏᆾㅅㅓᆯ
ㅂㅜ⑨ㅇㅟ⑨
ㄷㅓ⑨ㄱㅜ⑨
ㅌㅡᆨㅂㅕᆯㅂㅓᆸ
ㅇㅘᆫㄱㅗᆼ
ㅈㅓᆯㅅㅣᆯ
ㅅㅣᆯㅅㅣ⑨ㄱㅏᆫ
ㄱㅣ⑨ㅎㅗ⑨
ㅅㅜᆨㅇㅣ⑨
87
ㄷㅏ⑨ㄱㅏ⑨ㄱㅏ⑨
ㅂㅏᆼㅅㅏ⑨
ㅍㅏ⑨ㅇㅣᆯ
##ㅇㅏᆬ
##ㄱㅐ⑨ㅂㅏᆯ
ㄱㅏ⑨ㅎㅐ⑨
ㅅㅏ⑨ㄱㅕᆨ
ㄱㅖ⑨ㄷㅏᆫ
ㅅㅣᆯㅈㅗᆼ
ㅂㅏᆨㄹㅏᆷㅎㅚ⑨
ㅊㅣ⑨ㅇㅠ⑨
ㅂㅗᆫㅅㅓᆫ
##ㅡ⑨ㄹㅗ
ㄱㅡ⑨ㅁㅏᆫㄷㅜ⑨
ㅇㅗ⑨ㅃㅏ⑨
ㅇㅕᆫㅎㅏᆸㄴㅠ⑨ㅅㅡ⑨
00
ㅅㅐ⑨ㅈㅓᆼㅊㅣ⑨ㅁㅣᆫㅈㅜ⑨ㅇㅕᆫㅎㅏᆸ
ㅋㅓᆫㅅㅓᆯㅌㅣᆼ
ㅅㅐᆨㄲㅏᆯ
##ㄹㅐ
ㄱㅛ⑨ㅈㅏᆼ
ㅅㅗ⑨ㅍㅡ⑨ㅌㅡ⑨ㅇㅞ⑨ㅇㅓ⑨
ap
ㄴㅏ⑨ㄴㅟ⑨
ㄱㅛ⑨ㅎㅘᆼ
ㅅㅜ⑨ㅊㅓᆫ
ㅇㅔ⑨ㄷㅏ⑨
ㅌㅡᆯㄹㅣᆷ
ㅇㅗ⑨ㅈㅣ⑨
ㄹㅐ⑨
ㅋㅕ⑨
ㅇㅓ⑨ㅇㅑ
ㅈㅏᆼㄹㅡ⑨
ㅎㅕᆸㄷㅗᆼ
ㅈㅗ⑨ㅁㅏᆫㄱㅏᆫ
##ㄹㅣ⑨ㅇㅗ⑨
ㅎㅘᆫㅅㅏᆼ
##ㅍㅓ⑨ㅅㅡ⑨
ㅇㅓ⑨ㅉㅐᆻㄷㅡᆫ
ㄱㅏᇁ
ㅍㅏ⑨ㅇㅝ⑨
ㅂㅜ⑨ㅈㅏᆨㅇㅛᆼ
##ㄴㅓᆯㄷㅡ⑨
##ㅁㅏ⑨ㅅㅡ⑨
pp
ㅎㅏᆼㄱㅗᆼㄱㅣ⑨
ㅇㅢ⑨ㅇㅑᆨ
ㅈㅣᆫㄹㅗ⑨
ㄷㅏ⑨ㄱㅡ⑨
ㅇㅝᆫㄱㅗ⑨
##ㄷㅐ⑨ㅁㅜᆫ
ㅅㅣᆯㅊㅔ⑨
ㅅㅣ⑨ㄱㅡᆸㅎㅏ⑨
ㅇㅣᆫㄷㅗ⑨ㄴㅔ⑨
ㄷㅐ⑨ㄱㅝᆫ
##ㅅㅑ⑨
##ㄱㅏᆯㄹㅣ⑨
ㅇㅕᆼㄱㅘᆼ
ㅂㅐᆨㅇㅏᆨ
ㄱㅏᆷㅊㅜᆨ
ㅈㅔ⑨ㅂㅗ⑨
ㅅㅜ⑨ㅇㅟ⑨
ㅇㅛᆼㅅㅓ⑨
ㄴㅡᆰ
ㅈㅓᆫㅍㅏ⑨
ㄱㅘᆫㄴㅕᆷ
ㄱㅜ⑨ㅇㅝᆫ
ㅍㅣ⑨ㄹㅗ⑨
ㅂㅜᆫㄷㅏᆼ
ㅊㅗᆼㅈㅐ⑨
ㅇㅠ⑨ㄱㅏᆷ
ㄷㅜ⑨ㄹㅕ⑨ㅇㅜᆷ
ㄱㅣᆷㅈㅗᆼㅇㅣᆫ
ㄴㅐ⑨ㅁㅣᆯ
ㅎㅘ⑨ㅎㅏᆸ
ㅈㅏᆼㄹㅖ⑨
ㅈㅜᆫㄱㅗᆼ
ㅅㅐ⑨ㅎㅐ⑨
ㄷㅟ⑨ㅈㅣ⑨
ㅂㅗ⑨ㅈㅗ⑨ㄱㅡᆷ
ㅂㅗᆫㄹㅐ⑨
ㅇㅝᆫㅊㅓᆫ
##ㅂㅣ⑨ㅅㅡ
##ㅈㅟ⑨
ㄱㅣ⑨ㅇㅏ⑨ㅊㅏ⑨
ㅂㅜᆫㄷㅏᆷ
ㅇㅏᆫㄱㅣ⑨
ㄱㅡᆨㄷㅐ⑨
ㅇㅟᆫ
ㅌㅐ⑨ㄱㅜᆨ
ㄱㅏ⑨ㅇㅣᆸㅈㅏ⑨
ㅎㅏᆨㅇㅟ⑨
ㅌㅏᆸㅈㅐ⑨
##ㅈㅣ⑨ㅂㅏᆼ
ㅇㅑᆼㄷㅗ⑨
ㅂㅕᆼㅇㅕᆨ
ㅇㅠᆨㅊㅔ⑨
ㅇㅏ⑨ㅅㅟ⑨
ㅎㅡ⑨
ㅇㅓ⑨ㄷㅜᆷ
##ㄷㅓᆼㅇㅣ⑨
ㅁㅐᆨㄹㅏᆨ
ㅍㅐ⑨ㅌㅓᆫ
ㅌㅏ⑨ㅇㅣᆷ
ㄷㅏ⑨ㅁㅜᆫㅎㅘ⑨
ㅇㅕᆺ
ㅍㅗ⑨ㄱㅘᆯ
##ㅎㅏ⑨ㅇㅕ⑨
ㄱㅣᆺ
ㅇㅟ⑨ㅊㅜᆨ
ㅊㅏᆨㅎㅏ⑨
ㅇㅣᆸㅇㅝᆫ
ㄱㅗ⑨ㅅㅣ⑨
ㅈㅏ⑨ㅈㅔ⑨
ㅅㅜ⑨ㅁㅕᆫ
ㅌㅡᆨㅎㅘ⑨
ㅇㅓ⑨ㄹㅡ⑨ㅅㅣᆫ
ㅂㅜ⑨ㅎㅏ⑨
ㅍㅛ⑨ㅁㅕᆫ
ㅂㅏᆼㅊㅣ⑨
ㅎㅕᆼㅅㅏᆼ
ㅌㅏᆯㄹㅏᆨ
##ㅌㅗᆼㅎㅏᆸ
ㅇㅝᆫㅎㅘᆯ
##ㅌㅜ⑨ㅈㅏ⑨
ㄱㅏᆷㅅㅏᆼ
ㄱㅘᆼㅎㅘ⑨ㅁㅜᆫ
79
ㅈㅣ⑨ㅂㅜᆯ
ㄱㅣᆷㅍㅗ⑨
ㅇㅣᆯㅎㅏ⑨
ㅈㅣᆫㅈㅜ⑨
##ㅅㅡ⑨ㅍㅡᆯㄹㅔ⑨ㅇㅣ⑨
ㅇㅏᆶ
ㅈㅓᆸㅇㅓ⑨ㄷㅡᆯ
ㅎㅏ⑨ㄴㅡ⑨
ㅌㅏᆼ
ㅇㅣ⑨ㅈㅜᆫㅅㅓᆨ
##ㄹㅏ⑨ㅅㅡ⑨
ㅈㅣᆷㅈㅏᆨ
ㅇㅠ⑨ㅇㅖ⑨
ㅈㅏ⑨ㅈㅗᆫ
##ㄱㅐ
ㅈㅓᆫㅇㅕᆨ
##ㄱㅜᆨㅈㅏᆼ
##ㅁㅣ⑨ㅇㅐ⑨
ㅂㅐ⑨ㅇㅜ⑨ㅈㅏ⑨
ㄱㅣ⑨ㅂㅓᆸ
ㅊㅏᆨㅇㅛᆼ
ㄱㅛ⑨ㅅㅜ
ㅈㅏᆷㄲㅏᆫ
ㅁㅓᆼ
ㄱㅣ⑨ㅇㅓ
##ㅂㅜ⑨ㅈㅏᆼ
##ㅂㅡ⑨ㄹ
##ㄹㅡ⑨ㅋㅡ⑨
ㅂㅏᆫㅎㅏ⑨
##ㅅㅏᆨ
pd
ㅁㅏᆫㄱㅣ⑨
ㅊㅏᆼㄷㅏᆼ
##ㅑᆨ
##ㅅㅡ⑨ㅋㅣ⑨
ㅇㅣ⑨ㅈㅜᆼ
ㅅㅏᆼㅇㅣᆷㅇㅟ⑨
ㅎㅡᆷ
ㄷㅏᆼㅎㅘᆼ
ㅌㅡᆨㅂㅕᆯㅎㅣ⑨
ㅂㅏᆯㄱㅡᆸ
ㄱㅡᆷㅅㅗᆨ
ㅌㅡᆯㄹㅣ⑨
ㅌㅓ⑨ㄸㅡ⑨ㄹㅣ⑨
ㅁㅔ⑨ㅁㅗ⑨
ㅅㅣᆷㅈㅓᆼ
ㅎㅘᆨㄱㅗ⑨
ㄱㅛ⑨ㅇㅠ
ㄸㅟ⑨ㅇㅓ⑨ㄴ
189
ㅈㅏ⑨ㅊㅣᆺ
ㅈㅜᆼㅅㅣ⑨
ㅁㅜ⑨ㅅㅏ⑨
##ㄷㅏᆼㄱㅣ⑨
ㅇㅏ⑨ㅅㅔ⑨ㅇㅏᆫ
ㅂㅏᆯㅁㅗᆨ
ㅇㅑᆼㅂㅗ⑨
ㅂㅣᆾㄴㅏ⑨
##ers
ㄷㅚ⑨ㅊㅏᆽ
ㅇㅣ⑨ㅇㅑ⑨ㅁㅏᆯㄹㅗ⑨
##ㅌㅏ⑨ㅇㅣ⑨
##ㅐᆫㅅㅡ⑨
ㄱㅡ⑨ㅇㅑ⑨
ㅅㅏᆫㄹㅣᆷ
ㅈㅓᆼㅊㅣ
ㅁㅜ⑨ㅅㅓᆫ
ㅇㅏᆫㅅㅏᆫ
##ㄱㅜᆨㅈㅔ⑨
ㅅㅗ⑨ㅈㅣᆸ
ㄴㅏᆸㅍㅜᆷ
ㅍㅐ⑨ㅅㅡ⑨ㅌㅡ⑨
ㅇㅐᆼ
##ㅋㅏ⑨ㄹ
ㄱㅗ⑨ㅅㅏ⑨
##ㄹㅏᆯ
ㄷㅏ⑨ㅅㅡ⑨
##ㄱㅘ⑨ㅎㅏᆨ
ㅇㅣᆸㅅㅜᆯ
ㅋㅏ⑨ㅋㅏ⑨ㅇㅗ⑨
ㅌㅔ⑨ㅇㅣ⑨ㅂㅡᆯ
ㅅㅡᆼㅈㅓᆷ
ㄱㅗ⑨ㅂㅐᆨ
ㄱㅏᆫㅈㅜ⑨
ㅈㅏ⑨ㅇㅕᆼㅇㅓᆸㅈㅏ⑨
ㅍㅐ
ㄱㅗᆷ
ㅈㅓᆨㅈㅓᆼ
ㄱㅓᆸ
ㄱㅡ⑨ㄴㅏ⑨ㅁㅏ⑨
97
ㅂㅜᆫㅅㅏᆫ
ㅊㅔ⑨ㅋㅡ⑨
ㄲㅡᆶ
ㄷㅏᆫㅊㅜᆨ
ㄷㅏᆼㅂㅜᆫ
ㄱㅜ⑨ㅎㅗ⑨
ㅇㅣ⑨ㅇㅚ⑨
ㅈㅜᆯㄱㅣ⑨
ㄴㅏ⑨ㄹㅏᆫㅎㅣ⑨
ㄷㅏᆼㅅㅓᆫㅈㅏ⑨
ㅇㅓᆫㅈㅔᆫ
ㅇㅘ⑨ㅇㅣ⑨
ㅅㅏ⑨ㄹㅕᆼㄱㅘᆫ
ㅇㅏᆫㄷㅗᆼ
##ob
ㄹㅗ⑨ㄷㅡ⑨
ㄱㅣᆷㅊㅣ⑨
ㅈㅐ⑨ㅂㅐ⑨
250
ㅈㅓᆼㅊㅐᆨㅇㅟ⑨
##ard
ㄱㅜᆨㄱㅏᆷ
ㅂㅐᆨㅇㅏᆨㄱㅘᆫ
ㅎㅐᆼㅈㅣᆫ
ㅁㅔᆨㅅㅣ⑨
ㅇㅕᆷㄷㅜ⑨
ㅇㅓᆫㅈㅔᆫㄱㅏ⑨
ㅇㅡᆫㄱㅏ
ㅂㅓᆸㅊㅣᆨ
##ㄹㅣ⑨ㅅㅡ⑨ㅌㅡ⑨
ㅇㅏᆫㄱㅓᆫ
ㅎㅕᆼㅍㅕᆫ
ㄱㅘ⑨ㅇㅣᆯ
##ㅋㅏᆫ
##ㅌㅔᆨ
ㄱㅗ⑨ㅈㅣ⑨
ㄱㅡᆺ
ㅇㅏ⑨ㅍㅡᆷ
ㅎㅗ⑨ㅇㅡᆼ
ㅅㅏᆼㅇㅢ⑨
ㅋㅔ⑨ㅇㅣ⑨ㅂㅡᆯ
ㅇㅓ⑨ㄹㅣᆫㅇㅣ⑨ㅈㅣᆸ
##pg
ㄲㅗ
ㅈㅓᆨㅎㅣ⑨
ㅇㅛ⑨ㅇㅝᆫ
ㅂㅣᆯㄷㅣᆼ
ㄷㅐ⑨ㅎㅚ
ㅅㅣᆫㅂㅣ⑨
ㅂㅗᆨㅁㅜ⑨
ㄴㅐ⑨ㅇㅚ⑨
92
##ㄹㅣ⑨ㅌㅡ⑨
ㅁㅣᆫㅈㅜ⑨ㅌㅗᆼㅎㅏᆸ
ㅊㅔ⑨ㄹㅕᆨ
ㄲㅗᆷㄲㅗᆷ
ㅁㅕᆼㅅㅓᆼ
cm
ㅇㅣᆯㅂㅏᆫㅇㅣᆫ
ㅇㅗ⑨ㅍㅣ⑨
ㅇㅛᆼㅍㅜᆷ
ㅅㅡ⑨ㅇㅞ⑨
ㄷㅗᆼㅎㅘ⑨
ㄱㅡᆸㅎㅏ⑨
ㄱㅓ⑨ㅈㅓᆷ
ㅇㅝ⑨ㅋㅡ⑨
ㅁㅜ⑨ㅎㅛ⑨
ㅅㅓᆫㅈㅔ⑨
ㅇㅛᆨㅅㅣᆷ
ㅂㅕᆼㅎㅐᆼ
ㅎㅏ⑨ㄴㅡ⑨ㄴㅣᆷ
ㅎㅓᆫㅅㅣᆫ
ㄱㅣᆯㅇㅣ⑨
##ea
ㅎㅏᆨㄹㅕᆨ
##ㅌㅏ⑨ㅁ
ㅈㅜ⑨ㅂㅜ⑨
ㅅㅏ⑨ㄹㅣᆸ
ㅂㅐ⑨ㄷㅏᆯ
ㅎㅘ⑨ㅈㅏᆼㅅㅣᆯ
ㅌㅡᆨㅇㅠ⑨
ㅊㅜ⑨ㅁㅣ⑨ㅇㅐ⑨
ㅈㅏ⑨ㅅㅔ⑨ㅎㅣ⑨
ㄱㅣᆷㅂㅕᆼ
ㅈㅗ⑨ㅇㅑᆨ
ㅌㅏᆯㅊㅜᆯ
ㅈㅓᆨㅍㅖ⑨
ㅍㅕᆼㅂㅓᆷㅎㅏ⑨
ㅋㅗ⑨ㄷㅡ⑨
ㅂㅜ⑨ㅇㅢ⑨
ㅇㅣᆫㄷㅗ⑨ㄴㅔ⑨ㅅㅣ⑨ㅇㅏ⑨
91
ㅇㅜ⑨ㅇㅜᆯ
ㅎㅐ⑨ㅂㅓᆸ
ㅎㅐ⑨ㅅㅜ⑨
ㅋㅓ⑨ㅈㅣ⑨
ㄷㅏᆸㄷㅏᆸ
ㅍㅣᆯㄹㅣ⑨ㅍㅣᆫ
ㅁㅏᆫㅁㅏᆫ
ㅇㅣᆷㅅㅣᆫ
##ㅂㅜᆼ
96
ㅅㅜ⑨ㄷㅏᆼ
ㅁㅣᆫㅈㅜ⑨ㄴㅗ⑨
ㅇㅠ⑨ㅇㅛᆼ
##ㅍㅗᆯㄹㅣ⑨
ㄴㅏᆷㄱㅜ⑨
ㅈㅗ⑨ㄹㅣ⑨
ㄱㅏ⑨ㅂㅏᆼ
ㅇㅝ⑨ㄴㅏᆨ
ㅎㅘᆨㄹㅣᆸ
ㅅㅣᆫㅈㅏᆼ
##ㅍㅐᆼ
##ㅍㅜᆯㅇㅣ⑨
ㄱㅗᆼㅇㅣᆫ
ㅃㅓᆮ
ㅅㅣ⑨ㄱㅗᆼ
ㄱㅓᆫㅈㅣ⑨
##ㅋㅓᆷ
ㅇㅜᆫㅈㅓᆫㅈㅏ⑨
ㅇㅏᆫㅇㅑᆼ
ㄱㅏ⑨ㅈㅓᆫ
##ㅁㅣᆯㅎㅣ⑨
ㄱㅡᆸㅅㅗᆨ
##top
ㄱㅜ⑨ㄱㅕᆼ
##start
ㅈㅓᆫㅅㅜᆯ
ㅂㅜ⑨ㅇㅟ⑨ㅇㅝᆫㅈㅏᆼ
ㄴㅏᆰ
##ㅋㅡ⑨ㅅㅡ⑨
ㅁㅏᆺㅇㅣᆻ
ㅅㅓᆫㅍㅗ⑨
##ㅇㅐ
ㅅㅜ⑨ㅅㅗ⑨
ㄱㅕᆼㅂㅜᆨㄷㅗ⑨
ㄷㅟ⑨ㄴㅡᆽ
##ㅇㅓ⑨ㄴㅗᇂ
ㅁㅗ⑨ㅅㅜᆫ
ㅇㅏᆯㅇㅏ⑨
ㅂㅏ⑨ㄲㅏ
ㄴㅗᆼㅈㅏᆼ
ㅂㅏᇀ
ㅊㅜᆫㅊㅓᆫ
ㅍㅗᆨㅎㅐᆼ
ㅇㅝᆫㅈㅏ⑨ㄹㅕᆨ
ㅊㅚ⑨ㅈㅓᆨ
ㄷㅓ⑨ㄱㅜ⑨ㄴㅏ⑨
ㅂㅜᆨㅉㅗᆨ
ㅇㅟ⑨ㅌㅏᆨ
ㄴㅐ⑨ㅅㅜ⑨
ㅇㅣ⑨ㅅㅡᆯㄹ
ㄷㅓ⑨ㄹ
ㄲㅏᆩ
ㄱㅗ⑨ㅈㅗ⑨
ㅇㅕᆨㅇㅣᆷ
ㅍㅐ⑨ㄹㅓ⑨
ㅇㅛᆼㅈㅣ⑨
ㅇㅣ⑨ㅅㅏᆫ
##ㅇㅏᆭ
##ㅁㅏ⑨ㅇㅡᆯ
ㅇㅠ⑨ㅅㅏᆫ
ㅍㅗᆯㄹㅣ⑨
ㄱㅗ⑨ㅈㅣᆸ
ㄱㅡ⑨ㄷㅐ⑨
ㅇㅝᆫㅇㅠ⑨
ㅎㅓᆺ
ㅂㅜ⑨ㅅㅏ⑨ㅈㅏᆼ
ㅅㅓ⑨ㅅㅜᆯ
ㄱㅏ⑨ㅈㅜᆼ
ㄷㅗᆼㅎㅑᆼ
ㅅㅣ⑨ㅅㅏᆼ
ㅇㅣ⑨ㅌㅏᆯ
ㅇㅑᆼㅅㅣᆷ
ㄱㅜᆨㅁㅣᆫㅇㅕᆫㄱㅡᆷ
ㅈㅗ⑨ㅈㅣ⑨
##ㅂㅏᆷ
9000
ㅁㅣᆫㅈㅜ⑨ㅌㅗᆼㅎㅏᆸㄷㅏᆼ
ㅎㅓᆷ
ㅂㅏ⑨ㄲㅏᇀ
ㅅㅣ⑨ㅌㅣ⑨
ㄷㅏ⑨ㄱㅗ
##est
ㅍㅡᆯㄹㅓ⑨
ㅈㅣ⑨ㄴㅏᆫㅈㅜ⑨
ㅇㅏ⑨ㅁㅜ⑨ㄹㅐ⑨
ㅂㅕᆯㄷㅏ⑨ㄹㅡ⑨
##ㅍㅔ⑨ㄹㅏ⑨
ㅁㅏ⑨ㅅㅏᆫ
ㄸㅓᆨ
ㅂㅐᆫㄷㅡ⑨
83
##ㅅㅡ⑨ㅌㅔᆯ
ㅍㅗ⑨ㅊㅏᆨ
ㅇㅛ⑨ㄱㅓᆫ
ㅁㅕᆼㅁㅜᆫ
ㄱㅡ⑨ㅇㅑ⑨ㅁㅏᆯㄹㅗ⑨
ㄱㅜ⑨ㅁㅓᆼ
ㄷㅐ⑨ㅇㅝᆫ
ㅇㅡᆷㅈㅜ⑨
ㅂㅓᆸㅈㅔ⑨
ㅅㅜ⑨ㅈㅣ⑨
ㄴㅗ⑨ㅎㅏ⑨ㅇㅜ⑨
##ㅂㅣ⑨ㅊㅣ⑨
ㅂㅐ⑨ㅈㅓᆼ
ㄱㅡᆷㅎㅗ⑨
ㅂㅏᆨㅇㅝᆫㅅㅜᆫ
fc
##ㄹㅣ⑨ㅈㅡᆷ
ㅈㅣ⑨ㅁㅗᆨ
ㄷㅓ⑨ㅇㅜᆨㅇㅣ⑨
ㅅㅗᆼㅇㅕᆼ
ㅎㅏᆫㅊㅏᆼ
ㄱㅜᆨㅇㅓ⑨
ㅇㅏ⑨ㅁㅜ⑨ㄹㅐ⑨ㄷㅗ⑨
ㄱㅏ⑨ㅈㅕ⑨ㄱㅏ⑨
ㅁㅗ⑨ㄹㅐ⑨
ㅇㅔ⑨ㅅㅡ⑨
ㄷㅡ⑨ㄹㅏ⑨ㅇㅣ⑨
ㅊㅣ⑨ㅇㅜ⑨
ㅇㅣᆯㅎㅘᆫ
##ㅂㅗ⑨ㅎㅓᆷ
ㅈㅓᆫㅈㅓᆨ
##ㄴㅓ
ㅊㅜᆯㄱㅏᆫ
##ㅈㅣ⑨ㅂㅓᆸ
ㅁㅐ⑨ㄷㅗ⑨
ㅈㅡᆼㄱㅝᆫㅅㅏ⑨
##eb
ㅅㅏ⑨ㅎㅜ⑨
ㅊㅜᆼㅂㅜᆫㅎㅏ⑨
ㄱㅜᆨㄱㅕᆼ
ㅂㅣ⑨ㅍㅕᆼ
ㄷㅏ⑨ㄴㅕ⑨ㅇㅗ⑨
ㅈㅗ⑨ㅅㅔ⑨
ㅂㅏ⑨ㅇㅣ⑨ㄹㅓ⑨ㅅㅡ⑨
ㅎㅏᆫㅉㅗᆨ
ㄴㅔ⑨ㄷㅓᆯ
ㅁㅗ⑨ㄱㅡᆷ
ㅅㅐᆼㄱㅖ⑨
ㄴㅗᆼㅅㅏᆫㅁㅜᆯ
ㅁㅜᆯㅍㅜᆷ
ㅋㅣᆯ
ㅇㅞᆯ
textlinktop
ㅁㅕᆼㅂㅐᆨㅎㅏ⑨
ㅅㅛ⑨ㅍㅣᆼㅁㅗᆯ
ㄷㅐ⑨ㄷㅏᆫㅎㅣ⑨
ㅈㅓᆫㅇㅣᆫ
ㄸㅏ⑨ㅇㅟ⑨
ㄱㅘᆫㅈㅓᆯ
ㅇㅗ⑨ㅅㅔ⑨
ㅇㅢ⑨ㅅㅓᆨ
##ㄴㅗᆷ
ㅇㅗ⑨ㅊㅏ⑨
ㅈㅐ⑨ㅈㅣᆨ
##ㅅㅣ⑨ㄱㅏᆫ
02
ㅇㅕ⑨ㄱㅏ⑨
ㅂㅕᆼㄹㅕᆨ
##ion
ㄱㅗ⑨ㅅㅗᆨㄷㅗ⑨ㄹㅗ⑨
ㅁㅜᆫㄱㅜ⑨
ㅍㅗᆫ
ㄴㅗᆼㅅㅏ⑨
ㅁㅐ⑨ㄴㅣ⑨
ㅎㅘᆨㄹㅠᆯ
ㅇㅏ⑨ㅈㅓ⑨
ㅎㅚ⑨ㅈㅓᆫ
ㅅㅏᆯㅇㅏ⑨ㄴ
ㄷㅏᆼㅂㅜᆫㄱㅏᆫ
ㅈㅓᆼㅅㅔ⑨ㄱㅠᆫ
ㅎㅓ⑨ㄹㅏᆨ
ㅅㅣ⑨ㅅㅔ⑨
ㅅㅏᆯㅇㅏ⑨ㄴㅏᆷ
ㅇㅑᆼㅉㅗᆨ
ㅇㅔᆷ
ai
ㄱㅖ⑨ㅈㅓᆯ
ㄱㅐ⑨ㅅㅗ⑨
ㅅㅣᆯㅇㅛᆼ
ㅇㅞᆫ
ㄷㅗᆯㅂㅗ⑨
ㅅㅖ⑨
##ㅈㅏ⑨ㄱㅡᆷ
ㅇㅟ⑨ㅈㅏᆼ
ㄹㅐᆼ
ㅊㅜᆼㅈㅓᆫ
ㅇㅣ⑨ㅅㅡᆯㄹㅏᆷ
ㅌㅐ⑨ㅇㅑᆼㄱㅘᆼ
ㅁㅏ⑨ㅋㅡ⑨
ㄷㅗᆼㅂㅜᆨㅇㅏ⑨
1994
ㅅㅡ⑨ㅌㅡ⑨ㄹ
ㅇㅢ⑨ㅈㅔ⑨
ㅅㅗ⑨ㅇㅡᆷ
##ㅅㅡ⑨ㅌㅓᆫ
ㄹㅔ⑨ㄷㅡ⑨
ㅈㅜ⑨ㅅㅗ⑨
ㅇㅡᆯㄲㅏ⑨ㅇㅛ
##ㅅㅣ⑨ㅅㅡ⑨
ㅈㅓᆼㅌㅗᆼ
94
ㄱㅜ⑨ㅊㅓᆼㅈㅏᆼ
ㅂㅏᆫㄱㅣ⑨
##ㅊㅗ
ㅊㅏᆷㅅㅓᆨㅈㅏ⑨
ㅎㅏᆫㅅㅜᆷ
ㅌㅏᆷㄱㅜ⑨
ㅈㅓᆼㅎㅘᆼ
ㅂㅏᆨㅈㅣ⑨ㅇㅝᆫ
sm
ㅈㅜᆼㅈㅣᆫ
ㄱㅗᆫㄹㅏᆫ
ㅎㅘ⑨ㅎㅐ⑨
ㅋㅐᆷㅍㅓ⑨ㅅㅡ⑨
ㅇㅏ⑨ㅅㅣ⑨ㅇㅏᆫ
ㅌㅡ⑨ㄹㅔᆫㄷㅡ⑨
ㄷㅏᆼㄱㅣ⑨
ㅁㅐ⑨ㄷㅏᆯㄹㅣ⑨
ㄴㅏ⑨ㄱㅕᆼ
ㅇㅑᆼㅊㅡᆨ
ㅇㅐ⑨ㅈㅓᆼ
ㅅㅡ⑨ㅅㅡᆼ
##ㄷㅣ⑨ㅅㅕᆫ
##ㄷㅏᆫㅈㅣ⑨
ㅈㅜᆼㅈㅏᆼ
ㅈㅏᆷㅅㅜ⑨
##ㅅㅐᆼㅁㅕᆼ
ㅅㅓ⑨ㅂㅣ⑨ㅅㅡ
ㅌㅏ⑨ㅎㅕᆸ
89
ㅈㅣᆨㅁㅕᆫ
ㄷㅗ⑨ㄴㅓᆯㄷㅡ⑨
ㅇㅣᆸㄱㅜᆨ
ㅇㅜ⑨ㅇㅟ⑨
ㄷㅚ⑨ㄷㅗᆯ
ㅈㅣ⑨ㄱㅕᆼ
ㄸㅡ
ㄱㅗᆼㄱㅣ⑨ㅇㅓᆸ
ㅊㅚ⑨ㅅㅣᆫ
ㄷㅏᆫㅇㅝᆫ
ㅌㅣ
ㅇㅕᆫㄷㅗᆼ
ㅂㅜᆫㅎㅏᆯ
##ㅎㅢ
ㅅㅣᆫㅎㅡᆼ
1960
ㅈㅜ⑨ㅈㅓ⑨
ㅅㅏᆼㄱㅡᆷ
ㅇㅠ⑨ㅇㅏ⑨
ㅅㅣ⑨ㄱㅗᆯ
ㄱㅕᆼㅎㅗ⑨
##ㅇㅏ⑨ㅇㅣ⑨
ㅈㅓᆫㅅㅓᆫ
ㅇㅕ⑨ㅅㅓᆺ
fr
ㄴㅗ⑨ㅌㅡ⑨
ㅁㅔᆨㅅㅣ⑨ㅋㅗ⑨
ㅁㅏᆨㅍㅏᆫ
ㄱㅓᆫㅅㅜ⑨
ㅇㅕᆼㅌㅗ⑨
##ㅍㅡᆯㄹㅓ⑨ㅅㅡ⑨
ㅇㅡᆸ
##ㄱㅗ⑨ㅂㅏᆮ
ㅂㅏ⑨ㄹㅏᆷㅈㅣᆨㅎㅏ⑨
ㅍㅛ⑨ㄱㅕᆯ
##ill
ㅊㅓᆫㅇㅏᆫㅎㅏᆷ
ㅌㅓ⑨ㅁㅣ⑨
ㅎㅐ⑨ㅅㅓᆯ
##uc
ㅎㅘ⑨ㅍㅖ⑨
ㅈㅏᆽ
ㄱㅗ⑨ㅇㅣᆫ
ㄹㅗ⑨ㅂㅣ⑨
ㅁㅕᆼㅈㅓᆯ
ㅇㅣᆸㅅㅏ⑨
ㅍㅔ⑨ㅅㅡ⑨ㅌㅣ⑨
ㅇㅕ⑨ㄱㅐᆨ
##ㄴㅡ⑨ㄹㅣ⑨
##ㄷㅗᆼㄱㅏᆼ
ㄱㅜᆼㄱㅡᆨ
ㅊㅜ⑨ㄹㅏᆨ
ㅍㅗ⑨ㅌㅓᆯ
##ㄹㅗ⑨ㄱㅡ⑨
##ㅅㅛ
ㅋㅡ⑨ㄹㅣ⑨
ㅅㅗᆺ
##ㅌㅡ⑨ㄹㅗ⑨
ㅂㅜ⑨ㄲㅡ⑨ㄹㅓᆸ
ㅇㅣ⑨ㅅㅏ⑨ㅈㅏᆼ
ㄷㅓ⑨ㄱㅜᆫ
ㄱㅣᆷㅇㅣᆯ
ㄷㅏ⑨ㅊㅣ⑨
ㅅㅣᆨㄹㅑᆼ
ㅁㅗᆯㅇㅏ⑨
##ㄴㅓ⑨ㅅㅡ⑨
##ㅟᆯ
ㅁㅏᆫㅊㅏᆫ
##ㄴㅐ⑨ㄹㅣ⑨
ㅅㅏᆨㅈㅔ⑨
ㄱㅏᆷㅊㅏᆯ
wh
##ㅇㅔ
ㅁㅜ⑨ㅈㅚ⑨
ㅅㅏᆼㅅㅏ⑨
ㅇㅣᆫㄱㅕᆨ
ㄷㅏ⑨ㄹ
ㅎㅏᆫㄱㅡᆯ
##ㅊㅡ
ㅇㅕᆨㅅㅓᆯ
ㄱㅘᆫㅎㅏᆯ
ㅅㅣᆫㅅㅔ⑨ㄱㅖ⑨
ㅇㅣ⑨ㄱㅕᆫ
ㅇㅝᆫㄱㅏ⑨
ㅈㅗ⑨ㅇㅛᆼㅎㅣ⑨
ㄴㅗ⑨ㄷㅗᆼㄷㅏᆼ
ㄹㅕᆼ
ㅂㅜᆫㄱㅝᆫ
ㅅㅕ⑨
ㅅㅓᆫㄱㅛ⑨
ㅁㅐ⑨ㄷㅏᆯ
ㅂㅐᆨㅈㅔ⑨
ㄱㅜ⑨ㄹㅡᆷ
fa
ㅅㅏᆼㅈㅏ⑨
ㅊㅓᆺㄴㅏᆯ
ㄴㅐ⑨ㄱㅣ⑨
##ㄱㅏᇂ
##ㅅㅜᆼ
ㅈㅓᆼㅂㅜ
ㄱㅡ⑨ㄹㅡᆺ
##ㅂㅡᆫ
ㅇㅓᆰ
ㅅㅜᆫㅊㅓᆫ
ㅌㅐ⑨ㄱㅡᆨ
ㅇㅣᆫㅅㅓᆫ
ㄲㅗ⑨ㄹㅣ⑨
ㄱㅓᆫㅊㅜᆨㅁㅜᆯ
ㅇㅓᆨㅇㅜᆯ
ㄹㅣ⑨ㅈㅗ⑨
ㅎㅏᆼㅅㅗ⑨
##ㅈㅣ⑨ㄹㅡ⑨
##ㅍㅣ⑨ㅇㅏ⑨
##ㅅㅣ⑨ㅌㅣ⑨
ㄱㅐ⑨ㅅㅣ⑨
ㄱㅣᆷㅈㅓᆼㅇㅣᆯ
ᆸㅅㅣ⑨ㄷㅏ
ㄱㅝᆫㅇㅣᆨ
##ㅇㅓ⑨ㄹㅣ⑨
##ㅌㅗᆼㅅㅣᆫ
ㄷㅏᆷㄷㅏᆼㅈㅏ⑨
ㅈㅏᆨㄱㅗᆨ
ㄱㅐ⑨ㅅㅓᆼㄱㅗᆼㄷㅏᆫ
ㅈㅗᆼㄹㅗ⑨ㄱㅜ⑨
ㅅㅏᆼㄱㅝᆫ
ㄸㅏ⑨ㄹㅏ⑨ㄱㅏ⑨
##ㅇㅏ⑨ㄱ
ㅈㅜ⑨ㄱㅗ⑨ㅂㅏᆮ
gm
ㅇㅖ⑨ㅅㅓᆫ
ㅋㅗ⑨ㅅㅡ⑨ㅍㅣ⑨
ㅁㅜ⑨ㄱㅘᆫㅎㅏ⑨
ㅎㅣᆷㅆㅡ⑨
##ㅋㅓ
ㅁㅜ⑨ㅈㅣ⑨
ㄱㅗᆼㅇㅓᆸ
ㅇㅡᆼㄱㅡᆸ
lh
ㅅㅏ⑨ㄱㅓ
93
ㅅㅐᆼㅅㅐᆼ
ㅌㅔ⑨ㅅㅡ⑨ㅌㅡ⑨
ㄱㅏᆼㅅㅔ⑨
ㅇㅣ⑨ㅅㅏ
##di
##ㄹㅔ
ㅅㅔ⑨ㅈㅔ⑨
ㅅㅓᆼㅅㅜᆨ
ㄷㅗᆼㅅㅓ⑨
ㅈㅡᆯㄱㅓ⑨ㅇㅜᆷ
ㄷㅗᆼㅎㅐᆼ
ㄱㅣᆷㅅㅜ⑨
ㅎㅗ⑨ㅅㅜ⑨
ㄱㅏᆷㅈㅣ⑨
ㅅㅜᆨㅂㅏᆨ
ㄱㅓᆫㄱㅜᆨ
ㅅㅏ⑨ㅎㅡᆯ
ㅈㅡᆼㅅㅔ⑨
ㅇㅓ⑨ㄷㅗ
ㅈㅜᆼㄱㅕᆫ
ㅅㅐ⑨ㄲㅣ⑨
ㅂㅏᆫㅎㅘᆫ
ᆫㄷㅏ⑨ㅁㅕ⑨
##ㅋㅕ⑨
ㅁㅏᆽㄷㅐ⑨
##ㅊㅏ⑨ㄱ
ㅊㅏᆨㄱㅗᆼ
ㅈㅣᇀ
ㅅㅏᆼㅇㅕᆼ
ㅈㅓᆨㄹㅣᆸ
ㄱㅡ⑨ㄹㅣ⑨ㅎㅏ⑨ㅇㅕ⑨
ㅎㅘ⑨ㅇㅣ⑨ㅌㅡ⑨
ㅎㅘᆯㄹㅕᆨ
ㅌㅏᆨㅇㅝᆯ
ㅇㅗ⑨ㄴㅡᆯㄴㅏᆯ
ㅅㅡᆯㅍㅡ⑨
ㅃㅜ
ㅇㅛᆼㄷㅗ⑨
ㅈㅓᆷㄹㅕᆼ
ㄷㅐ⑨ㄷㅏᆫㅎㅏ⑨
ㅋㅗ⑨ㄹㅗ⑨ㄴㅏ
ㄱㅣ⑨ㅈㅜ
ㅈㅣᆫㅎㅐᆼㅈㅏ⑨
ㅅㅓᆩㅇㅣ⑨
##ㅏ⑨ㄹㅏ⑨ㄹㅣ⑨
ㄷㅗᆯㅇㅏ⑨ㅅㅓ⑨
ㅅㅐᆫ
ㅅㅡᆼㄱㅐᆨ
ㅇㅗ⑨ㄹㅗ⑨ㅈㅣ⑨
ㅁㅗ⑨ㅈ
ㅇㅝᆯㄱㅡᆸ
ㅂㅏᆼㅎㅏᆨ
##ㅔ⑨ㅅㅡ⑨
ㄴㅔ⑨ㄷㅓᆯㄹㅏᆫㄷㅡ⑨
ㅂㅣ⑨ㄱㅡᆨ
ㄴㅜᆫㅂㅣᆾ
ㄱㅛ⑨ㅌㅗᆼㅂㅜ⑨
##ㅡᆯㄹㅐᆫㄷㅡ⑨
ㄱㅗᆯㅍㅡ⑨ㅈㅏᆼ
##ㅅㅔᆺ
ㅍㅗ⑨ㅅㅡ⑨ㅌㅡ⑨
##ge
ㄷㅏᆯㄹㅕ⑨ㄱㅏ⑨
ㄷㅏᆫㅅㅣᆨ
ㅅㅐᆷ
ㅇㅣᆯㅎㅐᆼ
ㄷㅏ⑨ㅇㅜᆫ
##ㄹㅡ⑨ㅌㅡ⑨
##igh
ㅋㅡᆯㄹㅣᆫ
ㅊㅜᆸ
ㄱㅏ⑨ㅁㅏᆫㅎㅣ⑨
ㄱㅡ⑨ㄹㅐ
ㄱㅣ⑨ㄷㅡᆨ
##ㅌㅗᆯㄹㅣᆨ
ㅈㅐ⑨ㅅㅓᆫ
ㅅㅏᆸ
ㅁㅣ⑨ㄱㅜ
en
ㄱㅕᆸㅊㅣ⑨
ㅇㅏ⑨ㅅㅟ⑨ㅇㅜᆷ
ㅇㅖ⑨ㄴㅡᆼ
##tic
ㅈㅚ⑨ㅅㅗᆼ
ㅈㅜᆼㅅㅜᆫ
ㅇㅠ⑨ㅈㅓᆫ
##ㅁㅔ⑨ㅇㅣ⑨ㅅㅕᆫ
ㅁㅏᆷ
br
ㅂㅣ⑨ㅇㅠ⑨
ㅇㅠ⑨ㅎㅛ⑨
ㄷㅗ⑨ㅈㅓ⑨ㅎㅣ⑨
ㄹㅜ⑨ㅇㅣ⑨
ㄱㅏᆷㅅㅜ⑨
ㅅㅡ⑨ㅇㅟ⑨ㅅㅡ⑨
ㅂㅐ⑨ㅌㅓ⑨ㄹㅣ⑨
ㅊㅏᆼㄹㅣᆸ
##ㅏ⑨ㅁㅣ⑨
##ㅇㅏ⑨ㅇㅣᆯ
ㄱㅜᆨㅅㅏᆫ
ㅇㅣ⑨ㅅㅏ⑨ㅎㅚ⑨
ㅋㅓ⑨ㅁㅠ⑨ㄴㅣ⑨ㅋㅔ⑨ㅇㅣ⑨ㅅㅕᆫ
ㄷㅐ⑨ㅎㅏᆼ
ㅌㅓ⑨ㅋㅣ⑨
ㅈㅣ⑨ㅅㅓᆼ
ㄸㅏᆫ
ㄷㅏᆼㅅㅏ⑨
ㅅㅐᆼㅅㅓᆼ
ㅅㅡ⑨ㅌㅠ⑨
ㅅㅣᆫㅂㅏᆯ
ㅊㅓᆼㅈㅜ⑨
ㅇㅏ⑨ㅋㅏ⑨
ㅅㅡᆯㅍㅡᆷ
ㅅㅜ⑨ㅅㅓᆼ
ㅊㅏ⑨ㄱㅏᆸ
ㅅㅡᆯㄹㅗ⑨
##ㅅㅡ⑨ㄹㅔ⑨
ㅋㅏ⑨ㅇㅣ⑨
##ㅋㅐ⑨
ㄱㅗᆼㅈㅓᆼㅇㅟ⑨
ㅍㅗ⑨ㄹㅡ⑨
ㅈㅜᆼㄱㅐ⑨
ㄴㅗᆼㅅㅓᆼ
ㅅㅐ
ㅅㅣ⑨ㄴㅏ⑨
ㄱㅜ⑨ㅅㅓᆨ
ㅈㅐ⑨ㅎㅐ⑨
ㄲㅡ⑨ㄷㅓᆨㅇㅣ⑨
ㅁㅏ⑨ㅅㅡ⑨ㅋㅡ⑨
ㄱㅕᆼㅊㅏᆯㅅㅓ⑨
##ㅌㅔ⑨ㅇㅣᆫ
ㅅㅡ⑨ㅌㅏ⑨ㅌㅡ⑨
ㅈㅓᆯㅁㅏᆼ
ㄷㅐ⑨ㅈㅗ⑨
##ㅁㅜ⑨ㄱㅣ⑨
ㅈㅏ⑨ㅂㅜ⑨
##ㅅㅏ⑨ㅇㅣ⑨
ㄴㅏᆼㅂㅣ⑨
ㅈㅏᆼㅅㅓᆼ
ip
ㅇㅗ⑨ㅍㅔ⑨ㄹㅏ⑨
ㅂㅔ⑨ㅅㅡ⑨ㅌㅡ⑨
##ㄱㅘᆫㄹㅣ⑨
ㅇㅣᆯㅊㅔ⑨
jt
ㅇㅕᆫㅅㅏᆼ
ㄷㅡ⑨ㄷㅣ⑨ㅇㅓ⑨
ㄹㅣ⑨ㅅㅡ⑨ㅋㅡ⑨
ㅇㅕᆫㅁㅐᆼ
ㅍㅕᆫㅇㅣᆸ
ㅇㅠ⑨ㄱㅏ⑨ㅈㅗᆨ
ㅈㅐ⑨ㅍㅏᆫㅅㅗ⑨
ㅇㅖ⑨ㅇㅢ⑨
ㄷㅏᆫㅎㅐᆼ
ㅁㅗ⑨ㅂㅓᆷ
ㅌㅏᆯㅂㅜᆨ
ㄸㅟ⑨ㅇㅓ⑨ㄴㅓᆷ
ㅈㅓᆼㄷㅏᆼㅎㅏ⑨
ㅇㅣᇁ
ㄱㅘᆼㅈㅜ
##ㅎㅔᆫ
ㅍㅗᆨㄹㅗ⑨
ㅎㅡᆼㅂㅜᆫ
ㅇㅕᆷㄹㅕ⑨
ㄱㅏᆷㄷㅏᆼ
ㅈㅜᆫㅅㅜ⑨
ㅂㅜ⑨ㅅㅏ
ㅂㅗᆨㄱㅜ⑨
ㅂㅠ⑨
ㅈㅓᆨㄷㅗ⑨
ㅅㅗ⑨ㄱㅏᆷ
ㅎㅘᆯㅂㅏᆯㅎㅏ⑨
ㅊㅜᆨㅈㅓᆨ
ㅊㅏ⑨ㅅㅔ⑨ㄷㅐ⑨
ㅈㅘ⑨ㅍㅏ⑨
ㄱㅝᆫㅎㅏ⑨
ㅃㅏ⑨ㅈㅕ⑨ㄴㅏ⑨ㄱㅏ⑨
ㄴㅏᆷㅇㅛᆼ
ㅅㅏᆼㅅㅗᆨ
ㅇㅣ⑨ㅅㅜ⑨
ㅂㅏᆫㄱㅏᆸ
ㅇㅓᆺㄱㅏᆯㄹㅣ⑨
ad
ㅍㅣ⑨ㄱㅗ⑨ㅇㅣᆫ
ㅇㅔᆫㅌㅓ⑨
ㅂㅏᆯㅎㅛ⑨
ㄱㅏᆷㅆㅏ⑨
##ㅎㅑ
ㅅㅏᆫㅊㅐᆨ
ㅂㅜᆨㄱㅜ⑨
go
ㅇㅑ⑨ㄱㅏᆫ
ㅈㅓᆫㅅㅜ⑨
ㅍㅗ⑨ㅌㅡ⑨
ㅊㅗ⑨ㅇㅝᆯ
ㅅㅏᆨㄱㅏᆷ
##ㅎㅡ
ㄱㅘᆼㅂㅗᆨ
##ㅌㅗ⑨ㄹㅗᆨ
ㄱㅗ⑨ㅇㅑᆼㅇㅣ⑨
ㅈㅏᆼㅎㅏᆨㄱㅡᆷ
1992
ㅂㅏ⑨ㄷㅏᆺ
ㄹㅏ⑨ㄴ
##our
ㄹㅠ
ㅎㅏᆨㅎㅚ⑨
ㅁㅜᆯㅇㅡᆷ
ㅎㅕᆯㅇㅐᆨ
ㄱㅗᆼㅎㅘ⑨ㄷㅏᆼ
##ㅡ⑨ㄹㅡ⑨
ㅈㅣ⑨ㅇㅣᆫ
nc
ib
ㅁㅓ⑨ㄹㅣᆺ
ㄱㅏᆷㅁㅕᆫ
ㅌㅐ⑨ㅍㅜᆼ
ac
ㅎㅡᆼㅎㅐᆼ
##ㄱㅠ
ㅅㅣᆷㅅㅏᆼㅈㅓᆼ
##ㅇㅓ⑨ㄸㅡ⑨ㄹㅣ⑨
ㅇㅣᆫㅅㅜ⑨ㅇㅟ⑨
ㄷㅗ⑨ㅇㅛ⑨
ㄱㅗ⑨ㄱㅜ⑨ㄹㅕ⑨
ㅅㅗ⑨ㅅㅕᆯ
ㅇㅟ⑨ㅇㅝᆫㅈㅏ
ㄴㅏ⑨ㄱㅕᆼㅇㅝᆫ
ㅅㅓᆼㅍㅗᆨㄹㅕᆨ
ㅇㅖ⑨ㅋㅓᆫㄷㅐ⑨
ㅈㅗ⑨ㅈㅗᆼ
ㅅㅡ⑨ㅌㅣ⑨
##ㄸㅡ⑨
ㅊㅏᆼㅇㅝᆫㅅㅣ⑨
ㅂㅜ⑨ㅇㅑᆼ
ㅇㅡ⑨ㄹㅕ⑨ㄴㅡᆫ
ㅋㅡᆯㄹㅐ⑨ㅅㅣᆨ
ㅅㅔ⑨ㅁㅣ⑨ㄴㅏ⑨
ㅅㅐᆼㅇㅐ⑨
ㅈㅐ⑨ㄱㅖ⑨
ㄴㅗ⑨ㄷㅗᆼㅂㅜ⑨
##ell
ㅅㅓᆫㅎㅐᆼ
ㄷㅏᆫㅎㅗ⑨
ㄱㅘ⑨ㅅㅣ⑨
ㅍㅡᆯㄹㅐᆫ
ㅍㅡ⑨ㄹㅣᆫ
ㅁㅜᆫㅎㅘ
ㄱㅡᆯㅈㅏ⑨
am
ㅍㅓ⑨ㅅㅔᆫㅌㅡ⑨
ㅁㅐ⑨ㅊㅣ⑨
ㅊㅗᆼㅇㅐᆨ
ㅁㅏᆨㄷㅐ⑨ㅎㅏ⑨
ㄱㅛ⑨ㅈㅓᆼ
ㅈㅓᆫㄱㅕᆨ
ㅎㅡᇀ
ㅅㅓᆼㅈㅣᆯ
ㅁㅕᆫㅅㅔ⑨
ㅎㅓᆫㅈㅐ⑨
ㅈㅓᆫㄱㅛ⑨
ㅁㅗᆨㅍㅗ⑨
ㄱㅖ⑨ㅅㅡᆼ
ㅇㅓᆷㅈㅜᆼ
ㄷㅏᆼㄴㅛ⑨
ㄷㅗ⑨ㅁㅗ⑨
##ㅋㅏ
ㅎㅏᆫㅇㅣᆯ
ㄱㅣᆷㅁㅜ⑨ㅅㅓᆼ
##ㅇㅓ⑨ㅇㅗ⑨
ㄱㅟ⑨ㅈㅗᆨ
ㄱㅗ⑨ㄱㅏ⑨
ㅇㅣ⑨ㅈㅣᆸ
ㅅㅗ⑨ㅁㅕᆯ
ㅊㅓᆫㅎㅏ⑨
ㅍㅐ⑨ㅋㅣ⑨
ㅇㅓ⑨ㅇㅜ⑨
ㅂㅜ⑨ㅈㅓᆨ
ㅅㅔ⑨ㅌㅏᆨ
ㅇㅣᆺㄷㅏᆯ
ㅊㅏ⑨ㄹㅏ⑨ㄹㅣ⑨
ㅁㅕᆫㅇㅕᆨ
ㅇㅡᆼㅅㅣ⑨
ㅅㅜ⑨ㄹㅕᆼ
ㅂㅣ⑨ㅌㅏ⑨ㅁ
ㅎㅚ⑨ㅅㅜ⑨
ㅈㅓᆯㄷㅐ⑨ㄹㅗ⑨
ㅈㅏ⑨ㅈㅗᆫㅅㅣᆷ
##ㄴㅣᆯ
ㅇㅑᆨㅈㅏ⑨
##ㅔ⑨ㅇㅣ⑨ㅌㅡ⑨
ㅇㅓᆨㅈㅣ⑨
ㅁㅗᆸ
ㄴㅗᆼㄷㅏᆫ
ㅇㅗ⑨ㅌㅗ⑨
ㅇㅠ⑨ㄷㅐ⑨ㅇㅣᆫ
ㅎㅏᆫㄷㅗᆼㅇㅏᆫ
ㄷㅐ⑨ㄷㅐ⑨ㅈㅓᆨ
ㅂㅜᆯㅎㅘᆼ
##ㅆㅡᆯ
ㅇㅡᆼㄷㅏᆸㅈㅏ⑨
ㅁㅗ⑨ㅌㅓ⑨
ㅎㅏᆫㄷㅜ⑨
ㅅㅏ⑨ㅎㅚ
ㄷㅐ⑨ㅊㅣ⑨
ㅁㅏᆺㅂㅗ⑨
ㄱㅗᆼㅂㅐᆨ
##ㅍㅗᆯ
##ab
##ㄷㅜᆫ
ㄱㅐᆯㄹㅓᆨㅅㅣ⑨
ㄱㅓ⑨ㅈㅣ⑨
ㄱㅔ⑨ㅈㅐ⑨
ㅍㅏ⑨ㅌㅣ⑨
ㅈㅓᆫㅅㅓᆯ
ㅅㅏᆼㅎㅏ⑨ㅇㅣ⑨
ㅇㅕᆫㅇㅣᆫ
ㅎㅣᆷㅇㅣᆸ
ㅂㅓᆷㅎㅐᆼ
ㅇㅠᆨㅇㅏ⑨
ㄷㅗᆮㅂㅗ⑨ㅇㅣ⑨
ㅍㅗ⑨ㄷㅗ⑨
be
ㄱㅜ⑨ㄷㅜ⑨
ㅈㅣᆸㄱㅏᆹ
ㄱㅣᆷㅁㅣᆫ
ㅎㅏᆫㄲㅓ⑨
ㅈㅔ⑨ㅇㅢ⑨
ㅅㅜ⑨ㅇㅕ⑨
ㄱㅓᆯㅇㅓ⑨ㄱㅏ⑨
ㅎㅏᆫㄲㅓ⑨ㅂㅓᆫㅇㅔ⑨
ㄱㅘ⑨ㅇㅣᆼ
ㅈㅜ⑨ㅁㅓᆨ
kg
ㅋㅗ⑨ㄴㅓ⑨
ㅇㅕᆼㅎㅘ⑨ㅈㅔ⑨
ㅈㅏᆼㅊㅏᆨ
ㅈㅓ⑨ㅈㅏᆨ
ㄴㅐ⑨ㄷㅏᆯ
##ㅇㅗ⑨ㅍㅡ⑨
03
ㅎㅏ⑨ㅊㅓᆫ
ㅇㅕᆫㅅㅔ⑨ㄷㅐ⑨
##ㄷㅡ⑨ㄹㅓ⑨ㅈㅣ⑨
ㅂㅣ⑨ㅅㅡᆺ
900
ㄷㅠ⑨
ㅎㅏᆫㄷㅗ⑨
ㅎㅜ⑨ㅎㅚ⑨
ㅇㅏ⑨ㄹㅣ⑨
ㅅㅓ⑨ㅅㅓ⑨
ㅅㅣᆫㄴㅕᆷ
ㅊㅓ⑨ㅂㅏᆼ
ㅅㅣᆯㅈㅓᆷ
##ㅌㅔ⑨ㅇㅣ⑨
ㄴㅡᆫㄱㅏ⑨
ㅇㅗᆯㄹㅏ⑨
jtbc
ㅅㅣᆫㄴㅕᆫ
ㅅㅜ⑨ㅎㅓᆷ
ㅇㅣᆯㅇㅣᆯ
ㅇㅡᆷㄹㅛ⑨
ㄱㅡᆸㄷㅡᆼ
ㄴㅑ⑨ㄱㅗ⑨
ㄱㅔ⑨ㅇㅣ⑨
ㅇㅓ⑨ㅇㅑ⑨ㅈㅣ
ㅇㅣ⑨ㄹㅖ⑨
ㅈㅘ⑨ㅈㅓᆯ
ㄷㅐ⑨ㅍㅛ⑨ㄷㅏᆫ
ㅈㅓᆫㅅㅏ⑨
ㄷㅣ⑨ㅈㅏ⑨ㅇㅣ⑨
ㄷㅗᆼㅈㅣ⑨
ㅇㅑ⑨ㅇㅚ⑨
ㅅㅣᆨㅁㅣᆫㅈㅣ⑨
ex
ㄱㅜᆨㅈㅓᆨ
ㅇㅣ⑨ㅈㅣᆸㅌㅡ⑨
ㄱㅡ⑨ㄹㅣᆷㅈㅏ⑨
ㅊㅐᆨㅅㅏᆼ
ㅍㅗᆷ
ㄱㅘ⑨ㅎㅏᆨㅈㅏ⑨
ㅇㅠ⑨ㅌㅠ⑨ㅂㅡ⑨
ㄷㅜ⑨ㄹㅜ⑨
1993
ㄱㅣ⑨ㅇㅗᆫ
ㄱㅏ⑨ㅅㅏ⑨
##ㅌㅜᆷ
ㅁㅣᆫㄱㅏᆫㅇㅣᆫ
ㅊㅟ⑨ㅈㅐ⑨ㅈㅣᆫ
ㅅㅓ⑨ㅅㅓ⑨ㅎㅣ⑨
ㅂㅓᆫㅇㅕᆼ
ㅂㅓᆸㅅㅏ⑨ㅇㅟ⑨
ㄱㅜᆨㅂㅣ⑨
##ㅋㅣ
ㄷㅏ⑨ㄴㅣ
ㅈㅏ⑨ㅇㅢ⑨
##ㄹㅏᆼㅇㅣ⑨
ㅇㅜ⑨ㅇㅠ⑨
2030
ㅈㅓᆫㅁㅜ⑨
ㅈㅐ⑨ㅎㅕᆫ
1ㅅㅣᆷ
ㅇㅏ⑨ㅈㅓ⑨ㅆㅣ⑨
##ate
ㄴㅗ⑨ㅇㅖ⑨
ㄹㅣ⑨ㅈㅗ⑨ㅌㅡ⑨
ㄴㅏᆩ
ㅇㅝᆫㄹㅛ⑨
ㅂㅣ⑨ㄷㅣ⑨ㅇㅗ⑨
ㅌㅓ⑨ㅁㅣ⑨ㄴㅓᆯ
ㅅㅏᆯㅉㅏᆨ
ㅅㅣ⑨ㅅㅣᆫ
ㅇㅣᆯㅇㅓ⑨ㅅㅓ⑨
ㅅㅣᆫㄱㅣ⑨
ㅆㅓᆯ
ㄱㅕᆼㅇㅟ⑨
##ㅌㅏ⑨ㅇㅣᆷ
##ㅇㅓ⑨ㅂㅗ⑨
##ㅈㅜ⑨ㅌㅐᆨ
form
ㅈㅓᆸㅅㅗᆨ
ㅅㅏᆯㅇㅏ⑨ㅇㅗ⑨
ㄱㅣᆷㅇㅕᆫ
ㅊㅓᆼㅌㅏᆨ
ㄴㅏᆷㅇㅑᆼ
##ᆮㅎㅣ⑨
ㅅㅜ⑨ㅅㅗᆼ
ㅅㅔ⑨ㅁㅜ⑨
ㅊㅚ⑨ㄱㅏᆼ
ㅁㅏᆫㅈㅣ⑨
ㅎㅕᆸㅂㅏᆨ
ㅊㅗᆼㄹㅕᆨ
ㅎㅐ⑨ㅇㅣᆷ
ㅇㅢ⑨ㅇㅑᆨㅍㅜᆷ
ㄴㅏᆨㄷㅗᆼㄱㅏᆼ
ㅊㅜᆨㅅㅏᆫ
sc
ㄱㅗ⑨ㅁㅜ⑨
ㄱㅓᆫㅅㅓᆯㅅㅏ⑨
ㄱㅏᆮㅎㅣ⑨
ㅎㅛ⑨ㄹㅕᆨ
##──
ㄱㅡᆷㄱㅏᆷ
ㅇㅣ⑨ㅇㅠᆫ
##ㅈㅐ⑨ㄷㅏᆫ
ㄴㅏᆯㅋㅏ⑨ㄹ
ㄴㅏᆯㅋㅏ⑨ㄹㅗᆸ
ㅈㅓᆫㅇㅐᆨ
ㄱㅏᆫㅍㅏᆫ
##ㅅㅡ⑨ㅌㅔ⑨
ㅇㅣ⑨ㅇㅣᆫ
ㅈㅜ⑨ㅇㅠ⑨
ㅇㅣᆫㅌㅓᆫ
ㄱㅡᆷㅂㅏᆼ
ㅅㅏᆼㅅㅔ⑨
ㄷㅗᆼㄴㅏᆷㅇㅏ⑨
ㄱㅗᆼㅇㅕᆼ
##ㄴㅏ⑨ㅇ
ㅇㅣᆫㅅㅙ⑨
ㅂㅜᆯㅊㅏᆷ
ㄱㅜᆫㅂㅜ⑨
ㄱㅘᆫㄹㅏᆷㄱㅐᆨ
ㄹㅗᆯ
##ㅈㅜ⑨ㅇㅢ
ㅎㅐ
ㄱㅗᆼㄱㅏᆷㄷㅐ⑨
ㅎㅏ⑨ㅇㅜ⑨ㅅㅡ⑨
##ㄹㅡᆯㄹ
ㄱㅝᆫㅇㅠ⑨
ㅁㅜᆼㅊㅣ⑨
ㄱㅕᆨㄹㅣ⑨
##ub
##ㅇㅣᆯㅇㅡ⑨ㅋㅣ⑨
ㅂㅜᆯㄹㅓ⑨ㅇㅣᆯㅇㅡ⑨ㅋㅣ⑨
ㄷㅏᆼㅈㅓᆼ
ㅌㅗᆼㅈㅏᆼ
ㄱㅕᆯㅅㅓᆼ
ㅇㅕᆫㅍㅐ⑨
ㅇㅣᆯㅅㅓᆫ
ㄷㅡᆼㄹㅗᆨㄱㅡᆷ
ㄱㅝᆫㅇㅕᆨ
ㄷㅗ⑨ㅊㅜᆯ
ㅊㅜᆯㄱㅜᆨ
ㅎㅘᆨㅈㅣᆫㅈㅏ⑨
ㅌㅡᆨㅅㅏ⑨
ㄴㅐᆼㅈㅏᆼ
ㅇㅕᆫㅇㅖ⑨ㅇㅣᆫ
ㄴㅏᆯㄱㅐ⑨
##ㅅㅓ⑨ㅇㅜᆯ
##ㄸㅓᆯ
ㄷㅣᆯ
##hn
ㅇㅓᆨㅇㅏᆸ
ㄴㅐ⑨ㄱㅓᆯ
ㄱㅣᆷㄱㅘᆼ
ㅉㅗ⑨
##all
ㅅㅓᆯㅁㅕᆼㅎㅚ⑨
##ㅇㅣ⑨ㅇㅣᆨ
ㅎㅏᆸㄷㅏᆼ
ㄷㅐ⑨ㅍㅛ
ㄱㅗ⑨ㅅㅓᆼ
ㄴㅐ⑨ㄹㅕ⑨ㄴㅗᇂ
##ㄲㅡᇀ
ㅍㅏᆫㅁㅐ⑨ㄹㅑᆼ
ㅁㅕᆼㅎㅘᆨㅎㅏ⑨
ㅊㅓᆸ
ㅅㅏ⑨ㄱㅛ⑨
ㅅㅡ⑨ㅇㅞ⑨ㄷㅔᆫ
ㅈㅓᆨㄷㅐ⑨
ㅁㅗ⑨ㅈㅏ⑨
ㅈㅓᆫㅅㅣᆫ
ㅇㅣ⑨ㄹㅏ⑨ㅋㅡ⑨
ㅇㅐ⑨ㄴㅣ⑨ㅁㅔ⑨ㅇㅣ⑨ㅅㅕᆫ
ㅅㅏ⑨ㅁㅕᆫ
##ment
##ㅌㅔᆯㄹㅔ⑨
ㅋㅡ⑨ㄹㅜ⑨
ㅇㅕᆫㅇㅐ⑨
ㄱㅣᆷㅈㅣ⑨
ㄱㅏᆸㅈㅏᆨ
ㄷㅚ⑨ㅍㅜᆯㅇㅣ⑨
ㅈㅐ⑨ㄱㅗ⑨
ㅈㅓᆼㅇㅠ⑨
ㅇㅜᆫㅎㅏᆼ
ㅅㅗᆯㄹㅜ⑨
##ㅏ⑨ㄴㅣ⑨ㅇㅏ⑨
ㄱㅓ⑨ㅇㅜᆯ
##ㄴㅓᆲ
ㄲㅚ⑨
ㅈㅐ⑨ㅊㅏ⑨
##ich
ㅈㅐ⑨ㅂㅏᆯ
ㅅㅜ⑨ㅎㅗ⑨
ㅈㅜᆼㄷㅗᆨ
ㅋㅓ⑨ㅁㅠ⑨ㄴㅣ⑨ㅌㅣ⑨
ㅇㅓᆫㄹㅗᆫㅅㅏ⑨
##ㅍㅏᆼ
ㅌㅗᆸ
ㅍㅗᆨㅌㅏᆫ
ㅅㅏᆼㅎㅑᆼ
ㅇㅐ⑨ㄱㅜᆨ
ㅍㅣ⑨ㅇㅢ⑨ㅈㅏ⑨
##ᇁㅇㅣ⑨
ㄷㅐ⑨ㅂㅓᆸ
ㅇㅣ⑨ㅌㅐ⑨
##ㅅㅡ⑨ㅌㅣᆨ
ㄲㅏᆯㄹㅣ⑨
ㅂㅏᆯㅈㅜ⑨
##ㅏᆬ
##ㅎㅡᆫ
##ㅇㅗᆺ
ㅇㅣᆷㅅㅏᆼ
ㅇㅡᆷㅅㅣᆨㅈㅓᆷ
ㅂㅓᆸㄹㅕᆼ
##ㅈㅜ⑨ㅇㅢ⑨ㅈㅏ⑨
ㄷㅣ⑨ㅈㅏ⑨ㅇㅣ⑨ㄴㅓ⑨
ㅇㅡᆫㄷㅔ
ㄷㅡᆼㅈㅣ⑨
ㄱㅏ⑨ㄱㅜ
ㄷㅏᆼㄱㅜᆨㅈㅏ⑨
lgㅈㅓᆫㅈㅏ⑨
ㄱㅗ⑨ㅈㅏᆼ
ㅇㅣᆫㅈㅗᆼ
ㅊㅚ⑨ㄱㅕᆼ
ㄹㅣ⑨ㅅㅡ⑨ㅌㅡ⑨
ㅁㅗᆫ
ㅎㅚ⑨ㅇㅢ⑨ㅅㅣᆯ
ㅈㅐ⑨ㅎㅏᆨ
ㄷㅡᆼㄱㅣ⑨
ㅌㅏ⑨ㅇㅜᆫ
ㄷㅡᆯㄹㅡ⑨
ㅇㅗ⑨ㄹㅠ⑨
130
ㅇㅠ⑨ㅎㅗᆨ
ㄱㅓ⑨ㄷㅡᆸㄴㅏ⑨
##ㅌㅓᆨ
ㅅㅣ⑨ㅈㅣᆸ
ㄱㅏᆼㄴㅏᆷㄱㅜ⑨
ㄷㅡᆼㅍㅏᆫ
ㄷㅗᆼㅇㅏ⑨ㅅㅣ⑨ㅇㅏ⑨
ㅅㅗᆨㅇㅣ⑨
ㅇㅗᆫㅁㅗᆷ
ㅍㅐ⑨ㅎㅏ⑨
##ㅊㅓᆼㅅㅏ⑨
ㅇㅓᆯㅇㅡᆷ
ㄱㅗ⑨ㅅㅡ⑨
ㅈㅓᆫㄷㅜ⑨
ㅂㅏᆼㅂㅜᆨ
ㅇㅛᆼㄹㅑᆼ
ㄷㅡᆼㅅㅏᆫ
ㅎㅢ⑨ㅅㅐᆼㅈㅏ⑨
ㄷㅐ⑨ㅎㅏᆫㅎㅏᆼㄱㅗᆼ
ㅂㅏᆯㄱㅏᆫ
ㅈㅗᆸㅎㅣ⑨
ㅂㅏ⑨ㄹ
ㅇㅏ⑨ㄱㅏ⑨
ㅇㅣ⑨ㅇㅕᆼ
ㅂㅜᆯㅅㅣᆫ
ㅈㅗ⑨ㅅㅏ
ㅂㅏ⑨ㄴ
ㅁㅏᆫㅈㅗᆨㄷㅗ⑨
ㄱㅣ⑨ㅈㅓᆨ
ㅅㅜ⑨ㅅㅣ⑨ㄹㅗ⑨
ㅇㅢ⑨ㄹㅠ⑨
ㅇㅣᆯㅈㅔ⑨ㅎㅣ⑨
ㄱㅗᆼㅈㅏ⑨
ㅅㅣ⑨ㄴㅏ⑨ㄹㅣ⑨ㅇㅗ⑨
##ㄹㅕᆯㅎㅏ⑨
ㅆㅏᆨ
##ㅎㅏ⑨ㅇㅣ⑨
ㅍㅏ⑨ㅋㅡ⑨
ㅇㅚ⑨ㅁㅗ⑨
ㅇㅣ⑨ㄷㅡᆷ
ㅅㅏ⑨ㅇㅣᆫ
##ㅈㅣ⑨ㄷㅐ⑨
ㅂㅏᆯㅁㅐ⑨
ㅅㅗᆫㅎㅏᆨ
gr
ㄱㅣ⑨ㅎㅏᆫ
ㅂㅣ⑨ㄷㅐ⑨ㅇㅟ⑨
ㄷㅏ⑨ㅎㅐᆼㅎㅣ⑨
ㅊㅜᆯㅅㅐᆼ
##ㅘᆨ
ㅎㅏᆫㅇㅣᆫ
ㅇㅕᆫㄱㅜ
ㅅㅗ⑨ㅎㅗᆯ
ㅇㅠ⑨ㅈㅓᆨ
##ㄹㅏᆫㅎㅣ⑨
ㄱㅗ⑨ㄹㅕ⑨ㄷㅐ⑨
##ㅌㅔ⑨ㅇㅣᆫㅁㅓᆫㅌㅡ⑨
ㅅㅔ⑨ㅇㅣ⑨
ㅎㅏᆫㄱㅜᆨㅈㅓᆫ
##ㅂㅕᆼㄷㅐ⑨
se
##ㅎㅕᆫㅈㅣᆫ
ㄴㅗᆨㅇㅡᆷ
ㅊㅜᆯㅈㅏ⑨
ㅇㅣ⑨ㅈㅓᆨ
##ㅎㅘ⑨ㅎㅏᆨ
ㅅㅏ⑨ㅎㅕᆼ
ㅌㅗ
ㅊㅏᆼㄱㅗ⑨
ㄱㅣ⑨ㅊㅏ⑨
1987
ㅅㅏᆼㅈㅜ⑨
ㄱㅛ⑨ㅌㅗᆼㅅㅏ⑨ㄱㅗ⑨
ㅇㅟ⑨ㅂㅓᆸ
ㅎㅚᆺ
ㅈㅣ⑨ㅅㅣᆨㅇㅣᆫ
ㅇㅜ⑨ㅅㅔ⑨
##ㅁㅏ⑨ㅋㅡ⑨
ㄹㅣᆷ
ㅈㅓᆫㄹㅏᆨ
##ㅊㅏ⑨ㄹㅖ⑨
ㅊㅏᆯ
##ㅁㅜ⑨ㅅㅣᆯ
ㅊㅓᆫㅇㅓᆨ
ㄱㅡᆫㅇㅝᆫ
1991
ㅅㅗ⑨ㅇㅝᆫ
ㅂㅏᆨㅊㅏ⑨
ㅁㅣ⑨ㄱㅜᆨㅇㅣᆫ
ㅅㅗ⑨ㅇㅛᆼ
ㅇㅑᆼㄷㅏᆼ
##ㅐᆫㄷㅡ
ㅇㅣ⑨ㅂㅕᆼ
ㅁㅣ⑨ㅌㅓ⑨
ㅇㅡᆷㅂㅏᆫ
ㅅㅏ⑨ㄹㅕᆼㅂㅜ⑨
1500
##ㅇㅜ⑨ㄹㅣ⑨
ㅇㅕᆫㄹㅜ⑨
##ㅅㅣ⑨ㅁㅏ⑨
ㅅㅣᆯㅎㅛ⑨
ㅂㅜᆯㅇㅏᆫㄱㅏᆷ
ㅁㅜ⑨ㅇㅣᆫ
ㅊㅣᆫㅈㅓᆯ
##ㄴㅣ⑨ㅈㅡᆷ
ㄴㅔ⑨ㅌㅣ⑨
ㅅㅣᆫㅅㅓᆼ
ㅁㅗᆼㄱㅗᆯ
ㅇㅏᆫㄴㅕᆼ
ㄱㅕᆼㅇㅕᆼㅈㅏ⑨
ㅁㅗᆸㅅㅣ⑨
ㅍㅛ⑨ㅅㅣᆷ
ㅈㅜᆼㄱㅗ⑨
ㅅㅏᆼㄱㅘᆫㅇㅓᆹㅇㅣ⑨
ㅂㅐ⑨ㅂㅜᆫ
##ㄸㅣ⑨
ㅇㅣ⑨ㄷㅡᆷㅎㅐ⑨
ㄴㅐ⑨ㅇㅕᆨ
##ㅂㅣᆯ
ㅅㅓᆼㄴㅏᆷㅅㅣ⑨
ㅇㅣᆸㅎㅣ⑨
ㅍㅡ⑨ㄹㅗ⑨ㅅㅔ⑨
ㄱㅖ⑨ㅍㅏ⑨
ㄱㅜᆰ
ㄱㅗ⑨ㅅㅡ⑨ㄹㅏᆫㅎㅣ⑨
##ㅁㅜᆺ
ㅈㅓᆨㅅㅣ⑨
ㅂㅏᆫㅈㅓᆫ
ㅊㅓᆼㅊㅜᆫ
ㅌㅏ⑨ㅇㅣ⑨ㅌㅡᆯ
ㅅㅏ⑨ㄴㅑᆼ
ㅅㅓᆼㅅㅓ⑨
ㅊㅚ⑨ㄷㅏ⑨
ㅋㅗ⑨ㅅㅡ⑨ㄷㅏᆨ
ㅇㅏ⑨ㄹㅏᆸ
ㅌㅡᆨㅇㅣ⑨
##ㄱㅏ⑨ㄱ
ㄷㅐ⑨ㅅㅏ⑨ㄱㅘᆫ
##ㅇㅣᇁ
ㄱㅐᆼ
cl
ㅌㅐ⑨ㅅㅔ⑨
ㅇㅏ⑨ㅁㅔ⑨
gd
ㅎㅕᆸㅇㅢ⑨ㅊㅔ⑨
ㅅㅐᆼㅅㅐᆼㅎㅏ⑨
ㅊㅜᆯㄱㅜ⑨
ㅈㅏ⑨ㅈㅣᆫ
ㄱㅣ⑨ㅅㅜᆯㄹㅕᆨ
ㄱㅣ⑨ㄱㅏᆨ
##ㅍㅕ
ㄱㅏᆷㅇㅗᆨ
ㄱㅓ⑨ㄹㅏ⑨
ㅅㅜ⑨ㅈㅏᆼ
ㅈㅜᆼㅈㅣ⑨
ㄷㅗᆼㅉㅗᆨ
ed
ㅇㅓ⑨ㅇㅡᆷ
ㄹㅣ⑨ㅁㅗ⑨
ㅇㅠᆨㅅㅏᆼ
ㅇㅣᆯㄱㅣ⑨
ㄱㅕᆯㅅㅏᆫ
ㄴㅡ⑨ㄴㅑ⑨ㄴㅡᆫ
ㅎㅔ⑨ㅇㅓ⑨ㅈㅣ⑨
ㅁㅕᆼㅁㅗᆨ
ㄱㅗᆼㄹㅗᆫ
##ㅈㅏᆷ
ㄱㅘᆼㅁㅕᆼ
ㄱㅣ⑨ㅅㅓᆼ
ㅁㅣ⑨ㅅㅜᆯㄱㅘᆫ
ㄷㅜ⑨ㄷㅡ⑨ㄹㅓ⑨ㅈㅣ⑨
ㅅㅣ⑨ㅅㅜᆯ
ㄷㅐ⑨ㄷㅏ⑨
ㅂㅗ⑨ㅌㅐ⑨
ㄴㅏᆯㅇㅏ⑨ㄱㅏ⑨
ㅅㅣ⑨ㅅㅡ⑨ㅌㅔ
ㅇㅜᆨ
ㄱㅏ⑨ㅁㅐᆼㅈㅓᆷ
ㄷㅗᆼㅅㅓᆼ
ㄱㅗᆼㅎㅘ⑨ㄱㅜᆨ
ㅊㅜ⑨ㅊㅡᆨ
ㅅㅓ⑨ㄱㅣ⑨
ㄴㅔ⑨ㅌㅣ⑨ㅈㅡᆫ
ㅂㅣᆫㄱㅗᆫ
ㄱㅘᆼㅂㅓᆷ
ㅆㅓᆨ
ㅂㅜ⑨ㅈㅐ⑨
ㅌㅏᆸㅅㅡᆼ
ㅈㅣᆨㄱㅝᆫ
ㅁㅜ⑨ㄷㅓᆷ
ㅁㅏᆼㅎㅏ⑨
ㄷㅐ⑨ㄷㅏ⑨ㅅㅜ⑨
us
##ㅂㅏᆼㅅㅗᆼ
ㅍㅕᆼㄹㅗᆫ
ㅅㅗᆼㄷㅗ⑨
##ㅇㅏ⑨ㄴㅗ⑨
ㅂㅏ⑨ㅂㅗ⑨
ㄱㅖ
ㄹㅏ⑨ㅇㅣ⑨ㅍㅡ⑨
ㄱㅘᆫㄹㅣ
ㅎㅚ⑨ㅇㅢ
ㄱㅛ⑨ㅇㅝᆫ
mar
ㅆㅗᆯ
ㅇㅏ⑨ㅋㅏ⑨ㄷㅔ⑨
##ㅈㅏᆸㅇㅣ⑨
ㅇㅗᆸㅅㅕᆫ
ㅇㅓᆸㅈㅏ⑨
ㅊㅓᆼㅈㅓᆼ
ㄹㅐᆫㄷㅡ⑨
ㄴㅏᆯㅉㅏ⑨
ㅇㅏ⑨ㄲㅏ⑨
ㄷㅏ⑨ㅅㅡ⑨ㄹㅣ⑨
ㅂㅗ⑨ㄱㅏᆼ
led
ㄱㅘᆫㅅㅣᆷㅅㅏ⑨
ㅅㅗ⑨ㄱㅡᆷ
ㅅㅗ⑨ㄹㅣ⑨ㅊㅣ⑨
ㄱㅖ⑨ㄱㅗᆨ
ㅎㅚ⑨ㅍㅣ⑨
ㅇㅣᆯㅇㅛ⑨ㅇㅣᆯ
ㅎㅢ
##ㅋㅣᆺ
et
ㅊㅚ⑨ㅎㅜ⑨
ㅅㅗ⑨ㅇㅠ⑨ㅈㅏ⑨
ㅅㅜ⑨ㅂㅜᆫ
ㅎㅚ⑨ㅇㅝᆫㄱㅜᆨ
ㅂㅜᆫㅂㅐ⑨
ㅈㅔ⑨ㅇㅓ⑨
ㅈㅓᆫㄴㅏᆷㄷㅗ⑨
ㅂㅓᆸㅈㅗ⑨
188
ㅇㅠ⑨ㅁㅏᆼ
ㅇㅠ⑨ㅎㅏ⑨
05
ㅅㅏ⑨ㅇㅕᆫ
ㅍㅔ⑨ㅇㅣ⑨ㅈㅣ⑨
ㅌㅗᆼㅎㅐᆼ
ㅁㅓ⑨ㄹㅣᆺㅅㅗᆨ
ㅅㅓᆼㅊㅜ⑨
ㅌㅔᆨㅅㅡ⑨ㅌㅡ⑨
ㄱㅘ⑨ㅂㅏᆫ
ㄱㅏ⑨ㅁㅜᆫ
ㅌㅡᆨㄱㅝᆫ
ㅎㅏᆼㅁㅏᆫ
110
ㅂㅐ⑨ㅍㅗ⑨
ㅁㅜᆮㅎㅣ⑨
ㅇㅠ⑨ㅇㅢ⑨
ㄱㅣᆷㅇㅣᆯㅅㅓᆼ
ㅎㅓᆯ
ㅅㅓᆨㅌㅏᆫ
ㄷㅓᆫㄱㅏ
ㅃㅏᆯㄱㅏᇂ
ㄱㅛ⑨ㅇㅕᆨ
ㅇㅕᆫㅅㅡᆼ
ㅅㅣ⑨ㅎㅏᆫ
1988
ㄱㅘᆼㅇㅑᆼ
ㅎㅑᆼㄱㅣ⑨
##ㅍㅗ⑨ㄱㅜ⑨
ㅎㅏᆫㄹㅠ⑨
ㅍㅛ⑨ㄱㅣ⑨
ㄲㅜᆯ
##ㅌㅗᆸ
ㅁㅓᆯㅌㅣ⑨
ㅈㅏ⑨ㅎㅚ⑨ㅅㅏ⑨
##ak
ㅂㅐ⑨ㅎㅜ⑨
ㅂㅜ⑨ㅈㅓᆨㅈㅓᆯㅎㅏ⑨
at
ㅈㅜᆼㅂㅜ⑨
ㅈㅏᆷㄱㅣ⑨
ㅂㅏᆼㅅㅗᆼㅅㅏ⑨
ㅎㅜᆷㅊㅣ⑨
ㅁㅗ⑨ㅇㅑᆼㅅㅐ⑨
##ㄴㅏ⑨ㄷㅡᆯ
ㅇㅗ⑨ㅍㅣ⑨ㅅㅡ⑨ㅌㅔᆯ
ㄷㅗ⑨ㄹㅣ⑨
ㅈㅣ⑨ㅂㅜᆼ
##ㄱㅕᆼㅊㅏᆯㅅㅓ⑨
ㅇㅢ⑨ㅈㅓᆼㅂㅜ⑨
ㅇㅡ⑨ㄴㅣ⑨ㄲㅏ
ㅂㅜ⑨ㅊㅓᆫ
ㄸㅓᆯㅇㅓ⑨ㄸㅡ⑨ㄹㅣ⑨
ㅎㅐᆫㄷㅡ⑨
ㄱㅣᆷㅎㅕᆫㅈㅓᆼ
ㄷㅏᆺ
ㅊㅏᆼㅁㅜᆫ
ㅉㅣᆽ
ㅈㅜ⑨ㄱㅝᆫ
ㅇㅏᆫㄱㅕᆼ
ㄱㅡᆷㄱㅏᆼㅅㅏᆫ
ㅈㅔ⑨ㅊㅣ⑨
ㅇㅖ⑨ㅅㅜᆯㄱㅏ⑨
ㅈㅏ⑨ㅈㅣᆯ
ㄸㅓᆯㄹㅣ⑨
el
ㅇㅓ⑨ㅇㅜ⑨ㄹㅓ⑨ㅈㅣ⑨
ㄴㅔᆨㅅㅔᆫ
ㅅㅡᆼㅇㅛᆼㅊㅏ⑨
ㅇㅜᆯㅅㅏᆫㅅㅣ⑨
ㅅㅗᆫㅎㅏᆨㄱㅠ⑨
ㅇㅕᆫㅇㅣᆯ
##ㄸㅓᆨ
ㅎㅏᆫㅈㅣᆫ
ㄷㅗ⑨ㅊㅓᆼ
ㅂㅣ⑨ㄱㅕᆯ
##ㅋㅓᆺ
ㅂㅜ⑨ㅎㅏᆸ
ㄱㅛ⑨ㅊㅏ⑨
ㅎㅕᆫㅁㅕᆼ
ㅇㅕᆼㄱㅏᆷ
##oo
ㅁㅗ⑨ㅈㅏ⑨ㄹㅏ⑨
ㄱㅘᆫㅈㅜᆼ
ㅂㅏᆫㅁㅜᆫ
ㅇㅕ⑨ㅍㅏ⑨
ㅅㅓᆫㄷㅐ⑨ㅇㅟ⑨ㅇㅝᆫㅈㅏᆼ
ㅇㅠ⑨ㅇㅣᆫ
ㄱㅘᆫㅈㅏᆼ
ㅇㅣᆫㄷㅣ⑨
##ㅇㅏ⑨ㄷㅡᆯ
ㅇㅣ⑨ㅎㅐ⑨ㅊㅏᆫ
ㅈㅜᆼㄱㅣ⑨
##ㄹㅏ⑨ㄷㅗ
ㅅㅗᆯㄹㅜ⑨ㅅㅕᆫ
ㅅㅏᆯㅇㅏ⑨ㄴㅏ⑨
ㄱㅜᆼㄱㅡᆷㅎㅏ⑨
ㅂㅜᆯㅆ
ㅈㅓᆨㅈㅓᆯㅎㅏ⑨
ㅇㅠ⑨ㅎㅐ⑨
ㅇㅜ⑨ㅈㅓᆼ
##ㄸㅏᆨ
mm
ㅈㅓᆼㅈㅣᆫ
##ㅏ⑨ㅇㅝ⑨
##ㅡ⑨ㄹㅓ⑨
##ㅇㅓ⑨ㄴㅓᇂ
ㅋㅣᆼ
ㄱㅡᆷㄱㅏᆷㅇㅝᆫ
ㄱㅕᆯㅈㅣᆸ
ㄱㅠ⑨ㅌㅏᆫ
ㄱㅡᆷㅍㅜᆷ
ㅂㅏᆨㅅㅡ⑨
ㅎㅏ⑨ㅈㅣ⑨
##ㄱㅣ⑨ㅅㅜᆯ
○○
ㅂㅜᆯㄹㅑᆼ
ㅅㅔ⑨ㄹㅕᆫ
##ㅇㅗᆯㄹㅗ⑨
ㅅㅣᆫㅊㅜᆨ
ㅅㅗ⑨ㄷㅡᆨㅅㅔ⑨
ㄱㅏ⑨ㅇㅣ⑨
ㄱㅜᆺ
ㄷㅏ⑨ㅁㅕᆫㅅㅓ⑨
ㅌㅏ⑨ㅇㅝ⑨
ㅎㅔᆯㄱㅣ⑨
ㅌㅡᆯㄹㅣᆷㅇㅓᆹ
ㅁㅣᆯㅇㅑᆼ
ㅇㅗ⑨ㅊㅏᆫ
ㄸㅗᆨㄱㅏᇀㅇㅣ⑨
##ㄱㅗ⑨ㅅㅗᆨ
ㅇㅟᆺ
##ㄱㅣᆫ
ㅂㅣ⑨ㄷㅐ⑨ㅇㅟ⑨ㅇㅝᆫㅈㅏᆼ
##ㅎㅗ⑨ㅇㅕᆼ
ㅁㅐ⑨ㅇㅝᆯ
imf
##ㅔ⑨ㅇㅣ⑨ㅋㅡ⑨
ㅇㅑᆨㅁㅜᆯ
ㅈㅓᆼㄹㅖ⑨
ㄷㅗ⑨ㅂㅏᆨ
ㄴㅗᆼㄷㅏᆷ
ㄷㅡᆺㅇㅣ
ㄱㅛ⑨ㄷㅗ⑨
ㅉㅣ⑨ㄹㅡ⑨
ㄷㅗᆯㅇㅏ⑨ㄷㅏ⑨ㄴㅣ⑨
ㅅㅓᆼㅊㅜ⑨ㅎㅐᆼ
ㅅㅣᆫㅎㅕᆼ
ㅁㅔ⑨ㅇㅣ⑨ㅋㅡ⑨
ㄴㅗᆫㅅㅜᆯ
ㅅㅣᆼㄱㅡᆯ
ㅇㅣᆫㅈㅓᆸ
ㄴㅐ⑨ㄴㅕᆫㄷㅗ⑨
ㅇㅣᆯㄱㅏ⑨
ㅎㅏᆷㅇㅠ⑨
ㅈㅐ⑨ㅎㅘᆯ
ㅅㅜ⑨ㄴㅕᆫ
ㄱㅐ⑨ㅈㅏᆼ
ㅎㅜ⑨ㄱㅣ⑨
ㅇㅣ⑨ㄷㅔ⑨ㅇㅗᆯㄹㅗ⑨
ㄱㅏ⑨ㅌㅗᆯㄹㅣᆨ
ㅂㅜᆫㄷㅏᆫ
##ice
ㅍㅏᆸ
ㅅㅓ⑨ㅉㅗᆨ
##ㄱㅛ⑨ㅌㅗᆼ
ㅇㅑᆼㄱㅡᆨ
ㅅㅗ⑨ㅁㅐ⑨
ㅎㅏᆫㅈㅜᆼ
ㄱㅡᆯㅆ
ㅂㅡ⑨ㄹㅗ⑨
ㄹㅐᆼㅋㅣᆼ
ㄷㅓᆷ
ㄷㅐ⑨ㅈㅣ⑨
##ㄴㅢ⑨
ㅈㅔ⑨ㅎㅠ⑨
ㅍㅖ⑨ㄱㅣ⑨ㅁㅜᆯ
ㅅㅣ⑨ㅂㅣ⑨
ㅂㅗ⑨ㅎㅜᆫ
ㅅㅣ⑨ㅅㅓ
ㅈㅓᆫㅇㅣᆷ
##ula
ㄷㅏᆫㅂㅐᆨ
ㄹㅣ⑨ㅅㅓ⑨
ㅎㅕ⑨
ㅊㅣᆫㅎㅏ⑨
ㅅㅗᆷ
ㅁㅗᆨㄱㅕᆨ
ㅇㅣ⑨ㅁㅏ⑨ㅌㅡ⑨
##ㅂㅏ⑨ㅈㅣ⑨
ㄷㅗᆼㅇㅏ⑨ㅇㅣᆯ
ㄴㅗᆼㄹㅣᆷ
##na
ㅊㅣ⑨ㅁㅐ⑨
ㅁㅗᆺㅎㅏ⑨
##ㄱㅣ⑨ㅈㅓᆨ
ㅈㅗ⑨ㅅㅏᆼ
##ial
ㅇㅛ⑨ㅇㅑᆨ
ㅁㅣᆯㅈㅓᆸ
ㅈㅣᆸㅊㅏᆨ
ㅅㅣ⑨ㄴㅓ⑨ㅈㅣ⑨
ㅇㅗ⑨ㅅㅔ⑨ㅎㅜᆫ
ㅅㅜ⑨ㅁㅕᆼ
##ㅇㅗᆼ
##ㅂㅏᆨㅎㅏ⑨
ㄷㅗᆼㅇㅏ⑨ㄹㅣ⑨
ㅈㅏᆨㅈㅓᆼ
ㅇㅕᆼㅇㅝᆫㅎㅣ⑨
soc
##ㅍㅏ⑨ㄱㅜ⑨
ㅅㅣ⑨ㅁ
##ㄷㅡ⑨ㄹㅗ⑨
ph
ㄱㅠ⑨ㅂㅓᆷ
##ㅇㅓ⑨ㅌㅡ⑨
ㅊㅣᆷㄹㅑᆨ
ㅁㅣᆫㅇㅕᆼ
ㅈㅓᆼㄷㅗᆼ
ㅁㅏᆯㄹㅔ⑨ㅇㅣ⑨
ㅂㅏᆯㅌㅏᆨ
ㅋㅏ⑨ㄹ
ㄱㅐ⑨ㄱㅘᆫ
ㄷㅏᆫㄷㅏ
ㅎㅏ⑨ㄷㅗ⑨
##ㅇㅕᆫㅎㅏ⑨
ㄱㅏ⑨ㄹㅏ⑨ㅇ
ㅎㅏᆸㅅㅓᆼ
ㅂㅜ⑨ㅅㅜ⑨
##ㅈㅏ⑨ㅇㅝᆫ
ㅊㅜ⑨ㄱㅕᆨ
ㅎㅏᆫㄱㅕ⑨
ㅂㅓᆯㄹㅣ⑨
ㅅㅏᆼㅅㅏᆼㄹㅕᆨ
ㅌㅗ⑨ㄹㅗ⑨
ㅈㅓ⑨ㅎㅏ⑨
ㅇㅕᆸ
ㄴㅗᆼㅇㅓ⑨
ㄱㅣ⑨ㄴㅕᆷㅅㅣᆨ
ㅅㅜ⑨ㅇㅢ⑨
ㅇㅣᆯㄱㅗᆸ
ㄱㅜᆨㄱㅜᆫ
ㅎㅐ⑨ㄱㅕᆯㅊㅐᆨ
ㅈㅐᆨ
ㅌㅡ⑨ㄹㅓᆨ
ㄱㅏ⑨ㄹㅏ⑨ㅇㅏᆬ
ㅎㅗ⑨ㄱㅣ⑨ㅅㅣᆷ
ㅅㅏᆷㄱㅜᆨ
ㅅㅏᆼㅇㅝᆫ
##ㄴㅏ⑨ㅇㅣ⑨
ㄱㅕᆼㅊㅏᆯㄱㅘᆫ
ㅇㅘᆼㅈㅗ⑨
1989
ㅁㅏ⑨ㅅㅡ⑨ㅌㅓ⑨
ㅂㅏᆨㅅㅓᆼ
ㅅㅜ⑨ㄹㅗᆨ
ㅇㅣ⑨ㄹㅕᆨ
ㅈㅜ⑨ㅇㅕᆫ
ㅅㅑᆺ
ㄴㅗ⑨ㄹㅡᆺ
ㅂㅗ⑨ㅊㅜᆼ
ㄱㅏᆺ
ㅍㅐ⑨ㄴㅓᆯ
01
ㅇㅢ⑨ㅅㅏᆼ
ㅂㅔᆯㅌㅡ⑨
ㅍㅐ⑨ㅋㅣ⑨ㅈㅣ⑨
ㄱㅣᆫㅁㅣᆯㅎㅏ⑨
ㅇㅣ⑨ㅅㅜᆫ
bm
ㅎㅚᆨㄱㅣ⑨ㅈㅓᆨ
ㄱㅘᆫㄹㅣ⑨ㅈㅏ⑨
ㅅㅡ⑨ㅋㅡ⑨ㄹㅣᆫ
ㅇㅏ⑨ㄴㅣ
ㅈㅓᆫㅂㅏᆼ
ㅎㅐ⑨ㅊㅣ⑨
ㄱㅜ⑨ㅊㅓᆼ
ㄷㅗᆼㅍㅗ⑨
ㅎㅐ⑨ㅅㅏᆫ
ㅅㅓᆼㅎㅕᆼ
ㅌㅗᆼㄹㅗ⑨
ㅈㅓᆼㅁㅏᆯㄹㅗ⑨
ㄱㅗᆯㄷㅡ⑨
ㅎㅏᆫㄱㅕᆯ
ㅊㅏᆷㅂㅐ⑨
ㅎㅏᆫㅇㅑᆼ
mc
ㅊㅔ⑨ㄹㅠ⑨
ㅇㅜ⑨ㅈㅡ⑨
##ㅅㅣᆨㅍㅜᆷ
ㅂㅜ⑨ㄱㅡᆫ
ㄱㅗᆼㅅㅗ⑨
ㅈㅏ⑨ㄹㅣᆸ
ㅎㅡᆨㅈㅏ⑨
ㅅㅜ⑨ㅊㅏ⑨ㄹㅖ⑨
##ㅁㅓ⑨ㅅㅡ⑨
ㄱㅕᆼㄱㅘ⑨
ㅎㅏᆼㄱㅜ⑨
ㅇㅣᆫㅊㅔ⑨
##ㅃㅏᆯㄹㅣ⑨
ㅇㅣᆯㅁㅕᆼ
ㅈㅣ⑨ㅎㅕᆼ
##ㅁㅣᆯㄹㅣ⑨
ㅈㅓᆺ
##ork
ㅎㅜ
ㅂㅏ⑨ㅋㅟ⑨
ㅁㅏ⑨ㅅㅏ⑨
ㄱㅘᆼㅅㅏᆫ
ㅅㅜᆨㅅㅗ⑨
ㅎㅟᆸㅆㅏ⑨ㅇㅣ⑨
ㅅㅣᆫㄷㅗᆼ
ㅈㅗ⑨ㅎㅚ⑨
ㅁㅣ⑨ㅎㅡᆸ
##ㅂㅏ⑨ㄹㅏᆷ
##iv
he
ㅍㅏ⑨ㅈㅏᆼ
ㅈㅜ⑨ㅁㅓ⑨ㄴㅣ⑨
ㅂㅜ⑨ㅊㅜ⑨
##ㅌㅣᆷ
ㅇㅝᆯㅅㅔ⑨
ㅇㅣ⑨ㄷㅔ⑨ㅇㅗᆯㄹㅗ⑨ㄱㅣ⑨
ㅈㅓᆼㅊㅐ
ㅇㅓᆫㄷㅓᆨ
##ㅈㅜᆷ
ㄷㅣ⑨ㅅㅡ⑨ㅍㅡᆯㄹㅔ⑨ㅇㅣ⑨
##ㅌㅔ
##ㄷㅏ⑨ㅈㅣ⑨
ㅋㅡ⑨ㄹㅔ⑨
ㅎㅏᆷㅂㅜ⑨
ㅁㅔ⑨ㅇㅜ⑨
ㅊㅔ⑨ㅇㅣᆫ
ㄲㅗᆽ
dm
ㅂㅜ⑨ㅅㅡ⑨
ㅈㅓᆫㄷㅜ⑨ㅎㅘᆫ
ㄷㅐ⑨ㅈㅏᆼㄷㅗᆼ
ㅎㅘᆨㄱㅗ⑨ㅎㅏ⑨
ㅂㅜ⑨ㅇㅢ⑨ㅈㅏᆼ
ㅇㅣ⑨ㄷㅡᆫ
ㄴㅏᆷㅎㅐ⑨
##ㅇㅠ⑨ㅅㅏᆫ
ㅇㅓᆫㄷㅓ⑨
ㄷㅏ⑨ㅌㅜ⑨
ㅈㅏᆷㅅㅣᆯ
##ㄱㅕᆷ
ㅅㅏᆫㅈㅓᆼ
ㅋㅐᆫ
ㅇㅣᆸㄷㅏᆼ
ㅊㅏᆷㅈㅓᆫ
ㅅㅣ⑨ㄱㅏ⑨
ㄴㅓᆨ
ㄴㅐ⑨ㅂㅣ⑨ㅊㅣ⑨
ㅇㅣ⑨ㅅㅡᆼㅁㅏᆫ
ㄱㅡᆸㄱㅕᆨㅎㅣ⑨
##ㅠᆺ
ㅌㅗ⑨ㅋㅡ⑨
##ra
ㄷㅜ⑨ㄷㅡ⑨ㄹㅣ⑨
##ㄱㅓᆫㅎㅢ⑨
ㅇㅛ⑨ㅇㅑᆼ
ㅅㅓᆫㅅㅜ⑨ㄷㅏᆫ
ㅇㅟ⑨ㅅㅐᆼ
ㅎㅏᆫㄱㅜ
ㅎㅏᆸㅈㅏᆨ
ㄱㅣ⑨ㄱㅘ
ㅇㅣᆯㅇㅣᆯㅇㅣ⑨
ㅇㅠ⑨ㅅㅓᆼ
ㅁㅜᆯㄱㅗ⑨ㄱㅣ⑨
ㅅㅏ⑨ㅈㅏ⑨
ㅈㅣ⑨ㅂㅜ⑨
ㅇㅠ⑨ㅁㅜᆯ
ㅅㅓᆼㄱㅕᆼ
ㅁㅔᆫㅌㅗ⑨
ㅋㅡᆯㄹㅣ⑨
ㅅㅓᆩ
ㄱㅏᆸㅈㅏᆨㅅㅡ⑨ㄹㅓᆸ
##ㅂㅓ⑨ㅌㅡ⑨
ㅇㅘᆼㅈㅏ⑨
ㅎㅏᆨㅇㅓᆸ
ㄱㅘᆼㅂㅓᆷㅇㅟ⑨
ㅈㅗᆼㅇㅣᆯ
ㄷㅓ⑨ㄱㅜᆫㅇㅛ
ㅎㅘ⑨ㅅㅏᆼ
ㅇㅣᆫㅊㅓᆫㄱㅗᆼㅎㅏᆼ
ㅇㅗᆼㅎㅗ⑨
##ㅅㅗᆺ
ㅋㅡ⑨ㄹㅣᆷ
##ㅁㅜᆯㄹㅣ⑨
ㅋㅐᆸ
ㄱㅗ⑨ㅇㅟ⑨ㄱㅡᆸ
##ㄴㅗᆯㅇㅣ⑨
ㅅㅐᆼㅅㅏᆫㄹㅑᆼ
ㄷㅓ⑨ㄴㅣ
ㅂㅐᆷ
ㄱㅕᆼㅇㅕᆼㅈㅣᆫ
ㅁㅗᆯㄹㅐ⑨
ㅁㅠ⑨ㅈㅣᆨ
ㅍㅡᆯㄹㅜ⑨
ㅂㅗ⑨ㅈㅡᆼㄱㅡᆷ
ㅎㅏᆫㄱㅜᆨㅇㅡᆫㅎㅐᆼ
##ine
ㅍㅡ⑨ㄹㅏ⑨ㅇㅣ⑨
oec
ㅊㅜᆼㅅㅓᆼ
ㅎㅏᆼㄱㅗᆼㅅㅏ⑨
ㄱㅡᆸㄱㅕᆨㅎㅏ⑨
ㅇㅓ⑨ㅈㅣ⑨
ㅁㅕᆫㅎㅓ⑨
ㅅㅐᆼㅇㅣᆯ
ㅂㅕᆫㅎㅕᆼ
ㄷㅗ⑨ㄷㅜᆨ
ㅌㅗ⑨ㅇㅛ⑨ㅇㅣᆯ
cbs
ㅈㅓ⑨ㄹㅓᇂ
##ㅌㅜᆼ
ㅅㅗ⑨ㄱㅡᆨ
ㅂㅜ⑨ㄷㅣᆽㅎㅣ⑨
ㅊㅜ⑨ㅅㅏᆼ
ㄱㅏᆼㅈㅘ⑨
ㄷㅏᆫㅈㅓᆯ
ㄱㅣ⑨ㅎㅏ⑨
##ect
##ㅂㅓᆷㅈㅚ⑨
ㅌㅜ⑨ㅍㅛ⑨ㅅㅗ⑨
##ㄷㅐ⑨ㅎㅏᆨ
ㅈㅜᆼㅅㅏᆫ
ㅈㅓᆸㅁㅗᆨ
ㅍㅗᆨㄴㅓᆲ
##ㅈㅓᆼㅂㅜ⑨
ㅅㅗᆯㅈㅣᆨㅎㅣ⑨
##ㄷㅜᆼㅇㅣ⑨
##ㄴㅓᆷ
ㅋㅗ⑨ㅌㅡ⑨
ㅂㅏ⑨ㅇ
ㅇㅣ⑨ㄸㅐ⑨
ㅅㅜ⑨ㄹㅕᆫ
ㅍㅕᆫㅇㅢ⑨ㅈㅓᆷ
ㅇㅣᆷㅇㅢ⑨
ㅎㅡᇀㅇㅓ⑨ㅈㅣ⑨
ㅅㅏ⑨ㄱㅏᆨ
ㅌㅚ⑨ㄱㅡᆫ
##ue
ㄱㅕᆯㅎㅗᆫㅅㅣᆨ
ㅅㅡᆯㄹ
ㅋㅝ⑨
ㅇㅣᆯㅂㅗᆫㄱㅜᆫ
##ㅅㅕ⑨ㄴㅓᆯ
ㅌㅗᆨ
ㅇㅝᆫㅈㅗ⑨
##ㅈㅣ⑨ㄴㅣ⑨ㅇㅓ⑨
ㅇㅡᆯㅅㅜ⑨ㄹㅗᆨ
ㅇㅣᆫㅌㅔ⑨
formula
ㅎㅟ⑨ㄷㅜ⑨ㄹㅡ⑨
ㄲㅡᆯㅇㅓ⑨ㄷㅡᆯㅇㅣ⑨
##ㄱㅗᆮ
##ㅂㅔ⑨ㄹㅡ⑨
##ib
tf
ㅎㅐᆨㅁㅜ⑨ㄱㅣ⑨
ㅇㅘᆼㄱㅜᆨ
##ㅍㅡ⑨ㄹㅣ⑨
ㄴㅏᆷㅊㅡᆨ
ㅈㅏᆼㄹㅕ⑨
ㅂㅐ⑨ㅅㅣᆫ
ㅇㅕᆼㄹㅣ⑨
ㅎㅏᆨㄷㅐ⑨
##ㅌㅐ⑨ㅇㅜ⑨
ㅂㅏᆯㅁㅕᆼ
ㅇㅕ⑨ㅅㅣᆫ
##ㅅㅣᆷㅎㅏ⑨
ㄹㅏ⑨ㄱㅣ⑨
ㅁㅏ⑨ㄹㅏ⑨ㅌㅗᆫ
ㅎㅕᆸㅇㅓᆸ
ㄱㅜᆨㅅㅔ⑨ㅊㅓᆼ
ㅈㅡᆼㅇㅕ⑨
ㅇㅜ⑨ㅅㅏᆼ
ㅂㅏᆯㄱㅣᆯ
ㅇㅜ⑨ㅎㅗ⑨
ㄷㅏᆫㅈㅓᆼ
##ㅊㅏ⑨ㅇㅣ⑨
ㅈㅓᆼㅈㅗ⑨
ㅅㅜ⑨ㅁㅏᆫ
ㄱㅏᆷㅈㅏ⑨
ㅇㅣᆫㅍㅡᆯㄹ
##ㅈㅣ⑨ㅇㅏᆭ
ㄷㅏᆫㅈㅓᆷ
ㅇㅓ⑨ㅊㅏ⑨
ㅂㅜᆫㄹㅑᆼ
ㄷㅏᆯㄹㅐ⑨
ㄱㅜᆨㅁㅜ⑨ㅂㅜ⑨
ㄹㅗ⑨ㅅㅡ⑨
ㅌㅏᆫㅌㅏᆫ
ㅇㅣᆷㄷㅐ⑨ㄹㅛ⑨
ㄹㅏ⑨ㅅㅓ⑨
ㅁㅏ⑨ㅇㅡᆷㅅㅗᆨ
ㄸㅢ⑨ㅇㅜ⑨
ㅇㅚ⑨ㄱㅜᆨㅇㅓ⑨
ㅁㅗ⑨ㅎㅕᆼ
ㅅㅡᆸㄴㅣ⑨ㄷㅏ⑨
ㅇㅓ⑨ㅊㅏ⑨ㅍㅣ⑨
ㅎㅏᆺ
ㅁㅗᆺㅈㅣ⑨ㅇㅏᆭ
ㅇㅣᆶㅇㅓ⑨ㅂㅓ⑨ㄹㅣ⑨
##ㄱㅗ⑨ㄹㅣ⑨
ㅈㅏ⑨ㅇㅠ⑨ㅈㅜ⑨ㅇㅢ⑨
ㅇㅑ⑨ㅅㅐᆼ
ㄷㅐ⑨ㅅㅔ⑨
ㅁㅔ⑨ㅇㅣ⑨ㅋㅡ⑨ㅇㅓᆸ
ㅊㅏᆨㄱㅏᆨ
##ㅇㅓ⑨ㅂㅜᇀㅇㅣ⑨
ㅁㅔ⑨ㄹㅡ⑨ㅅㅡ⑨
ㅅㅓᆫㅁㅕᆼ
ㅌㅚ⑨ㅈㅣᆫ
ㅇㅏᆫㅅㅓᆼ
ㅍㅐ⑨ㄹㅓ⑨ㄷ
##ㅅㅜ⑨ㅇㅝᆫ
ㅍㅡ⑨ㄹㅔ⑨ㅇㅣᆷ
##ㅈㅏ⑨ㄱㅏ⑨
ec
##ㅅㅟᆸ
ㅂㅔ⑨ㄹㅡ⑨
ㅂㅏ⑨ㅈㅣ⑨
ㅅㅏ⑨ㄷㅡᆯㅇㅣ⑨
ㅎㅐ⑨ㅇㅜᆫㄷㅐ⑨
ㅅㅜᆫㅇㅣ⑨ㅇㅣᆨ
ㄱㅗᆯㅈㅏ⑨
ㅁㅕᆼㅎㅘᆨㅎㅣ⑨
##ㅇㅏ⑨ㅇㅗ⑨ㄹㅡ⑨
ᆯㅈㅣ⑨ㄹㅏ⑨ㄷㅗ⑨
ㅇㅗ⑨ㅍㅡ⑨ㄹ
ㅂㅐᆯ
ㅌㅏᆫㅇㅏᆸ
1950
ㅂㅜᆫㄱㅘ⑨
ㅊㅔ⑨ㄱㅏᆷ
ㅎㅏᆫㄱㅜᆨㅇㅓ⑨
ㅊㅣᆷㅁㅗᆯ
ㅋㅏᆷ
ㄷㅐ⑨ㅈㅓᆸ
ㅅㅜ⑨ㅇㅝᆫㅅㅣ⑨
##ㄴㅣᆨㅅㅡ⑨
ㅈㅗ⑨ㅅㅓᆫㅇㅣᆯㅂㅗ⑨
ㅅㅔ⑨ㅇㅣᆯ
##ㅐᆷㅍㅡ⑨
ㅇㅣᆷㅈㅗᆼ
ㅇㅕᆫㅎㅏᆸㅎㅚ⑨
inter
ㅅㅗ⑨ㅅㅣᆫ
ㅎㅏᆨㄴㅕᆫㄷㅗ⑨
ㄱㅐ⑨ㅍㅛ⑨
##ㅅㅡ⑨ㄹㅡ⑨
ㅇㅠ⑨ㄱㅗᆼ
ㄹㅣ
##ㄹㅣᆯ
ㅅㅓᆫㅈㅗ⑨
ㅎㅕᆯㅇㅏᆸ
ㅌㅡᆫ
ㅂㅕᆫㅎㅗ⑨ㅇㅣᆫ
ㅇㅕᆯㅇㅏᆨ
##ㅈㅜ⑨ㄱㅛ⑨
ㅈㅡᆼㅈㅓᆼ
ㅇㅣᆫㅎㅕᆼ
ㄷㅏ⑨ㅅㅣ⑨ㅍㅣ⑨
ㄷㅐ⑨ㅈㅓᆫㅅㅣ⑨
ㄱㅡ⑨ㄴㅏᆯ
ㄷㅐ⑨ㄱㅜᆨㅁㅣᆫ
ㅅㅜ⑨ㅎㅘᆨ
op
ㄱㅏ⑨ㄲㅜ⑨
res
ㄹㅜᆯ
ㅁㅏ⑨ㅂㅣ⑨
140
ㄷㅏ⑨ㄱㅏ
ㄴㅏᆷㄷㅏ⑨ㄹㅡ⑨
160
ㅇㅟ⑨ㅇㅝ
ㄱㅜᆨㅊㅐ⑨
ㄴㅡ⑨ㄴㅑ⑨ㄱㅗ⑨
ㅊㅏ⑨ㅌㅡ⑨
ㅅㅏᆫㅅㅗ⑨
ㄷㅗ⑨ㅅㅣ
ㅇㅜ⑨ㅇㅕᆫ
ㄴㅏᆸㄷㅡᆨ
ㅈㅗ⑨ㄱㅡ⑨
##ㅇㅓᆯㄱㅓ⑨ㄹㅣ⑨
ㅇㅗ⑨ㅁㅏᆫ
##ㅅㅡ⑨ㅌㅡ⑨ㄹㅏ⑨
ㄱㅣ⑨ㅈㅡᆼ
##ㅂㅜᆨㄷㅗ⑨
ㅁㅏᆫㅅㅓᆼ
##ㅈㅣᆫㅂㅗ⑨
ㅂㅗᆨㅇㅡᆷ
ㅇㅔᆫㅌㅓ⑨ㅌㅔ⑨ㅇㅣᆫㅁㅓᆫㅌㅡ⑨
##ㄷㅣ⑨ㅇㅏ⑨
ㅊㅣᆫㅇㅣᆯ
##ㅈㅔ⑨ㅍㅜᆷ
##ㅅㅏ⑨ㅇㅓᆸ
ㅈㅜ⑨ㄹㅡᆷ
ㅇㅣ⑨ㅊㅣ⑨
ㅅㅓᆨㅂㅏᆼ
ㅅㅣ⑨ㅎㅐᆼㄹㅕᆼ
ㄷㅗ⑨ㅇㅛ⑨ㅌㅏ⑨
ㅎㅏ⑨ㅅㅜ⑨
ㅂㅣ⑨ㅇㅜ⑨
ㅅㅏᆫㄷㅏᆫ
ㅊㅐ⑨ㅅㅗ⑨
ㅅㅏ⑨ㅇㅛᆼㅈㅏ⑨
ㅇㅜ⑨ㅎㅚ⑨
ㄸㅡᆮ
ㅇㅗ⑨ㅍㅡ⑨ㄹㅏ⑨ㅇㅣᆫ
ㄱㅗᆼㅍㅏᆫ
pl
ㅈㅡ⑨
ㅊㅗᆼㅅㅜ⑨
ㅍㅏ⑨ㄱㅕᆨ
ㅇㅓᇁ
##ㅈㅓ⑨ㄱㅣ⑨
##ㄷㅗᆼㅅㅐᆼ
ㅈㅣ⑨ㅈㅣ⑨ㄷㅗ⑨
ㅊㅜᆯㅎㅕᆫ
ㅇㅕ⑨ㄱㅣ⑨ㅈㅓ⑨ㄱㅣ⑨
##ㅁㅓ
ㄱㅏᆼㄹㅕᆨㅎㅣ⑨
ㅅㅏ⑨ㅁㅏᆼㅈㅏ⑨
ㅎㅏ⑨ㅇㅝᆫ
##ㅁㅜᆫㅎㅏᆨ
ㅈㅓᆫㅊㅓᆯ
ㄴㅏᆨㅊㅏᆯ
##ㄱㅏ⑨ㅇㅛ
ht
ㅇㅜ⑨ㅇㅕᆫㅎㅣ⑨
ㅅㅜ⑨ㅅㅣᆫ
ㄷㅏᆼㄱㅝᆫ
##ㅅㅔᆸㅌㅡ⑨
ㅅㅜ⑨ㅈㅣᆯ
ㅅㅏᆼㅎㅏᆫ
ㅍㅡ⑨ㄹㅐᆫ
ㅇㅣᆯㄹㅕᆫ
no
##ㄹㅓᆫㅅㅡ⑨
ㅊㅣ⑨ㅁㅕᆼ
ㅅㅗ⑨ㅁㅏᆼ
ㅅㅓ⑨ㅇㅜᆯㅈㅜᆼㅇㅏᆼㅈㅣ⑨ㄱㅓᆷ
##ㅐᆼㅇㅣ⑨
ㅇㅣᆫㄱㅓᆫ
##ㅇㅓᆸㅇㅝᆫ
##ㅅㅓᆷ
ㄱㅕᆼㄱㅣ
ㅁㅏ⑨ㅇㅑᆨ
ㅇㅡᆫㅈㅣ⑨
ㅇㅠ⑨ㅈㅚ⑨
ㅈㅏᆼㄱㅛ⑨
ㅈㅓᆼㄱㅛ⑨
ㅈㅜ⑨ㅂㅏᆼ
ㄷㅓᆸ
ㅈㅗᆼㅅㅏ⑨ㅈㅏ⑨
ㅍㅡᆯㄹㅓ⑨ㅅㅡ⑨
ㅂㅣ⑨ㅈㅜᆫ
ㅇㅓᆸㅈㅓᆨ
ㅂㅏᆫㅉㅏᆨ
ㅇㅡᆼㅇㅛᆼ
ㅇㅣ⑨ㄷㅐ⑨
ㄱㅗᆼㅈㅗᆫ
ㅇㅑᆨㅈㅓᆷ
ㄱㅛ⑨ㅂㅜ⑨
ㅊㅓᆫㅈㅐ⑨
ㅌㅓ⑨ㄴㅓᆯ
ㅅㅡ⑨ㅋㅔ⑨
ktx
ㅅㅏᆯㄹㅣᆷ
ㅍㅏ⑨ㅈㅜ⑨
ㄱㅘᆫㄱㅖ⑨ㅇㅓᆹㅇㅣ⑨
ㅁㅐ⑨ㅈㅣᆫ
ㅇㅜᆫㄷㅗ
ㅅㅓᆫㅂㅕᆯ
ㅂㅗ⑨ㅎㅓᆷㅅㅏ⑨
ㅇㅝᆫㅎㅘ⑨
cctv
ㅇㅕᆫㄴㅐ⑨
ㅈㅏ⑨ㅇㅝᆫㅂㅗᆼ
ㄱㅣᆷㄷㅜ⑨
ㅈㅓᆯㅇㅑᆨ
ㅋㅡ⑨ㄹㅣ⑨ㅅㅡ⑨ㅁㅏ⑨ㅅㅡ⑨
##ㅔᆼ
ㅎㅏᆸㅂㅓᆸ
ㅎㅗ⑨ㄹㅡ⑨
ㅈㅓᆼㄹㅣᆸ
ㄹㅣ⑨ㅅㅓ⑨ㅊㅣ⑨
ㄴㅐ⑨ㅂㅗ⑨ㄴㅐ⑨
ㅂㅔᆫㅊㅣ⑨
ㅂㅏᆯㄹㅔ⑨
ㅇㅣ⑨ㅁㅏ⑨
ㅇㅕᆼㄷㅡᆼ
ㅍㅛ⑨ㅈㅣ⑨
ㅁㅜᆫㄷㅡᆨ
ㅊㅜ⑨ㅅㅏᆫ
ㅅㅣᆫㅅㅏ⑨
##ㄱㅛ⑨ㅇㅠᆨㅊㅓᆼ
ㅂㅗᆫㄴㅡᆼ
ㅂㅏᆼㅇㅕᆼ
ㄸㅐ
ㅁㅗ⑨ㅇㅢ⑨
ㅅㅏ⑨ㅁㅗ⑨
ㅃㅐ⑨ㅇㅏᆺㄱㅣ⑨
ㅇㅓ⑨ㄱㅡᆺ
##ㅈㅣᆫㅎㅡᆼ
ㅈㅏᆼㄱㅣ⑨ㄱㅏᆫ
ㅍㅛ⑨ㅂㅗᆫ
ㅎㅘ⑨ㅅㅏᆯ
ㅎㅡᆨㅇㅣᆫ
ㅇㅓ⑨ㄱㅡᆺㄴㅏ⑨
ㅇㅗᆫㅅㅣᆯ
ㅈㅔ⑨ㅅㅏ⑨
ㅍㅐ⑨ㄹㅓ⑨ㄷㅏ⑨ㅇㅣᆷ
ㅁㅏᆽㅁㅜᆯㄹㅣ⑨
##ㄱㅣ⑨ㄱㅜ⑨
ㄹㅔ⑨ㅈㅓ⑨
ㅈㅜᆼㄱㅜ
ㄷㅐ⑨ㅇㅕ⑨
ㅈㅔᆫ
ㅎㅓ⑨ㅂㅡ⑨
ㅇㅓ⑨ㄴㅡ⑨ㅅㅐ⑨
ㅎㅘ⑨ㄷㅜ⑨
ㅌㅣ⑨ㅋㅔᆺ
ㅎㅕᆫㅅㅜ⑨
ㅅㅡ⑨ㅋㅗ⑨
ㅂㅔ⑨ㄹㅡᆯㄹ
ㅈㅓᆼㅎㅘ⑨
ㅎㅜ⑨ㅌㅚ⑨
ㅊㅜ⑨ㅊㅜᆯ
ㅊㅣᆫㅎㅘ⑨
##ㄱㅜ⑨ㄹㅣ⑨
ㄷㅓ⑨ㄹㅓ⑨
ㅍㅣ⑨ㅇㅏ⑨ㄴㅗ⑨
ㅇㅠ⑨ㄷㅗᆨ
ㄱㅛ⑨ㅎㅜᆫ
##ㅈㅓ⑨ㄹㅣ⑨
##ㅍㅣ⑨ㅅㅡ⑨
ㅈㅓᆼㅈㅣᆨ
ㅍㅡᆯㄹㅐ⑨
ㄱㅡᆫㅈㅓᆯ
##ㄱㅕᆼㄱㅣ⑨
ㅂㅜ⑨ㅍㅜᆯ
ㅇㅕᆯㅁㅐ⑨
##ure
ㅍㅔ⑨ㄹㅡ⑨
ㅁㅏ⑨ㄱㅜ⑨
ㄷㅏᆯㅇㅏ⑨ㄴㅏ⑨
ㅅㅜ⑨ㅅㅏᆼㅈㅏ⑨
ㅎㅏᆫㅈㅓᆫ
ㅌㅏ⑨ㅇㅠᆯ
ㄹㅜᆨ
##iz
ㅊㅏ⑨ㅈㅓᆫ
ㄲㅡᆭㅇㅣ⑨
ㅌㅗᆼㅎㅏᆸㅈㅣᆫㅂㅗ⑨
ㅅㅔᆫㅌㅓ⑨ㅈㅏᆼ
ㅈㅏᆼㅂㅕᆨ
##ㅅㅣᆫㄷㅗ⑨ㅅㅣ⑨
ㅂㅏᆨㅇㅛᆼ
ㅅㅣ⑨ㅋ
ㅎㅕᆸㅊㅣ⑨
ㄱㅡ⑨ㄷㅏ⑨ㅈㅣ⑨
##ㅎㅢ⑨ㅈㅓᆼ
ㅂㅜᆷ
ㄷㅡ⑨ㄹㅐ⑨
ㅋㅡ⑨ㄹㅗ⑨
ㅅㅗ⑨ㅁㅗ⑨
ㅌㅡ⑨ㄹㅔ⑨ㅇㅣ⑨
##ㄷㅜᆯ
ㄱㅓ⑨ㅈㅔ⑨
##ㅇㅠ⑨ㄹㅓᆸ
ㅂㅗᆨㅇㅛᆼ
##ㅌㅣᆨ
ㅈㅏᆷㅈㅓᆼ
ㅇㅣᆫㅈㅣ⑨ㄷㅗ⑨
ㅈㅓᆼㄱㅖ⑨
ㅅㅜ⑨ㅎㅖ⑨
##se
ㄷㅏ⑨ㅋㅠ⑨
ㅅㅣᆯㅈㅓᆫ
ㅎㅡᆸㅇㅕᆫ
ㅇㅣᆫㄱㅓᆫㅂㅣ⑨
ㄸㅏ⑨ㄸ
ㅈㅗ⑨ㅅㅗᆨㅎㅣ⑨
##ㅍㅏ⑨ㅇㅣ⑨
ㅅㅏ⑨ㅁㅜ⑨ㅊㅓ⑨
ㅇㅣᆯㅂㅜ⑨ㄹㅓ⑨
ㅇㅕᆼㅅㅔ⑨
##ㄹㅕ⑨ㄴㅏ⑨
ㅇㅏᆫㅈㅓᆫㅂㅜ⑨
ㄹㅠ⑨ㅎㅕᆫㅈㅣᆫ
ㅇㅓᆸㄱㅡ⑨ㄹ
ㅌㅚ⑨ㅇㅣᆷ
##ㅠᆨ
ㅇㅚ⑨ㅁㅜ⑨
ㄷㅗᆨㄹㅕ⑨
ㅈㅓᆫㅌㅜ⑨ㄱㅣ⑨
##80
ㅅㅏᆼㅇㅛᆼ
ㄹㅔ⑨ㅇㅣ⑨ㅅㅡ⑨
ㄲㅘᆨ
ㄱㅓ⑨ㄷㅡ
ㄱㅏᆫㅍㅕᆫ
ㅇㅢ⑨ㅇㅚ⑨
ㅊㅏ⑨ㅂㅜᆫ
end
ㅅㅜ⑨ㄱㅏᆼ
ㅎㅡᆫㅎㅏ⑨
ㅊㅚ⑨ㅈㅐ⑨
ㅅㅣ⑨ㅇㅣᆯ
ㅈㅜᆼㅂㅗᆨ
ㅂㅣ⑨ㅌㅏ⑨ㅁㅣᆫ
ㄷㅏᆷㄹㅗᆫ
ㅁㅜᆯㄹㅓ⑨ㅅㅓ⑨
ㅇㅝᆫㄴㅐ⑨ㄷㅐ⑨ㅍㅛ⑨
ㅇㅠ⑨ㄱㅛ⑨
ㅈㅓᆼㅂㅗ⑨ㅇㅝᆫ
ㄴㅏᆫㅁㅣᆫ
ㅇㅠ⑨ㅂㅗ⑨
ㅇㅕᆫㅇㅣᆺ
ㅍㅛ⑨ㅊㅏᆼ
mo
ㄷㅏᆯㄹㅕ⑨ㅇㅗ⑨
ㅇㅣᆫㅁㅕᆼ
ㄱㅖ⑨ㅈㅓᆼ
ㅂㅏᆨㅊㅏᆫ
##ㄴㅗᇁㅇㅣ⑨
ㅈㅏ⑨ㅂㅜ⑨ㅅㅣᆷ
ㅎㅚᆺㅅㅜ⑨
ㅇㅏᇁㄷㅏᆼㄱㅣ⑨
ㅍㅔ⑨ㅅㅡ⑨ㅌㅣ⑨ㅂㅓᆯ
##ㅅㅜᆫㅎㅘᆫ
ㅁㅕᆫㅅㅔ⑨ㅈㅓᆷ
ㅃㅣ⑨
ㅅㅡ⑨ㅍㅔ⑨
ㅎㅚᆼㄹㅕᆼ
ㄴㅐᆼㅈㅏᆼㄱㅗ⑨
ㅎㅐᆼㅇㅟ
ㅍㅏ⑨ㅁㅜᆫ
ㅊㅐᆨㅈㅓᆼ
ㅌㅡᆫㅌㅡᆫ
ㅂㅜ⑨ㅊㅣᆫ
ㄱㅏᆷㄱㅣ⑨
ㄱㅘᆫㄱㅘᆼㅈㅣ⑨
ㅇㅣᆷㅇㅛᆼ
##ㅎㅐᆼㅇㅟ⑨
ㅈㅏᆼㅁㅣ⑨
##ㅔᆯㄹㅣ⑨
ㅎㅏ⑨ㅇㅣ⑨ㅂㅡ⑨ㄹㅣ⑨
ㄲㅓᆸ
##ㅎㅐ⑨ㅇㅑᆼ
##ㄱㅏ⑨ㄹㅣ⑨
ㅎㅘᆯㄱㅣ⑨
ㄴㅗᆼㄷㅗ⑨
##ㅔ⑨ㅇㅣᆫ
ㅅㅓ⑨ㅂㅏᆼ
##ㄲㅗᆸ
ㅇㅣ⑨ㅁㅔ⑨
ㅇㅣ⑨ㄷㅡᆨ
ㄱㅏᆷㅇㅏᆫ
ㅅㅏ⑨ㅂㅓᆸㅂㅜ⑨
##40
ㅈㅏᆷㄷㅡᆯ
ㅎㅗᆼㅅㅓᆼ
ㅇㅕ⑨ㅈㅜ⑨
ㅁㅏᆯㄹㅔ⑨ㅇㅣ⑨ㅅㅣ⑨ㅇㅏ⑨
ㅍㅗ⑨ㅇㅛᆼ
ㅎㅗ⑨ㄹㅏᆼㅇㅣ⑨
ㅊㅐᆨㅇㅣᆷㄱㅏᆷ
ㅈㅗᆷㅊㅓ⑨ㄹㅓᆷ
ㄲㅡᆷ
ㅅㅣ⑨ㅈㅣᆫ
ㅈㅣ⑨ㄱㅡᆨ
ㅇㅢ⑨ㅇㅛᆨ
ㅇㅟ⑨ㅇㅣᆷ
##ㅇㅓ⑨ㅇㅗ⑨ㄹㅡ⑨
ㅌㅡᆨㄹㅖ⑨
ㅎㅕᆸㄷㅗᆼㅈㅗ⑨ㅎㅏᆸ
ㅂㅜᆯㅋㅙ⑨
ㄱㅏᆨㄱㅣ⑨
ㄴㅜ⑨ㄴㅏ⑨
ㅇㅏ⑨ㅋㅏ⑨ㄷㅔ⑨ㅁㅣ⑨
##ㄷㅐ⑨ㅈㅓᆫ
ㄱㅗᆼㅁㅜᆫ
ㅈㅓᆼㄱㅕᆼ
ㅅㅗᆨㅅㅓᆼ
ㅆㅢ⑨
ㅇㅗᆯㄹㅕ⑨
ㅅㅐ⑨ㅈㅓᆼㅊㅣ⑨ㅇㅕᆫㅎㅏᆸ
ㄹㅜᆷ
##ㅇㅝᆯㄷㅡ⑨
ㄴㅗ⑨ㅂㅔᆯ
nh
ㄸㅏ⑨ㄸㅡᆺㅎㅏ⑨
ㄱㅣᆷㅂㅜ⑨
ㄲㅐ⑨ㅈㅣ⑨
##ㅁㅏ⑨ㄹㅡ⑨
ㅈㅜ⑨ㅅㅏ⑨
ㄱㅟ⑨ㅎㅏ⑨
##ㅇㅑᆫ
ㅇㅣᆷㅈㅣᆫ
ㄷㅏᆫㅂㅐᆨㅈㅣᆯ
ㅊㅗ⑨ㅅㅓᆫ
ㅊㅚ⑨ㅅㅏᆼ
ㅇㅏ⑨ㅅㅏᆫ
ㅎㅐ⑨ㄱㅕᆼ
##ㅇㅣᆯㅂㅗ
ㄷㅗ⑨ㅁㅏᆼㅊㅣ⑨
ㅇㅣᆫㅌㅔ⑨ㄹㅣ⑨ㅇㅓ⑨
ㄷㅐ⑨ㅇㅢ⑨
##ㄷㅡᆫㄱㅏ⑨
##ㅂㅣ⑨ㄷㅡ⑨
##ㅅㅡ⑨ㅌㅣᆼ
ㅅㅏ⑨ㅇㅜ⑨ㄷㅣ⑨
ㅎㅔᆫ
##ㄴㅔ
ㄱㅕᆼㅈㅔ⑨ㅎㅏᆨ
ㅁㅣ⑨ㅈㅣ⑨
ㄱㅗᆼㄱㅘᆫ
##ㅋㅣ⑨ㅅㅡ⑨ㅌㅏᆫ
ㅇㅟᆯㄹㅣ⑨
bl
ㅅㅣᆨㄱㅜ⑨
ㅎㅗᆫㅎㅏᆸ
ㅅㅗ⑨ㅈㅜ⑨
ㅈㅗ⑨ㅁㅜᆫ
ㄱㅕᆯㅇㅢ⑨ㅇㅏᆫ
ㅈㅐ⑨ㅂㅗ⑨
ㅎㅡᆯㄹㅓ⑨ㄱㅏ⑨
ㅇㅣ⑨ㅇㅘᆫ
ㅌㅗᆼㅎㅏᆸㅈㅣᆫㅂㅗ⑨ㄷㅏᆼ
ㅈㅜᆼㄴㅕᆫ
ㅅㅓᆼㅊㅏᆯ
ㄱㅐᆯㄹㅓ⑨ㄹㅣ⑨
ㅇㅓᆰㅎㅣ⑨
ㅇㅓᆫㄹㅗᆫㅇㅣᆫ
##ㅇㅔ⑨ㅇㅣ⑨
ㄱㅏᆼㄷㅗᆼ
ㅊㅏ⑨ㄹㅣᆷ
ㅁㅗᆨㄹㅗᆨ
ㅈㅗᆼㅅㅏ⑨
##ㅂㅜᆺ
ㅂㅜ⑨ㅅㅣ⑨
ㅇㅚ⑨ㄱㅘᆨ
ㅂㅣ⑨ㅁㅏᆫ
ㅁㅜᆯㄱㅕᆯ
ㄷㅏᆨㅊㅣ⑨
ㅊㅜᆯㄷㅗᆼ
ㄱㅏᆼㄱㅜ⑨
ㅎㅕᆯㄱㅘᆫ
ㅇㅣᆸㄹㅕᆨ
ㄴㅡ⑨ㄹㅣ⑨
ㄷㅐ⑨ㅅㅏ
##ㅅㅣᆨㄱㅏᆫ
ㅈㅣ⑨ㅇㅕ
ㅇㅕᆼㅈㅜ⑨
119
##ㅍㅡᆯㄹㅣ⑨
ㅎㅏᆼㅈㅐᆼ
ㅋㅣ⑨ㅇㅝ⑨ㄷㅡ⑨
ㅁㅗᆨㅇㅛᆨ
ㅂㅐᆨㅈㅣ⑨
ㅈㅏ⑨ㄱㅕᆨㅈㅡᆼ
ㅅㅗᆼㅇㅕᆼㄱㅣᆯ
ㅂㅜ⑨ㅊㅜ⑨ㄱㅣ⑨
ㅈㅣ⑨ㄱㅏᆨ
##60
##ㅌㅗᆼㅇㅟ⑨
ㅇㅜᆯㅇㅡᆷ
ㅈㅜ⑨ㅇㅕᆨ
ㄱㅜᆱ
ㅇㅑᆼㅎㅐ⑨
ㅅㅏ⑨ㅈㅣᆨ
ㅅㅓᆫㅇㅝᆫ
187
ㅇㅣᆯㅈㅏ⑨
ㅋㅗᆷ
##av
ㅎㅜ⑨ㅇㅣᆷ
ㅇㅓᆸㄱㅡ⑨ㄹㅔ⑨ㅇㅣ⑨ㄷㅡ⑨
ㄸㅜᆨ
ㅈㅏ⑨ㄹㅣ⑨ㅁㅐ⑨
##ㅇㅢ⑨ㅅㅣᆨ
ㅎㅏ⑨ㄴㅏ
ㅈㅣ⑨ㅅㅏᆼㅍㅏ⑨
cn
##ㅍㅓᆫ
ㄱㅣ⑨ㄷㅜᆼ
ㄱㅏᆫㅎㅗ⑨ㅅㅏ⑨
ㅍㅛ
ㅎㅔᆯㅅㅡ⑨
ㄲㅞ⑨
##ㄹㅜᆷ
ㄱㅏ⑨ㅎㅐ⑨ㅈㅏ⑨
ㄱㅏ⑨ㅅㅏᆫ
ㅈㅏ⑨ㄹㅣ⑨ㅁㅐ⑨ㄱㅣᆷ
ㅊㅣ⑨ㅅㅗᆺ
ㄱㅏ⑨ㅈㅜᆨ
ㄱㅗ⑨ㅅㅣᆷ
ㅈㅓᆫㄷㅗ⑨
##ㅅㅓ⑨ㄱㅜ⑨
##ㅂㅓ⑨ㄱㅡ⑨
ㅇㅡ⑨ㄹㅕ⑨ㅁㅕᆫ
##ㅂㅓᆸㅇㅝᆫ
ㅇㅓ⑨ㄹㅣ⑨ㅅㅓᆨ
ㅎㅗᆷㅍㅔ⑨ㅇㅣ⑨ㅈㅣ
ㅅㅗᆯㄹㅗ⑨
ㅎㅏᆸㅊㅏᆼ
ㅁㅔ⑨ㅇㅣᆫ
##ㅂㅗᆷ
ㅍㅕᆫㄱㅕᆫ
ㄲㅏ⑨ㅁ
ㅅㅏᆼㅂㅗᆼ
ㄱㅏᆼㄹㅕᆯㅎㅏ⑨
ㅅㅡ⑨ㅌㅏ⑨ㅌㅡ⑨ㅇㅓᆸ
ㅇㅣᆫㅅㅓᆼ
ㅍㅣᆯㄹㅡᆷ
ㅈㅏ⑨ㅁㅐ⑨
ㅍㅐ⑨ㅅㅡ⑨
##ㅈㅓᆺ
ㄱㅕᆼㄱㅘᆫ
##ㅇㅟᆫ
ㄱㅏ⑨ㄹㅡ⑨ㅊㅣᆷ
ㄷㅗᆨㄹㅣᆸㅇㅜᆫㄷㅗᆼ
##ps
ㅂㅓᆷㅇㅣᆫ
ㅇㅕ⑨ㅈㅓᆫ
ㅇㅓᆬ
##ㅇㅟᆼ
ㅅㅜᆫㅂㅏᆼ
ㅊㅔ⑨ㅈㅣᆯ
##ㅈㅏᆼㄱㅘᆫ
##ㄱㅏ⑨ㄹㅜ⑨
##ㅈㅓᆨㅎㅏ⑨
ㅈㅓᆫㅈㅣᆫ
ㅈㅓᆫㄱㅘ⑨
ㄴㅗ⑨ㄷㅗᆼㅈㅗ⑨ㅎㅏᆸ
ㅎㅏ⑨ㄷㅡ⑨
ㅋㅡᆯㄹㅓ⑨
ㅌㅗ⑨ㄲㅣ⑨
ㅁㅗ⑨ㄴㅣ⑨ㅌㅓ⑨ㄹㅣᆼ
ㅂㅏ⑨ㄷㅜᆨ
ㄱㅓᆷㅈㅣᆫ
ㅂㅏᆫㄹㅕ⑨
ㄴㅡᆫㄷㅔ⑨ㅇㅛ
ㅇㅣᆼㄱ
ㅅㅓᆫㄷㅗᆼ
ㅇㅕᆼㄱㅜ⑨
##ㄸㅏ⑨
ㅅㅡ⑨ㅌㅠ⑨ㄷㅣ⑨ㅇㅗ⑨
ㄱㅏᆫㅈㅓᆯ
ㄱㅏᆷㅎㅣ⑨
ㅇㅏ⑨ㅇㅣ⑨ㅍㅗᆫ
ㄱㅏᆨㅂㅕᆯ
ㅇㅣ⑨ㅇㅝᆫ
ㄷㅐ⑨ㄹㅑᆨ
ㅇㅘ⑨ㅈㅜᆼ
##ㄸㅓᆯㅇㅓ⑨ㅈㅣ⑨
ㅍㅏ⑨ㅅㅏᆫ
ㄲㅡᆶㅇㅣ⑨
ㅈㅏ⑨ㅌㅐᆨ
ㄱㅡᆨㅅㅣᆷㅎㅏ⑨
ㄱㅕᆼㅅㅏ⑨
ㅇㅕ⑨ㅇㅘᆼ
ㅍㅏ⑨ㄷㅗ⑨
##ㅌㅡ⑨ㄹㅏ⑨
ㅇㅣᆫㅈㅓᆨ
ㅂㅜᆯㄲㅗᆾ
ㅂㅓᆸㅇㅣᆫㅅㅔ⑨
ㄱㅗᆯㄷㅡᆫ
ㅅㅗᆫㅅㅟᆸ
ㅋㅐᆯㄹㅣ⑨
ㅊㅜᆯㅍㅏᆫㅅㅏ⑨
ㄱㅗ⑨ㅇㅢ⑨
ㅇㅠ⑨ㅂㅏᆼ
ㅍㅣ⑨ㄱㅗᆫ
ㅇㅡᆷㅁㅗ⑨
ㅅㅗ⑨ㅅㅡ⑨
ㅁㅜᆫㅇㅣᆫ
##ational
ㄹㅣ⑨ㅁㅗ⑨ㄷㅔᆯ
ㅌㅓᆺ
ㅂㅏᆯㅅㅏᆼ
##ㅃㅏ⑨ㅈㅣ⑨
ㄱㅡᆨㅎㅣ⑨
ㅍㅏ⑨ㄱㅣ⑨
ㅇㅜ⑨ㄷㅐ⑨
ㅎㅡᆯㄹㅓ⑨ㄴㅏ⑨ㅇㅗ⑨
ㅅㅏ⑨ㅁㅏᆨ
ㅊㅜ⑨ㅊㅓᆷ
ㅅㅡ⑨ㅁㅣ⑨
ㅎㅜ⑨ㅋㅜ⑨
ㅇㅠ⑨ㅍㅗ⑨
ㅎㅢᆫ
##ㅋㅓ⑨ㄴㅕᆼ
ㄹㅏᆨ
##ㅇㅔᆷ
ㅍㅛ⑨ㅊㅜᆯ
ㄱㅗᆼㅅㅏᆫㄷㅏᆼ
##ㅁㅜ⑨ㅈㅣ⑨
ㅈㅣᆸㅁㅜ⑨ㅅㅣᆯ
ㅇㅏ⑨ㅂㅓ⑨
ㄱㅔ⑨ㅇㅣ⑨ㅌㅡ⑨
ㅂㅐ⑨ㅅㅜ⑨
ㅇㅣᆯㄱㅏᆫ
ㅎㅜ⑨ㅅㅗᆫ
ㅇㅣ⑨ㄱㅘᆼ
ㅇㅗ⑨ㄹㅐᆫㅁㅏᆫ
ㅅㅜᆫㅅㅣᆨㄱㅏᆫ
ㅈㅗᆼㅇㅓᆸㅇㅝᆫ
ㄷㅐ⑨ㅇㅜ⑨ㅈㅗ⑨ㅅㅓᆫ
ㅈㅓᆼㅇㅜ⑨
ㅇㅣᆯㅅㅏᆫ
ㅅㅣᆫㅌㅏᆨ
ㅁㅓᆨㄱㅓ⑨ㄹㅣ⑨
ㅂㅐᆯㄹㅣ⑨
ㄷㅏᆫㅍㅕᆫ
ㅊㅣᆷㅇㅣᆸ
ㅋㅓᆺ
ㅅㅗ⑨ㅁㅕᆼ
ㅁㅏᆼㅊㅣ⑨
ㅇㅏᆫㅂㅏᆼ
ㅇㅏᆫㅂㅗ⑨ㄹㅣ⑨
ㅊㅓᆼㅊㅟ⑨
ㄱㅏ⑨ㄴ
ㄱㅐ⑨ㄱㅡ⑨
ㄷㅏᆷㅎㅘ⑨
ㅅㅐᆼㄹㅣ⑨
ㄲㅏᆯㄲㅡᆷ
ㅈㅏᆫㄸㅡᆨ
ㅎㅓᆼ
ㅈㅗ⑨ㅈㅗ⑨
ㄱㅏᆫㅈㅣᆨ
ㅊㅜᆯㅈㅔ⑨
ㅅㅠᆺ
ㅅㅓᆫㅂㅣ⑨
##ㅇㅏ⑨ㄷㅏ⑨ㄴㅣ⑨
##ㅅㅛᆸ
##ㄴㅓᆨ
##ㄱㅜ⑨ㅇㅕᆨ
ㄷㅓ⑨ㄹㅏ⑨ㄱㅗ⑨
ㅂㅜ⑨ㅊㅏᆨ
ㅈㅡᆼㅇㅐᆨ
ㄱㅘᆫㄱㅘᆼㅂㅜ⑨
ㅇㅐᆨㅅㅜ⑨
##ㄱㅏ⑨ㅈㅗᆨ
ㅌㅏ⑨ㅇㅣ⑨ㅇㅓ⑨
ㅇㅕᆨㄷㅗᆼ
ㄴㅡᆽㅊㅜ⑨
ㅊㅓᆫㅈㅣ⑨
ㅇㅣᆯㄱㅘᆯ
ㄱㅗ⑨ㅇㅑᆼㅅㅣ⑨
ㅂㅏᆯㄱㅓᆯㅇㅡᆷ
ㅅㅣᆯㄱㅏᆷ
ㅁㅏᆼㅅㅓᆯ
ㄸㅓ⑨ㄷㅡᆯ
ㅂㅗ⑨ㅅㅓᆨ
ㅇㅣ⑨ㅁㅗ⑨
ㅂㅜ⑨ㅇㅠ⑨
2022
ㅇㅣ⑨ㄷㅐ⑨ㄹㅗ⑨
ㅇㅣᆸㅈㅓᆷ
ㅅㅣ⑨ㄹㅣ⑨ㅇㅏ⑨
ㅈㅐ⑨ㅍㅏᆫㄱㅘᆫ
ㄲㅡᆷㅉㅣᆨ
ㅊㅔ⑨ㅈㅜᆼ
ㄲㅜ
##ㄴㅗᆫ
ㄷㅏᆫㅁㅏᆯ
ㅈㅗ⑨ㅈㅣᆷ
ㄴㅐ⑨ㅇㅢ⑨
ㅇㅔᆨㅅㅡ⑨ㅍㅗ⑨
##ㄷㅠ⑨
ㅇㅕᆯㅅㅚ⑨
##ㅍㅏ⑨ㄹㅡ⑨
ㅅㅡ⑨ㅍㅣ⑨ㄷㅡ⑨
ㅍㅜᆼㄱㅣ⑨
ㄱㅣ⑨ㅅㅔ⑨
ㄷㅔᆫ
bmw
ᆸㄴㅣ⑨ㄷㅏ⑨
ㅅㅏᆼㅂㅓᆸ
##ㅇㅕ⑨ㄷㅐ⑨
ㅈㅔ⑨ㅇㅣᆷ
af
ㅈㅣ⑨ㅇㅕᆨㅁㅣᆫ
ㅅㅗᆨㅅㅗᆨ
##ㅌㅗ⑨ㄹㅣ⑨
ㅎㅕᆫㄷㅐ⑨ㅈㅜᆼㄱㅗᆼㅇㅓᆸ
ㄷㅐ⑨ㅎㅏ
ㅎㅐ⑨ㅂㅕᆼㄷㅐ⑨
##ㅂㅏᆩ
ㅋㅗ⑨ㄹㅣ⑨
ㅇㅏᆨㅅㅜ⑨
ㄱㅏ⑨ㄹㅗ⑨ㅁㅏᆨ
ㅈㅏᆷㅈㅐ⑨ㄹㅕᆨ
ㅇㅣ⑨ㅅㅓᆨ
ㅎㅘ⑨ㄱㅏ⑨
ㅁㅏ⑨ㅇㅡ
ㅂㅗ⑨ㅁㅜᆯ
ㅎㅏᆨㅅㅐᆼㅂㅜ⑨
ㄹㅣ⑨ㅁㅗ⑨ㄷㅔᆯㄹㅣᆼ
##ㅋㅓᆮ
ㅁㅐ⑨ㄱㅐ⑨
ㅍㅏ⑨ㅁ
ㅂㅐᆨㄷㅜ⑨
ㅇㅣᆯㅋㅓᆮ
ㅎㅏᆫㅇㅜ⑨
##pl
ㄱㅜᆫㄷㅔ⑨
##ㅂㅗᆫㅂㅜ⑨
ㅇㅑᆲ
##ㅖᆫ
ㅌㅏ⑨ㅈㅓᆷ
##ㅌㅔ⑨ㅇㅣ⑨ㄴㅓ⑨
##ㅌㅏ⑨ㅇㅜᆫ
ㅍㅜ⑨ㄷㅡ⑨
ㄱㅣ⑨ㅅㅜᆨ
ㅎㅕᆷㅇㅗ⑨
ㅂㅗ⑨ㄹㅏᆷ
ㅇㅣᆫㅊㅣ⑨
ㄱㅜᆫㅅㅏᆫ
ㅅㅏ⑨ㄱㅛ⑨ㅇㅠᆨ
ㄱㅏᆫㄱㅕᆨ
ㅅㅏᆼㄱㅣ⑨
ㄴㅓ
pe
##ㅅㅗ⑨ㄷㅡᆨ
ㅎㅚ⑨ㅈㅏ
ㅇㅟ⑨ㄹㅕᆨ
ㅅㅏ⑨ㅅㅣ
ㄱㅜ⑨ㄹㅣ⑨
##ㅋㅔᆯ
ㅁㅜ⑨ㄴㅡᆼ
ㄱㅣᆷㅅㅓᆫ
##ㅎㅗ⑨ㅌㅔᆯ
ㅇㅕᆫㄷㅗ⑨
##pr
ㅂㅕᆯㄱㅐ⑨
ㅂㅐᆺ
ㅈㅓᆼㄱㅘᆫ
ㄲㅓ⑨ㄹㅣ⑨
ㅂㅓᆷㅈㅜ⑨
ㅎㅏᆨㄱㅖ⑨
ㅁㅣᆯㅈㅣᆸ
ㅇㅜᆫㄷㅗᆼㅈㅏᆼ
ㅂㅜᆫㅍㅗ⑨
ㅁㅣᆯㅇㅓ⑨ㅂㅜᇀㅇㅣ⑨
ㅎㅏᆨㅅㅏᆯ
ㅍㅏ⑨ㄱㅗ⑨
ㄷㅗᆼㅇㅏ⑨ㅇㅣᆯㅂㅗ⑨
ㅇㅑᆼㅇㅠᆨ
ㄸㅓᆯㅊㅣ⑨
ㅈㅜᆯㄱㅗᆮ
cd
ㄱㅏ⑨ㅁ
ㅊㅗ⑨ㄷㅡᆼㅎㅏᆨㅅㅐᆼ
ㅇㅏ⑨ㅇㅣᆯ
ㄱㅞ⑨ㄷㅗ⑨
##ㄷㅜ⑨ㄹㅣ⑨
ㅂㅣᆨㄷㅔ⑨ㅇㅣ⑨
ㅁㅏ⑨ㅈㅜ⑨ㅊㅣ⑨
ㄱㅜ⑨ㅈㅓᆯ
ㅇㅡᆫㅍㅖ⑨
ㅂㅔ⑨ㄹㅡᆯㄹㅣᆫ
ㅎㅘᆫㅅㅜ⑨
ㄲㅚ⑨ㅎㅏ⑨
ㄱㅘᆫㄱㅓᆫ
ㅈㅘ⑨ㅅㅓᆨ
ㅇㅜ⑨ㄹㅣ⑨ㅇㅡᆫㅎㅐᆼ
ㅎㅓ⑨ㅁㅜᆯ
ㅁㅡ⑨ㄹㅗ
ㅅㅣ⑨ㅅㅏᆼㅅㅣᆨ
ㄱㅏᆼㅈㅓᆼ
ㄴㅗ⑨ㄹㅡ⑨
ㅁㅐ⑨ㄴㅣ⑨ㅈㅓ⑨
vs
ma
ㄱㅕᆫㅇㅣᆫ
ㄱㅕᆼㅇㅠ⑨
ㄱㅣᆷㅎㅕᆼ
ㅌㅏ⑨ㄱㅕᆯ
ㅈㅓᆼㅂㅗᆨ
ㅊㅓᆼㄹㅕᆷ
ㅆㅜᆨ
ㄱㅣᆷㅅㅡᆼ
ㅁㅜ⑨ㄷㅓ⑨
ㄷㅗᆼㄱㅕᆯ
ㅁㅜᆩㅇㅣ⑨
ㄷㅚ⑨ㄷㅗᆯㄹㅣ⑨
ㅇㅑᆼㅂㅏᆫ
ㅈㅏᆺ
ㄱㅐ⑨ㄱㅐ⑨
ㅇㅏ⑨ㅅㅡ⑨
ㅊㅓᆨㅊㅜ⑨
ㅈㅣᆫㅇㅏᆸ
ㄷㅐ⑨ㅇㅘᆼ
ㄸㅓ⑨ㄷㅗᆯ
##ㅎㅖ
ㅎㅔ⑨ㅇㅓ⑨
ㄷㅗ⑨ㄹㅗ
ㅅㅏ⑨ㅅㅗ⑨
ㅌㅐᆨㅈㅣ⑨
ㅎㅕᆸㄹㅕᆨㅅㅏ⑨
ㅅㅓᆼㅈㅜ⑨
ㅈㅔ⑨ㄷㅗ
ㅇㅝᆫㄹㅗ⑨
##ㅉㅣ⑨ㄱㅏᆷ
ㅈㅣᆫㄷㅗᆼ
ㅅㅡ⑨ㅊㅣ⑨
##ㅎㅘᆫㄱㅕᆼ
ㅇㅣ⑨ㅎㅐ⑨ㄱㅘᆫㄱㅖ⑨
##ㄹㅗ⑨ㄷㅡ⑨
##ㅉㅣ⑨ㄱㅏᆷㅊㅣ⑨
##ㄷㅜ
ㅈㅜᆼㅅㅣᆷㅈㅣ⑨
ㅎㅘᆫㅎㅏ⑨
ㅈㅜ⑨ㅅㅣ⑨
ㅂㅔ⑨ㅍㅜᆯ
ㅇㅣᆫㄴㅐ⑨
ㅋㅏ⑨ㅇㅜᆫ
ㅈㅜ⑨ㅇㅠ⑨ㅅㅗ⑨
ㅈㅣ⑨ㅊㅔ⑨
##ㅋㅔ⑨ㅇㅣ⑨
ㅂㅕᆯㅁㅕᆼ
ㅈㅏᆼㅇㅣᆫ
ㅇㅕᆯㅇㅏᆨㅎㅏ⑨
ㅌㅏ⑨ㅇㅣᆸ
ㅈㅓᆫㅅㅗᆼ
##ㅈㅣᆼㄱㅡᆷ
ㅅㅓ⑨ㅈㅓᆷ
ㄲㅡᆭㄱㅣ⑨
ㅂㅏᆯㄹㅕᆼ
ㅎㅏ⑨ㅇㅣ⑨ㅂㅡ⑨ㄹㅣ⑨ㄷㅡ⑨
ㅅㅗ⑨ㅅㅗᆨㅅㅏ⑨
ㅃㅗᆸㅎㅣ⑨
ㅈㅣᆨㅅㅓᆫ
ㅋㅗ⑨ㅁㅣ⑨
ㄹㅓ⑨ㅅㅣ⑨
ㅇㅚ⑨ㄹㅗᆸ
ㅎㅟᆯ
ㅇㅝᆫㅎㅕᆼ
ㅂㅏᆫㄹㅏᆫ
ㅍㅜᆼㅅㅓᆼ
ㅇㅏᆸㅊㅜᆨ
ㅋㅡᆯㄹㅣᆫㅌㅓᆫ
ㄱㅓᆷㅊㅏᆯㅊㅓᆼ
ㅁㅏ⑨ㅇㅡᆷㄷㅐ⑨ㄹㅗ⑨
es
##ㅂㅐ⑨ㅇㅜ⑨
ㅎㅐ⑨ㅈㅣ⑨
##ㅈㅣᆽ
##ㄹㅔᆺ
ㄱㅗᆨㅅㅓᆫ
ㅂㅜᆫㅂㅕᆯ
ㅁㅜᆫㅊㅔ⑨
ㄱㅣᆫㅈㅏᆼㄱㅏᆷ
ㅂㅗᆼㅌㅜ⑨
##ㅍㅣᆺ
ㅁㅏᆼㅅㅓᆯㅇㅣ⑨
ㅌㅗᆼㅅㅣᆫㅅㅏ⑨
ㅌㅡ⑨ㄹㅗ⑨
ㅅㅣ⑨ㄷㅐ
ㅈㅜᆼㅈㅏᆼㄱㅣ⑨
ㅂㅗ⑨ㅎㅐᆼ
ㄱㅘ⑨ㅅㅣᆯ
ㅎㅏᆷㅈㅓᆼ
##ㅎㅏ⑨ㄴㅏ⑨
##ㄹㅗᆯ
ㅈㅏᆷㅅㅜ⑨ㅎㅏᆷ
ㅂㅓ⑨ㅈㅓᆫ
ㅅㅐᆨㅅㅏᆼ
ge
##ㄲㅓᆸ
ㅇㅏᆫㅉㅗᆨ
ㅅㅗᆫㅈㅏ⑨
ㅎㅚ⑨ㄱㅗ⑨
##for
##bm
ㅅㅏ⑨ㅅㅓᆯ
##ㄹㅔ⑨ㅇㅣ⑨ㅅㅕᆫ
ㅅㅓᆼㅍㅗᆨㅎㅐᆼ
ㅇㅣᆫㅅㅔᆫ
ㄱㅟ⑨ㅇㅕᆸ
##ㄱㅔᆯ
ㄱㅓᆯㅁㅏᆽ
ㄱㅜᆨㅇㅘᆼ
ㄱㅗᆼㅇㅕᆫㅈㅏᆼ
##ass
##ㅊㅔ⑨ㅇㅠᆨ
ㅇㅕᆯㅍㅜᆼ
ㄱㅣ⑨ㅇㅝᆫㅈㅓᆫ
ㅎㅗᆼㅅㅜ⑨
ㅈㅐ⑨ㅇㅣᆷ
ㅅㅓᆼㄷㅏᆼ
ㅁㅜᆯㅊㅔ⑨
##ang
ㅌㅏ⑨ㅅㅜ⑨
##ㅇㅘ⑨ㅇㅣ⑨
ㄱㅓ⑨ㄹㅐ⑨ㅅㅗ⑨
ㅊㅣ⑨ㅇㅏ⑨
ㅂㅔ⑨ㄴㅔ⑨
##ㅌㅣ⑨ㄴㅏ⑨
ㅍㅡᆯㄹㅗ⑨
ㄱㅡ⑨ㅌㅗ⑨ㄹㅗᆨ
ㅅㅐ⑨ㅅㅏᆷ
ㅂㅜ⑨ㄷㅣᆽㅊㅣ⑨
ㅅㅣᆫㅅㅐᆼ
ㅇㅗᆯㄹㅏ⑨ㅅㅓ⑨
##ㄱㅏ⑨ㄹ
ㅇㅠ⑨ㄹㅐ⑨
##ud
##ㅌㅡ⑨ㄹㅗᆯ
all
ㄱㅏᆯㄹㅣ⑨
ㅊㅟ⑨ㅁㅣ⑨
ㄱㅜ⑨ㅈㅔ⑨ㅇㅕᆨ
ㄷㅐ⑨ㅁㅕᆫ
ㅅㅡ⑨ㅌㅐᆫ
ㅇㅣ⑨ㅎㅘ⑨
##ㅅㅔ⑨ㅍㅗ⑨
ㄹㅗ⑨ㅋㅔᆺ
ㄱㅣᆷㄱㅘᆫ
ㄷㅏᆼㄷㅐ⑨
ㅇㅐᆨㅅㅕᆫ
ㄱㅏᆫㅅㅓᆸ
ㅇㅠᆨㅂㅏᆨ
ㅇㅣ⑨ㅁㅔ⑨ㅇㅣᆯ
ㅊㅏ⑨ㅇㅣᆨ
ㅇㅕᆫㅎㅏᆸㄴㅠ⑨ㅅㅡ⑨tv
ㅊㅜ⑨ㅇㅟ⑨
##ㅓ⑨ㅎㅏ⑨
ㅅㅏ⑨ㅂㅏᆼ
ㄷㅏᆼㅊㅓᆷ
ㄱㅏ⑨ㄹㅕᆼ
ㄱㅣ⑨ㅃㅓ⑨ㅎㅏ⑨
ㅇㅠ⑨ㅈㅣᆫ
ㅌㅡᆨㅂㅗ⑨
ㅅㅡ⑨ㅍㅡ⑨ㄹ
by
ㅊㅓ⑨ㄴㅕ⑨
ㅇㅣ⑨ㅁㅏᆫ
ㅋㅐᆷㅍㅣᆼ
ㄱㅗ⑨ㄹㅣᆸ
##ㅇㅜ⑨ㄷㅡ⑨
ㅁㅔ⑨ㅇㅣ⑨ㅈㅓ⑨ㄹㅣ⑨ㄱㅡ⑨
ㅎㅏᆫㄴㅜᆫ
ㅇㅜ⑨ㅋㅡ⑨ㄹ
##ㅌㅔᆨㅅㅡ⑨
ㄷㅐᆫㅅㅡ⑨
ㅇㅞ⑨ㅇㅣ⑨
ㅅㅓ⑨ㅊㅗ⑨ㄱㅜ⑨
ㄱㅡ⑨ㅈㅜᆼ
ㅍㅕ⑨ㄴㅐ⑨
ㄱㅔ⑨ㅅㅣ⑨ㅍㅏᆫ
ㅁㅗ⑨ㅇㅛᆨ
ㄴㅓ⑨ㅁㅓ⑨
##ㄹㅗᆷ
##ㄹㅡᆺ
ㅅㅓᆼㄹㅕᆼ
ㅂㅏᆨㅈㅗᆼ
##ld
ㄷㅜᆫㅎㅘ⑨
ㅇㅏ⑨ㅇㅣ⑨ㄷㅗᆯ
skㅌㅔᆯㄹㅔ⑨
ㅅㅏᆫㅊㅜᆯ
ㄷㅐ⑨ㅂㅓᆸㅇㅝᆫㅈㅏᆼ
ㅅㅗ⑨ㄴㅏ⑨ㅁㅜ⑨
##ans
ㅍㅓᆯ
ㅇㅏ⑨ㄱㅏ⑨ㅆㅣ⑨
ㄹㅔ⑨ㅅㅡ⑨ㅌㅗ⑨
##ㄷㅟ⑨
ㅉㅏᆯ
ㅎㅘ⑨ㄹㅕᆨ
ㅇㅜ⑨ㅋㅡ⑨ㄹㅏ⑨ㅇㅣ⑨
cr
ㅅㅣ⑨ㅊㅔ⑨
##olog
ㄱㅣ⑨ㄷㅗᆼ
ㄱㅖ⑨ㅇㅑᆨㅅㅓ⑨
ㅍㅗ⑨ㅎㅏ
ㅎㅘᆼㄷㅏᆼ
ㅂㅜ⑨ㄷㅐ⑨ㅍㅛ⑨
ㅇㅕᆼㅎㅑᆼㄹㅕᆨ
ㄱㅣᆷㅇㅡᆫ
ㅈㅔ⑨ㅇㅣᆷㅅㅡ⑨
ㅌㅔ⑨ㄴㅣ⑨
ㅇㅣ⑨ㅇㅢ⑨
ㅍㅐᆼㅍㅐᆼ
##ㅏ⑨ㅇㅜ⑨ㄷㅡ⑨
ㅇㅓᆼㄸㅜᆼ
ㅅㅔ⑨ㅇㅣᆸ
ㅊㅟ⑨ㅎㅑᆼ
ㅈㅓᆫㄱㅕᆼ
ㅇㅓ⑨ㅁㅓ⑨
ㅂㅏᆨㅅㅏᆼ
ㄴㅏᆼㅁㅏᆫ
ㄷㅚ⑨ㄱㅔ⑨
ㅌㅏ
ㅂㅏᆨㅎㅣ⑨
##ㅅㅜ⑨ㅈㅣ⑨
ㅇㅣᆫㅅㅏ
ㅁㅕᆼㅅㅗ⑨
ㄷㅓ⑨ㄹㅓᆸ
ㄷㅏᆸㄴㅣ⑨ㄷㅏ
ㄷㅓ⑨ㅂㅡᆯ
ㅈㅣ⑨ㅇㅝ
##ㄹㅏ⑨ㄴ
ㅈㅜᆼㅇㅓᆯㄱㅓ⑨ㄹㅣ⑨
ㄱㅜᆫㅁㅣᆫ
##ㄱㅣᆺ
ㅎㅏ⑨ㄴㅏ⑨ㄱ
ㅅㅓ⑨ㅅㅣᆨ
ㅈㅜ⑨ㅈㅓᆫ
ㅎㅣ⑨ㅌㅡ⑨
##ㅅㅏ⑨ㄹㅣ⑨
ㅈㅜ⑨ㅎㅗ⑨ㅇㅕᆼ
ㅎㅐ⑨ㅂㅕᆫ
ㅂㅏᆨㅇㅕᆼㅅㅓᆫ
ㅅㅣᆫㅎㅗᆫ
ㅇㅓ⑨ㅅㅓ⑨ㄷㅏ
##ㅏ⑨ㅇㅣ⑨ㅇㅓᆫ
ㄲㅏ⑨ㄷㅏ⑨ㄹ
ㅁㅜᆫㅂㅓᆸ
ㄲㅏ⑨ㄷㅏ⑨ㄹㅗᆸ
ㅎㅐᆼㅇㅜᆫ
ㅇㅣᆸㅁㅏᆺ
##ae
ㄹㅓ⑨ㅂㅡ⑨
##ㅁㅣᆫㄷㅏᆼ
ㄱㅣᆷㅁㅜᆫ
##to
ㅇㅗ⑨ㄹㅏᆨ
ㄱㅕᆼㅂㅗ⑨
ㄱㅡ⑨ㄹㅜ⑨
ㄹㅐᆸ
ㄱㅜᆫㅈㅜ⑨
jo
##ㅈㅔᆯ
ㅂㅣᆨㄷㅔ⑨ㅇㅣ⑨ㅌㅓ⑨
ㅇㅝᆫㄱㅡᆷ
ㄷㅏ⑨ㅌㅜᆷ
ㅌㅗᆼㅅㅏᆫ
ㄷㅏᆼㄴㅛ⑨ㅂㅕᆼ
ㅈㅣᆼㅅㅜ⑨
ㅅㅜ⑨ㅈㅣᆨ
ㅎㅏᆸㅎㅏ⑨
ㅍㅗ⑨ㅌㅡ⑨ㅍㅗᆯㄹㅣ⑨
ㄷㅓ⑨ㄹㅏ⑨ㄷㅗ
##ㄱㅣ⑨ㅇㅑ⑨
ㄹㅗ⑨ㅁㅐᆫ
ㅊㅏᆼㄷㅏᆫ
ㅈㅓᆼㅈㅏ⑨
ㅇㅕᆯㅁㅏᆼ
ㅎㅏᆷㅂㅜ⑨ㄹㅗ⑨
ㅂㅏᆯㅍㅏᆫ
ㅉㅣᆨㅎㅣ⑨
ㅍㅣᆯㅇㅕᆫ
ㅈㅓᆫㄱㅛ⑨ㅈㅗ⑨
ㅅㅏᆷㅅㅓ
ㅍㅏ⑨ㅅㅐᆼ
##ㄱㅘᆼㅇㅕᆨ
ㅅㅣᆫㅎㅏ⑨
lc
ㅇㅔ⑨ㄱㅔ
ㄲㅓ⑨ㅈㅣ⑨
##ㅅㅑ
##ep
ㄷㅡᆫㄷㅡᆫ
ㅊㅣ⑨ㄹㅛ⑨ㅈㅔ⑨
ㅁㅐ⑨ㄹㅣᆸ
ㅋㅣ⑨ㅅㅡ⑨
ㅂㅠ⑨ㅌㅣ⑨
ㅅㅔᆨㅅㅡ⑨
ㅇㅕ⑨ㄱㅗ⑨
ㄷㅗᆼㄱㅜᆯ
ㅇㅟᆯㄹㅣ⑨ㅇㅓᆷ
ㄱㅏ⑨ㅊㅣ⑨ㄱㅘᆫ
ㅅㅜᆨㅈㅔ⑨
par
##ㄷㅐ⑨ㄱㅛ⑨
ㄹㅣ⑨ㄹㅏ⑨
ㅈㅏ⑨ㅇㅝᆫㅂㅜ⑨
ㅇㅣᆫㅅㅔᆫㅌㅣ⑨ㅂㅡ⑨
ㄱㅣᆷㅎㅏᆫ
ㄹㅣ⑨ㄹㅏ
ㅊㅏᆼㄱㅜ⑨
ㄷㅡ⑨ㄹㅣᆷ
ㅈㅐ⑨ㅍㅕᆫ
kor
ㄴㅐᆼㅈㅓᆼ
ㅈㅔ⑨ㅈㅏᆨㅈㅣᆫ
ㅁㅣᆫㅈㅜ⑨ㄴㅗ⑨ㅊㅗᆼ
ㅁㅏᆨㅅㅏᆼ
ㅇㅗ⑨ㅅㅏ⑨
##ㄸㅗᆨ
ㄱㅕᆼㅈㅓᆫ
ㄷㅐ⑨ㅎㅏᆨㄱㅛ⑨
ㅇㅜ⑨ㅍㅕᆫ
ㅈㅣᆸㅍㅣᆯ
ㅇㅡᆫㅎㅖ⑨
ㅎㅐ⑨ㅋㅣᆼ
ㅇㅠ⑨ㅅㅓᆫ
##ㄷㅣᆯ
ㅂㅕᆫㅁㅕᆼ
ㅂㅗ⑨ㅅㅏᆯ
ㅇㅏᆫㄱㅐ⑨
ㅅㅓ⑨ㅅㅏ⑨
ㄱㅕᆼㅈㅐᆼㅈㅏ⑨
##ㅅㅜᆫㅇㅟ⑨
##ㄱㅡ⑨ㄹㅣ⑨
ㅅㅏ⑨ㄹㅛ⑨
ㅅㅜ⑨ㅍㅣᆯ
ㅌㅗᆼㅇㅕᆼ
ㄹㅣ⑨ㅅㅡ⑨
ㅈㅓᆼㅁㅗᆼ
ㅋㅗᆫㅅㅔᆸㅌㅡ⑨
ㅇㅗ⑨ㅋㅔ⑨
ㄱㅛ⑨ㅈㅐ⑨
##ㅇㅣᆫㅌㅡ
ㅍㅡ⑨ㄹㅗ⑨ㅅㅔ⑨ㅅㅡ⑨
ㅎㅏᆼㅎㅐ⑨
ㄷㅗᆼㅎㅗ⑨
ㅎㅜ⑨ㅂㅗ
ㅈㅓᆼㅈㅓᆫ
ㅈㅣᆫㅈㅣ⑨ㅎㅏ⑨
ㅈㅐ⑨ㄱㅓᆫ
ㅋㅐᆯㄹㅣ⑨ㅍㅗ⑨
ㅈㅣᆯㅌㅏ⑨
##ㅌㅜ⑨ㅈㅏ⑨ㅈㅡᆼㄱㅝᆫ
ㄷㅐ⑨ㅈㅓ
ㅈㅏ⑨ㅇㅏ⑨ㄴㅐ⑨
ㅍㅡ⑨ㄹㅐᆫㅊㅏ⑨ㅇㅣ⑨
ㅈㅓᆫㄹㅑ
ㅈㅜᆼㅎㅏᆨ
ㅇㅜᆫㅂㅏᆫ
ㅇㅕᆫㅅㅜ⑨ㅇㅝᆫ
ㅅㅔ⑨ㅅㅜ⑨
ㅅㅗ⑨ㅅㅓᆯㄱㅏ⑨
ㄱㅗᆼㅌㅗᆼㅈㅓᆷ
ㅈㅣ⑨ㅇㅗᆨ
ㄱㅓ⑨ㄲㅜ⑨
##ㅁㅣᆨ
ㅅㅏᆼㅅㅣ⑨
ㅇㅏ⑨ㄹㅡ⑨ㅎㅔᆫ
ㄹㅛ⑨
ㅈㅣ⑨ㅇㅝᆫㅈㅏ⑨
ㅈㅓᆸㅈㅓᆫ
ㅋㅓᆫㅌㅔ⑨ㅇㅣ⑨ㄴㅓ⑨
##ust
ㄱㅗ⑨ㄴㅏᆫ
ㄱㅛ⑨ㅇㅑᆼ
ㅇㅏᆷㅅㅣ⑨
ㅋㅣᆯㄹㅗ⑨
ㅁㅐ⑨ㄱㅣ⑨
ㅇㅣᆫㅁㅜᆫㅎㅏᆨ
ㅋㅡ⑨ㄹㅜ⑨ㅈㅡ⑨
ㄱㅣ⑨ㄹㅣ⑨
ㅂㅡᆯㄹㅗ⑨ㄱㅡ⑨
ㅈㅓ⑨ㄹㅓᆫ
ㅊㅔ⑨ㅇㅠᆨㄱㅘᆫ
##ㄹㅗ⑨ㅇㅜᆷ
ㄷㅏ⑨ㅇㅣ⑨ㅇㅓ⑨ㅌㅡ⑨
ㅊㅏᆫㅂㅏᆫ
ㅁㅣ⑨ㅇㅛᆼ
ㅊㅣ
ㅂㅏᆨㅌㅏᆯ
##ㄷㅐ⑨ㄱㅣ⑨
ㅂㅐᆨㅁㅏᆫ
ㅂㅜ⑨ㅇㅣᆷ
##ㅍㅏ⑨ㅇ
1986
po
ㅇㅢ⑨ㅇㅢ⑨
##ㄴㅗ⑨ㄷㅗᆼ
ㅇㅗᆫㅌㅗᆼ
ㅇㅏᆯㄹㅔᆨ
ㅈㅏᆼㄱㅓ⑨ㄹㅣ⑨
ㅁㅗ⑨ㅎㅓᆷ
ㄹㅣᆸ
dj
ㄱㅗ⑨ㅊㅜ⑨
ㅅㅏ⑨ㅈㅔ⑨
ㄱㅗᆼㄹㅗ⑨
##ㅋㅏ⑨ㄹㅏᆨ
ㅈㅓᆨㄱㅕᆨ
ㅅㅣᆯㅇㅡᆫ
##ㅇㅘ⑨ㅈㅜ⑨
ㅁㅓ⑨ㄹㅣ⑨ㅋㅏ⑨ㄹㅏᆨ
##ㅇㅣᆯㄹㅣ⑨
ㅇㅓᆯㄹㅡᆫ
##ㅎㅏ⑨ㅇㅜ⑨ㅅㅡ⑨
ㄴㅏᆨㄱㅘᆫ
ㄹㅔ⑨ㅅㅡ⑨ㅌㅗ⑨ㄹㅏᆼ
ㅇㅓ⑨ㅅㅓᆫ
ㄷㅐ⑨ㅅㅜ⑨
ㄴㅡᆫㄷㅏ⑨
ㄷㅏ⑨ㅊㅐ⑨
##ㄴㅏᆼ
ㅍㅗᆷㅍㅔ⑨ㅇㅣ⑨
ㄱㅏ⑨ㅅㅔ⑨
ㅍㅕᆼㄹㅗᆫㄱㅏ⑨
ㅇㅔ⑨ㅋㅗ⑨
ㅁㅗᆯㄷㅜ⑨
##ᇀㅇㅣ⑨
ㄱㅣ⑨ㅈㅏ
##ㄷㅓᆲ
ㄱㅘ⑨ㅌㅐ⑨
ㄱㅡᆯㅆㅣ⑨
ㅌㅓᆯㅇㅓ⑨ㄴㅗᇂ
ㅇㅖ⑨ㅇㅓᆫ
ㅈㅓᆫㅅㅣ⑨ㅈㅏᆼ
ㄱㅡ⑨ㄹㅐᆫㄷㅡ⑨
ㅎㅜ⑨ㅂㅏᆫㄱㅣ⑨
ㅇㅏᆯㅋㅗ⑨
ㄱㅣ⑨ㅈㅐ⑨ㅂㅜ⑨
ㅅㅣᆯㅅㅡᆸ
ㅋㅏᆯㄹㅓᆷ
ㅍㅗ⑨ㅌㅡ⑨ㅍㅗᆯㄹㅣ⑨ㅇㅗ⑨
##ㄹㅖ
ᆯㅈㅣ
ㅎㅏᆫㅇㅡᆫ
ㅇㅏᆫㅎㅢ⑨ㅈㅓᆼ
ㅇㅏᆨㅁㅏ⑨
ㅌㅗᆼㅈㅣ⑨
##ㅊㅣ⑨ㄱㅣ⑨
ㅇㅔᆨ
ㅇㅓ⑨ㅇㅛ⑨
ㄱㅏᆷㄷㅗᆨㅇㅝᆫ
lpg
##ㅂㅏ⑨ㄱ
ㅇㅜ⑨ㅋㅡ⑨ㄹㅏ⑨ㅇㅣ⑨ㄴㅏ⑨
##ㅂㅔᆫㅅㅕᆫ
ㅇㅝᆫㅅㅜ⑨
ㅇㅔᆫㅈㅣ⑨ㄴㅣ⑨ㅇㅓ⑨
ㅇㅟ⑨ㅎㅓᆫ
ㅇㅠ⑨ㅅㅣᆫ
ㅂㅜᆨㅂㅏᆼ
ㅂㅜ⑨ㄷㅗ⑨
ㅌㅔᆯㄹㅔ⑨ㅋㅗᆷ
ㅇㅛᆼㄴㅏᆸ
ㅇㅣᆯㅅㅏᆼㅅㅐᆼㅎㅘᆯ
ㅍㅡ⑨ㄹㅐᆫㅊㅏ⑨ㅇㅣ⑨ㅈㅡ⑨
ㅌㅏᆷㅂㅏᆼ
ㄲㅗᆷㄲㅗᆷㅎㅣ⑨
ㄷㅏᆯㅋㅗᆷ
ㅇㅟ⑨ㅈㅗ⑨
ㅍㅜᆨ
ㅍㅓ⑨ㅍㅗ⑨
ㄷㅐᆨ
ㅊㅣ⑨ㅇㅏᆫ
ㅈㅣᆫㅎㅏ⑨
ㅁㅏ⑨ㅋㅔᆺ
##ㄷㅡ⑨ㄹㅏ⑨ㅇㅣᆫ
ㄷㅗᆼㅁㅜᆫ
ㅈㅗ⑨ㅋㅏ⑨
##ㄱㅜ⑨ㅈㅏᆼ
ㅎㅏᆨㄱㅛ
ㄹㅗᆼ
ㅈㅓᆼㄷㅏᆸ
101
ㅇㅡ⑨ㄹㅓ⑨
ㅈㅓᆫㅅㅏᆫ
##ㅎㅗᆸ
ㅅㅓ⑨ㅂㅓ⑨
ㄹㅕ
ㅇㅣᆯㅉㅣ⑨ㄱㅏᆷㅊㅣ⑨
ㅂㅗᆫㄱㅘᆫ
ㅎㅘᆫㅎㅗ⑨
ㅊㅏᆼㅅㅓᆯ
ㄴㅓᆨㄴㅓᆨ
ㄱㅣᆷㅈㅏᆼ
ㄱㅜᆨㅇㅏᆨ
ㅇㅣᆯㅊㅜᆨ
##ort
ㄸㅗᆨㄸㅗᆨ
ㅍㅓ⑨ㅂㅜᆺ
ㅂㅗ⑨ㅎㅓᆷㄱㅡᆷ
ㅈㅜᆼㅅㅗ⑨ㅎㅕᆼ
ㄴㅏᆸㅊㅣ⑨
ㅍㅡᆯㄹㅐᆫㅌㅡ⑨
ㄱㅗᆼㅍㅛ⑨
ㅋㅐᆯㄹㅣ⑨ㅍㅗ⑨ㄴㅣ⑨ㅇㅏ⑨
ㄴㅏ⑨ㄴㅗ⑨
ㅎㅐᆼㅈㅓᆼㄱㅘᆫ
ᆫㄱㅏ⑨ㅇㅛ
ㄴㅗ⑨ㄹㅏᇂ
ㄱㅚ⑨ㄹㅗᆸㅎㅣ⑨
##ㅁㅓᆫㅅㅡ⑨
ㅍㅜᆼㅇㅛ⑨
ㅇㅢ⑨ㄹㅛ⑨ㅈㅣᆫ
ㅇㅣ⑨ㄱㅕᆼ
ㅂㅣ⑨ㄷㅏᆫ
ㅇㅗ⑨ㅅㅡ⑨ㅌㅡ⑨
ㄷㅜ⑨ㄹㅡ⑨
ㅇㅠ⑨ㄱㅘᆫ
ㅇㅓᆷㅈㅓᆼ
ㅅㅏᆷㅅㅓᆼㅁㅜᆯ
ㅌㅐ⑨ㄱㅡᆨㄱㅣ⑨
ㅈㅜᆯㅈㅜᆯ
ㄷㅐ⑨ㄷㅗᆼ
ㄴㅠ⑨ㅈㅣᆯ
lte
ㄷㅗ⑨ㅇㅘ⑨ㅈㅜ⑨
ㄴㅐ⑨ㅈㅐ⑨
ㅁㅜ⑨ㄷㅏᆫ
ㅌㅡᆨㄱㅏᆼ
##ㅂㅕᇀ
ㅈㅓᆼㅅㅣ⑨
ㅅㅗ⑨ㅇㅐᆨ
##ㄱㅓᆯㅇㅣ⑨
ㅎㅐᆼㅅㅏ⑨ㅈㅏᆼ
##ㅆㅓᆨ
ㅂㅏᆫㅅㅏ⑨
ㄴㅔᆺㅉㅐ⑨
ㅈㅓᆫㄷㅐ⑨
ㅎㅏᆸㅊㅏᆷ
ㅂㅏ⑨ㅇㅣ⑨ㄷㅡᆫ
ㄷㅡᆼㅈㅐ⑨
ㄱㅘᆫㅅㅡᆸ
ㅌㅏᆫㅌㅏᆫㅎㅏ⑨
##ㅈㅓ⑨ㅅㅡ⑨
ㅅㅏᆫㅎㅏᆨ
ㅂㅜᆨㅎㅏᆫㄱㅜᆫ
ㅎㅠ⑨ㅇㅣᆯ
ㅊㅓᆯㅎㅏᆨㅈㅏ⑨
ㅂㅐ⑨ㄱㅜ⑨
ㄱㅏᆨㅈㅣ⑨
ㅇㅣᆯㅂㅗ
ㅇㅏᆨㄱㅣ⑨
##ㄷㅓ⑨ㅅㅡ⑨
ㄴㅜᆫㄴㅗᇁㅇㅣ⑨
ㄱㅕᆨㅎㅏ⑨
ㅊㅜᆼㄴㅏᆷㄷㅗ⑨
##ence
ㅎㅕᆫㄷㅐ⑨ㅈㅏ⑨ㄷㅗᆼㅊㅏ⑨
ㅅㅏᆼㅌㅐ
ㄷㅏᆫㄱㅏ⑨
ict
ㅁㅜᆯㅇㅓ⑨ㅂㅗ⑨
ㅎㅐ⑨ㄴㅐ⑨
ㅇㅠ⑨ㅂㅣ⑨
ㅁㅗ⑨ㅎㅗ⑨
##ㄴㅏᆷㄷㅗ⑨
##ㅇㅡᆫㅅㅐᆨ
ㅇㅣᆸㄱㅏᆨ
##ㅂㅏ⑨ㅇㅣ⑨ㄹㅓ⑨ㅅㅡ⑨
ㅅㅣᆫㅎㅏᆫㅇㅡᆫㅎㅐᆼ
ㄱㅘ⑨ㅌㅐ⑨ㄹㅛ⑨
ㅇㅣ⑨ㅈㅣ⑨
ㄷㅏᆼㄹㅗᆫ
ㅍㅏ⑨ㅎㅐᆼ
ㄷㅣ
ㅂㅐᆫ
##ㅇㅏᆫㅈㅓᆫ
ㅇㅓ⑨ㅇㅑ⑨ㅈㅣ⑨
##ㅇㅡᆨ
ㅈㅏ⑨ㄱㅏ⑨
ㄷㅐ⑨ㅇㅣᆸ
ㅇㅕᆺㅂㅗ⑨
ㅎㅏ⑨ㅂㅓ⑨
ㅇㅕᆫㅇㅏᆫ
ㅊㅗᆼㅊㅔ⑨
ㅈㅜᆼㅅㅔ⑨
170
1985
##ㅈㅗ⑨ㄹㅣ⑨
ㅅㅏ⑨ㅇㅑᆼ
ㄱㅏᆼㅅㅓᆼ
ㅅㅓᆼㅂㅓᆷㅈㅚ⑨
##ㄴㅣᆫ
ㅌㅏᆷㅅㅐᆨ
ㄱㅣᆷㅁㅕᆼ
ㅂㅐᆨㅇㅣᆫ
ㄱㅓ⑨ㄲㅜ⑨ㄹㅗ⑨
ㅊㅓᆫㅈㅜ⑨ㄱㅛ⑨
ㅇㅣᆼㄱㅡᆯㄹㅐᆫㄷㅡ⑨
ㄴㅏᆷㅂㅜᆨㅎㅏᆫ
ㅅㅡᆼㄱㅖ⑨
ㅆㅏ⑨ㅇㅣ⑨
ㅂㅗᆨㅈㅔ⑨
ㄱㅏ⑨ㄷㅏᆷ
ㄱㅡᆸㅎㅣ⑨
ㅅㅣ⑨ㅈㅣᆫㅍㅣᆼ
ㅅㅓ⑨ㅈㅓᆼ
ㅇㅜ
ㅎㅏᆸㄱㅖ⑨
ㄷㅟ⑨ㄸㅏ⑨ㄹㅡ⑨
ㄴㅏ⑨ㅁㅏ⑨
ㄷㅐᆷ
ㅂㅐ⑨ㅅㅗᆼ
ㅇㅛᆨㅅㅓᆯ
ㅅㅏᆷㄱㅏᆨ
ㅁㅗ⑨ㄷ
ㄷㅓ⑨ㅁㅣᆫㅈㅜ⑨
ㄹㅕ⑨ㄷㅓᆫ
ㅎㅠ⑨ㅇㅑᆼ
ㄷㅏ⑨ㄱㅏᆨ
ㅇㅑᆨㅈㅓᆼ
##ㅌㅔ⑨ㅇㅣᆯ
##ㄱㅗ⑨ㅅㅗᆨㄷㅗ⑨ㄹㅗ⑨
ㅎㅗ⑨ㄹㅡ⑨ㅁㅗᆫ
ㅁㅜᆫㅎㅓᆫ
##ㅅㅏ⑨ㄴ
ㄷㅚ
ㄱㅡᆸㄹㅏᆨ
ㅅㅣ⑨ㅅㅓᆯㅁㅜᆯ
##ㅂㅔ⑨ㅇㅣ⑨ㅌㅓ⑨
##ㄴㅗ⑨ㅇㅣ⑨
ㅈㅏ⑨ㅅㅏ⑨
ㅎㅕᆫㄷㅐ
ㅅㅏ⑨ㅈㅚ⑨
ㅈㅓᆼㅁㅜᆫ
ㅇㅕ⑨ㄷㅓᆲ
ㄷㅐ⑨ㄱㅜ⑨ㄱㅕᆼ
ㅁㅏᆫㅇㅣᆫ
ㅎㅘᆫㅇㅝᆫ
ㅅㅣᆫㅅㅏᆼ
##ly
ㅍㅗ⑨ㅇㅣᆫㅌㅡ
ㅇㅠ⑨ㅎㅏᆫ
##20
ㄴㅗᆼㅂㅜ⑨
ㅊㅣᆸ
ㄱㅣ⑨ㅇㅓ⑨
ㅌㅗᆨㅌㅗᆨ
##ㅇㅣᆫㅁㅣᆫ
ㄱㅓ⑨ㅅㅡ⑨ㄹㅡ⑨
##ㅇㅕᆫㄱㅜ⑨ㅅㅗ⑨
ㅎㅜᆯㅉㅓᆨ
##man
ㅅㅣ⑨ㅅㅗᆨ
ㄴㅐ⑨ㅈㅓᆼㅈㅏ⑨
ㅊㅓᆫㅈㅏᆼ
ㄱㅓ⑨ㅅㅣᆯ
ㅅㅓᆯㄹㅔ⑨
ㅁㅏᆫㅈㅜ⑨
ㅅㅜᆫㅎㅚ⑨
ㅈㅓᆫㅇㅝᆯ
ㅅㅏᆼㄱㅗ⑨
ㄱㅗᆼㅁㅜ⑨
ㅍㅏ⑨ㄱㅗ⑨ㄷㅡᆯ
186
ㅍㅡᆯㄹㅏ⑨ㅅㅡ⑨ㅌㅣᆨ
ㅅㅜ⑨ㄱㅏᆷ
ㄷㅡ⑨ㄹㅗᆫ
ㅇㅐᆼㅋㅓ⑨
ㅈㅜᆼㅇㅏᆼㄷㅏᆼ
ㅎㅜᆺ
ㅇㅗ⑨ㅅㅏᆫ
ㅇㅕᆫㅂㅣ⑨
ㄷㅐ⑨ㄷㅏᆷ
ㅅㅗ⑨ㅅㅣᆨㅌㅗᆼ
ㅇㅕᆫㄱㅜ⑨ㅈㅏ⑨
ㅅㅏ⑨ㅍㅛ⑨
ㅅㅏ⑨ㄱㅓ⑨ㄹㅣ⑨
ㅈㅏᆼㄹㅖ⑨ㅅㅣᆨ
ㅇㅏ⑨ㅇㅣᆯㄹㅐᆫㄷㅡ⑨
##ㅈㅓᆼㅂㅗ⑨
ㅇㅕᆫㅍㅕᆼㄱㅠᆫ
##ㄹㅕ⑨ㅈㅜ⑨
oecd
06
ㅅㅏ⑨ㄱㅟ⑨
ㅁㅔ⑨ㄷㅏᆯ
ㅇㅏ⑨ㅇㅣ⑨ㅅㅡ⑨
##ㅅㅓ⑨ㄹㅣ⑨
ㅁㅕᆫㅁㅗ⑨
ㅈㅓᆫㄹㅖ⑨
ㄷㅏᆼㅎㅕᆸ
ㅇㅝᆫㅅㅏᆫ
ㄱㅕᆯㅎㅏᆷ
ㄱㅓᆯㄹㅣᆷ
ㄱㅗ⑨ㅈㅏᆨ
ㄱㅛ⑨ㄱㅏᆷ
ㄱㅣᆷㅈㅜ⑨
##ㅌㅏ⑨ㄹㅣ⑨
ㄱㅡᆸㅅㅓᆼ
ᆫㄷㅏᆫ
ㅇㅏᆨㅈㅐ⑨
ㅅㅣᆯㅁㅕᆼ
ㅍㅗ⑨ㄹㅗ⑨
ㅅㅓᆨㅅㅏ⑨
##70
##ㅈㅏᆯ
ㄱㅏ⑨ㄱㅕᆯ
ㅇㅓ⑨ㅅㅐᆨ
ㅈㅜ⑨ㅊㅜᆨ
2021
ㄲㅜᆶ
ㅇㅣ⑨ㅇㅑ⑨ㄱㅣ
##ㅈㅜ⑨ㅇㅓᆯ
ㅇㅓᆸㅅㅗ⑨
ㄱㅓᆷㄱㅓ⑨
ㅈㅣ⑨ㅈㅏᆼ
ㄴㅏ⑨ㄹㅡ⑨
ㅇㅠ⑨ㄴㅡᆼ
##ㅌㅣ⑨ㅅㅡ⑨
ㄲㅡᆯㅇㅓ⑨ㄴㅐ⑨
350
ㅈㅔ⑨ㅂㅏᆯ
ㅊㅜᆼㄷㅗᆼ
ㄷㅗᆯㄹㅕ⑨ㅈㅜ⑨
##ㅁㅏ⑨ㅇㅣ⑨
ㅂㅏᆫㄷㅡᆼ
ㅈㅔ⑨ㄹㅗ⑨
ㅇㅔᆯㄹㅣ⑨ㅌㅡ⑨
ㄱㅏ⑨ㅊㅜᆨ
ㅈㅏᆫㅊㅣ⑨
##ㅊㅜᆨㄱㅜ⑨
ㅇㅏᆯㅋㅗ⑨ㅇㅗᆯ
ㄴㅏ⑨ㅇㅏ⑨ㅈㅣ⑨
lgㅇㅠ⑨
ㅂㅏᆯㅅㅗᆼ
ㄱㅏ⑨ㄴㅡᆷ
##ㅅㅕ⑨ㅊㅡ⑨
ㅋㅓᆫㅌㅡ⑨ㄹㅗᆯ
ㅅㅓᆼㅈㅏᆼㅅㅔ⑨
ㅇㅗᆫㅅㅣᆯㄱㅏ⑨ㅅㅡ⑨
ㅅㅐᆼㄱㅏᆨㄴㅏ⑨
ㅎㅏ⑨ㅎㅑᆼ
ㄱㅏᆷㅌㅏᆫ
ㅎㅐᆺㅅㅏᆯ
ㅈㅣᆫㄷㅗ⑨
ㅎㅡ⑨ㄹㅣ⑨
ㅍㅣ⑨ㄹㅕᆨ
ㅇㅣ⑨ㅇㅓ⑨ㅅㅓ⑨
ㅅㅓᆫㄱㅓ⑨ㅇㅣᆫ
ㅎㅔ⑨ㅇㅏ⑨ㄹㅣ⑨
##ㅍㅗ⑨ㅊㅡ⑨
ㄱㅣ⑨ㅇㅓᆸㄱㅏ⑨
ㅂㅐᆼ
ㅊㅣ⑨ㅁㅣᆯ
##ㅅㅓᆼㄱㅣ⑨
ㄱㅓᆫㄴㅡ⑨
ㅇㅔ⑨ㅇㅣ⑨ㅅㅡ⑨
ㅂㅕᆫㄹㅗᆫ
##qu
ㅇㅣ⑨ㅈㅣᆫ
man
ㅂㅣ⑨ㅁㅕᆼ
ㄷㅐ⑨ㄱㅜ⑨ㄱㅕᆼㅂㅜᆨ
##ith
ㅈㅔ⑨ㅂㅓᆸ
ㅇㅣᆸㅅㅜ⑨
ㅍㅗᆯㄹㅏᆫㄷㅡ⑨
ㅅㅐᆼㅅㅓᆫ
ㅍㅐ⑨ㄱㅝᆫ
ㅎㅣᆯㄹㅣᆼ
ㅁㅜᆯㄹㅣ⑨ㅊㅣ⑨
ㅈㅜ⑨ㄷㅜᆫ
ㅂㅗᆼㅅㅙ⑨
ㄱㅣᆷㅇㅕᆫㅇㅏ⑨
ㅇㅕᆫㄱㅗ⑨
ㄱㅕᆼㅎㅑᆼㅅㅣᆫㅁㅜᆫ
ㅈㅗ⑨ㄹㅠ⑨
##ㄹㅔ⑨ㅅㅡ⑨
ㅈㅏ⑨ㅂㅣ⑨
ㄹㅣ⑨ㄷㅡᆷ
cont
ㅍㅡᆯㄹㅔ⑨ㅇㅣ⑨ㅇㅗ⑨ㅍㅡ⑨
ㅅㅏᆼㅎㅐ⑨
##ㄷㅡᆮ
ㄱㅓ⑨ㅍㅜᆷ
##ond
ㅈㅣ⑨ㄹㅜ⑨
ㅁㅔ⑨ㄹㅣ⑨
##ㄱㅔ⑨ㅇㅣ⑨
ㅌㅏᆯㅌㅚ⑨
ㅂㅜᆫㅅㅜ⑨
ㅅㅡ⑨ㅇㅟᆼ
ㅇㅕᆼㅁㅜᆫ
ㅊㅜ⑨ㅎㅜ⑨
ㅃㅐ⑨ㄴㅗᇂ
ㅌㅓᆺㅂㅏᇀ
ㅅㅏᆷㅋㅣ⑨
ㅅㅗᆫㅂㅏ⑨ㄷㅏᆨ
ㅁㅏ⑨ㅇㅣᆯ
ㅁㅣ⑨ㄷㅡ⑨
ㄱㅓ⑨ㅂㅜᆨ
ㅅㅣᆯㅅㅏᆼ
ㅇㅚ⑨ㅊㅜᆯ
##ㅅㅠᆯ
##ㅌㅜ
ㄴㅏ⑨ㅊㅣ⑨
ㅇㅣᆫㅊㅓ
ㅊㅏᆼㅇㅓᆸㅈㅏ⑨
ㅁㅗ⑨ㅅㅡ⑨ㅋㅡ⑨
ㅍㅗ⑨ㅈㅣ⑨
sy
ㄴㅏᆩㅅㅣ⑨
ㅇㅕᆩ
ㅎㅏ⑨ㄴㅏᆷ
ㅂㅗ⑨ㄹㅡᆷ
ㄱㅕᆯㅅㅓᆫ
ㅌㅐᆨㅂㅐ⑨
ㅇㅚ⑨ㄱㅛ
ㅇㅜ⑨ㅁㅜᆯ
##ㅁㅐ⑨ㅁㅐ⑨
ㅎㅕᆸㅎㅚ
ㅁㅗᆯㄹㅕ⑨ㄷㅡᆯ
ka
ㄱㅖ⑨ㄹㅏᆫ
##iver
ㅂㅏᆨㅈㅣᆫ
##ㅅㅔ⑨ㅇㅣ⑨
##ㅌㅏᆫㅅㅗ⑨
##ㅌㅓᆷ
ㄹㅗ⑨ㅅㅓ
ㅁㅏ⑨ㅊㅏᆯ
##ㄷㅗ⑨ㅇㅓ⑨
ㅈㅣ⑨ㅊㅣᆼ
ㅇㅣᆸㄱㅓᆫ
##ng
ㅍㅗᆷㅍㅔ⑨ㅇㅣ⑨ㅇㅗ⑨
ㅈㅏᆼㄹㅐ⑨
##ㄴㅏᆫㅎㅣ⑨
ㄲㅐ⑨ㅇㅜ⑨
##ㅈㅓ⑨ㅇㅜ⑨
ㅇㅕᆫㅍㅕᆼㄷㅗ⑨
ㅈㅗᆼㄱㅕᆯ
ㄱㅜᆮㅎㅣ⑨
ㄷㅐ⑨ㄹㅣ⑨ㅇㅣᆫ
ㅎㅕᆸㅈㅓ
ㄹㅓᆨ
ㅅㅏᆼㅍㅜᆷㄱㅝᆫ
##ㄴㅠᆷ
ㅇㅔ⑨ㄷㅡ⑨
ㅋㅜ⑨ㄷㅔ⑨
##ㅍㅔᆯ
ㄱㅣ⑨ㅂㅗᆫㅅㅗ⑨ㄷㅡᆨ
ㅈㅜᆼㅎㅘ⑨
ㄱㅘᆫㄴㅐ⑨
pol
ㅂㅏᆼㅁㅜᆫㄱㅐᆨ
##ain
ㅅㅣᆫㅈㅗ⑨
ㄴㅐᆼㅈㅓᆫ
ㄱㅓᆷㅈㅓᆼ
##ㅅㅣ⑨ㄷㅐ⑨
ㄱㅓᆯㄹㅣᆷㄷㅗᆯ
ㅈㅓᆫㅇㅕᆷ
ㄷㅏᆫㅁㅏᆯㄱㅣ⑨
ㄱㅗᆼㅂㅗ⑨
ㄱㅏᆨㄱㅖ⑨
ㄱㅏ⑨ㅁㅜᆷ
ㄱㅡ⑨ㄹㅣᆸ
ㅎㅏᆨㄱㅡᆸ
ㅁㅏ⑨ㅇㅣ⑨ㅋㅡᆯ
##ㅂㅏᆨㅁㅜᆯㄱㅘᆫ
ㅎㅠ⑨ㄱㅔ⑨
ㄱㅏᆼㄱㅜᆨ
ㄱㅐ⑨ㅎㅕ
##ㅌㅏ⑨ㄹㅡ⑨
ㄴㅐ⑨ㅍㅗ⑨
ㅅㅐᆼㄱㅏ
ㅅㅣᆯㄹㅣ⑨ㅋㅗᆫ
ㅌㅡ⑨ㄹㅔ⑨
ㅅㅗ⑨ㅍㅗᆨ
##ㅁㅏ⑨ㅋㅔᆺ
ㄱㅝᆫㅇㅕᆼ
##ㄷㅏ⑨ㄷㅡᆷ
##ㅅㅏᆯㅇㅣ⑨
ㄱㅘᆫㄹㅕᆫㅈㅏ⑨
ㄷㅏᆫㅊㅔ
ㄱㅣᆷㅅㅓᆼㅌㅐ⑨
ㅃㅓᆫㅎㅏ⑨
ㅇㅡᆷㅅㅣᆨㅁㅜᆯ
ㅁㅏᆯㅁㅣ⑨
##ㅅㅗ⑨ㅇㅕᆫ
ㅊㅜᆼㄷㅏᆼ
ㅁㅣ⑨ㅇㅑᆫ
ㅈㅣ⑨ㄱㅡᆨㅎㅣ⑨
ㄷㅗᆯㅇㅣ⑨
ㅇㅢ⑨ㅅㅏ⑨ㅅㅗ⑨
ㄴㅗ⑨ㅎㅚ⑨
ㅋㅗ⑨ㅁㅣ⑨ㄷㅣ⑨
ㅊㅜᆨㅅㅏ⑨
##ㅏ⑨ㅇㅣᆫㄷㅡ⑨
ㄱㅣᇁㅅㅜᆨ
ㅅㅣᆫㅈㅏ⑨
ㅂㅗᆫㅂㅗ⑨
ㄴㅗ⑨ㅎㅘ⑨
ㅇㅣ⑨ㅅㅜᆫㅅㅣᆫ
##ㅇㅔ⑨ㄹㅡ⑨
ㄷㅐ⑨ㅈㅜᆼㄱㅛ⑨ㅌㅗᆼ
ㄱㅗᆼㅁㅕᆼ
ㅇㅝᆫㄷㅗᆼ
ㅁㅏ⑨ㄹㅜ⑨
ㅈㅗ⑨ㅈㅏᆼ
ㄱㅗ⑨ㄷㅗᆨ
##ㅅㅛ⑨ㅍㅣᆼ
ㅂㅣ⑨ㅌㅡᆯ
ㅎㅏ⑨ㄹㅏᆨㅅㅔ⑨
ㄱㅗᆼㅊㅓᆼ
ㄱㅐ⑨ㅇㅝᆫ
ㅅㅜ⑨ㄱㅗ⑨
ㅌㅗ⑨ㅎㅏ⑨
##ㅎㅞ⑨
ㅇㅑᆨㅎㅘ⑨
lgㅇㅠ⑨ㅍㅡᆯㄹㅓ⑨ㅅㅡ⑨
em
ㅂㅗᆯㄱㅓ⑨ㄹㅣ⑨
ㄱㅐᆨㅅㅣᆯ
ㅎㅣᆷㄱㅕᆸ
ㄴㅠ⑨ㅈㅣᆯㄹㅐᆫㄷㅡ⑨
ㅂㅗ⑨ㄹㅠ⑨
ㅋㅓ⑨ㅍㅡᆯ
##ㅁㅏᇂ
ㅅㅏᆼㄱㅡᆸ
##tn
ㅈㅔ⑨ㅊㅓᆯ
##ㄱㅗᆼㅅㅏ
ㄱㅡᆷㅇㅕᆫ
ㄴㅗ⑨ㄱㅗᆯ
comm
ㅇㅏ⑨ㅈㅜᆷ
ㄱㅏᆫㅅㅣᆫ
ㅍㅓ⑨ㅍㅗ⑨ㅁㅓᆫㅅㅡ⑨
ㅂㅜ⑨ㅇㅓ
ㄱㅘᆫㄱㅖ
##ㅆㅓ
##ong
ㅇㅏ⑨ㄱ
##ory
ㄷㅐ⑨ㅍㅣ⑨
ㄱㅚ⑨ㅁㅜᆯ
ㅂㅗᆫㅅㅓᆼ
##ㅂㅏ⑨ㅇㅣ⑨ㅌㅡ⑨
ㅇㅔ⑨ㅇㅓ⑨ㅋㅓᆫ
##ㄴㅠ⑨ㅇㅓᆯ
04
ㄱㅕᆷㅅㅗᆫ
ㅇㅣ⑨ㅅㅏᆫㄱㅏ⑨ㅈㅗᆨ
ㅈㅐᆼㅇㅣ⑨
ㅇㅣ⑨ㅎㅕᆫ
ㅅㅓᆯㅅㅏ⑨
ㅎㅏᆫㅈㅏ⑨
ㅅㅓᆼㄱㅠᆫ
ㅈㅏᆼㅇㅢ⑨
me
ㅁㅔ⑨ㅇㅣᆯ
ㅅㅓᆼㅇㅝᆫ
ㅊㅜᆯㄹㅕᆨ
ㅁㅜᆫㅇㅖ⑨
ㅇㅏ⑨ㄹㅡ⑨ㅎㅔᆫㅌㅣ⑨ㄴㅏ⑨
ㅇㅣᆫㅈㅔ⑨
ㅂㅣ⑨ㅂㅣ⑨
ㄱㅗ⑨ㅈㅗᆼ
ㅁㅣ⑨ㄹㅐ⑨ㅇㅔ⑨
ㅅㅔ⑨ㄱㅖ⑨ㄷㅐ⑨ㅈㅓᆫ
##ㄷㅔ⑨ㅅㅡ⑨
ㅎㅕᆫㄱㅘᆫ
ㅇㅠ⑨ㅁㅓ⑨
ㄴㅓᆷㅇㅓ⑨ㅈㅣ⑨
ㅃㅗᆷ
ㅅㅡ⑨ㅍㅔᆨ
ㅂㅣ⑨ㄴㅣᆯ
ㅇㅕ⑨ㅎㅏᆨㅅㅐᆼ
ㅍㅗ⑨ㅂㅜ⑨
ㅌㅐ⑨ㅂㅡᆯㄹ
ㅇㅓ⑨ㅇㅣ⑨
##ㅗᆺㅁㅜᆯ
ㅃㅜ⑨
ㅅㅣ⑨ㅇㅑ⑨
ㅍㅔ⑨ㅁㅣ⑨
ㅅㅣᆯㅈㅐ⑨
ㅊㅔᆯ
ㄱㅛ⑨ㅅㅓᆸㄷㅏᆫㅊㅔ⑨
ㅅㅏᆫㅂㅜᆯ
ㅎㅏᆯㄹㅣ⑨
##ㅅㅣ⑨ㅅㅓᆯ
ㅊㅣᆫㅊㅓᆨ
ㄱㅣᆷㅂㅜ⑨ㄱㅕᆷ
ㅅㅡᆯㄹㅗ⑨ㄱㅓᆫ
##erv
ㅁㅣᆫㅅㅗᆨ
ㅅㅗᆫㅎㅡᆼ
ㅁㅐ⑨ㅂㅓᆫ
ㅂㅗ⑨ㄹㅣ⑨
ㅂㅏᆨㅂㅕᆼ
ag
ㅅㅣᆫㅇㅝᆫ
ㅁㅏ⑨ㅇㅜᆫㄷㅡ⑨
ㄴㅏᆷㄱㅕᆼ
ㅍㅏ⑨ㄷㅗᆼ
ㅇㅣᆸㅁㅜᆫ
ㅁㅏᆽㅂㅜᇀ
ㅅㅓᆼㄱㅠᆫㄱㅘᆫ
##ㅊㅓᆫㄱㅜᆫ
ㄱㅜᆨㅇㅚ⑨
ㅅㅣ⑨ㅎㅡᆼ
ㅁㅜ⑨ㅅㅜ⑨
ㅎㅗ⑨ㅍㅕᆼ
ㄱㅕᆼㄱㅏᆷ
ㅎㅘᆯㅉㅏᆨ
ㅈㅣᆫㅌㅗᆼ
gdp
ㄱㅘ⑨ㄷㅏ⑨
##ㅂㅏᆯㅈㅓᆫ
ㄱㅓᆷㅊㅜᆯ
ㅁㅏ⑨ㅇㅣ⑨ㄴㅓ⑨ㅅㅡ⑨
ㅈㅏ⑨ㅊㅐᆨ
ㅇㅢ⑨ㅅㅏ⑨ㅅㅗ⑨ㅌㅗᆼ
ㄱㅣᆷㅎㅖ⑨
ㅇㅣᆸㅅㅓᆼ
ㄱㅓ⑨ㅊㅟ⑨
ㄱㅐ⑨ㄱㅐ⑨ㅇㅣᆫ
ㅇㅝ⑨ㅌㅓ⑨
##ㅅㅏ⑨ㅅㅡ⑨
ㅁㅏᆫㄹㅛ⑨
ㅁㅏᆯㄱㅣ⑨
##ㅅㅡ⑨ㅍㅣ⑨
ㅌㅐ⑨ㄱㅝᆫ
ㅎㅚ⑨ㅅㅐᆼ
ㅍㅜ
ㅇㅕ⑨ㄹㅡᆷㅊㅓᆯ
ㄱㅛ⑨ㄷㅐ⑨
##ㄱㅘᆼㅇㅕᆨㅅㅣ⑨
ㄸㅏ⑨ㄹㅏ⑨ㅇㅗ⑨
ㅊㅜ⑨ㄱㅕᆼㅇㅏᆫ
ㅈㅓᆫㅈㅐ
ㄱㅜᆨㄱㅗ⑨
ㅈㅓᆨㅅㅓᆼ
skㅌㅔᆯㄹㅔ⑨ㅋㅗᆷ
##ack
ㅈㅐ⑨ㅋㅣᆺ
ㄱㅡ⑨ㅈㅔ⑨
ㅍㅠ⑨
ㅊㅜᆼㄱㅗ⑨
##ㄴㅣ⑨ㅅㅡ⑨ㅌㅡ⑨
ㅊㅐ
ㄱㅣᆷㄱㅕᆼㅅㅜ⑨
##ㅌㅔ⑨ㅇㅣ⑨ㅅㅕᆫ
ㅅㅗᆫㅈㅏᆸ
you
stx
ㅈㅔ⑨ㅇㅏᆸ
ㅎㅚ⑨ㅎㅘ⑨
ㅃㅗᆷㄴㅐ⑨
dna
1984
ㅇㅣᆸㄷㅐ⑨
ㅎㅕᆼㅍㅕᆼ
ㅈㅡᆼㅎㅜ⑨
##si
##ㄹㅓᆺ
ㅇㅐ⑨ㅍㅡᆯㄹㅣ⑨
ㅈㅓᆯㅈㅔ⑨
ㄱㅜᆨㅎㅏᆫ
ㄱㅘᆫㅊㅓᆯ
ㅈㅣ⑨ㄱㅓᆷ
ㅇㅠ⑨ㄹㅛ⑨
ㄸㅜ⑨ㄹㅕᆺㅎㅏ⑨
##ㅌㅏ⑨ㅇㅣᆫ
##ㅇㅕᆼㅎㅑᆼ
ㅎㅐᆷ
ㅈㅜᆼㅎㅕᆼ
ㄹㅏ⑨ㅇㅣ⑨ㅌㅡ⑨
ㅁㅗᆯㄹㅏᆨ
ㄱㅏᆼㅎㅗ⑨
ㅈㅐ
ㅁㅐ⑨ㅁㅜᆯ
ㅈㅏ⑨ㅇㅚ⑨
ᆯㅅㅔ
ㅊㅜᆫㅊㅜ⑨
ㅎㅗ⑨ㄱㅏᆷ
1982
ㄱㅗ⑨ㄹㅐ⑨
##ㅋㅔ⑨ㅇㅓ⑨
sw
ㅇㅗᆫㅊㅓᆫ
ㅂㅣ⑨ㅇㅟ⑨
ㅅㅏᆼㅂㅏᆫ
ㅂㅏᆯㅂㅕᆼ
##ㄷㅗᆮ
ㄴㅗᆼㅊㅜᆨ
ㅁㅣᆯㅊㅏᆨ
ㅈㅡᆼㅅㅓᆯ
ㅂㅗᆨㄷㅗ⑨
press
ㅁㅜ⑨ㄴㅢ⑨
ㅅㅡ⑨ㅌㅏ⑨ㅇㅣᆯㄹㅣᆼ
ㄴㅗᆨㅊㅟ⑨
ㅁㅜᆨㅁㅜᆨ
ㅇㅝᆫㅈㅏᆨ
ㅍㅜᆷㄱㅕᆨ
ㅈㅗ⑨ㅅㅗᆨㅎㅏ⑨
ㅅㅓ⑨ㅁㅕᆫ
ㅅㅡᆼㄹㅕ⑨
ㅎㅜ⑨ㅇㅝᆫㄱㅡᆷ
textlinktopend
textlinktopstart
ㅈㅣᆸㅎㅏᆸ
ㅅㅏᆫㅇㅏᆨ
##ㅌㅐᆼ
ㄷㅏᆫㅅㅓ⑨
ㅈㅓᆫㄷㅏᆫ
ㅎㅚ⑨ㅅㅏᆼ
ㅈㅓᆼㅈㅓᆷ
ㅋㅝ⑨ㅌㅓ⑨
ㅈㅣᆨㅅㅗᆨ
ㅎㅏᆼㅅㅗ⑨ㅅㅣᆷ
ㅂㅜ⑨ㅇㅓᆿ
ㅍㅓᆫㄷㅡ
ㅌㅗᆼㄱㅖ⑨ㅊㅓᆼ
ㅅㅡ⑨ㅋㅜᆯ
ㅅㅏᆼㅇㅡᆼ
ㄱㅡᆷㅇㅛ⑨ㅇㅣᆯ
##ㅇㅏ⑨ㄹㅏ⑨
so
ㅇㅑ⑨ㄱㅣ⑨
ㅈㅓᆼㅅㅣᆫㄱㅘ⑨
##ㄷㅗᆼㅇㅝᆫ
ㄱㅐ⑨ㅊㅔ⑨
ㄱㅏᆼㄷㅐ⑨
##ㅡ⑨ㄹㅜᆸ
ㄱㅕᆯㅅㅣᆯ
ㄴㅗᆼㅇㅓ⑨ㅊㅗᆫ
ㅂㅜ⑨ㄹㅓᆸ
ㄱㅣ⑨ㅍㅣ⑨
ㅇㅚ⑨ㅅㅣᆫ
ㅁㅣᆫㅅㅏ⑨
ㅇㅝᆫㅈㅏ⑨ㅈㅐ⑨
ㄹㅗ⑨ㄱㅗ⑨
ㄷㅗᆼㅈㅗ⑨
ㅁㅕᆼㅅㅣᆷ
ㄱㅓᆫㄴㅓ⑨ㄱㅏ⑨
ㄴㅗᆫㅎㅏ⑨
ㅇㅚ⑨ㅅㅣᆨ
ㅅㅏᆷㅅㅓᆼㅁㅜᆯㅅㅏᆫ
ㄹㅣᆯ
##ㅂㅓᆯㅇㅣ⑨
ㅈㅗ⑨ㄱㅡ⑨ㅁㅏᇂ
##ㄹㅜ
ㅌㅏ⑨ㅅㅓᆫ
ㄷㅗᆯㅇㅣ⑨ㅋㅣ⑨
ㅇㅏᆫㅈㅜ⑨
ㅅㅏ⑨ㅎㅚ⑨ㄷㅏᆫㅊㅔ⑨
ㅁㅏ⑨ㄹㅡ⑨ㅋㅡ⑨ㅅㅡ⑨
ㅎㅏ⑨ㄷㅗ⑨ㄱㅡᆸ
ㅊㅐ⑨ㅊㅟ⑨
##ㅐᆫㄷㅡᆯ
ㅇㅚ⑨ㅅㅏᆼ
ㅈㅓᆼㄷㅏᆼㅅㅓᆼ
ㅂㅏ⑨ㄱ
ㄱㅣ⑨ㄹㅑᆼ
ㄱㅏᆯㄹㅏ⑨ㅈㅣ⑨
ㅎㅕᆫㅅㅜ⑨ㅁㅏᆨ
ㅁㅣ⑨ㅇㅑᆫㅁㅏ⑨
##ㅁㅜᆮ
ㅇㅣ⑨ㄴㅏ
ㅇㅘᆼㅅㅣᆯ
textlinkend
textlinkstart
ㅇㅣᆫㄱㅏ⑨
ㅇㅛ⑨ㄱㅓ⑨
ㅎㅜ⑨ㅇㅠ⑨
ㅅㅏ⑨ㅇㅣᆷ
ㅈㅣᆷㅅㅡᆼ
ㅎㅗ⑨ㅇㅢ⑨
ㄷㅐ⑨ㅇㅢ⑨ㅇㅝᆫ
ㅂㅜᆫㅈㅏ⑨
##ㅜ⑨ㅅㅡ⑨
ㅅㅓᆫㅊㅏᆨ
ㅂㅜ⑨ㅅㅏᆫㅅㅣ⑨ㅈㅏᆼ
##ㄹㅓᆼㅇㅣ⑨
ㅁㅏᆨㄴㅐ⑨
ㅂㅏᆨㅌㅐ⑨
ㅇㅏᆨㅇㅢ⑨
ㅅㅓ⑨ㅈㅓᆨ
ㅅㅏ⑨ㅇㅓᆸㅂㅜ⑨
ㄱㅜᆨㅎㅚ⑨ㅂㅓᆸ
ㅇㅕᆯㅎㅡᆯ
ㅇㅣᆯㄱㅜ⑨
ㄴㅐ⑨ㅅㅟ⑨
##ary
ㅅㅜ⑨ㅅㅓ
##ㅂㅓ⑨ㅅㅡ⑨ㅌㅓ⑨
ㄱㅣᆷㄷㅗᆼㅇㅕᆫ
ㅇㅕᆼㅇㅠ⑨
##ㅁㅕᆫㅈㅓᆨ
ㅊㅣᆷㅌㅜ⑨
ㅎㅜᆺㄴㅏᆯ
ㄴㅏᇀ
ㄴㅔ⑨ㄱㅓ⑨
ㅎㅚᆨㅈㅓᆼ
we
ㅈㅏ⑨ㅈㅐ⑨
ㄴㅐ⑨ㅈㅜ⑨
1200
ㅁㅏᆨㄱㅓᆯ
ㄱㅣᆷㅇㅕᆼㅅㅏᆷ
ㅇㅣᆰㅎㅣ⑨
##ㄸㅡᆯ
ㄱㅘ⑨ㅈㅓ
ㅇㅣᆸㅊㅔ⑨
ㅍㅜᆯㅇㅣ⑨
##ㄴㅓᆫ
ㄱㅗ⑨ㅂㅣ⑨
ㄴㅏ⑨ㅃㅏ⑨ㅈㅣ⑨
ㄷㅓ⑨ㄹㅏ⑨ㅁㅕᆫ
ㄱㅣ⑨ㅁㅜ⑨
ㅅㅓᆷㄱㅣ⑨
ㅇㅏ⑨ㄹㅡ⑨ㅂㅏ⑨ㅇㅣ⑨ㅌㅡ⑨
ㄷㅗᆯㅂㅗᆷ
ㅅㅓᆯㅎㅘ⑨
ㅂㅜ⑨ㅅㅗᆨ
ㄱㅏ⑨ㅍㅏ⑨ㄹㅡ⑨
ㅎㅏᆫㅂㅏᆼ
ㅇㅣ⑨ㄹㅜᆨ
ㅈㅓᆼㄴㅕᆫ
ㄱㅜᆨㅊㅐᆨ
ㄱㅓᆫㄷㅡ⑨ㄹㅣ⑨
ㅅㅡ⑨ㅌㅔ⑨
ㄱㅔ⑨ㅇ
ㅅㅡ⑨ㅌㅣᆯ
ㄲㅐ⑨ㅇㅓ⑨ㄴㅏ⑨
ㅅㅣ⑨ㄹㅣᆸ
ㅂㅜ⑨ㄱㅕᆯ
ㅎㅐᆺㅂㅣᆾ
ㅇㅗ⑨ㅅㅡ⑨ㅌㅡ⑨ㄹㅣ⑨ㅇㅏ⑨
ㅈㅜ⑨ㅇㅢ⑨ㅈㅏ⑨
ㄹㅗᆺㄷㅔ⑨ㅂㅐᆨㅎㅘ⑨ㅈㅓᆷ
ㅌㅗᆷ
ㅈㅜ⑨ㅅㅔ⑨
ㅈㅔ⑨ㄴㅔ⑨
ㅈㅓ⑨ㅈㅓᆯ
##ㅈㅏ⑨ㅇㅠ⑨
##ㅅㅗ⑨ㅅㅣ⑨
ㄱㅜ⑨ㅈㅏᆼ
ㅇㅠ⑨ㄱㅗᆼㅈㅏ⑨
ㅁㅜ⑨ㄷㅏᆼ
ㄱㅕᆼㅇㅣᆫ
##ach
ㅆㅏᆼㅇㅛᆼㅊㅏ⑨
ㅍㅜᆫ
ㄴㅐ⑨ㅈㅏᆼ
ㅎㅘ⑨ㄷㅏᆸ
ㅇㅕᆫㅊㅗ⑨
ㄷㅗᆼㅈㅓᆼ
ㅊㅚ⑨ㄱㅕᆼㅎㅘᆫ
ㅅㅏᆫㅈㅐ⑨
ㅅㅣᆯㅅㅔ⑨
ㅅㅜ⑨ㅂㅏᆫ
ㅅㅏᆫㅇㅓ
##ㄷㅣᆫ
ㅎㅏ⑨ㄴㅏ⑨ㅎㅏ⑨ㄴㅏ⑨
ㅈㅓ⑨ㅈㅓᆯㄹㅗ⑨
ㄴㅏᆷㅈㅣᆺ
ㅅㅓᆷㅅㅔ⑨
ㅈㅡᆼㅍㅗᆨ
ㄱㅣ⑨ㄹㅠ⑨
ㄷㅐ⑨ㄷㅜ⑨
ㅈㅏ⑨ㅇㅚ⑨ㅅㅓᆫ
##ㄹㅏ⑨ㅁ
ㄱㅏ⑨ㅎㅗᆨ
ㅈㅔ⑨ㄷㅗᆼ
ㅇㅜᆺㄷㅗᆯ
ㅇㅓᆼㄷㅓᆼㅇㅣ⑨
ㅈㅓᆼㅅㅓᆫ
ㅅㅜᆫㅈㅗ⑨
ㅌㅏᆷㅅㅏ⑨
ㅂㅕ⑨ㅅㅡᆯ
ㅋㅡᆯㄹㅓ⑨ㅅㅡ⑨ㅌㅓ⑨
##ff
ㄷㅏ⑨ㄷㅡᆷ
ㅎㅐ⑨ㅇㅕᆨ
ㅂㅔ⑨ㅇㅣ⑨ㅅㅡ⑨
ㅇㅢ⑨ㅇㅝᆫㅅㅣᆯ
ㄹㅔᆫㅈㅡ⑨
ㅎㅏᆯㄷㅏᆼ
ㅇㅕᆼㅅㅜ⑨
##ㅅㅏ⑨ㅎㅚ⑨
ㅇㅣᆫㅅㅏᆷ
ㄱㅓ⑨ㄴㅡ⑨ㄹㅣ⑨
ㅇㅣᆫㅅㅏ⑨ㅁㅏᆯ
##ung
ㅋㅏ⑨ㄹㅡ⑨
##ㅈㅔ⑨ㅊㅓᆯ
ㅇㅣ⑨ㅈㅐ⑨ㅇㅛᆼ
##ㅅㅡ⑨ㅌㅡ⑨ㄹ
##ebo
##ㅂㅜ⑨ㄹㅡ⑨ㅋㅡ⑨
ㅁㅣ⑨ㅊㅓ⑨
ㅇㅓ⑨ㅈㅣ⑨ㄹㅓᆸ
##ㄲㅡ⑨ㄹㅓ⑨
ㄱㅕᆯㅅㅡᆼㅈㅓᆫ
ㅎㅔ⑨ㄷㅡ⑨
ㅆㅣ⑨ㅇㅏᆺ
ㄱㅘ⑨ㄱㅏᆷㅎㅏ⑨
ㅊㅗ⑨ㅋㅗᆯ
ㄷㅏᆷㄱㅡ⑨
ㅇㅝᆫㅎㅢ⑨
ㅈㅓ⑨ㅁㅏ⑨ㄷㅏ⑨
ㅇㅝᆫㅁㅏᆼ
ㅎㅏ⑨ㅊㅓᆼ
ㅍㅗᆨㅇㅕᆷ
ㄴㅏᆫㅂㅏᆼ
ㅈㅏᆫㄷㅣ⑨
ㅅㅣᆯㅈㅗᆫ
ㄱㅘ⑨ㅇㅕᆯ
ㄹㅣ⑨ㅇㅓᆯㅁㅣ⑨ㅌㅓ⑨
ㄱㅜᆨㄱㅏ
ㅇㅗᆨㅅㅜ⑨
ㅇㅢ⑨ㅈㅏ
ㅈㅔ⑨ㅁㅕᆼ
##ㅡᆫㅎㅐᆼ
ㅇㅏ⑨ㅌㅣ⑨
ㅍㅡ⑨ㄹㅗ⑨ㅁㅗ⑨
ㅌㅚ⑨ㅊㅜᆯ
ㅇㅙᆫ
ㄷㅡ⑨ㄹㅔ⑨ㅅㅡ⑨
ㅎㅜ⑨ㅈㅣᆫ
##ㅈㅜ⑨ㅅㅓᆨ
ㅅㅓᆫㅈㅏᆼ
ㅇㅑ⑨ㅁㅏᆯㄹㅗ⑨
ㅅㅔᆫㅅㅓ⑨
ㄷㅐ⑨ㅌㅗᆼㄹㅕ
ㅇㅖ⑨ㅂㅐ⑨
ㅃㅏ⑨ㅈㅕ⑨ㄴㅏ⑨ㅇㅗ⑨
##sc
ㅈㅏ⑨ㅈㅓᆼ
##ㅎㅘ⑨ㄱㅣ⑨
##ㄴㅑ
ㅅㅓᆼㅈㅏ
##ㅇㅓ⑨ㄴㅏ⑨ㅇㅗ⑨
ㅅㅏᆷㅅㅓᆼㄱㅡ⑨ㄹㅜᆸ
ㅇㅛᆼㅂㅕᆼ
1979
ㅇㅏ⑨ㄴㅏ⑨ㅇㅜᆫ
ㅇㅏ⑨ㄹㅐᆺ
##ㅇㅜᆫㅎㅏ⑨
ㅎㅔᆫㄹㅣ⑨
##ㅇㅕ⑨ㄷㅡᆯ
ㄷㅗ⑨ㅈㅓᆼ
ㅇㅚ⑨ㅎㅘ⑨
ㄹㅏ⑨ㄴㅣ
ㄱㅓᆯㅇㅓ⑨ㅇㅗ⑨
ㄷㅣ⑨ㅅㅡ⑨ㅋㅡ⑨
ㄱㅗ⑨ㄷㅡᆼㅎㅏᆨㅅㅐᆼ
ㄱㅐ⑨ㅈㅗ⑨
ㅊㅔ⑨ㄴㅏᆸ
##ㄹㅔ⑨ㅇㅣᆯ
ㅇㅜᆯㄹㅡᆼ
ㅇㅚ⑨ㅇㅜ⑨
ㄱㅏᆷㅇㅕᆷㅈㅡᆼ
ㅈㅜ⑨ㅁㅜ⑨
ㅅㅣᆨㅌㅏᆨ
ㄱㅡᆫㅈㅓᆸ
ㅊㅜᆨㅈㅔ
ㅋㅜ⑨ㄷㅔ⑨ㅌㅏ⑨
##ㅔᆸ
##ㅇㅏ⑨ㅁㅓᆨ
ㄹㅗ⑨ㅂㅓ⑨ㅌㅡ⑨
ㅈㅗ⑨ㅅㅓ
ㄲㅓᆸㅈㅣᆯ
ㄱㅜᆨㄷㅗ⑨
##ㅌㅣ⑨ㄷㅡ⑨
htt
ㅁㅣᆫㅅㅓᆫ
##ㅊㅜ⑨ㅇㅓ⑨
ㅁㅜᆫㅎㅢ⑨
ㅅㅗᆫㄲㅗᆸ
ㅁㅗᆷㅁㅐ⑨
ㄱㅟ⑨ㅅㅣᆫ
ㄹㅐᆫ
ㅇㅢ⑨ㄷㅐ⑨
ㅈㅣᆨㄱㅕᆯ
ㅂㅡ⑨ㄹㅏ⑨ㅇㅜᆫ
ㅊㅓᆫㄱㅜᆨ
ㄷㅣ⑨ㅈㅔᆯ
ㄷㅗᆼㅅㅏᆼ
ㅂㅜᆯㄱㅣᆯ
ㅎㅓᆫㅈㅓᆼ
ㅎㅘᆫㅅㅡᆼ
ㄱㅘ⑨ㅊㅓᆫ
ㅇㅣᆸㄷㅏᆫ
ㅈㅣᆫㅎㅐ⑨
ㄷㅏ⑨ㅋㅠ⑨ㅁㅔᆫ
##ㅇㅏ⑨ㅅㅣ⑨ㅇㅏ⑨
##ㄱㅡᆼ
ㄴㅗᆨㅈㅣ⑨
ㅌㅓ⑨ㅊㅣ⑨
ㅈㅓ⑨ㄱㅣ⑨
ㅇㅗ⑨ㅅㅏ⑨ㅋㅏ⑨
ㅇㅜ⑨ㅇㅜᆯㅈㅡᆼ
ㅎㅏᆫㄱㅕ⑨ㄹㅔ⑨
ㅈㅏᆼㄴㅏᆫㄱㅏᆷ
ㅊㅐ⑨ㄱㅝᆫㄷㅏᆫ
ㅅㅡ⑨ㅋㅏ⑨ㅇㅣ⑨
ㅋㅠ⑨
ㅂㅏᆯㅈㅗᆨ
ㅁㅏ⑨ㅇㅡᆷㄲㅓᆺ
ㅁㅔ⑨ㄷㅣ⑨
ㄴㅡᆨ
ㅂㅣ⑨ㅌㅡ⑨
ㅍㅗ⑨ㄹㅡ⑨ㅌㅜ⑨
##ㄹㅔᆷ
##age
##ㅎㅘ⑨ㄱㅜᆨ
ㅈㅓᆫㄴㅕᆷ
2500
jebo
##ㄹㅣ⑨ㅌㅣ⑨
ㄱㅘᆼㄱㅕᆼ
ㅇㅑᆨㅅㅔ⑨
ㅂㅜ⑨ㅍㅕᆼ
ㄱㅗᆼㄱㅕᆨㅅㅜ⑨
ㄱㅗ⑨ㅅㅗ⑨ㅎㅏ⑨
ㅅㅓᆫㅈㅓᆷ
ㄱㅕᆼㅎㅢ⑨
##ㅂㅔᆯㅌㅡ⑨
ㅈㅐ⑨ㅃㅏᆯㄹㅣ⑨
ㅅㅜ⑨ㅈㅓᆼㅇㅏᆫ
ㅎㅗᆫㅇㅣᆫ
ㅇㅝᆫㅇㅏᆫ
ㅅㅐ⑨ㅇㅜ⑨
ㄹㅔ⑨ㅇㅣ⑨ㄷㅓ⑨
ㅅㅐᆨㄷㅏ⑨ㄹㅡ⑨
##ㅏ⑨ㄹㅡ⑨ㅌㅡ⑨
##ㅌㅓᆸ
ㄷㅗᆼㄷㅐ⑨ㅁㅜᆫ
ㅅㅜ⑨ㅂㅓᆸ
ㅅㅗᆫㄱㅣᆯ
ㅎㅑᆼㅎㅏ⑨
ㅇㅗ⑨ㅋㅔ⑨ㅅㅡ⑨ㅌㅡ⑨ㄹㅏ⑨
##ㅆㅜ⑨
ㄱㅗᆼㅉㅏ⑨
ㄲㅣ⑨ㅇㅜ⑨
ㅁㅏ⑨ㄹㅣ⑨ㅇㅏ⑨
ㅋㅙ⑨ㅈㅓᆨㅎㅏ⑨
ㄷㅜᆼㄱㅡᆯ
1930
ㅃㅜᆷ
ㄴㅏ⑨ㅂㅣ⑨
ㅅㅔ⑨ㅇㅐᆨ
ㅅㅣᆫㄷㅏᆼ
ㅌㅐ⑨ㄱㅝᆫㄷㅗ⑨
ㅎㅏ⑨ㅎㅏ⑨
ㅂㅏᆫㄱㅕᆨ
ㅎㅜ⑨ㅈㅏ⑨
##ㅌㅐ⑨ㅍㅡ⑨
ㅈㅓ⑨ㄴㅓᆯ
ㅂㅜᆯㅂㅣᆾ
ㅁㅜᆫㄱㅕᆼ
ㄷㅏᆼㅈㅣᆨㅈㅏ⑨
112
##ㅍㅕᆼㄱㅏ⑨
bo
ㄷㅗ⑨ㅁㅏ⑨
ㅅㅓᆫㅎㅗ⑨ㄷㅗ⑨
##ber
ㅇㅝᆫㅁㅏᆫ
##ll
ㄷㅗᆼㄱㅕᆼ
##ㄱㅔᆫ
ㅁㅗ⑨ㄷㅡ⑨
ㅇㅑᆨㄱㅘᆫ
ㄷㅜ⑨ㄲㅓᆸ
ㄹㅔ⑨ㅇㅣᆫ
ㅈㅐ⑨ㅌㅔ⑨ㅋㅡ⑨
ㅎㅏᆼㄹㅗ⑨
ㅊㅗ⑨ㅂㅗ⑨
ㄷㅏᆷㅇㅣᆷ
ㅇㅓᆨㅈㅣ⑨ㄹㅗ⑨
ㄴㅡ⑨ㄹ
ㄱㅣ⑨ㅈㅏᆼ
sin
ㅋㅡᆯㄹㅐ⑨ㅅㅡ⑨
##ㄱㅜᆨㄷㅐ⑨
##ㅅㅡᆯㄹㅏ⑨
wor
ㄱㅏᆫㄷㅏᆫㅎㅣ⑨
ㅍㅗᆨㅅㅡ⑨
ㄴㅐ⑨ㄹㅕ⑨ㄷㅏ⑨ㅂㅗ⑨
ㅊㅗᆼㅁㅜ⑨
ㅅㅡ⑨ㅋㅣᆫ
ㄱㅓ⑨ㅇㅐᆨ
ㅇㅣᆽㅇㅓ⑨ㅂㅓ⑨ㄹㅣ⑨
##ㅂㅏ⑨ㄹ
ㄱㅖ⑨ㅇㅓᆷ
##ㅅㅜᆫㄱㅏᆫ
car
ㅂㅜᆫㅈㅜ⑨
ㄹㅔ⑨ㅇㅗ⑨
ㅈㅗ⑨ㄱㅕᆼ
ㅂㅏᆮㄷㅡᆯ
ㅂㅓ⑨ㅌㅡᆫ
##ㅍㅣᆸ
ㄹㅏ⑨ㄱ
ㅎㅏᆫㅅㅣ⑨
ㅅㅏᆫㅇㅓᆸㄷㅏᆫㅈㅣ⑨
##11
ㄸㅡᆺㅂㅏᆩ
##ant
ㅇㅠ⑨ㅋㅙ⑨
ㅂㅜ⑨ㅇㅡᆼ
ㅁㅏᆯㅌㅜ⑨
ㄴㅏᆨㅎㅏ⑨
ㅇㅕᆼㅈㅐ⑨
ㅎㅏ⑨ㅇㅘ⑨ㅇㅣ⑨
ㄱㅏ⑨ㅅㅓᆯ
ㅁㅕ⑨ㄴㅡ⑨ㄹㅣ⑨
ㅈㅜ⑨ㅍㅏ⑨
ㅈㅣ⑨ㅁㅜᆫ
ㅅㅓᆫㅇㅢ⑨
ㅇㅓ⑨ㅇㅓᆸ
ㅅㅏᆼㅎㅘᆼㅅㅣᆯ
ㅇㅣ⑨ㅅㅣᆨ
ㅂㅗ⑨ㄱㅓᆫㅅㅗ⑨
##ㅁㅐᆸ
ㄱㅣ⑨ㅅㅜᆨㅅㅏ⑨
ㄹㅔ⑨ㅇㅣ⑨ㅈㅓ⑨
ㄱㅏ⑨ㄱㅡᆸ
ㅅㅣ⑨ㅋㅏ⑨ㄱㅗ⑨
ㅎㅜ⑨ㄱㅖ⑨
ㅁㅗ⑨ㅅㅡ⑨ㅋㅡ⑨ㅂㅏ⑨
ㅊㅣ⑨ㅋㅣᆫ
ㅈㅏᆫㅇㅣᆫ
ㅎㅏᆷㄷㅐ⑨
ㅎㅛ⑨ㅅㅓᆼ
ㄱㅏᆼㅈㅣᆫ
ㅅㅏᆷㅊㅓᆨ
ㅋㅓᆫㅅㅗ⑨ㅅㅣ⑨
ytn
ㅁㅝ
ㅁㅗᆯㅇㅣᆸ
##ㅇㅛᆨㅈㅏᆼ
ㅂㅓᆺㄱㅣ⑨
##ㅂㅏᆫㄷㅐ⑨
##ㅇㅞ
ㅎㅐ⑨ㄷㅏᆸ
ㅎㅚᆼㄷㅏᆫ
ㅇㅏ⑨ㄴㅏ⑨ㅇㅜᆫㅅㅓ⑨
ㅇㅣ⑨ㅊㅓᆯ
ㅂㅏᆨㅈㅣ⑨ㅅㅓᆼ
ㄱㅣᆷㅇㅠᆫ
ㅇㅐ⑨ㄹㅗ⑨
ㄱㅏ⑨ㄱㅡᆸㅈㅓᆨ
fif
ㄱㅏ⑨ㅇㅑ⑨
ㄱㅏᆷㅎㅐᆼ
lo
ㅋㅏ⑨ㅈㅣ⑨
ㄷㅔᆫㅁㅏ⑨ㅋㅡ⑨
ㄱㅕᆯㄱㅘ
ㄷㅗᆼㅊㅏᆼ
##ㅂㅜ⑨ㅅㅣ⑨
ㄱㅏᆼㅂㅕᆫ
ㅊㅏ⑨ㅁ
ㄷㅔ⑨ㅇㅣ⑨ㅂㅣ⑨ㄷㅡ⑨
gl
ㅁㅐᆸ
ㅈㅜᆼㅈㅡᆼ
ㅈㅏᆨㄱㅗᆨㄱㅏ⑨
ㅅㅜ⑨ㅍㅕᆼ
ㅈㅓᆨㅂㅓᆸ
ㅊㅓᆷㄱㅏ⑨
ㅎㅑᆼㅅㅜ⑨
ㄴㅡᆼㄷㅗᆼ
##ㅅㅡ⑨ㅌㅣᆫ
ㅇㅜᆯㅅㅏ
1983
ㄱㅜ⑨ㄹㅡ⑨
ㅇㅏᆨㅇㅛᆼ
ㅇㅕ⑨ㅈㅓᆼ
ㄷㅏ⑨ㅋㅠ⑨ㅁㅔᆫㅌㅓ⑨ㄹㅣ⑨
ㅂㅗ⑨ㄱㅡᆷ
ss
ㅇㅣ⑨ㅂㅏᆼ
ㅋㅔ⑨ㅇㅓ⑨
ㅇㅜ⑨ㅇㅏ⑨
sch
ㄷㅐᆫ
##ㅂㅏ⑨ㄷㅏ⑨
ㅇㅣᆯㅎㅘ⑨
ㅇㅙᆫㅈㅣ⑨
ㅅㅏᆼㅈㅓᆷ
ha
ㄱㅣ⑨ㅇㅛᆼ
ㅇㅕᆫㅅㅙ⑨
ㄱㅣᆷㅈㅜᆫ
105
ㄷㅗ⑨ㄹㅐ⑨
ㅁㅔ⑨ㅁㅗ⑨ㄹㅣ⑨
ㅇㅐ
ㅂㅗᆨㄷㅏᆼ
ㄱㅓ⑨ㄴㅣ⑨
ㅇㅏᆯㄹㅔ⑨
ㄱㅣ⑨ㅇㅓᆸㅊㅔ⑨
ㅁㅔ⑨ㄱㅏ⑨
##ㄱㅘᆼㅈㅏᆼ
ㅅㅏ⑨ㄹㅗ⑨ㅈㅏᆸㅎㅣ⑨
ㄱㅏᆫㅅㅣᆫㅎㅣ⑨
ㄴㅏ⑨ㅁㅜᆺ
ㅇㅠ⑨ㄴㅣ⑨ㅍㅗᆷ
ㅌㅗᆼㅊㅏᆯ
ㄴㅏᆷㄷㅗᆼ
##ㅁㅓᆯ
##ㅟᆷ
##ㅁㅣ⑨ㅅㅜᆯ
ㅊㅜ⑨ㅅㅣᆫ
ㄷㅗ⑨ㅁㅐ⑨
ㅈㅓᆷㅊㅣ⑨
##ㅁㅣᇀ
ㅍㅣᆺ
ㅅㅔ⑨ㅇㅠᆯ
ㅇㅕᆨㅅㅔ⑨
##ㅅㅏ⑨ㄱㅜᆨ
ㅁㅣ⑨ㄹㅐ⑨ㅇㅔ⑨ㅅㅔᆺ
##anc
ㅁㅏᆨㄱㅏᆼ
##90
ㅅㅏᆼㅅㅓᆯ
ㅇㅏ⑨ㅅㅏ⑨
ㅍㅣᆼㄱㅖ⑨
ㅈㅏ⑨ㅇㅝᆫㅂㅗᆼㅅㅏ⑨
ㅈㅏᆷㅈㅏ⑨
ㅇㅘᆼㅂㅣ⑨
ㄷㅡᆼㄷㅡᆼ
col
##ry
ㅇㅜ⑨ㅇㅝᆯ
ㅇㅕᆷㅇㅝᆫ
##ㅍㅐ
ㄱㅣ⑨ㅇㅣᆫ
ㅅㅓᆼㅁㅐ⑨ㅁㅐ⑨
##ㅅㅐᆷ
ㅁㅜᆫㅎㅘ⑨ㅇㅠ⑨ㅅㅏᆫ
ㅇㅏ⑨ㅁㅜ⑨ㅌㅡᆫ
ㄱㅕ⑨ㅇㅜᆯㅊㅓᆯ
ㅇㅢ⑨ㅇㅘᆼ
ㄱㅜ⑨ㅅㅏ⑨
ㄱㅗᆼㅍㅕᆼ
ㅅㅗᆫㅁㅗᆨ
ㅎㅕᆫㄷㅐ⑨ㄱㅓᆫㅅㅓᆯ
ㅇㅏᆷㅅㅏᆯ
ㅈㅓᆼㄱㅛ⑨ㅎㅏ⑨
##ㅇㅏ⑨ㄹ
ㄱㅗᆼㅊㅓᆼㅎㅚ⑨
ㅁㅜ⑨ㄴㅓ⑨
##ㄱㅜᆨㅈㅔ⑨ㄱㅗᆼㅎㅏᆼ
ㅂㅐ⑨ㅊㅜ⑨
ㅆㅣᆸ
##ㅂㅐᆼ
ㄱㅏ⑨ㅇㅣ⑨ㄷㅡ⑨
lcd
ㄱㅓᆷㅅㅏ
ㅇㅣᆷㅊ
ㅇㅏ⑨ㅈㅜᆷㅁㅏ⑨
##ㅂㅏᆼㅇㅜᆯ
ㅁㅣᆫㄱㅘᆫ
ㄱㅕᆯㄱㅘ⑨ㅁㅜᆯ
ㅇㅣᆨㅁㅕᆼ
ㅇㅣᆯㅅㅐᆼ
ㄲㅡᆯㄹㅕ⑨ㄱㅏ⑨
##ke
ㅇㅏ⑨ㅁㅏ⑨ㅊㅜ⑨ㅇㅓ⑨
ㅂㅜᆯㅍㅔᆫ
ㅇㅣ⑨ㅈㅏᆼ
ㄱㅜᆮㄱㅓᆫ
ㅎㅣ⑨ㄹㅗ⑨
##ical
ㅌㅔᆨㅅㅏ⑨ㅅㅡ⑨
##ㄱㅔ⑨ㅇㅛ
ㄱㅏ⑨ㄹㅜ⑨
ㅅㅡᆼㅈㅏ⑨
ㅂㅏ⑨ㅇㅣ⑨ㅇㅓ⑨
ㅇㅣ⑨ㅅㅣ⑨
ㄹㅗ⑨ㅇㅣ⑨
ㄷㅗᆼㅂㅏᆼ
ㅍㅗ⑨ㅅㅏᆼ
ㅌㅗᆼㅇㅕᆨ
ㄷㅐ⑨ㄹㅣ⑨ㅈㅓᆷ
##ㅅㅔᆯㄹㅓ⑨
ㅁㅏᆨㄱㅓᆯㄹㅣ⑨
ㄱㅗᆼㅈㅣ⑨
ㅂㅏᆼㅌㅗᆼㅇㅟ⑨
ㅂㅏᆯㅇㅡᆷ
ㄱㅏᆨㄱㅘᆼ
ㅇㅜ⑨ㅍㅏ⑨
ㅂㅗ⑨ㄱㅡᆷㅈㅏ⑨ㄹㅣ⑨
ㅅㅡᆼㄱㅏᆼ
ㅋㅐ⑨ㅅㅡ⑨ㅌㅣᆼ
##ㅏ⑨ㅇㅑ⑨
ㄴㅡᆫㅈㅣ
ㅂㅣ⑨ㅈㅏ⑨
ㅍㅏ⑨ㄱㅡᆸ
ㅅㅏᆫㅈㅣ⑨
ㅊㅓᆫㅅㅏ⑨
##ㄷㅗ⑨ㄹㅡ⑨
ㄱㅣ⑨ㅇㅣᆯ
ㅅㅔ⑨ㄱㅠᆫ
ㅎㅐᆼㄹㅕᆯ
ㅅㅜ⑨ㅈㅜ
ㅅㅜ⑨ㅅㅏ
1945
##ㅋㅣ⑨ㅇㅏ⑨
ㅁㅣᆫㅈㅗᆨㅈㅜ⑨ㅇㅢ⑨
ㅇㅢ⑨ㅂㅕᆼ
ㅁㅕᆼㄷㅗᆼ
ㅅㅕ⑨ㅊㅡ⑨
per
ㄱㅗᆼㅈㅏ
ㅇㅣᆸㅅㅗ⑨
ㅋㅓᆫㅂㅔᆫㅅㅕᆫ
##○○
ㄷㅐ⑨ㄱㅓᆷ
ㅈㅐ⑨ㅍㅏᆫㅈㅏᆼ
ㅂㅗ⑨ㄷㅏᆸ
##ㅅㅜ⑨ㄱㅣ⑨
ㄱㅏᆫㅍㅕᆫㅎㅏ⑨
##io
##ㅇㅏ⑨ㅇㅜᆺ
ㅅㅡ⑨ㅍㅔ⑨ㅅㅕᆯ
ㅇㅣ⑨ㅅㅗᆼ
##ㄱㅘᆫㄱㅘᆼ
ㄱㅣᆷㅇㅣᆫ
ㄷㅐ⑨ㅁㅕᆼ
ab
##ㅏ⑨ㅇㅗ⑨ㄹㅡ⑨
ㄱㅣ⑨ㅅㅏᆼㅊㅓᆼ
##ㅌㅡᆷ
ㅇㅣᆯㅉㅣᆨㅇㅣ⑨
ㅈㅡ⑨ㅇㅡᆷ
ㅍㅛ⑨ㅈㅓᆨ
ㅇㅔ⑨ㅍㅣ⑨
##━━
ㅇㅡ⑨ㄹㅏ⑨ㄱㅗ⑨
##ㄴㅗ⑨ㅊㅗᆼ
##ㄴㅏᆽ
ㅂㅏᆨㅈㅐ⑨
ㅊㅗ⑨ㄹㅗᆨ
##ㅅㅣᆸㅈㅏ⑨
ㅇㅠ⑨ㅈㅓᆼ
ㅎㅜ⑨ㅇㅠ⑨ㅈㅡᆼ
ㅈㅜᆯㅈㅜᆯㅇㅣ⑨
ㅇㅗ⑨ㅂㅡ⑨
ㅇㅏ⑨ㅎㅗᆸ
ㄲㅐ⑨ㄲㅡᆺㅎㅏ⑨
ㅋㅗ⑨ㄹㅗ⑨ㄴㅏ⑨ㅂㅏ⑨ㅇㅣ⑨ㄹㅓ⑨ㅅㅡ⑨
ㅋㅡᆯㄹㅏ⑨ㅇㅜ⑨ㄷㅡ⑨
ㅈㅓᆫㅂㅗᆨ
start
ㅅㅏ⑨ㄱㅘᆫ
ㅎㅟ⑨ㅂㅏᆯ
ㅅㅜ⑨ㄱㅓ⑨
ㅂㅣ⑨ㅅㅓ⑨ㅅㅣᆯ
ㅈㅓ⑨ㅅㅜᆯ
ㅇㅕᆨㅎㅏᆨ
ㄷㅔ⑨ㅇㅣ⑨ㅌㅡ⑨
ㅇㅔᆯㄹㅣ⑨ㅂㅔ⑨ㅇㅣ⑨ㅌㅓ⑨
ㅎㅔ⑨ㅁㅐ⑨
ㅅㅣ⑨ㅌㅡ⑨
ㅍㅏᆫㄱㅛ⑨
##ㅃㅕ⑨
ㅇㅗ⑨ㅂㅓ⑨
ㅈㅏᆼㅇㅚ⑨
ㅎㅐ⑨ㅇㅑᆼㅂㅜ⑨
ㅎㅏᆫㅇㅗᆨ
comp
ㅇㅝᆫㅅㅣ⑨
##ㅌㅏ⑨ㅇㅣ⑨ㅇㅓ⑨
ㄴㅐ⑨ㄹㅠᆨ
ㅅㅣᆫㅅㅗᆨㅎㅣ⑨
##ㅊㅔ⑨ㅅㅡ⑨ㅌㅓ⑨
ㅅㅗᆫㅅㅜ⑨
ㄱㅡ⑨ㄹㅐ⑨ㅍㅣᆨ
ㅅㅏᆼㅅㅜ⑨
ㅅㅣᆼㅋㅡ⑨
ㅎㅕᆷㅇㅢ
ㅅㅣᆯㅁㅜᆯ
ㅊㅣ⑨ㄷㅏᆮ
ㅍㅜᆼㄹㅕᆨ
ㅇㅝᆫㅎㅢ⑨ㄹㅛᆼ
ㅇㅏ⑨ㅇㅜ⑨ㄹㅡ⑨
ㅈㅡᆼㄱㅏ⑨ㅅㅔ⑨
ㅈㅗ⑨ㅅㅓᆫㅇㅣᆫ
ㅇㅏᆯㄹㅔᆨㅅㅏᆫ
ㅋㅓᆫㄷㅣ⑨ㅅㅕᆫ
ㅊㅣ⑨ㄱㅘ⑨
ㅇㅠ⑨ㅅㅏᆼ
ㄴㅗᆼㅈㅣ⑨
##ㄱㅜ⑨ㅅㅓᆨ
ㄱㅏᆼㄷㅏᆼ
ㄷㅐ⑨ㅊㅜᆼ
ㅁㅕᆯㅁㅏᆼ
ㅂㅏᆼㄱㅡᆷ
ㅇㅣᆷㅂㅏᆨ
ㅊㅓᆼㄱㅖ⑨
ㅍㅡ⑨ㄹㅗ⑨ㅁㅗ⑨ㅅㅕᆫ
ㅅㅏ⑨ㄴㅏ⑨ㅇㅣ⑨
ㅅㅏᆼㄹㅠ⑨
ㅈㅏᆼㄱㅘ
ㅊㅗᆨㅂㅏᆯ
ㄱㅏᆼㅁㅜᆯ
ㄱㅕᆼㅊㅓᆼ
ㄱㅕᆼㅍㅜᆷ
ㅌㅗ⑨ㅇㅑᆼ
ㅆㅡᆫ
ㄱㅏ⑨ㅇㅛ⑨
ㅊㅜᆯㅌㅚ⑨
##ㅂㅏ⑨ㄲ
ㅇㅣᆷㅊㅏ⑨ㅇㅣᆫ
ㅋㅟ⑨
ㅁㅣ⑨ㅁㅣ⑨
ㅈㅣᆨㅇㅟ⑨
##ㄲㅓ⑨ㅇㅣ⑨
ㅍㅕᆼㅇㅣᆯ
ㅍㅡ⑨ㄹㅏᆫ
ㅊㅟ⑨ㅇㅣᆷㅅㅣᆨ
ㅈㅓ⑨ㅈㅗ⑨
ㅎㅣᆷㅊㅏ⑨
ㅅㅚ⑨ㄱㅗ⑨ㄱㅣ⑨
##ㅅㅣ⑨ㅁㅣᆫ
ㅇㅖ⑨ㅅㅜᆯㅇㅣᆫ
ㄷㅐ⑨ㅊㅐᆨㅇㅟ⑨
ㅈㅗᆫㅈㅐ⑨ㄱㅏᆷ
ㅈㅓᆼㅂㅜ⑨ㅅㅓ⑨ㅇㅜᆯ
ㅂㅐ⑨ㄹㅓᆯ
ㅈㅐ⑨ㅇㅚ⑨
ㄷㅗᆯㅇㅕᆫ
ㅂㅜᆯㅆㅏᆼ
ㅊㅜ⑨ㅇㅣ⑨
ㅅㅗᆼㄱㅜ⑨
ㅂㅣᆫㅂㅓᆫ
ㄲㅏᆼ
ㅅㅗᆼㄱㅡᆷ
ㄴㅏ⑨ㅎㅡᆯ
ㅇㅚ⑨ㄱㅛ⑨ㄱㅘᆫ
ㅈㅜ⑨ㅈㅓ⑨ㅇㅏᆬ
ㅅㅡ⑨ㅌㅣ⑨ㅂㅡᆫ
ㅅㅏ⑨ㅅㅐᆼㅎㅘᆯ
ㅊㅗ⑨ㅋㅗᆯㄹㅣᆺ
ㅂㅜᆫㅂㅣ⑨
ㄱㅕᆼㅈㅔ⑨ㅂㅜ⑨
##ㅅㅐᆼㅁㅜᆯ
ㅇㅣᆸㅇㅑᆼ
ㅌㅏ⑨ㄷㅏᆼㅅㅓᆼ
##ㅋㅓ⑨ㅅㅡ⑨
ㅂㅔᆯㄱㅣ⑨
##ㅇㅏ⑨ㅍㅡ⑨
ㄱㅣ⑨ㅅㅡᆸ
ㅈㅓᆼㅂㅜ⑨ㅅㅓ⑨ㅇㅜᆯㅊㅓᆼㅅㅏ⑨
##ㅃㅏᆼ
ㅍㅕᆫㅎㅑᆼ
ㅁㅣ⑨ㄷㅏᆯ
ㅁㅏ⑨ㅅㅜᆯ
ㄷㅔ⑨ㄹㅕ⑨ㅇㅗ⑨
ㅂㅣ⑨ㅂㅏᆼ
ㅇㅕᆨㅅㅔ⑨ㄱㅝᆫ
ㄹㅗᆺㄷㅔ⑨ㅁㅏ⑨ㅌㅡ⑨
ㅁㅗ⑨ㅂㅏᆼ
ㅎㅏᆸㄱㅕᆨㅈㅏ⑨
##ㅅㅔᆷ
ㅅㅓᆫㅇㅓ
ㅍㅏᆯㄹㅔ⑨
ㅇㅗ⑨ㅇㅣ⑨
ㄹㅣ⑨ㄷㅡ⑨
ㅉㅗ⑨ㄱㅐ⑨
ㅊㅜᆯㅌㅚ⑨ㄱㅡᆫ
ㄴㅔ⑨ㄱㅓ⑨ㅌㅣ⑨ㅂㅡ⑨
ㅈㅗ⑨ㅇㅓᆸ
ㅈㅓᆼㅅㅏᆫ
ㅂㅗᆫㅂㅜ
ㅂㅏᆫㅇㅣᆸ
ㄷㅏᆯㄹㅕ⑨ㄷㅡᆯ
##ㅍㅠᆯ
ㅊㅣᆫㅈㅓᆼ
ㅇㅐ⑨ㅇㅣᆫ
ㄱㅕᆼㅈㅣ⑨
##ㅈㅐ⑨ㄹㅛ⑨
ㅊㅐᆷㅍㅣ⑨ㅇㅓᆫㅅㅡ⑨
ㅇㅛ⑨ㅂㅓᆸ
ㅈㅓᆫㅁㅜᆫㅈㅓᆷ
##10
ㅅㅣ⑨ㄲㅡ⑨ㄹㅓᆸ
ㅈㅓᆨㅇㅣᆷ
ㅇㅣᆫㄱㅘ⑨
ㅎㅘ⑨ㄹㅏᆼ
ㅌㅣ⑨ㅅㅕ⑨ㅊㅡ⑨
ㅇㅟ⑨ㅊㅗᆨ
ㅇㅑᆼㅈㅜ⑨
ㄱㅡᆨㄷㅗ⑨
ㄹㅏ⑨ㅇㅣ⑨ㅂㅡ⑨
ㅉㅏ⑨ㅈㅡᆼ
##ㅈㅛ
ㄱㅣ⑨ㄲㅓ⑨ㅇㅣ⑨
ㅇㅣ⑨ㅂㅕᆯ
ㄷㅗ⑨ㅈㅏᆼ
ㅇㅝᆫㄱㅕᆨ
ㅇㅕᆫㅅㅓᆨ
##ㄴㅔᆯ
ㅇㅖ⑨ㄱㅕᆯ
##ㄱㅝᆫㄹㅕᆨ
ㅇㅡ⑨ㄹㅗ⑨ㅅㅓ
ㅎㅏ⑨ㅌㅐ⑨
##ㅂㅗ⑨ㄷㅡ⑨
ㅇㅢ⑨ㄱㅜ⑨
ㅁㅜᆫㅎㅏᆼ
ㅌㅣᆫ
ㅈㅣ⑨ㄴㅏᆫㅂㅓᆫ
ㅍㅓᆼ
ㅅㅏᆼㄹㅠᆨ
ㅅㅔ⑨ㄹㅗ⑨
ㅂㅔᆫㅊㅡ⑨
ㅇㅏ⑨ㄲㅏᆸ
ㅎㅏ⑨ㅂㅓ⑨ㄷㅡ⑨
ㄱㅘ⑨ㅈㅣᆼㄱㅡᆷ
ㅈㅣᆯㅈㅜ⑨
ㅅㅏ⑨ㅁㅕᆼ
ㄷㅐ⑨ㅁㅜᆫ
ㅂㅜ⑨ㄷㅐ⑨ㅂㅕᆫ
ㅁㅜ⑨ㄴㅓ⑨ㄸㅡ⑨ㄹㅣ⑨
ㅇㅝᆯㅇㅛ⑨ㅇㅣᆯ
ㄴㅜ⑨ㅂㅣ⑨
ㅇㅠ⑨ㄴㅔ⑨
ㄱㅜ⑨ㅅㅣᆯ
ㅍㅏᆫㄹㅖ⑨
##ㅎㅘ⑨ㅈㅐ⑨
ㅇㅣᆷㄷㅐ⑨ㅊㅏ⑨
ㅅㅜ⑨ㄷㅗᆼ
ㄴㅜᆯ
ㅅㅡ⑨ㄹ
ㅅㅏ⑨ㅇㅠᆨ
ㅂㅜ⑨ㅅㅣ⑨ㅈㅏᆼ
ㅁㅕᆼㅁㅕᆼ
ㅈㅣ⑨ㄹㅣ⑨ㅅㅏᆫ
ㅎㅐ⑨ㄹㅣ⑨
ㄱㅡᆷㅈㅓᆫ
ㅂㅔ⑨ㅇㅓ⑨
##ㅆㅣ
ㅅㅣ⑨ㄱㅏᆫㄷㅐ⑨
ㅋㅏ⑨ㄷㅡ⑨ㅅㅏ⑨
ㅅㅓᆼㅎㅢ⑨
ㅇㅕᆫㅈㅐ⑨
185
ㅁㅕᆼㅅㅏ⑨
ㄱㅜ⑨ㄴㅏ⑨
ㄱㅡ⑨ㄴㅡᆯ
ㅇㅘᆼㅂㅗᆨ
ㅂㅏ⑨ㅉㅏᆨ
ㅍㅣᆯㄷㅡ⑨
ㅅㅣᆫㄷㅗ⑨
ㅋㅐ⑨ㅍㅣ⑨
ㄷㅐ⑨ㅈㅓᆼㅂㅜ⑨
ㄴㅗᆨㅎㅘ⑨
ㅎㅔ⑨ㅊㅣ⑨
##ㄹㅕ⑨ㅇㅝ⑨ㅎㅏ⑨
ㄱㅗ⑨ㅇㅛ⑨
##ㅆㅏᆨ
ㅅㅣᆫㄱㅕᆼㅈㅓᆫ
ㄴㅏᆯㄹㅗ⑨
##ㄹㅡ⑨ㄱㅣ⑨
ㅇㅓ⑨ㅊㅣ⑨
##ㄹㅕ⑨ㅂㅗ⑨
ㄱㅏᆫㄱㅘ⑨
ㅌㅟ⑨ㅇㅓ⑨ㄴㅏ⑨ㅇㅗ⑨
ㅅㅜ⑨ㅅㅏ⑨ㄱㅘᆫ
ㅇㅕᆫㅊㅔ⑨
##ㄷㅗᆼㄷㅏᆼ
ㄷㅜ⑨ㅌㅓᆸ
##ㅅㅔ⑨ㅈㅏ⑨
ㅅㅏ⑨ㅂㅓᆷ
ㅇㅝ⑨ㅋㅡ⑨ㅅㅛᆸ
ㅍㅗ⑨ㄹㅓ
##ㄸㅜ⑨
ㅉㅗᆾㄱㅣ⑨
ㅇㅣ⑨ㅅㅐᆨ
ㅂㅓᆸㄱㅠ⑨
ㅂㅏᆫㄱㅣ⑨ㅁㅜᆫ
1981
ㄱㅡ⑨ㄹㅔ⑨ㅇㅣ⑨
ㄱㅝᆫㅈㅏᆼ
ㄸㅗᆼ
ㅍㅡ⑨ㄹㅔ⑨ㅅㅡ⑨
ㅁㅣ⑨ㄴㅔ⑨
ㅌㅓᆼ
ㄷㅏᆮㅎㅣ⑨
ㅌㅏᆷㅈㅣ⑨
ㅈㅗ⑨ㄹㅣᆸ
ㄴㅜᆫㅂㅜ⑨ㅅㅣ⑨
ㅂㅓ⑨ㄷㅣ⑨
ㄱㅜᆼㄱㅡᆷㅈㅡᆼ
ㅎㅏ⑨ㄴㅗ⑨ㅇㅣ⑨
ㄱㅡᆷㅅㅔ⑨
ㅅㅗᆷㅆㅣ⑨
##ㅇㅡᆫㅎㅐ
ㅎㅚ⑨ㅅㅏ
ㅇㅛᆼㅅㅏ⑨
##ㅆㅏ⑨ㅇㅣ⑨
ㅎㅗᆼㅇㅣᆨ
ㄴㅐ⑨ㅅㅣᆯ
ㅇㅛ⑨ㄷㅗᆼ
ㄱㅏᆼㄱㅕᆼㅎㅘ⑨
ㄲㅡᆭㅇㅓ⑨ㅈㅣ⑨
ㅅㅗᆫㅎㅡᆼㅁㅣᆫ
ㅈㅓ⑨ㄹㅣ⑨
ㅈㅏᆸㅇㅏ⑨
ㅈㅜᆸ
ㅅㅣ⑨ㄱㅜᆨ
ㅊㅓ⑨ㅎㅕᆼ
ㅁㅐ⑨ㅇㅣᆯㄱㅕᆼㅈㅔ⑨
ㅅㅔ⑨ㄷㅐ
ㅎㅜᆫㅈㅏᆼ
##ㅈㅏ⑨ㄱㅜᆨ
##ㄸㅟ⑨
ㄷㅏᆫㄱㅗᆯ
ㅁㅛ⑨ㅈㅣ⑨
ㅍㅏ⑨ㄹㅏᇂ
##ㅂㅐᇀ
ㄴㅗ⑨ㅎㅚ⑨ㅊㅏᆫ
ㅈㅡᆼㅇㅗ⑨
id
ㅊㅓᆼㅈㅜᆼ
ㅇㅓ⑨ㅁㅣ⑨
ㅈㅐ⑨ㅅㅜ⑨
ㅂㅏᆨㄱㅕᆼ
ㅊㅣᆫㄱㅡᆫ
ㅍㅡ⑨ㄹㅗ⑨ㄱㅡ⑨ㄹㅐ
ㅊㅜ⑨ㅂㅏᆼ
ㅈㅣ⑨ㄹㅡᆷ
ㅎㅓᆼㄱㅏ⑨ㄹㅣ⑨
ㅈㅓᆼㄹㅗᆫ
ㅅㅣᆯㄹㅗ⑨
ㅇㅛ⑨ㄹㅕᆼ
##ㄴㅔ⑨ㅅㅡ⑨
ㄹㅡ⑨ㄴㅗ⑨
ㅂㅓᆼ
ㄱㅣ⑨ㅅㅐᆼ
ㅌㅔ⑨ㅇㅣ⑨ㅍㅡ⑨
##ㄷㅣ⑨ㅇㅜᆷ
ㄷㅗ⑨ㅅㅣ⑨ㄹㅏᆨ
ㅇㅡ⑨ㅁㅡ⑨ㄹㅗ
ㅈㅓᆼㅂㅏᆫㄷㅐ⑨
ㅇㅕᆫㅅㅏᆫ
ㅈㅓᆼㅈㅐᆼ
ㄱㅕᆯㄹㅕᆯ
ㅇㅞᆫㅁㅏᆫ
ㄷㅜ⑨ㅇㅓ⑨
ㄱㅗᆼㅇㅏᆫ
ㅅㅓ⑨ㅁㅜᆫ
##ㅅㅓᆼㄷㅗᆼ
ㅂㅜ⑨ㄷㅐ⑨ㅂㅕᆫㅇㅣᆫ
ㅇㅣ⑨ㅊㅏᆼ
ㅈㅐ⑨ㅂㅗ⑨ㅅㅓᆫ
ㄱㅡᆸㄱㅏᆷ
ㄱㅣ⑨ㄴㅕᆷㄱㅘᆫ
ㅉㅜᆨ
ㄱㅣᆺㅂㅏᆯ
ㅂㅏᆫㄴㅏᆸ
##ne
ㅁㅣ⑨ㅅㅡ⑨
ㅎㅗᆼㅇㅕᆼ
##ㅟᆼ
ㅅㅏ⑨ㅅㅣᆫ
ㅂㅜᆯㅇㅢ⑨
ㅇㅢ⑨ㅊㅗᆼ
ㅊㅓ⑨ㅈㅏᆼ
##ㅅㅏ⑨ㄹㅏᆷ
ㅇㅢ⑨ㄱㅜ⑨ㅅㅣᆷ
ㅅㅣ⑨ㅇㅓ⑨
ㄱㅏᆼㅁㅣᆫ
##led
ㄱㅣ⑨ㄹㅕᆨ
ㄷㅓᆼㅇㅓ⑨ㄹㅣ⑨
ㅈㅣᆫㅈㅏᆨ
ㅁㅣᆫㅂㅓᆸ
ㄱㅣᆷㅊㅏᆼ
ㅅㅛ⑨ㅌㅡ⑨
ㅅㅔ⑨ㄹㅖ⑨
ㅇㅕᆫㄱㅜ⑨ㅅㅗ
ㄱㅣ⑨ㅁㅣ⑨
ㄴㅐ⑨ㅂㅐᇀ
ㄱㅡᆫㄱㅏᆫ
##ㅇㅝ⑨ㅈㅣ⑨
tk
##ance
ㅌㅏ⑨ㄱㅗ⑨
##ㅏ⑨ㄱㅟ⑨
ㄴㅏᆨㅅㅓᆫ
##ㅌㅡᆯㄹㅓ⑨
ㅁㅗᆨㅎㅚ⑨
ㄱㅗᆼㄹㅣᆸ
ㅇㅏᆨㅅㅓᆼ
ㅋㅓᆫㅅㅗ⑨ㅅㅣ⑨ㅇㅓᆷ
ㅉㅣᆷ
ㅅㅜ⑨ㅍㅛ⑨
ㅂㅗᆩ
ㄱㅣᆷㅎㅏᆨ
ㅌㅗ⑨ㄹㅣ⑨
ㄱㅓ⑨ㅊㅏᆼ
##ㅅㅓᆼㅇㅣ⑨
ㅍㅜᆺ
hd
ㄱㅣᆷㅇㅝᆫ
ㄴㅏᆯㅇㅣᆫ
##ㅅㅏᆯㄹㅣ⑨
ㅎㅘᆫㄱㅕ
ㅇㅡᆷㅇㅝᆫ
ㅂㅏᆼㅅㅗᆼㄱㅜᆨ
ㅇㅔ⑨ㄷㅣ⑨
ㅊㅓᆯㅍㅖ⑨
##ㄱㅣ⑨ㄱㅜ
108
ㄹㅏ⑨ㅇㅜᆫ
ㅇㅏᆫㄷㅡ⑨ㄹㅗ⑨
ㄱㅛ⑨ㄱㅘ⑨ㅂㅜ⑨
ㅇㅣᆸㅈㅏ⑨
ㄴㅐ⑨ㄹㅕ⑨ㅈㅣ⑨
##ㅅㅡ⑨ㅋㅏ⑨
ㄱㅡᆷㅇㅠᆼㅇㅟ⑨
ㄷㅏᆫㅇㅕᆫ
ㅍㅣ⑨ㅌㅓ⑨
##ㄹㅜ⑨ㅁㅣ⑨
ㅅㅏ⑨ㅈㅣ
ㅌㅡᆨㅈㅣᆸ
ㅇㅜᆫㅇㅜᆫ
ㅇㅠ⑨ㄴㅔ⑨ㅅㅡ⑨ㅋㅗ⑨
ㅊㅓᆫㅁㅕᆼ
ㅊㅏ⑨ㅇㅣᆸ
ㅎㅗ⑨ㅈㅓᆫ
ㅇㅛ⑨ㅅㅐ⑨
ㅂㅐᆼㅋㅡ⑨
ㄱㅗᆫㄷㅜ⑨
ㅎㅓ⑨ㄱㅗᆼ
ㅇㅢ⑨ㄱㅓ⑨
ㅅㅓᆼㅂㅕᆯ
ㅈㅏᆼㅁㅏ⑨
ㅈㅣᆯㄹㅣ⑨
mv
ㅈㅜ⑨ㅊㅜᆷ
ㅂㅗᆯㄴㅔᆺ
ㅇㅡ⑨ㄹㅗ⑨ㅆㅓ
ㅇㅠ⑨ㅇㅣᆨ
ㅊㅜᆨㅂㅗᆨ
ㅈㅓᆨㅈㅓᆯㅎㅣ⑨
mou
##ㅁㅏᇀ
##ual
kbo
ㄱㅛ⑨ㄹㅣ⑨
ii
ㅅㅔᆨㅅㅣ⑨
ㄷㅔ⑨ㄹㅕ⑨ㄱㅏ⑨
ㅇㅘᆫㅈㅜ⑨
ㅁㅣ⑨ㅅㅡ⑨ㅌㅓ⑨
ㅇㅑᆼㅍㅕᆼ
##ㅂㅜ⑨ㅇㅣᆫ
ㅇㅖ⑨ㅁㅣᆫ
ㅇㅏ⑨ㅈㅜ⑨ㅁㅓ⑨ㄴㅣ⑨
ㅈㅗ⑨ㄹㅗᆼ
ㅅㅓ⑨ㄹㅣ⑨
ㅍㅗ⑨ㅍㅠᆯ
ㅎㅠ⑨ㅈㅣᆨ
ㅅㅓᆯㄱㅛ⑨
ㅅㅓ⑨ㅇㅝᆫ
ㅌㅡᆨㄱㅜ⑨
##ㄱㅣ⑨ㄴㅕᆷ
##ㅍㅐᆫ
ㄷㅏᆫㄱㅜᆫ
ㄱㅐᆺ
##ㄷㅗᆼㅁㅜᆯ
ㅍㅕᆼㄱㅏ
ㅇㅛᆼㅇㅣᆫㅅㅣ⑨
ㅎㅐᆺㅂㅕᇀ
ㄹㅏ⑨ㄴㅣ⑨
ㅍㅕᆼㅇㅏᆫ
ㅈㅣ⑨ㅂㅏᆼㅅㅔ⑨
ㅈㅓᆫㅎㅘ
ㅎㅏᆫㄲㅓᆺ
ㄱㅐ⑨ㅇㅝ
ㅁㅕᆼㅈㅔ⑨
##ㅋㅔ
ㅈㅓᆼㅎㅗ⑨
ㅁㅏᆼㅁㅕᆼ
##ㅎㅡᆷ
ㄴㅗ⑨ㅅㅜᆨ
ㅅㅣᆫㅊㅓᆼㅅㅓ⑨
ㅅㅏ⑨ㄱㅏᆨㅈㅣ⑨ㄷㅐ⑨
##ㅃㅏ
ㅇㅣ⑨ㅌㅡ
ㅈㅗ⑨ㅎㅕᆼ
ㄷㅏ⑨ㅅㅣ⑨ㄱㅡᆷ
184
##af
ㅍㅔᆯ
##ㅍㅏᆼㅇㅣ⑨
##ㅊㅡᆷ
ㅎㅢ⑨ㅁㅣ⑨
ㄱㅕᆷㅎㅏ⑨
ㅋㅗᆫㅋㅡ⑨
##ㄷㅏᆯㅇㅡᆷ
ㅃㅏ⑨ㅈㅕ⑨ㄷㅡᆯ
ㅅㅗᆨㅊㅗ⑨
ㄱㅜᆸㅎㅣ⑨
ㅊㅜᆯㅂㅏᆯㅈㅓᆷ
##ㄲㅓᆼ
ㅊㅣ⑨ㅈㅡ⑨
ㄷㅗᆼㅇㅢ⑨ㅇㅏᆫ
ㅅㅐᆼㅁㅜᆯㅎㅏᆨ
ㄴㅏᆷㅁㅣ⑨
ebs
ㄱㅐ⑨ㄹㅑᆼ
ㅅㅜ⑨ㅂㅣ⑨ㅅㅜ⑨
ㅈㅓᆫㅈㅏᆨ
ㄱㅕᆼㅇㅕᆫ
ㅈㅓᆫㅎㅑᆼ
ㅅㅣᆷㅊㅡᆼ
ㅍㅣ⑨ㅌㅡ⑨
ㅅㅣᆫㅊㅏ⑨
ㅇㅏ⑨ㅌㅔ⑨
ㅅㅡᆼㄱㅕᆨ
ㅅㅞ⑨
ㅇㅏ⑨ㅇㅜᆺㄷㅗ⑨ㅇㅓ⑨
ㄱㅓ⑨ㄹㅡ⑨
ㅇㅗ⑨ㄹㅔᆫ
ㅅㅓ⑨ㅈㅏᆼ
ㅍㅡ⑨ㄹㅗ⑨ㅈㅔᆨㅌㅡ
ㅇㅝᆯㄱㅏᆫ
##ㅑᆯ
ㄱㅗᆼㅁㅗ⑨ㅈㅓᆫ
ㅍㅗ⑨ㅅㅡ⑨ㅌㅓ⑨
ㅊㅐᆷㅍㅣ⑨ㅇㅓᆫㅅㅣᆸ
ㅈㅓᆯㅂㅕᆨ
##ㅑᆷ
ㅅㅜᆫㅊㅏ⑨
ㅌㅐᆼㅋㅡ⑨
ㅇㅕ⑨ㄴㅡ⑨
ㅇㅝᆫㄷㅗᆼㄹㅕᆨ
ㅌㅗ⑨ㅁㅏ⑨
ㄱㅏ⑨ㅊㅣ
ㅎㅗᆷㅍㅡᆯㄹㅓ⑨ㅅㅡ⑨
##ㅉㅏᆼ
ㄷㅜ⑨ㄴㅚ⑨
##ㅏ⑨ㄱㅜ⑨ㄴㅣ⑨
ㄹㅡ⑨ㄴㅔ⑨
ㄱㅜᆨㅁㅣᆫㅇㅡᆫㅎㅐᆼ
##per
ㄷㅗᆨㅊㅏᆼ
##ㅗᆫㄷㅡ⑨
ㅂㅏᆼㅂㅓ
ㄲㅓᆩㅇㅣ⑨
ㄱㅏᆼㅈㅓᆷㄱㅣ⑨
ㅁㅗ⑨ㅇㅕ⑨ㄷㅡᆯ
ㅅㅏᆫㅁㅜᆯ
ㅊㅣᆫㅂㅜᆫ
ㅈㅓᆫㅇㅣᆸ
ㅇㅕ⑨ㄹㅕᆨ
ㅁㅜ⑨ㄱㅜᆼ
ㅊㅜ⑨ㄹㅣ⑨
##ㅈㅜᆯㄱㅣ⑨
ㅍㅡ⑨ㄹㅏ⑨
ㅂㅓ⑨ㄹㅏᆨ
ㅁㅗ⑨ㄱㅣ⑨
##ㅇㅏ⑨ㅇㅣᆫ
ㄱㅏ⑨ㄷㅓᆨ
ㅊㅐ⑨ㄱㅝᆫㅈㅏ⑨
ㅈㅏᆼㄴㅏᆷ
ㅈㅐ⑨ㄹㅐ⑨
ㄷㅓ⑨ㄷㅡᆷ
##ㄷㅡ⑨ㄹㅔ⑨
ㄱㅕᆼㅂㅜᆨㄷㅐ⑨
ㅂㅗᆫㅇㅕᆫ
ㅈㅏᆼㄱㅏᆸ
##ㅅㅡ⑨ㅋㅡ⑨ㄹ
ㅈㅏᆼㅌㅓ⑨
ㅌㅏᆯㅂㅜᆨㅈㅏ⑨
##ㄷㅗᆼㅈㅏ⑨
ㅅㅜ⑨ㅇㅓᆹㅇㅣ⑨
ㅅㅏᆼㅅㅔ⑨ㅎㅏ⑨
ㅅㅗᆼㅇㅣ⑨
ㅇㅠᆫㄱㅘᆨ
ㄸㅏᆨㄸㅏᆨ
ㄱㅡᆰ
ㅅㅣᆷㄷㅗ⑨
##ㅁㅗ⑨ㄴㅣ⑨
ᆯㄱㅔ⑨ㅇㅛ
ㅅㅜᆫㄹㅖ⑨
ㅇㅕᆨㅅㅏ
ㅍㅣᆼㅋㅡ⑨
##ㅅㅔ⑨ㅇㅛ
ㅅㅓᆯㅌㅏᆼ
kcc
ㅈㅏᆺㄷㅐ⑨
ㅇㅕᆼㅎㅏ⑨
ㄹㅕ⑨ㄷㅏ⑨
ㅍㅕᆫㅊㅏᆫ
ㅊㅏ⑨ㅅㅓᆫ
##ㅅㅠᆷ
ㅈㅣ⑨ㄱㅏᆸ
ㅅㅗ⑨ㅍㅏ⑨
ㅅㅏ⑨ㅇㅚ⑨
ㅅㅏ⑨ㅊㅡᆨ
ㅇㅡᆼㅁㅗ⑨
##ㄷㅏ⑨ㅁ
ㅅㅏᆷㅈㅣᆫ
ㅋㅏ⑨ㅈㅣ⑨ㄴㅗ⑨
ㅈㅐ⑨ㅈㅡ⑨
ㅇㅕᆷㅈㅡᆼ
ㄷㅗᆼㅅㅓᆼㅇㅐ⑨
off
ㅁㅏᆽㄷㅐ⑨ㄱㅕᆯ
ㅇㅏ⑨ㅌㅣ⑨ㅅㅡ⑨ㅌㅡ⑨
ㅂㅣ⑨ㅇㅠ
ㅅㅔ⑨ㅅㅣᆷ
ㅂㅣᆫㄷㅗ⑨
ㅇㅓ⑨ㄹㅣᆫㅇㅏ⑨ㅇㅣ⑨
ㅋㅜ⑨ㅍㅗᆫ
ㅎㅏᆫㅅㅓᆼ
ㅅㅔ⑨ㄹㅡ⑨
ㅍㅗ⑨ㅇㅟ⑨
##ㅈㅓ⑨ㄹㅓᆫ
ㅅㅗ⑨ㅅㅓ
ㅅㅓ⑨ㄹㅡᆫ
ㄱㅡᆨㅇㅜ⑨
ㅇㅕᆫㄷㅐ
ㅂㅏᆼㅅㅏ⑨ㅅㅓᆫ
##ㅈㅏ⑨ㅅㅏᆫ
ㅂㅏᆼㅅㅗ
ㅋㅙ⑨ㄹㅏᆨ
ㄱㅣᆷㅎㅢ⑨
##ock
ㅊㅏ⑨ㅈㅗᆼ
ㄱㅏ⑨ㅈㅗᆨㅂㅜ⑨
ㅈㅓᆼㅊㅏᆯ
ㅅㅣᆸㅈㅏ⑨ㄱㅏ⑨
##ᆮㄴㅏᆯ
ㅎㅐ⑨ㅍㅣ⑨
ㅎㅕᆼㅅㅏ
##ㅍㅓ⑨ㄷㅡ⑨
ㅂㅏᆫㅈㅣ⑨
ㅅㅏᆸㅇㅣᆸ
ㅇㅣ⑨ㅇㅣᆫㅇㅕᆼ
ㅍㅗᆨㄱㅕᆨ
ㅁㅏ⑨ㄴㅑᆼ
ㄱㅏ⑨ㅇㅣ⑨ㄷㅡ⑨ㄹㅏ⑨ㅇㅣᆫ
102
ㅈㅐ⑨ㅅㅣᆷ
ㅈㅓᆼㅇㅜᆫ
ㅈㅏ⑨ㅊㅣ⑨ㄱㅜ⑨
ㅅㅐᆯ
ㅁㅏ⑨ㅂㅓᆸㅅㅏ⑨
##ㄱㅏ⑨ㄴㅣ⑨
ㄱㅗ⑨ㄴㅡᆫ
ㅋㅗᆫㅋㅡ⑨ㄹㅣ⑨ㅌㅡ⑨
ㅎㅘ⑨ㅈㅏ⑨
ㅈㅓᆸㄷㅐ⑨
##ㅊㅓᆯㄷㅗ⑨
##ㄱㅗᆨㄷㅗᆼ
ㅇㅣ⑨ㅇㅛᆼㄱㅐᆨ
##ㄸㅗ⑨
ㅈㅜᆼㄱㅜᆨㅇㅓ⑨
ㄱㅗᆼㅅㅏᆫㅈㅜ⑨ㅇㅢ⑨
ㅁㅐ⑨ㅁㅗᆯ
##ivers
ㅇㅜ⑨ㅅㅏᆫ
ㅂㅏᆯㅂㅜ⑨
ㅅㅗ⑨ㄴㅣ⑨
ㅇㅜ⑨ㄹㅑᆼ
ㄹㅏᆫㄷㅏ
ㅁㅏ⑨ㄴㅡᆯ
ㅂㅔᆯㄱㅣ⑨ㅇㅔ⑨
ㅂㅓᆫㅉㅓᆨ
suv
ㄴㅡᆫㅋㅓ⑨ㄴㅕᆼ
ㅂㅜᆫㅎㅐ⑨
ㅇㅑᆼㄴㅕᆷ
ㅈㅏ⑨ㅁㅕ
ㅎㅕᆫㄷㅐ⑨ㅇㅣᆫ
ㅅㅜ⑨ㅈㅜᆼ
ㄱㅜᆨㅇㅣᆨ
ㄱㅏᆼㅈㅏ⑨
ㄴㅏᆷㄱㅕᆼㅍㅣᆯ
ㄱㅘᆫㅁㅜᆫ
ㅊㅜᆼㅅㅣᆯㅎㅣ⑨
ㅇㅣᆫㅈㅜᆫ
##ight
ㅁㅣ⑨ㅎㅏᆨ
ㄷㅏᆫㄱㅣ⑨ㄱㅏᆫ
##ㅊㅗ⑨ㄷㅡᆼㅎㅏᆨㄱㅛ⑨
ㅎㅘ⑨ㅅㅏᆫ
ㄷㅐ⑨ㅌㅗᆼㄹㅕᆼㅈㅣᆨ
ㅎㅢᆫㅅㅐᆨ
ㄱㅘ⑨ㅈㅏ⑨
ㅍㅣ⑨ㄴㅏᆫ
ㄱㅖ⑨ㅁㅕᆼ
ㄱㅕᆫㅈㅣ⑨
ㅃㅑᆷ
ㅅㅣ⑨ㄷㅗᆼ
##ㄱㅜᆨㅁㅣᆫ
ㅈㅏ⑨ㅇㅟ⑨
dmz
ㅅㅏᆯㅍㅗ⑨
1920
ㄹㅜ⑨ㅇㅣ⑨ㅅㅡ⑨
ㅍㅜ⑨ㅌㅣᆫ
ㅇㅣ⑨ㅌㅡᆯㄱㅏᆫ
ㅁㅗ⑨ㅌㅗ⑨
ㅎㅏᆷㅇㅑᆼ
ㅎㅘ⑨ㅂㅗ⑨
ㅂㅜᆯㅍㅕᆼ
ㅅㅜ⑨ㅅㅓᆼㄱㅜ⑨
ㄹㅐᆷ
ㄱㅖ⑨ㅇㅑᆼ
ㄱㅏᆫㄷㅏᆫ
##ㅅㅏᆼㅅㅓᆫ
ㅅㅐᆼㅈㅓᆫ
ㅊㅜ⑨ㄱㅜᆼ
ㄱㅡᆷㄱㅗ⑨
##ㅍㅐᆨ
##ㅅㅣᆫㄷㅏᆼ
##ㅇㅚ⑨ㄱㅘ⑨
ㅁㅜᆯㅈㅏ⑨
ㅈㅓᆯㅈㅓᆼ
ㅇㅣ⑨ㅌㅡᆮㄴㅏᆯ
ㄴㅟ⑨
ㄴㅏᆷㅅㅏᆫ
ㅍㅖ⑨ㅇㅓᆸ
ㅎㅏᆯㄹㅣ⑨ㅇㅜ⑨ㄷㅡ⑨
ㄱㅗᆼㅇㅖ⑨
ㅊㅓᆫㅈㅓᆼ
ㅂㅓᆷㅎㅏ⑨
ㅈㅓ⑨ㅅㅓ⑨
ㅎㅗ⑨ㅈㅐ⑨
##ㅌㅜᆫ
ㅇㅠ⑨ㄴㅏᆫㅎㅣ⑨
ㅂㅜ⑨ㅊㅣ⑨
ㅍㅗ⑨ㅌㅗ⑨
##ㅅㅔᆯㄹㅗ⑨
##ㅅㅏ⑨ㄹㅕᆼ
ㅁㅜ⑨ㅅㅣᆷ
ㅋㅓᆯㄹㅔᆨ
ㅈㅐ⑨ㅁㅣ
ㅅㅐᆼㅎㅘᆯㅂㅣ⑨
ㄱㅏ⑨ㅇㅐᆨ
ᆯㄹㅗ⑨
ㅅㅣᆫㅁㅜᆫㅅㅏ⑨
##ㅈㅓᆫㅅㅓᆫ
ㅎㅏ⑨ㅇㅣᆫ
ㅋㅏ⑨ㄷㅡ
ㅅㅡ⑨ㅍㅡ⑨ㄹㅣᆼ
ㅊㅜ⑨ㄷㅐ⑨
ㅊㅗ⑨ㅅㅏᆼ
ㅋㅗᆺ
ㅈㅓᆫㅈㅏᆼ
ㅎㅏᆸㅅㅏᆫ
ㅅㅜ⑨ㅅㅏᆫㅁㅜᆯ
ㅇㅠ⑨ㅌㅐ⑨
ㅁㅜᆫㅌㅓᆨ
ㅅㅣᆷㅍㅗ⑨
ㅅㅏᆫㅇㅓᆸㅇㅡᆫㅎㅐᆼ
ㄴㅠ⑨ㅌㅏ⑨ㅇㅜᆫ
ㄷㅚ⑨ㅅㅏᆯㄹㅣ⑨
ㅇㅣ⑨ㄹㅓᆫㅈㅓ⑨ㄹㅓᆫ
ㅎㅗ⑨ㅈㅗ⑨
ㅋㅔ⑨ㅇㅣ⑨ㅅㅡ⑨
ㅇㅏᇁㄷㅟ⑨
ㄴㅏᆯㅇㅏ⑨ㅇㅗ⑨
ㅅㅜ⑨ㅅㅏᆫㅂㅜ⑨
ㅅㅓ⑨ㅇㅜᆯㅈㅜᆼㅇㅏᆼㅈㅣ⑨ㅂㅓᆸ
##ㅇㅚ
ㄷㅏᆷㅎㅏᆸ
ㅇㅣ⑨ㅂㅜᆯ
ㅅㅏ⑨ㅇㅗᆨ
ㄱㅟ⑨ㅈㅜᆼ
ㅈㅗ⑨ㅊㅓ⑨
ㅅㅏᆫㅎㅐᆼ
ㅂㅓᆸㅎㅏᆨ
ㅅㅓ⑨ㄱㅓ⑨
ㅇㅜᆫㄷㅗᆼㄱㅏ⑨
ㅅㅗᆼㅍㅏ⑨ㄱㅜ⑨
ㅇㅕᆷㅅㅐᆨ
ㅇㅗᆨㅅㅏᆼ
ㅇㅏᆫㅅㅏᆼ
##ㅎㅔ⑨ㅊㅣ⑨
ㅇㅜ⑨ㄸㅜᆨ
ㅃㅐᆺ
ㅅㅏᆼㅍㅛ⑨
ㄴㅐ⑨ㅂㅓ⑨ㄹㅣ⑨
##ㅎㅡᆨ
ㅅㅣᆨㅂㅕᆯ
ㅍㅗᆨㅍㅜᆼ
##ook
ㄷㅗᆼㅅㅏᆫ
ㄷㅗ⑨ㅁㅏᆼㄱㅏ⑨
ㄱㅗᆼㄱㅏ
ㅂㅜ⑨ㅈㅣ⑨ㄹㅓᆫ
ㅈㅏᆼㅊㅣ
ㅊㅐ⑨ㅁㅜ⑨ㅈㅏ⑨
##ㅇㅓ⑨ㅂㅜᇀ
##ㅈㅓ⑨ㅊㅜᆨ
ㅎㅣ
ㅎㅘᆫㄱㅡᆸ
ㅇㅠᆫㅅㅏᆼ
##ㅈㅣᆫㄷㅏᆼ
ㅊㅜ
ㄱㅡᆸㄱㅣ⑨ㅇㅑ⑨
ㄹㅏ⑨ㅇㅣᆫㅇㅓᆸ
ㅎㅛ⑨ㄱㅘ
ㅁㅏ⑨ㅊㅏ⑨
ㅈㅓᆫㅅㅡᆼ
ㅅㅓ⑨ㄷㅐ⑨ㅁㅜᆫ
ㅈㅓᆸㄱㅕᆫ
ㅈㅜ⑨ㄱㅘᆫㅎㅏ⑨
ㅊㅏ⑨ㅁㅕᆼ
ㅈㅏᆼㅈㅔ⑨
ㄱㅣᆷㄱㅓᆫㅎㅢ⑨
ㅇㅚ⑨ㅁㅜ⑨ㅅㅓᆼ
ㅌㅐ⑨ㅇㅏᆫ
ㄱㅗᆮㅈㅏᆼ
ㅂㅣ⑨ㅈㅏ⑨ㄱㅡᆷ
ㄱㅣ⑨ㄱㅘᆫㅈㅏᆼ
ㄱㅣ⑨ㅎㅚ
ㅇㅏᆨㅇㅕᆼㅎㅑᆼ
ㄱㅓ⑨ㅅㅣ⑨
##fc
ㄱㅗ⑨ㅊㅏᆯ
##ens
ㄷㅗᆼㅇㅛ⑨
ㅂㅣ⑨ㅇㅔᆫ
ㄱㅡ⑨ㄹㅓ⑨ㅎㅏ⑨
ㅇㅣᆫㅇㅟ⑨
ㅇㅠᆫㅎㅗ⑨
##ㅅㅐ⑨ㄱㅣ⑨
ㅈㅗᆼㅁㅏᆯ
ㅊㅓᆫㅁㅏᆨ
##ㅁㅏ⑨ㄹㅣ⑨
ㅋㅡᆫㅇㅣᆯ
ㅇㅕᆫㅅㅗ⑨
ㅍㅡ⑨
ㅈㅣ⑨ㅍㅕᆼ
ㅎㅘᆫㄱㅣ⑨
ㅇㅠ⑨ㅁㅜ⑨
ㅂㅓᆸㅊㅣ⑨
ㄱㅛ⑨ㄷㅗ⑨ㅅㅗ⑨
ㅇㅑᆼㅎㅗ⑨
ㅇㅑ⑨ㅅㅣᆷ
ㅇㅗ⑨ㄷㅣ⑨ㅅㅕᆫ
ㅌㅜ⑨ㄱㅜ⑨
ㅈㅔ⑨ㅈㅏᆨㅅㅏ⑨
ㅍㅣᆨ
ㅌㅜ⑨ㅈㅏ
ㅇㅑᆼㅈㅣᆯ
ㅇㅕᆫㅇㅣᆷ
ㄷㅟ⑨ㅉㅗᆨ
ㅎㅕᆸㅇㅢ⑨ㅎㅚ
ㅇㅚᆫㅅㅗᆫ
ㅇㅗᆯㄹㅕ⑨ㄴㅗᇂ
ㄱㅣᆷㅁㅜᆫㅅㅜ⑨
ㅈㅣ⑨ㅅㅜ
ㅋㅏᆷㅂㅗ⑨
ㅊㅜ⑨ㄱㅣ⑨
ㄷㅏᆫㄱㅓ⑨ㄹㅣ⑨
ㄱㅔ⑨ㄲㅡᆷ
ㄷㅗᆼㄷㅡᆼ
ㅅㅣ⑨ㅊㅐᆨ
##ㅎㅕᆸㄹㅕᆨ
ㄱㅐ⑨ㅁㅏᆨㅅㅣᆨ
ft
ㅅㅡᆼㅁㅏ⑨
ㅇㅢ⑨ㅇㅚ⑨ㄹㅗ⑨
ㅂㅗᆨㅈㅏᆼ
ㅎㅏᆼㅂㅗᆨ
ㄷㅐ⑨ㅍㅗ⑨
ㅊㅏᆷㅍㅐ⑨
ㅅㅡ⑨ㅌㅡ⑨ㄹㅏ⑨ㅇㅣ⑨
ㄱㅣ⑨ㄱㅏᆼ
ㅅㅜ⑨ㅇㅝᆯ
ㅈㅓᆫㅊㅏ⑨
ㅂㅏᆷㅅㅐ⑨
ㄱㅣᆷㅅㅔ⑨
ㅂㅏᆼㅇㅟ⑨ㅂㅣ⑨
since
ㅍㅗ⑨ㅅㅜ⑨
##ㅅㅗ⑨ㅅㅗᆼ
ㅎㅘᆯㄷㅗ
ㅇㅢ⑨ㅇㅏ⑨
ㅇㅐ⑨ㅍㅡᆯㄹㅣ⑨ㅋㅔ⑨ㅇㅣ⑨ㅅㅕᆫ
ㅌㅡ⑨ㄹㅔ⑨ㅇㅣ⑨ㄷㅡ⑨
ㄴㅗᆨㅇㅣ⑨
ㅈㅣ⑨ㅁㅕᆫ
ㅁㅣ⑨ㄲ
ㅂㅏᆼㅁㅕᆫ
ㄹㅏ⑨ㅌㅣᆫ
ㅅㅟᆷ
ㅍㅕᆼㅅㅏᆼ
ㅌㅏ⑨ㅅㅓᆨ
ㅍㅗ⑨ㄹㅡ⑨ㅌㅜ⑨ㄱㅏᆯ
ㅊㅗᆼㅅㅐᆼ
ㅂㅗᆨㅈㅗᆼ
##ㅊㅏ⑨ㄱㅡ⑨ㄹㅜᆸ
ㅂㅏᆼㅇㅜᆯ
ㄱㅏ⑨ㅁㅣ⑨
ㄱㅜᆨㅅㅜ⑨
ㅇㅜᆺㄱㅣ⑨
103
ㄷㅏᆫㅈㅣ
ㅈㅓᆫㅅㅣ⑨ㄱㅘᆫ
ㄴㅗ⑨ㄴㅕᆫ
ㅁㅏ⑨ㅅㅏ⑨ㅈㅣ⑨
ㅁㅣ⑨ㄷㅡ⑨ㅍㅣᆯ
##ㅍㅓ⑨ㄹㅓᆫㅅㅡ⑨
##ㅎㅜᆫㄹㅕᆫ
ㅅㅣᆯㅂㅓ⑨
ㅅㅡᆸㄷㅡᆨ
##ㅆㅏᆯ
ㄹㅗ⑨ㄷㅡ⑨ㅁㅐᆸ
ㄴㅗ⑨ㄹㅕ⑨ㅂㅗ⑨
ㅁㅣᆯㄷㅗ⑨
ㄱㅣᆫㅁㅣᆯㅎㅣ⑨
ㅇㅝᆫㅈㅓᆷ
ㄱㅘ⑨ㅇㅓᆫ
##ㅇㅝᆫㅅㅣᆨ
##ㅍㅡ⑨ㄹㅔ⑨
ㅈㅓᆼㅈㅜ⑨
ㅈㅜᆼㅇㅟ⑨
ㅇㅕ⑨ㅂㅐ⑨ㅇㅜ⑨
ㅇㅗ⑨ㅌㅗ⑨ㅂㅏ⑨ㅇㅣ⑨
ㄱㅡᆨㅂㅗᆫ
##one
ㅂㅣᆫㅅㅗ⑨
ㅈㅏᆼㅈㅓᆼ
ㄱㅗᆫㅊㅜᆼ
ㅋㅓ⑨ㄹㅣ⑨
ㅊㅣᆷㅊㅏᆨ
ㅈㅏᆷㅈㅏ⑨ㄹㅣ⑨
ㄱㅏ⑨ㄴㅡᆯ
ㅍㅣᆫㄹㅏᆫㄷㅡ⑨
ㅈㅓᆼㄷㅗᆼㅇㅕᆼ
ㅍㅗᆨㄹㅏᆨ
ㄱㅣᆯㄱㅓ⑨ㄹㅣ⑨
##ㄷㅓᆺ
ㅂㅐ⑨ㄱㅣ⑨
ㅎㅓ⑨ㅁㅜ⑨
##ㅂㅐᆺ
ㄱㅜᆮㅇㅓ⑨ㅈㅣ⑨
ㅅㅏ⑨ㅇㅜᆫㄷㅡ⑨
ㅇㅗ⑨ㅅㅣ⑨
ㄱㅣ⑨ㅂㅜ⑨ㄱㅡᆷ
ㅈㅓᆼㄹㅗᆫㄱㅘᆫ
ㅇㅙ
##ro
ㄱㅏᆼㅅㅜ⑨
ㅅㅣᆫㄹㅚ⑨ㄷㅗ⑨
ㄱㅜᆫㄷㅏᆫ
##ㅍㅗ⑨ㅌㅡ⑨
ㄷㅐ⑨ㅅㅡᆼ
ㄴㅏ⑨ㅈㅜ⑨
ㄱㅡᆸㅂㅜ⑨
ㄲㅡᆯㄹㅣ⑨
ㅍㅣ⑨ㅅㅡ⑨
ㅌㅚ⑨ㅈㅏᆼ
ㄷㅜᆯㄹㅓ⑨ㅆㅏ⑨ㅇㅣ⑨
##ㅎㅐ⑨ㅇㅜᆫ
##ㅃㅣ⑨
ㄱㅡᆯㅆㅔ⑨
ㅇㅟ⑨ㅇㅏᆫㅎㅘ⑨
ㅈㅔ⑨ㅇㅘᆼ
ㄱㅜᆫㅍㅗ⑨
##ㅇㅖ⑨ㅅㅜᆯ
ㄴㅏᆸㅇㅣᆸ
ㅅㅗᆯㅈㅣᆨㅎㅏ⑨
ㅌㅏ⑨ㄱㅗ⑨ㄴㅏ⑨
ㅈㅏ⑨ㄹㅣᆺ
ㅅㅏ⑨ㅎㅏ⑨
##ath
ㅈㅏᆼㄷㅏᆷ
##ㄴㅣᆺ
ㄷㅜᆯㄹㅔ⑨
ㅇㅗ⑨ㄹㅔᆫㅈㅣ⑨
ㄱㅣ⑨ㅁㅣᆯ
ㅅㅣ⑨ㅇㅕᆫ
##ㅏ⑨ㅇㅜ
ㅈㅜ⑨ㅅㅏᆼ
ㄱㅏ⑨ㄹㅗ⑨ㅈㅣ⑨ㄹㅡ⑨
##fa
##ㄹㅡ⑨ㄹㅡ⑨
##ㅉㅜᆨ
ㄱㅕᆼㅅㅓᆼ
ㅂㅜᆨㄱㅡᆨ
ㄱㅓ⑨ㅊㅣᆷ
##ㅅㅗ⑨ㄷㅡ⑨
ㅇㅓ⑨ㅎㅟ⑨
ㅎㅏᆨㅅㅏ⑨
ㅌㅐ⑨ㅂㅐᆨ
ㅇㅣ⑨ㅇㅡᆨ
ㅅㅔ⑨ㄱㅖ⑨ㄱㅘᆫ
ㅈㅓᆼㅎㅕᆼ
ㅊㅏ⑨ㅊㅡᆷ
ㄱㅗ⑨ㅇㅐᆨ
ㄷㅡ⑨ㄹㅏ⑨ㅇㅣ⑨ㅂㅡ⑨
##ㅂㅏ⑨ㄲㅜᆷ
ㅇㅗ⑨ㅍㅡ⑨
##ㅅㅓᆫㄱㅓ⑨
ㅈㅣᆼㅎㅜ⑨
ㅁㅜ⑨ㅅㅏ⑨ㅎㅣ⑨
ㅍㅜᆼㅅㅗᆨ
ㅊㅜ⑨ㅅㅣᆫㅅㅜ⑨
##ㅇㅕᆫㅁㅐ
ㅂㅗ⑨ㅎㅜᆫㅊㅓ⑨
##ㅆㅓᆸ
ㅇㅕ⑨ㅇㅜ⑨
ㅁㅜᆨㅁㅜᆨㅎㅣ⑨
ㄷㅡ⑨ㄹㅐ⑨ㄱㅗᆫ
ㅁㅐᆫㅊㅔ⑨ㅅㅡ⑨ㅌㅓ⑨
ㅇㅔ⑨ㄹㅣᆨ
##ㅌㅔ⑨ㄹㅡ⑨
ㄱㅜᆨㅂㅏᆼㅈㅏᆼㄱㅘᆫ
ㅈㅔ⑨ㅇㅣ⑨
ㅅㅓ⑨ㅂㅡ⑨
##ㄷㅓᆫㅈㅣ⑨
ㅁㅣᆫㅈㅜ⑨ㄴㅗ⑨ㄷㅗᆼㄷㅏᆼ
ㄱㅘᆼㄷㅐ⑨
ㅌㅔ⑨ㄴㅣ⑨ㅅㅡ⑨
ㅇㅓ⑨ㄱㅣ⑨
ㄴㅗ⑨ㅇㅝᆫ
ㄲㅡᆭㅇㅣᆷㅇㅓᆹ
##ㅏ⑨ㅁㅕ
ㄷㅜ⑨ㄹㅕ⑨ㅇㅝ⑨ㅎㅏ⑨
##ㅓ⑨ㄴㅏ⑨
ㅂㅜ⑨ㄷㅜ⑨
ㅅㅡ⑨ㅁㅜ⑨
ㅎㅐᆼㅇㅏᆫ
ㅇㅓᆯㅇㅓ⑨ㅂㅜᇀ
ㅋㅜᆯ
1978
ㅌㅗᆯ
##ㅈㅔᆺ
ㅉㅗᆾㄱㅕ⑨ㄴㅏ⑨
ㅁㅏᆨㅂㅏ⑨ㅈㅣ⑨
ㄷㅗ⑨ㅁㅜ⑨ㅈㅣ⑨
##ㅅㅡ⑨ㅍㅗ⑨ㅊㅡ⑨
ㅂㅗᆨㅈㅏᆸㅎㅏ⑨
ㅂㅗ⑨ㅅㅓᆫ
ㄷㅗᆼㅈㅓᆷ
ㄴㅣ⑨ㄲㅏ⑨ㅇㅛ
ro
ㅅㅏᆯㄱㅠᆫ
ㅇㅐ⑨ㅁㅐ⑨
ㄸㅜᆶㄹㅣ⑨
ㄴㅗ⑨ㄹㅡ⑨ㅇㅞ⑨ㅇㅣ⑨
ㅇㅕ⑨ㅎㅐᆼㄱㅐᆨ
ㅁㅣ⑨ㅅㅏ⑨
ㅇㅏ⑨ㄴㅣ⑨ㅇㅑ⑨
ㅂㅔ⑨ㅌㅔ⑨
ㅂㅜ⑨ㅍㅜᆯㄹㅣ⑨
ㅂㅜ⑨ㅌㅓ
##ㅂㅡ⑨ㄹㅗ⑨
ㅈㅐ⑨ㅇㅏᆼ
ㅇㅖ⑨ㄴㅕᆫ
ㅈㅣᆸㅎㅐᆼㅂㅜ⑨
ㅅㅗ⑨ㅂㅏᆨ
##ㅁㅏᆯㄹㅣ⑨
ㅂㅏᆯㅅㅏ⑨ㅊㅔ⑨
##ㄲㅐ⑨ㅇㅜ⑨
ㅈㅓᆼㅈㅏᆼ
ㄴㅗ⑨ㅌㅡ⑨ㅂㅜᆨ
ㅇㅣᆯㄲㅐ⑨ㅇㅜ⑨
ㅁㅕᆼㅅㅏᆼ
ㄴㅠ⑨ㄷㅣᆯ
ㅂㅏᆼㅊㅜᆯ
ㅅㅏᆼㅇㅣ⑨
ㅂㅏᆼㅇㅏ
ㄱㅘᆫㅇㅏᆨ
ㄱㅜᆨㅈㅓᆼㅇㅝᆫㅈㅏᆼ
##ㄱㅣᆷㅇㅓᆹㅇㅣ⑨
ᆯㄱㅔ
ㅈㅣ⑨ㅅㅗ⑨
ㄷㅐ⑨ㄷㅏᆫ
ㅊㅔ⑨ㅈㅗ⑨
ㅂㅗᆨㅅㅏ⑨
ㄴㅓᆷㄴㅏ⑨ㄷㅡᆯ
##ㄱㅡᆷㅅㅗᆨ
ㅈㅗᆼㅅㅗᆨ
ㅍㅏ⑨ㅂㅕᆼ
ㅎㅏ⑨ㅅㅏ⑨
ㅂㅏᆨㅇㅣᆫ
ㄱㅣ⑨ㄱㅜ
ㅅㅐᆼㅅㅏ
ㅋㅗ⑨ㄹㅔ⑨ㅇㅣᆯ
ㅇㅏᆫㅂㅗ⑨ㅅㅣᆯㅈㅏᆼ
ㅅㅜᆫㅊㅏᆯ
##ㅇㅏ⑨ㄱㅗᆼ
kc
ㄱㅡᆸㅂㅕᆫ
ㅎㅏᆫㅇㅢ⑨
ㅂㅗ⑨ㅈㅣᆨ
ㅇㅝᆫㅅㅗ⑨
ㄱㅏᆼㅂㅜᆨ
ㅅㅏᆼㅅㅗ⑨
ㅈㅔ⑨ㄱㅏᆯ
##ㅊㅏ⑨ㄹㅣ⑨
##iti
##ement
ㅅㅣᆯㅈㅓ
ㅅㅣ⑨ㄹㅕᆫ
360
ㅅㅐᆼㅁㅕᆼㅊㅔ⑨
ㅂㅗ⑨ㅌㅡ⑨
##ㅁㅜ⑨ㅅㅗ⑨
##ㄴㅐ
ㅅㅓ⑨ㅅㅏᆫ
ㅊㅚ⑨ㅇㅕᆼ
ㅅㅡ⑨ㅁㅜᆯ
ㅂㅐ⑨ㄱㅡᆸ
ㅂㅜ⑨ㄷㅏᆷㄱㅡᆷ
ㅎㅏᆨㅈㅓᆷ
ㅈㅗ⑨ㅅㅓᆫㅅㅗ⑨
ㅂㅜ⑨ㅌㅗᆼ
ㅁㅏᆭㅇㅏ⑨ㅈㅣ⑨
##ㅍㅓᆫㄷㅡ⑨
ㅎㅏᆫㅂㅗᆨ
ㄹㅣ⑨ㄹㅏ⑨ㄱㅗ⑨
lng
ㅅㅓᆫㅅㅜ
ㅂㅗᆨㄱㅝᆫ
ㄱㅕᆼㅅㅏᆫ
ㅇㅣᆽㅎㅣ⑨
ㅇㅣ⑨ㅇㅡᆨㄱㅗ⑨
ㅇㅝᆫㅅㅓ⑨
ㄷㅓ⑨ㅇㅟ⑨
ㄲㅗᆼ
ㄱㅏᆫㅊㅓᆸ
ㅎㅔ⑨ㅈㅣ⑨
ㄷㅡ⑨ㄴㅏ⑨ㄷㅡᆯ
08
ㄱㅕᆼㅈㅐᆼㅅㅏ⑨
ㅈㅗ⑨ㄹㅖ⑨ㅇㅏᆫ
ㅍㅗ
ㄱㅕᆼㅂㅜ⑨
ㅅㅏ⑨ㅇㅢ⑨
gre
ㅇㅢ⑨ㅎㅑᆼ
ㅈㅣᆨㅊㅐᆨ
ㅇㅢ⑨ㅊㅣ⑨
1973
bc
##ㅋㅡ⑨ㄹㅣ⑨
ㅌㅏᆯㅁㅗ⑨
ㅇㅕ⑨ㅅㅜ⑨ㅅㅣ⑨
ㄱㅟ⑨ㅊㅏᆭ
##ㅁㅣᆺ
ㅇㅝᆫㅅㅣᆷ
##ㅇㅕᆫㄷㅐ⑨
ㅌㅜᆨ
ㅈㅓᆼㅈㅓᆼ
ㅂㅜ⑨ㅂㅜ⑨ㅈㅏᆼ
ㅂㅜᆯㅇㅓ⑨
ㄱㅣ⑨ㅅㅜᆯㅈㅏ⑨
ㅎㅟᆸㅆㅡᆯ
ㅅㅔ⑨ㅅㅗᆨ
ㄴㅗᆼㅅㅜ⑨
cg
ㄷㅏᆼㅁㅕᆫ
ㅂㅡ⑨
ㅁㅗᆨㄷㅗᆼ
##ㄴㅗ⑨ㅅㅡ⑨
ㄹㅣ⑨ㅂㅣ⑨ㅇㅏ⑨
1975
ㅇㅏᆯㅍㅏ⑨
ㄷㅗᆼㅎㅐ⑨ㅇㅏᆫ
ㅊㅜᆯㅊㅓ⑨
ㅁㅣᆯㄹㅕ⑨ㄴㅏ⑨
ㅇㅚ⑨ㄱㅘᆫ
ㄱㅏ⑨ㅍㅕᆼ
ㅅㅏ⑨ㄹㅣ⑨
##ㅎㅚ⑨ㄱㅘᆫ
##ㅌㅔ⑨ㅁㅕᆫ
##ㅚᆸ
ㅅㅜ⑨ㄹㅏᆨ
ㅂㅡᆯㄹㅏ⑨
ㅈㅏᆫㅇㅐᆨ
ㅇㅜ⑨ㅅㅏᆼㅎㅗ⑨
ㅇㅏ⑨ㅅㅣ⑨ㅇㅏ⑨ㄴㅏ⑨
ㅂㅡᆯㄹㅗ⑨
ㄷㅐ⑨ㅂㅗᆫ
ㄴㅓᆷㄱㅕ⑨
ㅋㅗ⑨ㅇㅗ⑨
ㄲㅐ⑨ㄷㅏᆯㅇㅡᆷ
ㅅㅔ⑨ㅇㅣᆸㅈㅏ⑨
ㄱㅕᇀㄷㅡᆯㅇㅣ⑨
##ㅌㅏᆷ
ㄱㅡᆫㄷㅔ⑨
ㄷㅐ⑨ㅅㅓᆼ
ㅇㅕᆫㄹㅕᆼㄷㅐ⑨
ㅈㅏ⑨ㄱㅜᆼ
ㅅㅣᆷㄹㅣ⑨ㅎㅏᆨ
ㅅㅣᆫㅇㅡᆷ
ㄹㅣ⑨ㅂ
ㅇㅡᆫㄱㅡᆫ
ㅌㅡᆨㄱㅡᆸ
ㅇㅐᆨㅅㅔ⑨
ㅂㅜᆯㅇㅓ⑨ㄴㅓᇂ
ㅂㅗᆼㅎㅏ⑨
##ㄴㅐ⑨ㄱㅣ⑨
ㅇㅕᆯㄱㅘᆼ
##ㅅㅜ⑨ㄹㅣ⑨
1948
ㅇㅣ⑨ㄹㅡᆯ
##ㅌㅜ⑨ㅅㅡ⑨
##atio
ㄴㅘ⑨
ㄱㅗᆼㅅㅣᆫ
ㅈㅓᆼㄷㅗ
ㄹㅏᆯ
ㄱㅐ⑨ㅎㅓᆫㅇㅏᆫ
ㅂㅜ⑨ㅌㅗᆼㄹㅕᆼ
ㅋㅜ⑨ㅂㅏ⑨
ㅎㅏᆼㅇㅣᆯ
ㅈㅏᆼㅅㅣ⑨ㄱㅏᆫ
##ㅁㅜ⑨ㄴㅣ⑨
ㅇㅣ⑨ㄱㅘᆫ
ㅇㅕ⑨ㄷㅗᆼㅅㅐᆼ
ㅈㅣᆸㅇㅓ⑨ㄴㅓᇂ
ㅈㅗ⑨ㅈㅗᆼㅅㅏ⑨
##ian
ㅊㅏᆼㄱㅏᆫ
ㅇㅏᆨㅊㅟ⑨
ㅎㅐᆼㅇㅏᆫㅂㅜ⑨
ㅇㅣ⑨ㅎㅖ⑨
ㅅㅏ⑨ㄷㅗ⑨
ㄷㅏᆼㅎㅗᆨ
ㅅㅣᆯㅈㅡᆼ
ㅍㅏ⑨ㅇㅣ⑨ㄴ
ㅌㅏᆯㅂㅏ⑨ㄲㅜᆷ
450
ㅇㅕᆫㅅㅓᆨㅎㅚ⑨ㅇㅢ⑨
ㅎㅣ⑨ㅌㅡᆯㄹㅓ⑨
ㅅㅐᆼㄹㅑᆨ
ㅇㅕᆼㄷㅗ⑨
ㄱㅣ⑨ㅈㅓᆷ
ㅇㅠ⑨ㄴㅏ⑨ㅇㅣ⑨
ㄱㅏ⑨ㄷㅏᆨ
ㅈㅣ⑨ㅎㅟ⑨ㄱㅘᆫ
univers
##ㅇㅖ⑨ㅅㅏᆫ
##ㅂㅏ⑨ㄱㅔᆫ
ㅁㅏ⑨ㅍㅗ⑨ㄱㅜ⑨
##ㅅㅣ⑨ㅅㅡ⑨ㅋㅗ⑨
ㅌㅡᆨㅅㅐᆨ
ㅇㅜᆯㅌㅏ⑨ㄹㅣ⑨
ㄱㅘᆫㅈㅔ⑨
ㅁㅕᆼㅎㅏᆷ
ㄴㅏᆷㅇㅏ⑨ㄱㅗᆼ
ㅈㅣᆯㅌㅜ⑨
##ㅆㅏ⑨ㅇㅜᆷ
##ㅂㅏᆨㅅㅡ⑨
ㄴㅣᆺ
ㅈㅗ⑨ㅅㅏ⑨ㄷㅏᆫ
##────
ㅁㅜᆫㅎㅢ⑨ㅅㅏᆼ
ㄱㅘᆫㄹㅖ⑨
##ㄱㅐᆺ
ㅅㅐᆨㅊㅐ⑨
ㅂㅏᆫㄹㅗᆫ
ㅇㅜ⑨ㅇㅣᆨ
ㅁㅜ⑨ㅎㅕᆼ
ㅂㅡ⑨ㄹㅜ⑨
ㅇㅏᆬㅎㅣ⑨
##ㅅㅏ⑨ㄹㅕᆨ
ㅁㅗ⑨ㄷㅠᆯ
ㄱㅐ⑨ㄱㅏᆨ
ㅈㅓ⑨ㅎㅐ⑨
ㅂㅜᇀㅈㅏᆸㅎㅣ⑨
09
ㄱㅏᆷㄷㅗ
ㄸㅗ⑨ㄹㅐ⑨
ㄷㅐ⑨ㅎㅏᆫㅅㅏᆼ
ㅍㅗ⑨ㅈㅣ⑨ㅅㅕᆫ
ㅇㅣ⑨ㄹㅡᆯㅌㅔ⑨ㅁㅕᆫ
ㅇㅕᆯㄹㅏᆷ
ㅇㅏᆷㅎㅗ⑨
ㄴㅏ⑨ㅇㅣ⑨ㅌㅡ⑨
1974
ㄱㅡᆸㅅㅗᆨㅎㅣ⑨
##ㄹㅐᆼ
ㅇㅏ⑨ㅁㅏ⑨ㅈㅗᆫ
ㄹㅏ⑨ㅇㅣ⑨ㅂㅓᆯ
ㅎㅏ⑨ㅌㅐ⑨ㄱㅕᆼ
ㄲㅡᆯㅇㅓ⑨ㅇㅏᆫ
ㄱㅏ⑨ㅁㅏ⑨
ㄱㅕᆼㅅㅣᆫ
ㄱㅣᆷㅊㅓᆫ
ㅅㅏ⑨ㄹㅕᆼㅌㅏᆸ
##ㅈㅏᆭ
ㅁㅏ⑨ㅇㅡᆷㅁㅓᆨ
ms
ㅌㅔᆫㅌㅡ⑨
ㅇㅣ⑨ㅉㅗᆨ
ㅊㅟ⑨ㅇㅓᆸㅈㅏ⑨
ㅍㅡ⑨ㄹㅣ⑨ㅁㅣ⑨ㅇㅓ⑨
ㅅㅓ⑨ㅇㅕᆯ
ㅍㅕᆷ
rel
ㄷㅗᆨㅈㅜ⑨
ㄱㅣᆷㄱㅣ⑨ㅎㅕᆫ
ㅈㅗᆫㅇㅓᆷ
##ㅁㅏᆼㅇㅣ⑨
##ㅌㅔ⑨ㅅㅡ⑨
ㅂㅕᆼㅇㅝ
ㄷㅏᆼㄱㅠ⑨
ㅈㅗᆼㅈㅗᆨ
ㅇㅕ⑨ㅎㅐᆼㅅㅏ⑨
ㄱㅏᆨㄷㅗ⑨
ㅇㅣ⑨ㅅㅏᆫㅎㅘ⑨
ㅅㅣᆫㅎㅡᆼㄱㅜᆨ
ㅂㅏᆫㅊㅏᆫ
ㅈㅜ⑨ㄱㅛ⑨
ㅈㅜᆼㅊㅜ⑨
ㄴㅜᆫㅇㅕ⑨
ㄱㅜᆨㅂㅣᆫ
ㄱㅜ⑨ㄷㅗᆨ
ㅇㅏ⑨ㅁㅜ⑨ㄹㅓᇂ
ㅇㅜ⑨ㅅㅡᆸ
ㅈㅔ⑨ㄱㅜᆨㅈㅜ⑨ㅇㅢ⑨
ㅈㅗᆼㅅㅣᆨ
ㅁㅏ⑨ㅈㅜ⑨ㅎㅏ⑨
ㄷㅏᆨㅌㅓ⑨
##ㅂㅜ⑨ㄹㅡ⑨
ㅅㅣ⑨ㄱㅗᆼㅅㅏ⑨
ㅈㅏᆼㄹㅗ⑨
ㄷㅐ⑨ㅇㅜ⑨ㅈㅗ⑨ㅅㅓᆫㅎㅐ⑨ㅇㅑᆼ
ㅈㅜ⑨ㅇㅢ
ㅎㅜ⑨ㅂㅗ⑨ㄱㅜᆫ
ㄱㅕᆯㅇㅕ⑨
ㄱㅏᆫㅎㅗᆨ
ㅇㅕ⑨ㅅㅓ
ㅅㅣᆯㅅㅜ⑨ㅇㅛ⑨
ㅈㅐ⑨ㅈㅜ⑨
125
ㄷㅗ⑨ㅁㅣ⑨
ㅂㅗᆼㅅㅏ⑨ㄷㅏᆫ
ㅅㅗᆫㄲㅗᆸㅎㅣ⑨
ㅎㅏᆫㅂㅏᆯ
##ㅅㅡ⑨ㅌㅏ⑨ㅇㅣᆫ
ㄱㅘ⑨ㄱㅓ⑨ㅅㅏ⑨
ㅂㅏᆯㄷㅗᆼ
ㅇㅏᆯㅇㅏ⑨ㅊㅏ⑨ㄹㅣ⑨
ㅎㅓ⑨ㄱㅜ⑨
##ㅇㅖ
ㅅㅜ⑨ㄹㅑᆼ
ㅅㅜ⑨ㅅㅓᆨㅅㅣᆯ
ㅁㅣ⑨ㅈㅣ⑨ㅅㅜ⑨
ㅈㅜᆼㅇㅝᆫ
ㅅㅓᆫㄱㅓ
ㅁㅏ⑨ㄸㅏᆼㅎㅣ⑨
ㅂㅣ⑨ㅇㅜᆺ
sl
ㄱㅕᆼㅈㅓᆼ
ㅂㅏᆼㅅㅏᆫ
##ㅉㅓᆼ
ㅁㅣᆫㅈㅏ⑨
ㅈㅣᆼㅇㅛᆼ
##ace
ㅇㅏᆯㅇㅏ⑨ㄷㅡᆮ
ㅅㅣ⑨ㄹㅕᆨ
ㅅㅗ⑨ㅎㅗᆯㅎㅣ⑨
ㄷㅏᆼㅈㅓᆨ
ᆫㄷㅏ⑨ㄱㅗ
ㅈㅗᆼㅍㅕᆫ
ㄷㅏᆫㄱㅖ
ㅅㅓᆼㄱㅡᆸ
ㅇㅑᆨㄱㅜᆨ
ㄱㅕᆫㄱㅗ⑨
ㄷㅡᆯㅇㅕ⑨ㅇㅗ⑨
ㅇㅕᆨㅈㅓᆷ
ㄱㅜ⑨ㅎㅕᆼ
ㅊㅓᆫㅁㅜᆫ
##ㅂㅔ⑨ㅅㅡ⑨
ㅅㅔ⑨ㅇㅣᆯㅈㅡ⑨
ㅂㅜᆯㅎㅘᆨ
ㄴㅜ⑨ㄹㅏᆨ
ㅂㅓ⑨ㄹㅡᆺ
ㅂㅐᆨㄷㅜ⑨ㅅㅏᆫ
ㄱㅣ⑨ㅅㅐᆨ
##ㅅㅏ⑨ㄹㅏᆼ
##ㅎㅏ⑨ㄹㅜ⑨
ㅊㅜᆯㅎㅏ⑨
ㅇㅏ⑨ㅁㅔ⑨ㄹㅣ⑨
##ov
ㅁㅏᆨㅇㅕᆫ
ㅁㅏ⑨ㅇㅣᆫㄷㅡ⑨
ㅅㅓ⑨ㅈㅐ⑨
ㄷㅗᆼㅈㅓᆫ
ㅂㅗ⑨ㅅㅏᆼㄱㅡᆷ
ㅎㅏᆫㄱㅜᆨㅈㅓᆫㄹㅕᆨ
ㄱㅓᆫㅅㅓᆯㅇㅓᆸ
ㅅㅏ⑨ㅁㅜ⑨ㄱㅜᆨㅈㅏᆼ
ㅍㅣᆯㄹㅣᆸ
ㅇㅜ⑨ㅅㅓᆫㅅㅜᆫㅇㅟ⑨
ㅎㅔ⑨ㅇㅣ⑨
ㅁㅏᆫㅈㅓᆷ
ㅅㅗ⑨ㄱㅘᆫ
ㄱㅜ⑨ㄹㅗ⑨
ㅅㅣᆷㅈㅐ⑨
ㅅㅜᇀ
ㅂㅜ⑨ㅈㅏ
ㅁㅣ⑨ㅌㅣᆼ
##ㅍㅡ⑨ㄹㅏᆫ
##ㅁㅣ⑨ㅋㅏᆯ
ㅍㅜᆼㅈㅏ⑨
ㅈㅏ⑨ㄹㅣᆺㅅㅜ⑨
ㅎㅐᆼㅅㅓᆼ
ㅊㅔ⑨ㅇㅗᆫ
intern
ㅈㅗ⑨ㅎㅕᆫ
##ㅋㅗᆺ
ㄱㅗ⑨ㅊㅡᆼ
ㅅㅣᆫㅇㅕᆼ
ㅂㅓᆽ
ㄷㅐ⑨ㅇㅜ⑨ㄱㅓᆫㅅㅓᆯ
ㅈㅏᆼㅇㅐ⑨ㅁㅜᆯ
##ㅡᆷㅇㅠᆼ
ㅈㅓᆫㄷㅗᆼ
ㅂㅜ⑨ㄹㅓ⑨ㅈㅣ⑨
ㅇㅜᆫㅇㅣᆷ
ㅌㅏᆯㅍㅣ⑨
ㄴㅏᆷㅇㅑᆼㅈㅜ⑨
ㅅㅏ⑨ㅈㅜ⑨
ㅇㅗᆨㅅㅜ⑨ㅅㅜ⑨
ㄱㅏᆼㄱㅣ⑨
ㄷㅚ⑨ㅁㅜᆮ
ㅎㅘ⑨ㅊㅓᆫ
ㅁㅏᆫㅁㅜᆯ
ㅍㅔ⑨ㅇㅓ⑨
##ㄸㅐ⑨ㄹㅗ⑨
##ㅋㅙ⑨ㅎㅏ⑨
ㄷㅐ⑨ㄱㅗᆼ
ㄱㅖ⑨ㅌㅗᆼ
pa
ㄷㅗ⑨ㅈㅏ⑨ㄱㅣ⑨
ㅅㅣᆯㅅㅏ⑨
ㅅㅣ⑨ㅇㅟ⑨ㄷㅐ⑨
my
ㅂㅓᆨ
ㅍㅡ⑨ㄹㅗ⑨ㄷㅠ⑨
ㅎㅗᆼㅇㅕᆼㅍㅛ⑨
##ㄲㅜᆷㅊㅣ⑨
ㅎㅣᆫ
ㄱㅗᆼㅂㅓᆸ
ㅇㅠ⑨ㅇㅓᆫ
##ㅅㅗ⑨ㅎㅏ⑨
ㄱㅜ⑨ㅌㅐ⑨
ㄷㅐ⑨ㅍㅛ⑨ㅈㅏ⑨
ㅅㅏᆼㅇㅣᆷㅇㅟ⑨ㅇㅝᆫㅎㅚ⑨
##ㄴㅓᆷㄱㅣ⑨
ㅋㅏᆷㅂㅗ⑨ㄷㅣ⑨ㅇㅏ⑨
ㅍㅏ⑨ㅎㅔ⑨ㅊㅣ⑨
159
ᆫㄷㅔ⑨ㅇㅛ
ㅇㅑ⑨ㄱㅜ⑨ㅈㅏᆼ
ㄷㅏ⑨ㅂㅏᆼ
ㅆㅢ⑨ㅇㅜ⑨
ㅂㅏᆨㅎㅐ⑨
ㅅㅓᆼㅁㅕᆼㅅㅓ⑨
ㅍㅛ⑨ㅂㅏᆼ
york
##ㅌㅡᆯㄹ
ㅊㅣᆯㄹㅔ⑨
ㅇㅓ⑨ㅉㅐ⑨
ㄷㅗ⑨ㅇㅜ⑨
ㅅㅏᆼㅅㅡᆸ
ㅋㅏ⑨ㄹㅣ⑨ㅅㅡ⑨
ㅅㅓᆫㄱㅛ⑨ㅅㅏ⑨
##ㅌㅜ⑨ㄹㅣ⑨
ㄷㅗᆯㅍㅜᆼ
ㅂㅏᆫㄱㅏᆷ
##ㄷㅏᆨㅊㅣ⑨
##ㅈㅓᆼㅅㅣᆨ
ㅌㅗᆼㅎㅏ
ㄱㅛ⑨ㅂㅗᆨ
##ㄸㅡᆷ
ㅇㅘᆫㅅㅜ⑨
##ㄹㅜᆺ
ㅇㅣᆯㅇㅝᆫ
ㅎㅚ⑨ㅅㅐᆨ
##ㅈㅗ⑨ㅅㅏ⑨
ㅇㅕᆼㄷㅗᆼ
ㅌㅏ⑨ㅇㅣ⑨ㅁㅣᆼ
ㅇㅕᆫㅎㅏ⑨
ㅈㅓᆯㅂㅏᆨㅎㅏ⑨
ㅂㅜᆫㄷㅏᆷㄱㅡᆷ
ㅍㅏ⑨ㅋㅣ⑨ㅅㅡ⑨ㅌㅏᆫ
##ㅋㅏ⑨ㅇ
ㅎㅜᆴ
ㅂㅜᆯㅂㅗᆨ
ㅃㅏ⑨ㄸㅡ⑨ㄹㅣ⑨
ㅇㅣ⑨ㄴㅏ⑨ㅁㅏ⑨
ㅈㅓᆸㅅㅣ⑨
ㄱㅓ⑨ㄹㅐ⑨ㄹㅑᆼ
ㅍㅡ⑨ㄹㅗ⑨ㅇㅣ⑨ㅌㅡ⑨
##ㅇㅛᆼㅈㅣ⑨
ㅈㅗ⑨ㅇㅝᆫ
ㄱㅕᆼㅊㅏᆯㅊㅓᆼㅈㅏᆼ
ㅋㅟᆫ
ㄷㅚ⑨ㅅㅐ⑨ㄱㅣ⑨
##ㅇㅡᆫㅎㅢ⑨
ㅎㅏ⑨ㄷㅗᆼ
ㄱㅗᆼㅇㅓᆫ
ㅈㅏᆼㅍㅕᆫ
##ㅈㅓᆫㅎㅏ⑨
ㅁㅣ⑨ㅅㅕᆫ
ㅂㅜ⑨ㅇㅕᆫ
ㅂㅕᆫㅎㅕᆨ
ㅁㅔᆯㄹㅗ⑨
ㅋㅓ⑨ㅂㅓ⑨
ㅇㅗ⑨ㄹㅣ⑨ㅇㅗᆫ
ㅅㅐ⑨ㅁㅏ⑨ㅇㅡᆯ
ㄱㅏᆷㅇㅕᆷㅂㅕᆼ
icbm
ㄱㅗᆯㅋㅣ⑨
ㅅㅏᆷㅅㅓᆼㅎㅘ⑨ㅈㅐ⑨
##ism
ㄴㅓᆪ
ㄷㅐ⑨ㄷㅓᆨ
ㅈㅚ⑨ㅅㅗᆼㅎㅏ⑨
##ㅇㅣ⑨ㅊㅣ⑨
ㅇㅗᆫㅈㅓᆫㅎㅣ⑨
ㅅㅣ⑨ㄴㅐ⑨ㅂㅓ⑨ㅅㅡ⑨
##ㅌㅣᆯ
ㅈㅗ⑨ㅂㅕᆯ
ㅎㅏᆼㅇㅏᆷ
##ㅂㅔ⑨ㅌㅡ⑨
##ㅅㅓ⑨ㅅㅡ⑨
ㅅㅡᆯㄹㅏ⑨ㅇㅣ⑨
##ㅍㅜ⑨ㄹㅣ⑨
cs
ㅈㅔ⑨ㅈㅏ⑨ㄹㅣ⑨
ㄱㅜᆨㄱㅣ⑨
ㄱㅣᆷㅇㅠ⑨
ㅅㅏᆫㅇㅓᆸㅂㅜ⑨
cor
ㅇㅠ⑨ㅌㅗᆼㅇㅓᆸㅊㅔ⑨
ㅇㅓᇁㄷㅡ⑨ㄹㅣ⑨
ㄱㅣᇁㅅㅜᆨㅇㅣ⑨
ㅇㅠ⑨ㅊㅏᆨ
ㅅㅣᆷㅎㅕᆯ
ㄷㅚᆫ
ㄱㅜᆨㄱㅏ⑨ㅈㅜ⑨ㅅㅓᆨ
ㅈㅏ⑨ㅊㅟ⑨
ㅂㅜᆫㅎㅘ⑨
ㅇㅔ⑨ㅍㅣ⑨ㅅㅗ⑨ㄷㅡ⑨
ㅇㅖ⑨ㄱㅕᆫ
ㅂㅐ⑨ㅇㅣᆷ
ㅎㅘᆯㅂㅏᆯㅎㅣ⑨
##ㅎㅣᆯ
##ㅊㅜᆼㅇㅝᆫ
ㅊㅣᆨ
##ㅇㅙ⑨
##ㅎㅣᆷ
ㄱㅣᆷㄱㅜ⑨
ㄱㅏ⑨ㄷㅜ⑨
ㄷㅐ⑨ㅁㅣ⑨
ㅇㅏᆯㄹㅜ⑨ㅁㅣ⑨
ㅂㅏ⑨ㄷㅏᆺㄱㅏ⑨
ㄹㅓ⑨ㄴㅣᆼ
ㅇㅕᆫㅈㅓᆼ
ㅊㅔ⑨ㅈㅔ
ㅂㅣᆯㄹㅏ⑨
ㅋㅣᆯㄹㅗ⑨ㅁㅣ⑨ㅌㅓ⑨
ㅈㅓᆫㄹㅏ⑨
ㅂㅏᆼㅊㅣ
ㅋㅡ⑨ㄹㅗ⑨ㅅㅡ⑨
ㄷㅏᆫㄱㅕᆯ
ㅅㅗ⑨ㅈㅣᆫ
ㅅㅏᆷㅅㅓᆼㅅㅐᆼㅁㅕᆼ
ㄱㅘ⑨ㅈㅔ
ㅁㅕᆫㅁㅣᆯㅎㅣ⑨
ㅇㅣ⑨ㄹㅣ⑨ㅈㅓ⑨ㄹㅣ⑨
ㅅㅗ⑨ㄷㅗᆨ
ㅎㅘᆫㅅㅏᆫ
220
ㅅㅡ⑨ㅌㅡ⑨ㄹㅣ⑨
ㅈㅓᆼㅅㅣ
ㄱㅔ⑨ㅇㅣ
ㄷㅏ⑨ㄱㅜᆨ
ㄷㅏ⑨ㅈㅓ⑨ㅅㅡ⑨
ㄱㅖ⑨ㅂㅏᆯ
ㄱㅗᆯㅍㅓ⑨
ㅇㅟ⑨ㅌㅐ⑨
ㄷㅏ⑨ㅇㅣ⑨ㅇㅏ⑨ㅁ
##ㅅㅡᆯㄹㅣ⑨
ㅇㅠ⑨ㄹㅣᆫ
ㅊㅗ⑨ㅈㅗ⑨
1976
##ㅋㅏ⑨ㅇㅣ⑨
##ㅂㅜᆯㄹㅣ⑨
mbn
ㅊㅏᆫㅇㅑᆼ
ㄷㅗ⑨ㅍㅣ⑨
ㅊㅐᆨㅁㅜ⑨
1972
dis
ㅇㅢ⑨ㄴㅗᆫ
183
ㄷㅏ⑨ㅈㅓᆼ
ㅈㅔ⑨ㅈㅗ⑨ㅅㅏ⑨
ㅃㅜᆯ
ㅎㅛ⑨ㄴㅡᆼ
ㄸㅜ⑨ㄲㅓᆼ
ㅇㅠ⑨ㄹㅠ⑨
ㅅㅓ⑨ㄴㅏᆷ
ㅁㅏ⑨ㄷㅡ⑨ㄹㅣ⑨
##ㅇㅕ⑨ㅈㅓᆼ
tim
##ㅇㅕᆫㅎㅏ
ㅊㅏᆷㄷㅚ⑨
ㄴㅏ⑨ㄹㅏ
ㄱㅜ⑨ㅈㅗ⑨ㅁㅜᆯ
ㅂㅏᆼㅅㅣ
ㄹㅡ⑨ㄴㅔ⑨ㅅㅏᆼ
ㅇㅣᆯㄹㅠ⑨
ㅈㅓᆼㄹㅠ⑨
##ubl
ㄱㅕᆼㅅㅐᆨ
ㄱㅏᆽㄱㅏ⑨ㅈㅣ⑨
ㄱㅛ⑨ㅎㅑᆼ
ㅅㅡᆸㅈㅣ⑨
ㅋㅐ⑨ㅈㅜ⑨ㅇㅓᆯ
ㄴㅏᆷㅁㅐ⑨
ㅅㅏ⑨ㅈㅓᆯ
ㄹㅣ⑨ㄹㅏ⑨ㄴㅡᆫ
##ㅅㅣ⑨ㅍㅣᆨ
ㄷㅐ⑨ㅇㅣᆫ
ㅅㅓᆮ
ㅊㅏ⑨ㅇㅣ⑨ㅈㅓᆷ
ㅇㅜᆫㅇㅛᆼㅅㅏ⑨
ind
ㅈㅜᆼㅇㅏᆼㅇㅡᆫㅎㅐᆼ
ㅇㅣ⑨ㄹㅏᆼ
ㅂㅜ⑨ㅅㅏᆫㄷㅐ⑨
ㅅㅣᆯㅈㅗᆼㅈㅏ⑨
ㅎㅣᆸ
ㅇㅣᆯㅈㅜ⑨
ㄷㅗ⑨ㅂㅗ⑨
ㅎㅏᆯㅂㅜ⑨
pg
##ㅎㅗᆷ
ㅅㅣᆷㅅㅣᆷ
ㅈㅣᆯㅊㅐᆨ
ㅇㅏ⑨ㅁㅣ⑨
##ㄹㅣᆷㅍㅣᆨ
ㅈㅜ⑨ㅍㅏ⑨ㅅㅜ⑨
ㅅㅣ⑨ㄷㅡ⑨
ㅍㅣ⑨ㅈㅏ⑨
ㅇㅜ⑨ㅇㅝᆫㅅㅣᆨ
ㅂㅏ⑨ㅇㅜᆯ
##ㅈㅚ
ㅅㅐᆫㅍㅡ⑨ㄹㅏᆫ
ㄱㅐᆼㅅㅣᆫ
ㅈㅜᆼㄷㅡᆼ
ㅈㅓᆼㅂㅗ
john
ㅇㅓ⑨ㅇㅑ⑨ㅈㅛ
ㅂㅕᆨㅎㅘ⑨
ㄱㅗᆼㅅㅏ
with
ㄱㅗᆯㅋㅣ⑨ㅍㅓ⑨
ㅇㅓᆷㅈㅣ⑨
ㅅㅏ⑨ㅊㅗᆫ
ㄱㅣᆷㅎㅗᆼ
ㅇㅣ⑨ㅎㅘ⑨ㅇㅕ⑨ㄷㅐ⑨
ㄱㅕ⑨ㄹㅜ⑨
ㅅㅏ⑨ㅇㅟ⑨
ㄲㅗᆷㅉㅏᆨ
##ㅈㅜ⑨ㅌㅐᆨㅈㅏ⑨
ㅍㅗ⑨ㄷㅡ⑨
ㅅㅜᆯㅈㅣᆸ
ㅉㅣ⑨ㅍㅜ⑨ㄹㅣ⑨
##ㅁㅏ⑨ㅇㅡᆷ
ㅅㅏ⑨ㅈㅓ⑨
ㅂㅣ⑨ㅋㅣ⑨
ㄱㅓ⑨ㅇㅣᆫ
ㅅㅓᆯㅁㅏ⑨
ㅅㅓᆼㄴㅏᆷㅅㅣ⑨ㅈㅏᆼ
ㅇㅣ⑨ㅈㅓᆼㅎㅕᆫ
iot
ㅆㅡᆯㄷㅔ⑨
ㄱㅣ⑨ㄱㅏ
ㅈㅓᆨㄱㅡᆷ
ㄱㅡ⑨ㄹㅏ⑨ㅇㅜᆫㄷㅡ⑨
ㄸㅏ
ㅂㅣ⑨ㄹㅖ⑨ㄷㅐ⑨ㅍㅛ⑨
ㅎㅏᆫㄹㅏ⑨
ㅎㅐᆼㅈㅓᆨ
ㅋㅗᆯㄹㅔ⑨
ㅅㅗᆨㄴㅐ⑨
ㅁㅣ⑨ㅁㅣ⑨ㅎㅏ⑨
ㄱㅠᆫㅇㅕᆯ
##ㅌㅏ⑨ㅇㅣᆷㅅㅡ⑨
ㄷㅗ⑨ㅅㅏᆫ
ㄱㅏᆷㄱㅕᆨ
ㅊㅜ⑨ㅈㅗᆼ
ㄷㅐ⑨ㄴㅐ⑨
ㅇㅠ⑨ㄱㅕᆨ
ㅍㅡᆯㄹㅔ⑨ㅇㅣ⑨ㅇㅓ⑨
ㅅㅏ⑨ㅁㅜ⑨ㅊㅓ⑨ㅈㅏᆼ
uae
ㅎㅟ⑨ㅁㅏᆯㄹㅣ⑨
ㄱㅓᆫㅅㅓ
ㅇㅕᆫㅁㅕᆫㅈㅓᆨ
ㅂㅜ⑨ㅎㅡᆼ
ㅇㅠᆫㅇㅕᆼ
ㄴㅗ⑨ㄷㅗᆼㄹㅕᆨ
ㅇㅓ⑨ㄴㅡ⑨ㄷㅓᆺ
ㅇㅣᆷㅅㅣ⑨ㅎㅚ⑨
ㅁㅣ⑨ㅁㅛ⑨
ㄴㅗ⑨ㅊㅗᆼ
ㅅㅓᆼㅎㅢ⑨ㄹㅗᆼ
ㅇㅛᆼㅇㅢ⑨ㅈㅏ⑨
ㅁㅐ⑨ㄴㅠ⑨ㅇㅓᆯ
ㅇㅛ⑨ㅅㅣ⑨
##ㅁㅗ⑨ㅅㅡᆸ
ㅍㅛ⑨ㅅㅏᆼ
##ㄱㅗ⑨ㅅㅏ⑨
ㅅㅓ⑨ㄱㅏᆼ
ㄱㅏᆷㄹㅣ⑨
179
ㅅㅠ⑨ㅌㅣᆼ
ㅂㅕᆫㅎㅏᆷ
ㅅㅜ⑨ㄹㅛ⑨
ㅅㅓᆫㄱㅓ⑨ㅇㅣᆫㄷㅏᆫ
ㅇㅑ⑨ㅊㅐ⑨
ㅅㅏ⑨ㅎㅏᆨ
ㅊㅚ⑨ㅈㅏᆼ
ㅅㅓ⑨ㅇㅜᆯㅇㅕᆨ
ㅂㅏᆯㄱㅣ⑨
ㅊㅔ⑨ㄱㅖ
ㅁㅓᆼㅎㅏ⑨
ㅅㅔ⑨ㄷㅏᆫ
ㅈㅓᆯㄷㅗ⑨
##ㄹㅠᆷ
ㅅㅓ⑨ㅇㅜᆯㄱㅗ⑨
ㄱㅖ⑨ㄹㅠ⑨
ㅍㅐᆼㅊㅏᆼ
ㄱㅗᆼㄹㅛᆼ
ㅇㅣᆷㅊㅏ⑨
ㄴㅡᆯㅇㅓ⑨ㅈㅣ⑨
ㅂㅓᆯㄹㅔ⑨
ㅂㅗᆫㅈㅣ⑨
07
ㅇㅕᆼㄷㅡᆼㅍㅗ⑨
kn
##ㅍㅏᆨ
ㅇㅏᆫㄷㅡ⑨ㄹㅗ⑨ㅇㅣ⑨ㄷㅡ⑨
240
ㅎㅘᆯㄷㅗᆼㅂㅣ⑨
ㄱㅟ⑨ㅎㅘᆫ
ㅅㅔᆨ
ㅇㅑᆼㄷㅐ⑨
ㅇㅣᆫㅈㅏ⑨
ㄱㅕᆼㅎㅏᆸ
ㄴㅏᆷㅂㅏᆼ
1971
ㅅㅜ⑨ㅊㅓᆸ
ㅁㅜ⑨ㅇㅏᆫ
ㅇㅘᆼㅅㅓᆼ
ㅅㅣᆨㅍㅜᆷㅂㅜ⑨
ㅈㅓᆷㅍㅡ⑨
##ish
115
ㅎㅢ⑨ㄱㅟ⑨
ㅇㅣᆯㅅㅏᆷ
ㅈㅗ⑨ㅁㅏᆼ
ㅇㅜ⑨ㅊㅔ⑨
ㅅㅗ⑨ㅈㅜᆼㅎㅏ⑨
ㅈㅓᆷㅈㅣᆫ
ㅋㅗᆯㄹㅗᆷ
ㄱㅣ⑨ㅅㅜ⑨
ㅂㅜᆯㅎㅘᆨㅅㅣᆯ
ㅈㅣ⑨ㄴㅏᆫㅎㅏ⑨
ㄹㅗᆺㄷㅔ⑨ㄱㅡ⑨ㄹㅜᆸ
ㅌㅡᆷㅅㅐ⑨
ㄱㅜᆨㄱㅗᆼ
ㄱㅓ⑨ㄷㅡᆯ
ㄷㅣᆮ
ㅂㅜᆯㅆㅣ⑨
##ㅁㅐ⑨ㄷㅗ⑨
ml
ㅇㅟ⑨ㅂㅐ⑨
ㅅㅣ⑨ㅅㅣ⑨
ㅎㅕᆫㅈㅗᆫ
ㅇㅖ⑨ㄱㅕᆯㅇㅟ⑨
ㅋㅡᆯㄹㅔ⑨
ㅌㅗᆼㅅㅣᆫㅁㅏᆼ
##ㄸㅏᆷ
ㅈㅓᆼㅌㅐ⑨
ㅈㅓᆷㄱㅓ⑨
ㅇㅣᆯㅂㅗᆫㅇㅓ⑨
##ㅈㅓᆼㅅㅣᆫ
ㅁㅗ⑨ㅊㅓ⑨ㄹㅓᆷ
ㅊㅓ⑨ㅇㅜ⑨
ㅎㅗ⑨ㅎㅡᆸㄱㅣ⑨
cp
##88
ㅇㅛ⑨ㄹㅏᆫ
ㅈㅣ⑨ㅎㅟ⑨ㅈㅏ⑨
ㄱㅐ⑨ㅁㅣ⑨
##ㅏ⑨ㅇㅗ⑨ㅅㅡ⑨
ㅇㅠ⑨ㅎㅢ⑨
ㄷㅗᆼㅅㅏ⑨
##ank
##ㄱㅜ⑨ㅊㅣ⑨
ㅊㅓᆸㅂㅗ⑨
ㅇㅖ⑨ㅂㅗ⑨
ㅅㅣ⑨ㅈㅗ⑨
ㅅㅗ⑨ㅊㅜ⑨
ㅎㅗ⑨ㅇㅟ⑨
ㅂㅏ⑨ㄴㅡᆯ
ㅇㅚ⑨ㅎㅕᆼ
ㅈㅜ⑨ㅌㅐ
ㅎㅐ⑨ㅅㅜ⑨ㅇㅛᆨㅈㅏᆼ
ㅁㅗᆨㅈㅓᆨㅈㅣ⑨
ㅅㅡ⑨ㅍㅏ⑨ㅇㅣ⑨
ev
ㅈㅐ⑨ㄱㅣ⑨
ㄴㅣ⑨ㅋㅗᆯ
ㄴㅏ⑨ㄴㅏᆯ
ㅅㅣᆫㅈㅓᆫ
ls
##ㅋㅡ⑨ㄹㅏ⑨
ㅂㅏ⑨ㄹㅗ⑨ㅈㅏᆸ
ㅇㅝᆫㅍㅣ⑨ㅅㅡ⑨
##ere
ㅇㅏ⑨ㄴㅑ⑨
ㅈㅗᆼㅈㅏ⑨
ㅁㅜᆯㅇㅢ⑨
##ㅍㅡᆯㄹㅔᆨㅅㅡ⑨
ㅅㅣᆫㅇㅏᆫ
ㅂㅓᆫㄱㅏᆯ
ㅇㅏᆫㄷㅗ⑨
ㅂㅡ⑨ㄹㅔ⑨ㅇㅣ⑨ㅋㅡ⑨
ㄷㅜᆼㅈㅣ⑨
ㅈㅓᆼㅈㅜᆼ
ㅈㅜ⑨ㅇㅣᆸ
ㅂㅏᆨㅈㅜᆫ
ㄱㅘ⑨ㄱㅏᆷㅎㅣ⑨
ㅂㅜ⑨ㅅㅓ⑨ㅈㅣ⑨
ㅇㅏᆫㅁㅕᆫ
ㅌㅗ⑨ㅈㅗᆼ
ㅂㅔ⑨ㅌㅔ⑨ㄹㅏᆼ
ㅂㅗ⑨ㅎㅓ
ㅅㅡᆼㅁㅜ⑨ㅇㅝᆫ
ㅇㅣᆫㅁㅐᆨ
ㅋㅏ⑨ㄹㅣ⑨ㅅㅡ⑨ㅁㅏ⑨
ㅅㅣ⑨ㅈㅗᆼ
ㅅㅣ⑨ㅁㅔᆫㅌㅡ⑨
ㄷㅜ⑨ㄲㅔ⑨
ㅁㅛ⑨ㅇㅕᆨ
ㄹㅣ⑨ㅂㅓ⑨
ㄷㅐ⑨ㄲㅜ⑨
ㅅㅣ⑨ㄱㅡ⑨
##ㅎㅣ
##ㅌㅡᆨㅇㅟ⑨
##ㅏ⑨ㅇㅜ⑨ㅅㅡ⑨
ㄱㅝᆫㅇㅣᆨㅇㅟ⑨
ㄸㅐ⑨ㄸㅐ⑨ㄹㅗ⑨
##ㅉㅣᆯ
ㅂㅣ⑨ㅊㅏᆷ
ㅆㅡᆯㅆㅡᆯ
ㄱㅡᆯㄹ
##ㅇㅓᆫㅅㅡ⑨
ㄱㅐ⑨ㅍㅕᆫㅇㅏᆫ
ㄴㅡ⑨ㄴㅣ⑨
ㅇㅕᆼㅎㅘ⑨ㄱㅘᆫ
kd
ㅇㅠᆨㅈㅣ⑨
ㅇㅟᆫㄷㅗ⑨
ㅂㅗᆫㅈㅓᆷ
ㅊㅜᆼㅈㅜ⑨
ㅂㅜᆯㅎㅓ⑨
ㅂㅗ⑨ㅇㅣ⑨ㅋㅗᆺ
##ign
ㅋㅡᆯㄹㅣᆨ
ㅌㅏ⑨ㄱㅣᆺ
ㅅㅗ⑨ㄷㅗᆼ
ㅎㅗ⑨ㅅㅓᆫ
ㅇㅣᆫㅊㅓᆫㄱㅜᆨㅈㅔ⑨ㄱㅗᆼㅎㅏᆼ
ㅇㅏᆯㄹㅜ⑨ㅁㅣ⑨ㄴㅠᆷ
ㄷㅗ⑨ㄱㅡᆸ
ㄱㅜ⑨ㅈㅗ
ㄱㅘᆫㅇㅛᆼ
ㅅㅓᆼㅅㅏᆫ
ㅊㅏᆼㅇㅢ⑨ㄹㅕᆨ
ㄷㅐ⑨ㅇㅟ⑨
ㅇㅝᆫㅈㅜ⑨ㅁㅣᆫ
111
ㅂㅓᆷㅈㅚ⑨ㅈㅏ⑨
ㄲㅐ⑨ㄲㅡᆺㅇㅣ⑨
ㄷㅐ⑨ㄹㅣᆷ
ㅁㅗ⑨ㄹㅣ⑨
##ㅅㅡ⑨ㅌㅓ
ㅈㅓ⑨ㄱㅏᆷ
pb
ㄷㅏᆷㅈㅏᆼ
ㅅㅏ⑨ㅈㅓᆼㄱㅘᆫ
ㅊㅟ⑨ㅈㅣᆨ
123
ㄱㅗ⑨ㅊㅜᆼ
##ㅅㅏ⑨ㄴㅡᆼ
ㅈㅏᆨㅇㅟ⑨
ㄷㅏ⑨ㅈㅏ⑨
ㅅㅗᆨㅅㅏᆨ
ㄷㅏᆯㄱ
ㅎㅜᆯㄹㅠᆼㅎㅏ⑨
ㅎㅟ⑨ㅂㅏᆯㅇㅠ⑨
ㄱㅡᆷㅇㅠ
ㅍㅐ⑨ㅁㅣᆯㄹㅣ⑨
ㄸㅏ⑨ㄷㅗᆯㄹㅣ⑨
ㅌㅔᆫ
ㅂㅏᆯㅈㅏ⑨ㄱㅜᆨ
##enc
ㅇㅏᆸㄹㅠ⑨
ㄷㅗᆼㅎㅏᆨ
##ㄴㅗ⑨ㅂ
ㅇㅣᆫㅍㅡᆯㄹㅔ⑨ㅇㅣ⑨ㅅㅕᆫ
ㅇㅜᆫㅅㅜ⑨
ㅅㅣᆫㅈㅣᆫ
ㅅㅜᇀㅎㅏ⑨
ㅅㅣᆫㅊㅓᆼㅈㅏ⑨
ㄱㅜᆼㅈㅓᆫ
1965
ㄱㅛ⑨ㄷㅏᆫ
ㅈㅗᆼㅂㅜ⑨
ㄱㅕᆼㅁㅏ⑨
ㅍㅛ⑨ㅈㅓᆯ
ㅇㅕᆯㅂㅕᆼ
ㅈㅗ⑨ㅅㅜ⑨
ㄷㅏᆼㅈㅣᆨ
ㄱㅜ⑨ㅂㅣ⑨
##ㅅㅡ⑨ㅌㅏ
ㅇㅓ⑨ㅉㅐ⑨ㅅㅓ⑨
cf
ㅌㅏ⑨ㅇㅣ⑨ㄱㅓ⑨
ㅇㅏᆯㄸㅡᆯ
ㅇㅜᆫㅇㅕᆼㅂㅣ⑨
##ㅅㅣᆫㅈㅓ⑨
ㅎㅡᆯㄹㅓ⑨ㄴㅐ⑨ㄹㅣ⑨
ㅌㅡᆯㄹㅣᆷㅇㅓᆹㅇㅣ⑨
ㅍㅏᆯㄹㅔ⑨ㅅㅡ⑨ㅌㅏ⑨ㅇㅣᆫ
##ㄴㅜ⑨ㄹㅡ⑨
##ca
ㅍㅗ⑨ㅎㅘ⑨
ㅇㅠ⑨ㅅㅜ⑨
ㅎㅐᆼㅈㅏᆼ
ㅈㅜᆼㅇㅏᆼㅎㅚ⑨
ㅁㅣᆸ
ㅈㅣ⑨ㅈㅜᆼ
ㅎㅗᆼㅅㅏᆷ
ㄷㅗᆼㅇㅣᆫ
ㄱㅓᆯㄱㅡ⑨ㄹㅜᆸ
ㅊㅏ⑨ㄷㅡᆼ
ㅂㅗᆨㅈㅣ⑨ㄱㅘᆫ
##ㄷㅣ⑨ㅅㅡ⑨ㅍㅡᆯㄹㅔ⑨ㅇㅣ⑨
ㅍㅏ⑨ㄹㅏᆫ
ㅂㅏ⑨ㄹㅣ⑨
ㄴㅏᆨㅁㅏ⑨
ㅅㅐᆫㅍㅡ⑨ㄹㅏᆫㅅㅣ⑨ㅅㅡ⑨ㅋㅗ⑨
ㅈㅏ⑨ㄱㅏᆨ
ㄱㅣ⑨ㄹㅗᆨㅁㅜᆯ
ㄴㅗ⑨ㅌㅐ⑨ㅇㅜ⑨
ㅇㅗ⑨ㄹㅡ⑨ㄴㅐ⑨ㄹㅣ⑨
ㅎㅕᆫㄷㅐ⑨ㅂㅐᆨㅎㅘ⑨ㅈㅓᆷ
ㅂㅜᆫㅎㅑᆼ
1968
ㅂㅏᆫㅈㅏᆼ
ㅈㅣᆨㄱㅘᆫ
ㅇㅏ⑨ㅁㅔ⑨ㄹㅣ⑨ㅋㅏ⑨
##ㄱㅗ⑨ㄷㅡᆼㅎㅏᆨㄱㅛ⑨
ㅆㅡᆸ
ㅁㅣ⑨ㅅㅐᆼㅁㅜᆯ
##ean
ㅅㅔ⑨ㅈㅏ⑨
ㄴㅗᆯㅇㅣ⑨ㅌㅓ⑨
ㄱㅓᆷㅇㅕᆯ
ㅍㅏ⑨ㅁㅕᆫ
und
ㅍㅏᆫㅅㅔ⑨
ㄱㅗᆯㄱㅗ⑨
ㅊㅣᆷㅂㅓᆷ
ㅋㅗ⑨ㅇㅗ⑨ㄹㅗᆼ
do
##ㅋㅓᆨ
ㅈㅔ⑨ㄷㅐ⑨
ㅇㅕᆫㅈㅜᆼ
ㅁㅜ⑨ㅅㅓᆼ
ㄱㅜᆯㄹㅣ⑨
qu
##ㅅㅜᆼㅇㅣ⑨
ㄱㅑ⑨
ㄱㅗᆨㅁㅜᆯ
##ㅈㅓ⑨ㅊㅜᆨㅇㅡᆫㅎㅐᆼ
ㅁㅜᆯㄷㅡᆯ
ㄱㅛ⑨ㅈㅣᆨㅇㅝᆫ
ㄷㅏ⑨ㄱㅜᆨㅈㅓᆨ
ㅍㅏᆷ
ㅊㅗᆼㄱㅣ⑨
107
ㅈㅡᆨㅇㅟ⑨
ㅊㅜ⑨ㄱㅣ⑨ㄱㅕᆼ
ㅌㅔ⑨ㅁㅏ⑨ㅍㅏ⑨ㅋㅡ⑨
##ㄹㅔᆯ
ㅇㅡᆫㅎㅐ
ㅁㅜᆫㄷㅏᆫ
ㅇㅕᆼㅅㅓᆼ
world
ㅅㅡ⑨ㅌㅔ⑨ㅇㅣ⑨
ㅇㅠ⑨ㄱㅣ⑨ㄴㅗᆼ
ㅂㅏᆼㅅㅏ⑨ㄴㅡᆼ
ㅎㅠᆼㄴㅐ⑨
ㅎㅏ⑨ㄹㅜᆺ
lgㅎㅘ⑨ㅎㅏᆨ
ㅈㅔ⑨ㅅㅗ⑨
ㄷㅐ⑨ㄴㅏᆷ
ㄱㅖ⑨ㅁㅗᆼ
ㅎㅏᆨㅍㅏ⑨
ㅅㅓᆫㅊㅏᆨㅅㅜᆫ
ㅅㅓᆼㄷㅗᆼ
ㅊㅚ⑨ㅌㅐ⑨
##ern
##ㅈㅏ⑨ㅇㅠ⑨ㄱㅜ⑨ㅇㅕᆨ
ㅆㅏᆼㅇㅛᆼ
ㅅㅏ⑨ㅇㅓᆸㄱㅏ⑨
ㅅㅣᆫㅈㅣ⑨
ㄷㅏᆯㅇㅣ⑨
ㄷㅏᆯㅂㅣᆾ
ㅎㅡᆯ
ㅇㅓᆷㅁㅏ
ㅇㅕᆼㅎㅘ
ㅍㅗ⑨ㅊㅓᆫ
##ㅉㅏ
des
1977
ㄷㅏ⑨ㅇㅣ⑨ㅇㅏ⑨ㅁㅗᆫㄷㅡ⑨
##ㄲㅣ
ㄱㅖ⑨ㅎㅚᆨㅅㅓ⑨
ㅅㅏ⑨ㅇㅣ⑨ㅈㅡ⑨
ㅈㅐ⑨ㅁㅣᆻ
ㄱㅣ⑨ㅊㅣᆷ
ㅇㅣ⑨ㅇㅡᆫ
ㅈㅣᆫㅈㅜᆼ
ㅈㅓᆨㅇㅣᆷㅈㅏ⑨
pk
ㅆㅜ⑨
##ㄷㅡᆺㅎㅏ⑨
ㅊㅣᆫㅅㅜᆨ
ㅂㅣ⑨ㄹㅖ⑨ㄷㅐ⑨ㅍㅛ⑨ㅈㅔ⑨
##ㅎㅏ⑨ㄴㅡᆯ
ㅅㅏ⑨ㅎㅚ⑨ㅎㅏᆨ
ㅅㅜ⑨ㅇㅕᆼㅈㅏᆼ
ㄹㅏᆸ
ㅂㅣ⑨ㅇㅛ
##ㅉㅗᆾ
ㅊㅏᆷㄷㅏᆷ
ㄷㅗᆷ
ㅂㅕᆫㅁㅗ⑨
ins
ㅁㅕᆼㅂㅐᆨㅎㅣ⑨
ㅋㅏ⑨ㅋㅏ⑨ㅇㅗ⑨ㅌㅗᆨ
md
ㄸㅡᆯ
ㅎㅚ⑨ㅂㅗᆨㅅㅔ⑨
ㅎㅗᆼㅁㅜᆫ
ㅇㅝ⑨ㅋㅣᆼ
ㄴㅡᆯㅇㅓ⑨ㄴㅗᇂ
ㅅㅓᆯㄷㅡᆨㄹㅕᆨ
ㄱㅣ⑨ㅈㅣᆯ
##ㅂㅏᆲ
ㄷㅏᆫㄷㅏᆫ
ㅈㅗᆫㅅㅗᆨ
ㅅㅜ⑨ㄱㅛ⑨
ㅈㅏᆼㅂㅜ⑨
104
ㅂㅏ⑨ㄹㅡ⑨ㅅㅔᆯㄹㅗ⑨
ㅁㅣ⑨ㅈㅜ⑨
ㅅㅜ⑨ㅊㅜᆯㅇㅣᆸ
ㄱㅕᆨㄹㅕᆯ
##ide
ㄴㅗᆯㄹㅣ⑨
ㅇㅣᆫㄱㅏᆫㄱㅘᆫㄱㅖ⑨
ㅇㅞ⑨ㅇㅓ⑨
ㅂㅏᆮㅊㅣ⑨
ㅈㅗ⑨ㅇㅕᆼ
ㅊㅐᆷㅍㅣ⑨ㅇㅓᆫㅅㅡ⑨ㄹㅣ⑨ㄱㅡ⑨
ㄱㅡ⑨ㄹㅜ
ㅇㅖ⑨ㅅㅏ
ㅊㅗᆼㄷㅗᆨ
ㅈㅏᆫㄹㅠ⑨
ㅅㅓ⑨ㅎㅏᆫ
ㅂㅗᆫㅌㅗ⑨
ㅈㅏ⑨ㅅㅐᆼ
##ㅍㅕᆼㄱㅠᆫ
ㅇㅡᆷㅇㅏᆨㅎㅚ⑨
ㅇㅣᆫㅇㅑᆼ
##ㄷㅔ⑨ㅇㅣ⑨ㅌㅡ⑨
##ㄸㅏᆯ
ㅈㅡᆼㄱㅏᆼ
ㅅㅏᆷㅅㅓᆼㅈㅓᆫ
str
##ies
ㅇㅗ⑨ㅇㅣᆯ
1800
ㅇㅗ⑨ㄹㅡᆷ
ㅋㅏ⑨ㅌㅏ⑨ㄹㅡ⑨
ㅇㅛᆼㄱㅏᆷ
1300
ㄴㅏᆨㅎㅜ⑨
ㅅㅡ⑨ㅌㅣ⑨ㅂㅡ⑨
ㅇㅣ⑨ㅊㅓᆫ
ㅇㅕᆫㄱㅣ⑨ㅈㅏ⑨
ㅁㅣ⑨ㄷㅡ⑨ㅍㅣᆯㄷㅓ⑨
ㅇㅓᆸㄷㅔ⑨ㅇㅣ⑨ㅌㅡ⑨
ㄷㅓᇁㅊㅣ⑨
ㅎㅏᆫㅁㅕᆼ
ㄹㅑ
ㅁㅕᆼㅅㅣᆯ
ㄷㅟ⑨ㄷㅓ
ㅇㅗ⑨ㄹㅡᆫㅅㅗᆫ
ㅅㅣᆯㅁㅜ⑨ㅈㅏ⑨
##ㄴㅏᆯㄹㅔ⑨
ㅈㅜᆼㄴㅏᆷ
ㅅㅡ⑨ㅌㅏᆯ
ㅇㅠ⑨ㅌㅗᆼㅇㅓᆸ
##ult
na
ㅊㅓᆷㅇㅖ⑨
ㅈㅗ⑨ㅅㅓᆫㅇㅣᆯㅂㅗ
##ㅂㅜ⑨ㅈㅣ⑨
ㄱㅗ⑨ㅎㅏᆷ
ㅇㅏᆫㅁㅗᆨ
ㄹㅣ⑨ㅇㅜ⑨
ㅅㅏᆼㅂㅜ⑨
ㅎㅏ⑨ㄹㅜ⑨ㅎㅏ⑨ㄹㅜ⑨
ㄱㅣ⑨ㅁㅜ⑨ㅅㅏ⑨
ㅍㅗ⑨ㄱㅕᆨ
ㅂㅔ⑨ㅇㅣ⑨ㅂㅣ⑨
ㅊㅣᆼㅎㅏ⑨
ㅊㅣᆫㅁㅣᆯ
ㅂㅏᆸㅅㅏᆼ
ㅈㅣᆫㅎㅡᆼㅇㅝᆫ
ㄷㅏᆼㄷㅏᆼㅎㅣ⑨
##ㅅㅏᆼㅎㅏ⑨
ㅌㅡᆨㄱㅣ⑨
ㅇㅞ⑨ㄷㅣᆼ
ㅅㅜᆨㅁㅕᆼ
ㅈㅡᆨㅅㅓᆨ
114
ㅎㅏᆫㅅㅜᆫㄱㅏᆫ
ㅇㅣᆸㅈㅏ
ㅇㅕᆨㄴㅐ⑨
ㅅㅡ⑨ㅌㅏ
ㅂㅓ⑨ㅅㅓᆺ
ㅎㅜ⑨ㄱㅖ⑨ㅈㅏ⑨
ㅍㅗ⑨ㅍㅠᆯㄹㅣ⑨ㅈㅡᆷ
ㄱㅏᆼㅇㅏ⑨ㅈㅣ⑨
ㅁㅐ⑨ㄷㅡᆸ
ㅅㅔ⑨ㅌㅏᆨㄱㅣ⑨
ㄱㅡ⑨ㅈㅔ⑨ㅇㅑ⑨
ㄷㅏᆯㅇㅏ⑨ㅇㅗ⑨ㄹㅡ⑨
ㅇㅣᆸㅈㅜ⑨ㅈㅏ⑨
ㅅㅗ⑨ㅇㅏ⑨
109
ㅅㅏ⑨ㅈㅏ
ㄱㅐ⑨ㅇㅣᆫㅈㅓᆫ
ㅈㅓᆼㄱㅏ⑨
##ㅃㅏᆯ
ㅅㅐ⑨ㅁㅏᆫ
ㄱㅣᆷㄷㅗ⑨
ㄱㅓᆷㅇㅡᆫㅅㅐᆨ
fifa
##oun
ㄱㅙᆫㅎㅣ⑨
ㄱㅣ⑨ㅅㅜᆯㅂㅜ⑨
ㅂㅣᆯㅁㅣ⑨
ㄱㅐ⑨ㄱㅛ⑨
ㅈㅓᆸㄱㅕᆼ
ㅂㅗᆫㅎㅚ⑨ㅇㅢ⑨ㅈㅏᆼ
ㄷㅏᆸㄷㅏᆸㅎㅏ⑨
ㅍㅜᆷㅈㅗᆼ
ㄹㅣᆼㅋㅡ⑨
ㄷㅏ⑨ㅈㅜᆼ
ㅂㅗᆨㅈㅣ
##ㅇㅔᆨㅅㅡ⑨
ㅅㅣ⑨ㅈㅡ
ㅊㅏᆷㄱㅘᆫ
ㅁㅕᆯㅈㅗᆼ
##ㅂㅗ⑨ㅎㅗ⑨
ㄷㅏᆯㄱㅑᆯ
ㄱㅗᆼㅎㅐ⑨
##ert
ㅊㅏᆷㅇㅕ⑨ㅈㅏ⑨
ㅇㅏᆯㅁㅏᆽ
ㅊㅗ⑨ㄹㅏ⑨
ㅇㅓᆫㅎㅐᆼ
##ㅍㅔ
ㄱㅝᆫㅊㅗᆼ
ㅊㅜᆯㅅㅏ⑨
ㄱㅜᆫㅈㅓᆼ
ㅂㅕᆼㅅㅏᆼ
korea
ㄷㅗ⑨ㅈㅜ⑨
##ㅅㅖ⑨
lt
ㅅㅡ⑨ㅌㅐ⑨ㅍㅡ⑨
ㅍㅏ⑨ㅅㅗᆫ
ㅂㅜᇀㄷㅡᆯ
ㄱㅜ⑨ㅁㅣᆫ
154
ㅈㅏ⑨ㅊㅗ⑨
ㄴㅐ⑨ㅅㅣᆫ
ㅈㅚ⑨ㅇㅣᆫ
ㅈㅣ⑨ㅌㅐᆼ
##ind
ㅍㅣ⑨ㄱㅕ⑨
##ㄱㅡ⑨ㄹㅓ⑨ㅈㅣ⑨
ㅂㅣ⑨ㅅㅡ⑨
ㅁㅗ⑨ㅇㅣ
##ㅊㅏᆨㅇㅗ⑨
##ㅁㅔ⑨ㅇㅣ⑨
ㅇㅏ⑨ㅌㅔ⑨ㄴㅔ⑨
ㅎㅘ⑨ㅅㅓᆨ
ㄲㅗ⑨ㅁㅏ⑨
##ㅂㅜ⑨ㄹㅣ⑨
ㄷㅗᆼㅌㅏᆫ
ㅇㅜᆯㅈㅣᆫ
##ome
ㅇㅣᆷㅈㅣᆫㅇㅙ⑨
ㄷㅐ⑨ㅊㅐ
ㅈㅓᆫㅁㅜᆫㅇㅢ⑨
ㄱㅐ⑨ㅁㅏᆨㅈㅓᆫ
ㅈㅓᆯㅅㅣᆯㅎㅏ⑨
ㄱㅕᆼㄴㅏ
ㅎㅐ⑨ㅅㅜ⑨ㅂㅜ⑨
ㄱㅣᆷㄷㅜ⑨ㄱㅘᆫ
##ous
##ㅎㅡᆰ
##ㅅㅡ⑨ㅋㅡ⑨ㅍㅗ⑨
ㄴㅗᆫㅈㅡᆼ
ㅈㅗ⑨ㅇㅣ⑨
ㄷㅏᆫㅍㅜᆼ
##ㅂㅔ⑨ㄹㅣ⑨
ㅌㅔ⑨ㅋㅡ⑨ㄴㅗ⑨
##ㅖᆯ
ㅂㅏᆫㅉㅏᆨㅇㅣ⑨
##ㅇㅏ⑨ㅌㅡ⑨
ㅋㅡᆯㄹㅗ⑨
ㅂㅗ⑨ㄷㅡ⑨
ㅇㅠ⑨ㄹㅕᆼ
ㅅㅏᆫㅁㅐᆨ
##ㅈㅜᆼㅎㅏᆨㄱㅛ⑨
ㄱㅣ⑨ㅅㅏ⑨ㅁㅜᆫ
ㅎㅏᆫㅇㅑᆼㄷㅐ⑨
ㅇㅏᆫㅅㅏᆼㅅㅜ⑨
ㅇㅣᆫㅌㅔᆯ
ㅁㅗᆯㄹㅕ⑨ㅇㅗ⑨
ㄱㅣ⑨ㅁㅏᆫ
ㅎㅕᆼㅂㅓᆸ
ㅍㅗᆨㅍㅗ⑨
##tive
gsㅋㅏᆯ
ㄱㅐ⑨ㅎㅚ⑨
ㄱㅡᆷㅇㅠᆼㅅㅏ⑨
ㅇㅕᆫㄱㅜ⑨ㅈㅣᆫ
##ㅂㅏᆨㅇㅣ⑨
ㅅㅏ⑨ㅇㅣ⑨ㅋㅡᆯ
ㅇㅏ⑨ㅂㅓ⑨ㄴㅣᆷ
ㅈㅓᆼㅇㅜ⑨ㅌㅐᆨ
ㅈㅔ⑨ㅍㅜ
ㅇㅞᆸㅌㅜᆫ
ㄱㅗᆯㄱㅗ⑨ㄹㅜ⑨
ㅈㅐ⑨ㅊㅗᆨ
ㅊㅣ⑨ㅈㅜᆼ
ㅇㅡ⑨ㄹㅣ⑨ㄹㅏ
ㅋㅏᆯㄹㅣ⑨
ㅇㅏᆫㅈㅓ
ㄴㅜᆫㄷㅗᆼㅈㅏ⑨
ㄹㅡ⑨ㄴㅔ⑨ㅅㅏᆼㅅㅡ⑨
ㅁㅏᆫㅈㅓᆫ
135
ㅈㅓ⑨ㅅㅜ⑨ㅈㅣ⑨
ㄷㅏ⑨ㅋㅡ⑨
ㅈㅣ⑨ㅅㅏ
ㅅㅑ⑨ㅇㅝ⑨
ㅎㅐᆼㅈㅓ
##ㅈㅏ⑨ㄴ
ㅈㅡᆼㅇㅝᆫ
ㅇㅏᆫㅈㅓᆫㅅㅏ⑨ㄱㅗ⑨
ㅅㅜ⑨ㄴㅚ⑨
ㅂㅜᆯㅅㅏᆼ
ㅎㅏᆫㄱㅏ⑨
ㅈㅐ⑨ㄹㅑᆼ
ㅂㅏᆫㄱㅏᆹ
ㅌㅏ⑨ㄹㅏᆨ
ㄱㅗᆼㅇㅝ
ㅉㅣᆽㅇㅓ⑨ㅈㅣ⑨
ㅈㅔᆯ
ㅅㅡ⑨ㅋㅔ⑨ㅈㅜᆯ
##ㅓᆫㅈㅣ⑨
ㅇㅓᆯㄹㅜᆨ
##ㅇㅏ⑨ㄴㅣ⑨
ㅇㅣᆯㅈㅣ⑨
##ㅋㅗᆨ
fre
##ㄸㅔ⑨
ㄸㅗᆨㅂㅏ⑨ㄹㅗ⑨
ㅂㅣ⑨ㄱㅘᆫ
ㅈㅏ⑨ㄱㅜ⑨
ㄱㅝᆫㅅㅓᆼㄷㅗᆼ
178
gt
ㅈㅗᆾ
##ㅍㅓ
ㅇㅑᆼㅇㅑᆼ
ㅂㅗᆫㅁㅜᆫ
ㄱㅗᆼㅊㅐ⑨
ㄴㅐᆼㄷㅗᆼ
ㄷㅏ⑨ㅇㅝᆫ
ㅆㅡᆯㅁㅗ⑨
ㅈㅏᆼㅈㅔ⑨ㅇㅝᆫ
ㅈㅓᆼㅈㅔ⑨
ㄱㅕᆼㅇㅕ
ㄱㅡᆨㅎㅏᆫ
ㅅㅗᆼㅎㅘᆫ
ㅇㅕᆫㅎㅐᆼ
ㅋㅣᆨ
ㅌㅚ⑨ㄱㅖ⑨
ㅎㅐ⑨ㅈㅓᆨ
ㅋㅏ⑨ㄴ
ㅇㅐᆨㅊㅔ⑨
ㅈㅓᆼㄷㅏ
ㅍㅏᆫㄹㅗ⑨
ㅇㅔᆫㅌㅡ⑨
ㄱㅕᆯㅍㅣᆸ
ㅊㅗᆼㄹㅣ⑨ㅅㅣᆯ
ㅅㅓ⑨ㄴㅓ⑨
ㄱㅣᆷㅅㅓᆨ
ㅎㅗᆼㄷㅐ⑨
ㅅㅓᆫㅇㅓᆫㅁㅜᆫ
ㅁㅜᆫㅎㅏ
ㄴㅗᆼㅇㅑᆨ
ㅅㅣᆫㅎㅏᆫㄱㅡᆷㅇㅠᆼ
ㄱㅗᆯㅍㅡ
ㅈㅓᆫㄱㅕᆼㄹㅕᆫ
ㅊㅣᆷㄱㅗᆼ
ㅇㅣᆯㅆㅜ⑨
ㄷㅏᆯㄱㅜ⑨
ㄷㅗᆼㅂㅏᆫㅈㅏ⑨
ㅇㅑᆼㅎㅐ⑨ㄱㅏᆨ
ㅎㅏᆸㅇㅢ⑨ㅁㅜᆫ
##ㄹㅏ⑨ㅇㅣ⑨ㅌㅡ⑨
ㅇㅏᆨㅅㅜᆫㅎㅘᆫ
ㅎㅘ⑨ㅅㅓᆼㅅㅣ⑨
##ㅋㅗ⑨ㅍㅡ⑨
##ㅂㅏ⑨ㅌㅏᆼ
ㅅㅓᆫㄸㅡᆺ
ㅊㅕ⑨ㄷㅡᆯ
ㅇㅣᆷㅈㅗᆼㅅㅓᆨ
ㄱㅕᆼㅈㅣᆯ
ㅈㅓᆫㄹㅏ⑨ㄷㅗ⑨
ㅁㅗᆨㅈㅐ⑨
ㅂㅏ⑨ㅇㅣ⑨ㅇㅗᆯ
##ㄱㅣ⑨ㄱㅘᆫ
ㅎㅜ⑨ㅋㅜ⑨ㅅㅣ⑨ㅁㅏ⑨
ㅍㅔᆫㅅㅡ⑨
ㅈㅗ⑨ㅅㅓᆫㅇㅓᆸ
ㅅㅣ⑨ㅁㅠᆯ
ㄴㅣᆨ
ㅅㅓᆼㄱㅡᆷ
ㄷㅙ⑨ㅈㅣ⑨ㄱㅗ⑨ㄱㅣ⑨
ㅁㅏᆮ
ㅇㅜᆯㅈㅜ⑨
ㅂㅗᆼㄱㅓᆫ
ㅈㅓᆯㄹㅗ⑨
ㅎㅐ⑨ㅂㅏᆯ
ㅎㅏᆸㅇㅢ⑨ㅇㅏᆫ
ㄱㅏᆷㅅㅏ⑨ㅇㅝᆫㅈㅏᆼ
ㄱㅡᆸㅈㅣᆫ
ㄷㅏᆫㄷㅏᆫㅎㅣ⑨
ㅊㅏᆨㅊㅟ⑨
##ㅌㅗ⑨ㅈㅣ⑨
ㄴㅗᆨㅊㅟ⑨ㄹㅗᆨ
ㅇㅢ⑨ㅁㅜ
ㅇㅠ⑨ㅈㅐ⑨
ㅊㅔ⑨ㅋㅗ⑨
ㄱㅡᆸㄱㅡᆸ
##ㅐᆯㄹㅣᆫ
ㅂㅏᆨㄱㅡᆫㅎㅖ
##ㄷㅏ⑨ㅇㅣ⑨
ㄷㅡᆼㄱㅡᆨ
ㅅㅣᆫㅈㅏᆨ
ㅊㅗ⑨ㅇㅏᆫ
ㅌㅗᆨㅌㅗᆨㅎㅣ⑨
ㄹㅏᆷ
ㅈㅣ⑨ㄷㅗᆨ
ㅁㅜ⑨ㄷㅓ⑨ㄱㅣ⑨
ㅁㅗᆷㅈㅣᆺ
ㅂㅡᆯㄹㅏ⑨ㄷㅣ⑨
##ㅈㅏ⑨ㅊㅣ⑨
ㄱㅣ⑨ㅈㅓ⑨
106
ㅅㅗ⑨ㄹㅏᆫ
ㅈㅗ⑨ㅅㅓᆫㅈㅜᆼㅇㅏᆼ
ㅈㅜ⑨ㅅㅣᆨㅎㅚ⑨ㅅㅏ⑨
ㄱㅠ⑨ㅇㅠᆯ
ㄴㅓᆷㅇㅓ⑨ㅇㅗ⑨
ㅅㅏ⑨ㅊㅣ⑨
ㅅㅡ⑨ㅁㅣ⑨ㅅㅡ⑨
ㅅㅏᆫㅎㅘ⑨
ㅇㅏ⑨ㄹㅏ⑨
ㄴㅏᆫㄹㅣ⑨
ㅇㅣᆫㅌㅓ⑨ㄴㅔ
ㅎㅕᆫㅎㅐᆼㅂㅓᆸ
ㄱㅗᆼㅎㅠ⑨
ㅊㅜᆯㅍㅜᆷ
ㅇㅑᆼㅅㅜ⑨
ㅅㅗ⑨ㅂㅏᆼㄱㅘᆫ
ㄷㅚ⑨ㄷㅗᆯㅇㅏ⑨ㄱㅏ⑨
sa
##ㅈㅏ⑨ㅈㅐ⑨
ㄷㅗᆯㅍㅏ⑨ㄱㅜ⑨
ㅅㅏᆷㄱㅏ⑨
ㅋㅣ⑨ㅈㅡ⑨
ㅊㅗᆨㅊㅗᆨ
ㄱㅡ⑨ㄹㅣ
ㅎㅚ⑨ㅅㅏ⑨ㅊㅐ⑨
ㅊㅣᆷㅅㅜ⑨
nll
ㅈㅏᆼㅇㅏᆫ
230
ㄱㅗᆼㅅㅏ⑨ㅂㅣ⑨
ㅈㅓᆫㅅㅓᆼㄱㅣ⑨
ㅈㅏᆼㅇㅝᆫ
ㅍㅣᆯㄹㅣ⑨ㅂㅓ⑨ㅅㅡ⑨ㅌㅓ⑨
ㅁㅐᆷ
##ㅅㅡ⑨ㅋㅜᆯ
ㄱㅜᆨㄹㅣᆸㄱㅗᆼㅇㅝᆫ
ㅈㅓᆫㅈㅏ⑨ㄹ
ㅇㅣ⑨ㅎㅢ⑨
ㅈㅓᆫㅂㅏᆫㄱㅣ⑨
ㄱㅏ⑨ㄹㅏᆨ
ㄱㅕᆼㅇㅕᆼㅈㅏ
ㄱㅕᆼㅇㅢ⑨
ㄱㅏᆫㅈㅏᆼ
ㅁㅣᆯㅇㅓ⑨ㄴㅐ⑨
ㄱㅣᆷㅁㅣ⑨
ㄱㅣ⑨ㄱㅘᆫㅈㅣ⑨
ㅎㅘᆯㄷㅗᆼㄱㅏ⑨
##ㄱㅡ⑨ㄹㅔ⑨
ㅋㅗ⑨ㄹㅣ⑨ㅇㅏ
ㅎㅏᆷㅅㅜ⑨
ㅅㅏᆷㅊㅗᆫ
ㅅㅣ⑨ㄴ
ㅌㅗ⑨ㅁㅏ⑨ㅌㅗ⑨
ㅅㅐᆼㅅㅏᆫㅈㅏ⑨
ㅇㅣᆯㄱㅏᆷ
ㅎㅜ⑨ㅈㅣ⑨
145
ㄱㅗ⑨ㅂㅜᆫ
##ㅇㅕᆫㅁㅐᆼ
ㅈㅜᆼㄹㅑᆼ
ㄷㅏᆼㅇㅟ⑨
##ㅉㅏ⑨ㄱㅣ⑨
ㅍㅕᆼㅁㅕᆫ
ㅅㅏ⑨ㅇㅣ⑨ㄷㅡ⑨
ㅅㅜ⑨ㅇㅛᆼㅈㅏ⑨
ㅇㅕᆯㄷㅐ⑨
ㅁㅟᆫ
##ㅔ⑨ㅇㅣ⑨ㅌㅣᆼ
ㄴㅏᆫㅎㅏᆼ
tvn
ㅅㅏᆼㄱㅘᆫㅇㅓᆹ
ㅅㅜ⑨ㅂㅐᆨㅁㅏᆫ
ㅇㅞᆯㅂㅣᆼ
ㅂㅚ⑨
ㄴㅣ⑨ㅊㅔ⑨
ㅈㅓᆫㄱㅘᆼ
ㅅㅣᆷㅇㅑ⑨
1967
ㅍㅗ⑨ㅎㅏᆼㅅㅣ⑨
ㄷㅗ⑨ㅈㅓ
ㅇㅠ⑨ㅅㅣ⑨ㅁㅣᆫ
ㅃㅗ⑨
##ㅁㅜ⑨ㅇㅕᆨ
ㄱㅣ⑨ㅇㅘ⑨
##ㅈㅔᆫㅌㅔ⑨ㅇㅣ⑨ㅅㅕᆫ
ㅅㅐ⑨ㅁㅏᆫㄱㅡᆷ
ㅂㅣ⑨ㅂㅓᆸ
gb
ㅈㅏᆼㄷㅏᆫ
university
ㄱㅡ⑨ㄹㅕ⑨
ㄱㅜᆨㅁㅜᆯ
ㄱㅓ⑨ㅁㅓ⑨
ㅁㅏᆫㅅㅔ⑨
ㄱㅣᆷㅈㅣᆫㅌㅐ⑨
##ㄱㅗᆷ
ㅇㅜᆺㅇㅡ
ㄱㅗ⑨ㄱㅗ⑨
ㅂㅔ⑨ㅅㅡ⑨ㅌㅡ⑨ㅅㅔᆯㄹㅓ⑨
##ㄹㅑ⑨
182
ㅇㅓ⑨ㅈㅗ⑨
ㅈㅏ⑨ㄹㅏ⑨ㄴㅏ⑨
ㅅㅜᆼㅂㅐ⑨
ㅇㅠ⑨ㄹㅓᆸㅇㅕᆫㅎㅏᆸ
ㄱㅜᆨㅇㅕᆼ
##iss
ㅁㅜ⑨ㄹㅣᆷ
##eric
ㄱㅕᆼㄹㅠᆫ
ㅊㅔ⑨ㅈㅓᆫ
##ㄷㅣ⑨ㅅㅡ⑨
ㅈㅣᆺㅂㅏᆲ
ㅇㅣᆫㄷㅣ⑨ㅇㅓᆫ
##ㅇㅜ⑨ㅅㅡ
##ㅋㅏᆼ
ㅅㅗ⑨ㄹㅣ
ㅇㅣ⑨ㅁㅗᆨ
1600
ㅅㅗᆼㅈㅓᆫ
ㅂㅐᆨㅈㅏᆨ
ㅇㅣᆯㄱㅏᆫㅈㅣ⑨
ㅅㅜ⑨ㄹㅔ⑨
ㅂㅗᆨㅍㅏᆫ
##ㅂㅐᆼㅋㅡ⑨
ㅁㅗᆨㅍㅛ
ㅊㅗᆨㄱㅏᆨ
##ations
ㅈㅓᆨㄷㅏᆼㅎㅣ⑨
ㄱㅘᆼㅈㅓ⑨ㅇㅜ⑨
ㅍㅕᆫㅂㅓᆸ
##ug
ㅅㅏ⑨ㄹㅡ⑨
ㅇㅢ⑨ㄹㅖ⑨
##ㅍㅕᆼㄷㅡᆼ
ㄱㅠ⑨ㄱㅕᆨ
ㅌㅐ⑨ㅅㅡ⑨ㅋㅡ⑨ㅍㅗ⑨
ㅈㅓ⑨ㅈㅜ⑨
ㅇㅏ⑨ㅇㅣ⑨ㅅㅡ⑨ㅋㅡ⑨ㄹ
ㄷㅗ⑨ㅇㅢ⑨
ㅂㅣᆨㅌㅗ⑨
ㄴㅗ⑨ㅅㅏ⑨ㅈㅓᆼ
ㄱㅣᆷㅎㅛ⑨
ㅅㅡ⑨ㅇㅘ⑨
ㄱㅏᆫㅈㅓᆯㅎㅣ⑨
ㅇㅓ⑨ㅎㅏᆨ
ㅇㅡᆷㅎㅑᆼ
##ㄹㅏ⑨ㅁㅣ⑨
ㅇㅣᆷㅈㅣᆫㅇㅙ⑨ㄹㅏᆫ
##ㅇㅕᆼㅁㅣᆫ
##ㄴㅏ⑨ㅌㅏ⑨
ㅅㅏ⑨ㅇㅛᆼㄹㅑᆼ
cnn
ㄴㅐ⑨ㄹㅕ⑨ㅇㅏᆬ
ㅅㅡ⑨ㅍㅗᆫ
ㄴㅡᇁ
er
ㅇㅣ⑨ㅊㅓᆼ
ㅁㅏᆨㄹㅗᆫ
ㄱㅏ⑨ㄷㅓᆨㄷㅗ⑨
157
ㅇㅣ⑨ㄷㅐ⑨ㅎㅗ⑨
fl
ㅅㅗᆫㅈㅣᆯ
ㅎㅕᆯㄷㅏᆼ
##ㄹㅡᆨ
ㅇㅣᆯㄷㅐ⑨
ㅁㅔ⑨ㅋㅏ⑨
ㅁㅗᆯㅇㅏ⑨ㅊㅣ⑨
ㄷㅡᆯㅍㅏᆫ
ㅇㅗ⑨ㅋㅣ⑨
##ㅇㅝᆫㅈㅣ⑨
ㅇㅕᆫㅌㅏᆫ
ㅎㅛ⑨ㅅㅗ⑨
ㅅㅑᆷ
ㄱㅡᆫㅅㅣᆷ
ㄱㅏᆨㅇㅣᆫ
ㄱㅛ⑨ㅇㅣᆫ
ㄱㅓᆷㅅㅏ⑨ㅈㅏᆼ
ㅅㅔ⑨ㅂㅜᆫ
##ㄱㅡ⑨ㄹㅓᆸ
ㅇㅚ⑨ㄱㅗ⑨
ㄹㅔ⑨ㅇㅏᆯ
ㅅㅡ⑨ㅌㅏᆯㄹㅣᆫ
ㅈㅜ⑨ㅈㅜᆼ
ㅅㅣ⑨ㅎㅛ⑨
ㅊㅓᆼㅎㅐ⑨
ㅎㅚ⑨ㅇㅢ⑨ㅈㅏᆼ
ㅂㅜᆯㅁㅜᆫ
ㅇㅠ⑨ㅅㅓ⑨
ㄱㅜ⑨ㅅㅡᆯ
ㄷㅗᆼㄷㅜ⑨
ㄷㅏᆫㅊㅜ⑨
ㄴㅜ⑨ㅇㅣ⑨
##ㄲㅣᆨ
ㅂㅏᆫㄱㅗᆼ
ㅆㅏᆼㅂㅏᆼ
181
ㅈㅣᆫㅇㅕᆯ
ㅎㅏᆫㄱㅜᆨㅌㅗ⑨ㅈㅣ⑨
ㄱㅕᆫㅈㅜ⑨
ㄹㅗᆷ
ㅊㅏᆷㄱㅗ⑨ㅇㅣᆫ
ㄱㅣᆷㅇㅜ⑨
ㅈㅏ⑨ㅎㅐᆼ
ㄱㅜ⑨ㄱㅡᆸ
ㅅㅏᆫㅅㅓᆼ
ㅌㅓ⑨ㅁㅜ⑨ㄴㅣ⑨
ㅇㅕ⑨ㄹㅓᆺ
ㅇㅏ⑨ㅂㅣ⑨
ㅇㅢ⑨ㅈㅗᆫㄷㅗ⑨
##ㄲㅗ
ㅁㅏᆫㄲㅣᆨ
ㅊㅜ⑨ㄹㅗᆫ
ㅈㅣ⑨ㄱㅡᆷㄲㅓᆺ
##onom
ㅌㅏᆷㅎㅓᆷ
##ㅣᆯㄹㅓ⑨
ㅃㅏᆯㄹㅐ⑨
ㅁㅕᆫㄷㅗ⑨
##ㅅㅓᆫㅅㅜ⑨
ㅂㅣᆫㅂㅓᆫㅎㅏ⑨
ㅈㅗ⑨ㄹㅡ⑨
ㅇㅑᆼㅂㅗᆨ
ㅆㅏᆼㄷㅜᆼㅇㅣ⑨
ㅅㅗᆫㅇㅣᆨ
ㅇㅛᆼㅅㅏᆫㄱㅜ⑨
ㅂㅏᆯㅅㅏᆫ
ㅅㅚ⑨ㅌㅚ⑨
ㅇㅛ⑨ㅈㅣ⑨
ㅇㅢ⑨ㄹㅛ⑨ㅇㅝᆫ
ㅅㅗ⑨ㄱㅏᆨ
ㅍㅗᆨㄷㅡᆼ
ㅇㅑᆼㄷㅗ⑨ㅅㅔ⑨
ㅅㅔ⑨ㄱㅖ⑨ㅇㅣᆫ
ㅇㅖ⑨ㅁㅐ⑨
ㅅㅜ⑨ㅁㅗᆨ
ㅈㅜ⑨ㅂㅓᆷ
ㅅㅣᆫㅈㅜ⑨
ㅎㅗ⑨ㅎㅘᆼ
ㄹㅣ⑨ㅊㅓ⑨
ㅁㅏᆯㅁㅣ⑨ㅇㅏᆷ
ㅅㅣᆯㅋㅡ⑨
ㅅㅡ⑨ㅍㅏ⑨
ㅅㅣᆯㅇㅓᆸㅈㅏ⑨
ㅎㅐᆼㄷㅗ
news
ㄹㅏ⑨ㄷㅡᆫㄱㅏ⑨
ㅎㅏᆫㅅㅣᆫ
ㅂㅜ⑨ㄲㅡ⑨ㄹㅓ⑨
ㅎㅏᆫㅈㅣ⑨
ㄲㅣ⑨ㅇㅓ⑨ㄷㅡᆯ
ㅁㅜᆫㅊㅔ⑨ㅂㅜ⑨
ㅅㅣᆷㅍㅗ⑨ㅈㅣ⑨
ㅎㅏᆫㄱㅜᆨㅅㅏ⑨
ㄹㅔ⑨ㅂㅔᆯ
ps
##ㅋㅡᆯㄹㅓᆸ
ㅇㅗᆷ
ㄱㅜᆨㄱ
sd
up
ㅂㅜᆯㅇㅓ⑨ㄴㅏ⑨
ㅂㅜᆯㅌㅐ⑨ㅇㅜ⑨
ㅇㅕ⑨ㅎㅐᆼㅈㅏ⑨
ㅊㅜ⑨ㄷㅗ⑨
ㅎㅐᆼㅅㅏ
##ㅈㅜᆼㄱㅡᆫ
ㄷㅏᆯㄹㅣ⑨ㄱㅣ⑨
ㅈㅏᆨㅁㅜᆯ
ㄷㅏ⑨ㄱㅡᆸ
ㅇㅢ⑨ㄹㅛ⑨ㅂㅣ⑨
ㅅㅡᆼㅅㅗ⑨
ㅈㅔ⑨ㅈㅣ⑨
ㄱㅗᆼㄷㅐ⑨
ㄱㅏᆫㅎㅐᆼ
ㅅㅜ⑨ㅇㅣᆨㄱㅡᆷ
ㅅㅔᆯㅍㅡ⑨
ㄷㅐ⑨ㅇㅕᆯ
ㄷㅡᆯㄸㅡ⑨
ㅍㅕᆼㅎㅏ⑨
ㅅㅜ⑨ㅅㅜᆫ
ㅇㅏᆫㅈㅓᆫㅁㅏᆼ
##ㄷㅗᆯㅇㅣ⑨
ㅊㅏᆯㅅㅡ⑨
ㅌㅏᆨㅈㅏ⑨
ㅈㅐ⑨ㄷㅏ
ㅈㅜᆼㅇㅏᆼㅇㅣᆯㅂㅗ⑨
ㅅㅏᆼㅍㅜ
##ㅇㅓ⑨ㅁㅓᆨ
##ㄷㅓᆼ
ㅋㅗᆯㄹㅏ⑨
ㅈㅗ⑨ㄱㅖ⑨
ㅋㅔ⑨ㅇㅣ⑨ㅋㅡ⑨
ㅈㅗᆫㅅㅡᆫ
ㅁㅏᆼㄱㅏ⑨ㅈㅣ⑨
ㅇㅏ⑨ㅍㅡ⑨ㄱㅏ⑨ㄴㅣ⑨
www
ㅎㅡᆸㅅㅏ⑨
ㄲㅗᆷㅅㅜ⑨
##ㅇㅓ⑨ㄷㅡᆯㅇㅣ⑨
##ㄹㅣ⑨ㅎㅏᆨ
ㅅㅔ⑨ㅌㅡ
ㅎㅏᆫㄱㅜᆨㄱㅜᆫ
##ite
ㅇㅣ⑨ㅅㅏᆫㅎㅘ⑨ㅌㅏᆫㅅㅗ⑨
publ
ㅂㅜ⑨ㅂㅜ
ㅁㅣ⑨ㅎㅗᆫ
ㅎㅘᆼㅇㅜ⑨
ㄱㅗᆼㅎㅠ⑨ㅇㅣᆯ
ㄱㅓ⑨ㅁㅓ⑨ㅈㅟ⑨
ㅊㅗᆼㄷㅗᆼㅇㅝᆫ
not
ㅇㅠ⑨ㄹㅖ⑨
##ㅅㅏᆷㅅㅓᆼ
ㅇㅣᆫㄱㅝᆫㅇㅟ⑨
ㄱㅘᆫㅈㅣᆨ
ㄱㅏᆯㅅㅐᆨ
ㅅㅓ⑨ㅂㅣ⑨ㅅㅡ⑨ㅇㅓᆸ
ㅇㅣᆸㅈㅜ⑨ㅁㅣᆫ
##ㅇㅣ⑨ㅅㅏᆼ
##ㄷㅗ⑨ㅅㅓ⑨
ㅅㅜ⑨ㅅㅣᆨ
ㅅㅗ⑨ㅍㅜᆷ
ㄷㅏᆼㅈㅣᆫ
1900
ㅇㅣ⑨ㄱㅓᆫㅎㅢ⑨
##ㄱㅕ⑨ㅂㅗ⑨
ㅅㅟᆷㅌㅓ⑨
ㅇㅡᆫㅎㅏ⑨
##ㅊㅔ⑨ㅇㅓ⑨
ㅁㅏᆼㄱㅏᆨ
ㅇㅏᆯㅅㅓᆫ
##ㅈㅣᆫㄱㅜ⑨
ㄱㅡ⑨ㄹㅣ⑨ㅇㅜᆷ
ㄲㅕ⑨
##ㄱㅜ⑨ㄴㅣ⑨
ㅈㅓᆯㅊㅜᆼ
ㄲㅡᇀㅇㅓᆹㅇㅣ⑨
ㄱㅐ⑨ㄱㅡ⑨ㅁㅐᆫ
ㅂㅜ⑨ㅅㅏᆫㅎㅏᆼ
##ㄹㅏ⑨ㄹㅣ⑨
ㅅㅣᆯㅅㅜ⑨ㅇㅛ⑨ㅈㅏ⑨
ㄷㅏᆫㅇㅓᆫ
ㅎㅕᆫㄷㅐ⑨ㅊㅏ⑨ㄱㅡ⑨ㄹㅜᆸ
ㄴㅐᆼㄱㅏᆨ
ㅇㅗᆯㅅㅡ⑨ㅌㅏ⑨
ㅎㅏᆸㅇㅢ
##ㄱㅏ⑨ㄱㅕᆼ
will
ㅈㅣᆨㄱㅜ⑨
ㅃㅐ⑨ㄴㅐ⑨
ㅇㅕᆫㅎㅏᆸㄱㅜᆫ
ㅈㅓᆫㅁㅏ
ㅊㅣ⑨ㅋㅕ⑨
ㅇㅝᆫㅊㅣ
##ㅎㅐᆼㅈㅓᆼ
ㅍㅖ⑨ㅎㅐ⑨
ㅈㅘ⑨ㅇㅣᆨ
ㅌㅏᆷㅇㅛᆨ
ㅎㅏ⑨ㄴㅏ⑨ㄱㅡᆷㅇㅠᆼ
ㄱㅟᆺ
ㅎㅏ⑨ㄱㅣᆫ
ㄱㅘᆼㄱㅛ⑨
gsㅋㅏᆯㅌㅔᆨㅅㅡ⑨
ㅂㅕᆫㅎㅘᆫ
ㅂㅏᆼㅅㅗᆼㅇㅣᆫ
ㅅㅣ⑨ㅇㅝᆫㅎㅏ⑨
ㄴㅘ⑨ㄷㅜ⑨
ㄱㅜᆫㅊㅓᆼ
ㄱㅜᆫㅅㅏ⑨ㄹㅕᆨ
ㅇㅡᆫㅍㅕᆼ
ㅎㅏᆫㄱㅜᆨㄴㅗ⑨ㅊㅗᆼ
ㅅㅐᆫㄷㅡ⑨
ㄷㅏᆫㅅㅜᆷ
##ㄴㅓ⑨ㅈㅣ
ㅈㅏᆼㄴㅕᆫ
1969
ㄷㅓ⑨ㄷㅣ⑨
##ㅍㅡ⑨ㄹㅗ⑨
ㅂㅏᆯㅍㅛ⑨ㅎㅚ⑨
##ㅋㅏ⑨ㄹㅡ⑨
ㄱㅛ⑨ㅇㅠᆨㅂㅣ⑨
ㅇㅕᆼㅇㅖ⑨
ㅁㅏᆯㅇㅓᆹㅇㅣ⑨
ㅇㅕᆫㅈㅜ⑨ㅈㅏ⑨
ㅁㅜᆯㅁㅣᇀ
ㅇㅣᆫㅊㅜᆯ
ㄷㅏᆫㅅㅜᆷㅇㅔ⑨
ㅌㅜ⑨ㅈㅏ⑨ㅇ
113
177
##ology
##ㅎㅔᆯ
ㄱㅓ⑨ㄹㅏᆫ
##ㅈㅓᆼㄷㅗᆼ
ㅈㅜᆼㄹㅕᆨ
ㄹㅣᆯㄹㅔ⑨ㅇㅣ⑨
ㄷㅐ⑨ㄹㅕᆼ
##ㅇㅏᆨㅅㅏᆫ
ㅇㅔᆯㄹㅣ⑨ㅈㅏ⑨
ㅈㅣ⑨ㅂㅜ⑨ㅈㅏᆼ
ㅈㅓᆼㅇㅢ⑨ㅇㅛᆼ
ㅍㅕᆼㅈㅓᆼ
ㄴㅠ⑨ㅅㅡ
##ㅈㅔ⑨ㄱㅜᆨ
##ㅌㅏ⑨ㅈㅣ⑨
ㅎㅜ⑨ㅁㅜᆫ
##ㄱㅓ⑨ㄹㅐ⑨ㅅㅗ⑨
##ㅌㅐᆼㅋㅡ⑨
ㅆㅓ⑨
ㅂㅓᆸㄹㅠ
ㅊㅣ⑨ㅂㅜ⑨
ㄱㅣ⑨ㅂㅗᆫㅂㅓᆸ
ㅇㅠᆫㅎㅗ⑨ㅈㅜᆼ
ㄱㅣᆷㅇㅕ⑨ㅈㅓᆼ
ㅍㅏᆫㄷㅗ⑨
ㅇㅣ⑨ㄹㅐ⑨
ㅇㅠ⑨ㅎㅡᆼ
##ㅁㅣ⑨ㄷㅣ⑨ㅇㅓ⑨
##ㅂㅕᆼㅇㅜ⑨
ㅈㅓᆫㅅㅔ⑨ㄱㅡᆷ
ㅇㅗ⑨ㄴㅓ⑨
ㅇㅏ⑨ㄹㅏᆼ
##ㄹㅔ⑨ㅇㅣ⑨ㅌㅓ⑨
ㄱㅕᆨㅅㅏᆼ
ㅁㅏᆨㄹㅗᆫㅎㅏ⑨
##ㄴㅔᆨ
ㅇㅢ⑨ㅈㅓᆫ
ㅈㅓᆫㅍㅗᆨ
ㅈㅣᆫㅎㅡᆰ
ㄱㅓᆷㅅㅜ⑨
ㅅㅡᆼㅍㅐ⑨
122
ㄴㅏᆨㅎㅏ⑨ㅅㅏᆫ
ㅇㅐᆨㅅㅔ⑨ㅅㅓ⑨ㄹㅣ⑨
ㅇㅗᆯㄹㅔ⑨
ㅌㅗ⑨ㅁㅗᆨ
ㄱㅜᆨㅈㅔ⑨ㄱㅣ⑨ㄱㅜ⑨
ㅁㅣ⑨ㄲㅡ⑨ㄹㅓ⑨ㅈㅣ⑨
ㄱㅣᆷㅈㅓᆼㅅㅜᆨ
##int
net
ㄴㅐ⑨ㅅㅣᆷ
ㄱㅏᆼㄱㅏᆫ
ㅍㅏ⑨ㅇㅣ⑨ㄴㅐᆫ
ㅇㅚ⑨ㅁㅜ⑨ㅅㅏᆼ
ㅅㅡ⑨ㅁㅕ⑨
ㅌㅐ⑨ㅈㅗᆼ
##tit
##ㅞ⑨ㅇㅓ⑨
ㅋㅓᆷㅍㅓ⑨
##ㅏ⑨ㄴㅡᆯ
ㅂㅜᆯㅅㅏ⑨
ㅅㅡ⑨ㅁㅕ⑨ㄷㅡᆯ
##ㅁㅜ⑨ㅈㅣᆫ
ㅅㅏ⑨ㄱㅗ⑨ㅂㅏᆼ
##ㅁㅓᆨㅇㅣ⑨
##ㅂㅜ⑨ㅈㅣᆫ
ㅎㅘ⑨ㅈㅣᆯ
##ㅌㅏ⑨ㄴ
ㄷㅏ⑨ㅁㅜᆯ
ㄷㅡᆯㄹㅕ⑨ㅈㅜ⑨
ㅃㅗᆸㅇㅏ⑨ㄴㅐ⑨
ㄱㅣᆷㅇㅡᆫㅎㅖ⑨
ㅎㅏᆫㄷㅗᆼ
##ㅅㅡ⑨ㅌㅗᆸ
ㅅㅔ⑨ㅅㅡᆸ
##ㄱㅗᆼㅎㅘ⑨ㄱㅜᆨ
ㅎㅗᆨㄷㅗᆨ
ㅅㅐᆼㅁㅕᆼㄹㅕᆨ
117
sec
ㅇㅑᆼㅅㅡᆼ
ㅈㅗ⑨ㅎㅏᆸㅈㅏᆼ
ㅇㅡᆫㅁㅣᆯ
ㄱㅛ⑨ㅂㅗ⑨
ㅎㅘᆨㅅㅣᆯㅎㅏ⑨
ㅇㅕ⑨ㅌㅏ⑨
ㅌㅡ⑨ㄹㅓ⑨
ㅎㅏᆫㅅㅏᆼ
ㅇㅣᆸㅅㅏᆼ
ㅈㅓᆼㅈㅐ⑨
##ㅅㅣᆫㄱㅛ⑨
ㅇㅑᆼㅍㅏ⑨
ㅊㅓᆯㅎㅏᆨㄱㅘ⑨
ㅇㅣ⑨ㅅㅡᆼㅇㅕᆸ
ㅊㅏᆽㅇㅏ⑨ㄷㅏ⑨ㄴㅣ⑨
ㄷㅏ⑨ㄱㅏ⑨ㅅㅓ⑨
ㅋㅗᆯㄹㅗᆷㅂㅣ⑨ㅇㅏ⑨
ㅁㅏᆫㅇㅕᆫ
ㅅㅗᆨㅊㅜᆯ
ㅈㅜᆼㄴㅏᆷㅁㅣ⑨
ㅍㅐᆨㅌㅡ⑨
ㄱㅗ⑨ㅇㅡᆯ
ㅌㅓ⑨ㅌㅡ⑨ㄹㅣ⑨
ㄱㅓᆫㅊㅜᆨㄱㅏ⑨
ㅁㅐᆼㅅㅔ⑨
ㅇㅕ⑨ㄱㅘᆫ
ㅂㅕᆨㄷㅗᆯ
##ㅏ⑨ㄱㅗᆼ
ㅅㅜ⑨ㄷ
ㄱㅏᆷㅅㅔ⑨
ㅅㅔ⑨ㄱㅖ
ㄷㅓᇁㅇㅣ⑨
ㄷㅓᆼㅊㅣ⑨
ㅅㅗᆨㅇㅗᆺ
ㅁㅣ⑨ㄹㅕᆫ
ㄱㅏᆫㅅㅣᆨ
ㄹㅣ⑨ㅋㅗᆯ
ㅊㅓᆨㄷㅗ⑨
ㅈㅜᆼㅇㅏᆼㄷㅐ⑨
ㅈㅠ⑨
ㅈㅏ⑨ㅊㅓ⑨
ㅇㅚ⑨ㅎㅘᆫㅇㅡᆫㅎㅐᆼ
ㅂㅗ⑨ㅅㅡ⑨ㅌㅓᆫ
ㅅㅜ⑨ㅇㅕᆷ
##ㄸㅡᆨㅇㅣ⑨
##ㄷㅏᇂ
ㅌㅡ⑨ㅇㅣ⑨
ㅍㅏ⑨ㅌㅏᆫ
ㅅㅓᆼㄱㅠᆫㄱㅘᆫㄷㅐ⑨
ㅋㅓᆯㄹㅔᆨㅅㅕᆫ
ㅈㅏ⑨ㄹㅜ⑨
ㅎㅣᆯㄹㅓ⑨ㄹㅣ⑨
ㅅㅜ⑨ㅇㅣᆫ
ㅇㅔ⑨ㅂㅓ⑨
ㅁㅗ⑨ㅊㅣᆫ
ㅎㅏᆫㅇㅓᆹㅇㅣ⑨
ㄱㅘᆼㅇㅕᆨㅅㅣ⑨
##ㅌㅡᆯㄹㅐᆫㄷㅡ⑨
ㅅㅡᆼㅎㅘ⑨
ㅅㅓ⑨ㄱㅟ⑨
ㅈㅣ⑨ㅈㅣᆯ
ㅇㅕᆫㅁㅗᆺ
ㅁㅣ⑨ㅇㅣᆫ
ㅁㅕᆼㄴㅏ⑨ㄹㅏ⑨
ㅅㅓᆼㅈㅓᆨㅍㅛ⑨
ㅁㅏ⑨ㄷㅏ
##ㅈㅣᆯㄱㅣ⑨
ㄱㅘᆫㅈㅓ⑨
ㅇㅏ⑨ㅍㅡ⑨ㄱㅏ⑨ㄴㅣ⑨ㅅㅡ⑨ㅌㅏᆫ
##ys
ㄷㅓ⑨ㄷㅓ⑨
ㅎㅚ⑨ㄱㅣ⑨
ㅂㅕᆫㅈㅣᆯ
155
ㅌㅜᆼ
##ㅃㅏᆨ
ㅂㅏᆼㄷㅐ⑨
ㄱㅜᆫㅈㅜᆼ
ㄱㅕᆼㅇㅣ⑨
##ㅇㅓᆼ
ㄱㅗᆼㅅㅓᆨ
ㄷㅏ⑨ㅇㅜᆫㄹㅗ⑨ㄷㅡ⑨
ㅅㅓ⑨ㅇㅜᆯㄷㅐ⑨ㅎㅏᆨㄱㅛ⑨
ㅇㅣᆸㄱㅡᆷ
##ㄴㅏ⑨ㅁㅜᆯ
##ㅇㅗ⑨ㄹㅣ⑨
ㄷㅡᆯㄹㅕ⑨ㅇㅗ⑨
ㅅㅏᆼㅎㅚ⑨
ㄲㅡᆫㅈㅣᆯㄱㅣ⑨
ㄹㅕᆫ
ㅁㅔ⑨ㅅㅣᆫㅈㅓ⑨
ㅂㅜᆯㄹㅓ⑨ㄷㅡᆯㅇㅣ⑨
pro
ㅍㅗ⑨ㅈㅣᆫ
ㅊㅏᆨㄹㅠᆨ
ㅈㅡᆼㅎㅜ⑨ㄱㅜᆫ
ㄱㅕᆯㅅㅗᆨ
ㅎㅏᆷㄹㅑᆼ
ㅎㅗ⑨ㅊㅣᆼ
ㄷㅐ⑨ㄴㅏ⑨ㅁㅜ⑨
ㅂㅏᆫㄱㅕᆼ
ㅎㅏᆫㅁㅣᆫ
ㄴㅏᆫㄱㅏᆷ
ㄴㅏᆫㄱㅘᆫ
ㅅㅜ⑨ㄱㅡᆸㅈㅏ⑨
##ㅂㅜ⑨ㅂㅜᆫ
ㅂㅏᆨㅂㅣᆼ
ㄴㅡᆼㄹㅕ
ㅂㅐ⑨ㅊㅜᆯㄹㅑᆼ
ㅌㅐ⑨ㅂㅡᆯㄹㅣᆺ
ㅇㅏ⑨ㅇㅣ⑨ㅅㅡ⑨ㅋㅡ⑨ㄹㅣᆷ
121
ㅊㅏᆫㅅㅏ⑨
ㅊㅗ⑨ㅇㅠ⑨
ㅈㅓᆫㅇㅕᆷㅂㅕᆼ
##ㄱㅛ⑨ㄷㅗ⑨
ㅂㅓᆽㄲㅗᆾ
ㅇㅏᆫㅈㅓᆫㅊㅓ⑨
ㄲㅗ⑨ㅇㅣ⑨
etf
##ㅈㅜᆼㄱㅜᆨ
ㅈㅏ⑨ㅇㅕᆫㅅㅡ⑨ㄹㅔ⑨
ㅎㅏ⑨ㄹㅜᆺㅂㅏᆷ
ㅇㅕᆯㅅㅔ⑨
##go
ㅌㅚ⑨ㅇㅝᆫ
ㅅㅓᆫㅊㅔ⑨
##co
##ㄸㅗᆼ
ㅅㅔ⑨ㅁㅣᆯㅎㅏ⑨
##ㅈㅗᆼㅎㅏᆸ
ㅊㅓᆫㅎㅘᆼ
ㄱㅜᆼㄱㅝᆯ
ㄱㅡ⑨ㄹㅏᆼ
ㅇㅣ⑨ㅈㅔ⑨ㅇㅑ⑨
ㅁㅣ⑨ㅎㅘ⑨
ㅇㅑᆼㅊㅓᆫ
##ㅌㅡ⑨ㄹㅐᆨ
ㅊㅣ⑨ㅇㅜ⑨ㅊㅣ⑨
ㄷㅗᆼㅁㅐᆨ
##ㅂㅗᆨㅈㅣ⑨
ㅈㅓᆼㅇㅕᆫ
ㅂㅐ⑨ㅇㅑᆼ
##ㅎㅗ⑨ㄱㅣ⑨
ㅍㅏ⑨ㄹㅏ⑨
ㅍㅜᆷㅇㅟ⑨
ㅊㅓᆷㅂㅜ⑨
##ㅋㅣᆯ
ㅊㅜᆼㅁㅜ⑨
ㅃㅐ⑨ㄷㅗᆯㄹㅣ⑨
ㅁㅗ⑨ㅂㅏᆯ
##ㄹㅏ⑨ㄱ
ㅂㅐ⑨ㅌㅏ⑨
ㅅㅏᆼㄱㅓ⑨ㄹㅐ⑨
ㅎㅕᆨㅁㅕ
##ㅈㅘ
128
ㅅㅓᆯㄹㅕᆼ
ㅎㅔᆯㅅㅡ⑨ㅋㅔ⑨ㅇㅓ⑨
ㅇㅘᆯ
1963
ㅎㅏᆫㅅㅜ⑨ㅇㅝᆫ
ㅎㅜ⑨ㅂㅗ⑨ㅈㅣ⑨
ㅊㅣᆯㄱㅗᆨ
##vel
ㅈㅣ⑨ㄱㅜ
ㅊㅓᆼㄱㅏᆨ
ㄱㅛ⑨ㄹㅑᆼ
ㅇㅔ⑨ㄹㅡ⑨
ㅎㅓ⑨ㅂㅓᆨ
##ㅂㅓᆯㄹㅔ⑨
ㄷㅗᆼㅁㅕᆼ
ㅈㅐ⑨ㅇㅣᆯ
ㅇㅕᆼㅈㅗ⑨
ㅇㅏ⑨ㅁㅗ⑨
ㅍㅏ⑨ㅇㅜᆫ
ㅈㅓᆼㅎㅕᆫ
ㅁㅐᆫㅇㅠ⑨
ㅁㅜ⑨ㄱㅗᆼ
ㅎㅏᆸㅊㅏᆼㄷㅏᆫ
##ㅁㅏᆨㅇㅣ⑨
ㅂㅜ⑨ㅈㅓᆼㅂㅜ⑨
ㄱㅣᆷㄷㅗᆼㅊㅓᆯ
ㅎㅏᆫㅅㅣᆷ
ㅈㅐ⑨ㅁㅜᆯ
ㅎㅘᆫㅁㅐ⑨
ㅈㅏ⑨ㅅㅓᆫ
ㄱㅜ⑨ㅇㅐ⑨
ㅈㅏᆼㅊㅏ⑨
##ech
ㅎㅐᆼㅇㅟ⑨ㅈㅏ⑨
ㅁㅣ⑨ㅅㅜᆨ
175
ㅁㅏᆼㅇㅝᆫ
ㅌㅓᆫ
ㅅㅣᆷㅁㅜᆫ
ㅅㅏᆫㅈㅓᆨ
ㅁㅗ⑨ㅈㅗ⑨ㄹㅣ⑨
ㅎㅕᆼㅂㅓᆯ
ㅈㅏᆯㄹㅣ⑨
ㅅㅣᆫㅊㅓᆫ
ㅊㅔ⑨ㄴㅐ⑨
ㅁㅏ⑨ㅈㅣᆫ
ㄱㅣᆷㅌㅐ⑨ㄴㅕᆫ
ㅇㅏᆫㅂㅗ⑨ㅅㅣᆯ
ㅈㅗ⑨ㅊㅣ
ㅅㅗ⑨ㅂㅕᆫ
ㅇㅕᆯㄹㅣᆫ
ㅈㅔ⑨ㅂㅏᆫ
ㅎㅕᆫㅅㅣ
ㅁㅕᆼㅂㅜ⑨
ㄱㅡᆨㄷㅗᆼ
ㄱㅟ⑨ㅅㅗᆨ
ㅅㅓᆼㅈㅣᆨㅈㅏ⑨
ㅊㅏᆼㅎㅗ⑨
ㄱㅓ⑨ㄹㅏ
ㅁㅏ⑨ㄷㅡ⑨ㄹㅣ⑨ㄷㅡ⑨
ㅅㅏ⑨ㅊㅐ⑨
##ㅈㅐ⑨ㅍㅏᆫ
ㄸㅓ⑨ㄴㅓᆷㄱㅣ⑨
ㄱㅜᆨㅅㅏ⑨
ㄷㅏᆼㄴㅏ⑨ㄹㅏ⑨
ㅇㅕᆯㅅㅏ⑨
ㅁㅏ⑨ㄸㅏᆼㅎㅏ⑨
##ㅝ⑨ㅈㅣ⑨
##ㄴㅗ⑨ㅂㅔ⑨ㅇㅣ⑨ㅅㅕᆫ
##ㅊㅔᆯ
##ㄷㅏ⑨ㅂㅏᆯ
ㅇㅠᆼㅈㅏ⑨
ㄱㅛ⑨ㄴㅐ⑨
ㄷㅚᆫㅈㅏᆼ
ㅅㅏ⑨ㄷㅏᆼ
ㅍㅣᆯㅌㅓ⑨
ㅈㅔᆫㄷㅓ⑨
ㅂㅗ⑨ㅅㅜ
ㅇㅗ⑨ㅁㅏ⑨ㅇㅣ⑨
ㅅㅓᆫㅂㅗᆼ
ㄷㅏᆯㅅㅓ⑨ㄱㅜ⑨
ㅃㅛ⑨
ㅎㅘᆨㄷㅐ
ㅌㅡ⑨ㄹㅐ⑨
ㅎㅣᆸㅎㅏᆸ
ㄷㅏ⑨ㄷㅓᆫ
ㄴㅏᆷㅈㅏ
ㅊㅚ⑨ㅁㅣᆫ
ㅈㅏᆫㅇㅕ⑨
##ㅂㅔ⑨ㄹㅣ⑨ㅇㅏ⑨
ㄱㅓ⑨ㅂㅜ⑨ㄱㅏᆷ
kbㄱㅜᆨㅁㅣᆫ
ㅎㅏ⑨ㅅㅗ⑨ㅇㅕᆫ
ㅈㅜᆼㅅㅏᆼ
ㅊㅓᆫㄷㅗ⑨
ㅇㅕᆫㄱㅜ⑨ㅎㅚ⑨
ㄸㅏᆯㄱㅣ⑨
ㅅㅏ⑨ㄱㅗ⑨ㅂㅏᆼㅅㅣᆨ
##ㅅㅡᆸㄱㅣ⑨
ㅎㅟᆯㅊㅔ⑨ㅇㅓ⑨
##ㄹㅣ⑨ㅅㅣ⑨
ㅂㅜᆫㅅㅓ
ㅇㅗᆫㅈㅓᆫㅎㅏ⑨
ㅅㅜ⑨ㅊㅣᆨ
ㅂㅗ⑨ㅅㅡ⑨
ㅅㅓᆨㅅㅏᆼ
ㅇㅕ⑨ㅌㅐ⑨
ㅎㅑᆼㅌㅗ⑨
ㄱㅕᆫㅎㅏᆨ
ㅂㅏᆨㅎㅕᆼ
ㅅㅏ⑨ㅇㅜ⑨ㄷㅣ⑨ㅇㅏ⑨ㄹㅏ⑨
ㄷㅏ⑨ㄱㅣ⑨
ㅂㅜᆯㅎㅘ⑨
ㅂㅡᆯㄹㅐᆨㄹㅣ⑨ㅅㅡ⑨ㅌㅡ⑨
ㅇㅣ⑨ㅎㅗ⑨
ㅈㅣᆫㅅㅜ⑨
ㅊㅣ⑨ㄹㅛ⑨ㅂㅓᆸ
ㄹㅣ⑨ㅊㅓ⑨ㄷㅡ⑨
bb
##ㅅㅐᆼㄱㅣ⑨
ㅈㅏ⑨ㅂㅐᆨ
ㅇㅡ⑨ㅅㅔ⑨ㅇㅛ
ㄷㅜ⑨ㅂㅏ⑨ㅇㅣ⑨
##ㅎㅓ⑨ㄱㅏ⑨
ㅌㅓᆨㅇㅓᆹㅇㅣ⑨
ㄱㅣᆷㅇㅕᆼㅊㅓᆯ
ㅈㅏ⑨ㅇㅕᆼㅇㅓᆸ
ㅎㅓᆷㅎㅏ⑨
ㅇㅠ⑨ㄴㅏ⑨ㅇㅣ⑨ㅌㅣ⑨ㄷㅡ⑨
ㄱㅏᆼㅇㅣᆫ
ㅌㅔ⑨ㅅㅡᆯㄹㅏ⑨
ㅅㅡ⑨ㅌㅗ⑨ㅇㅓ⑨
##ㄱㅡ⑨ㄹㅏ⑨
ㅊㅟ⑨ㄷㅡᆨㅅㅔ⑨
ㄱㅔ⑨ㅅㅡ⑨ㅌㅡ⑨
ㅈㅓ⑨ㅉㅗᆨ
ㅍㅣᆯㅅㅏ⑨
ㅂㅏᆨㅂㅓᆷ
ㅊㅜᆫㅊㅜ⑨ㄱㅘᆫ
##ㄹㅡ⑨ㄹ
##ㄴㅜᆯ
ㅇㅑ⑨ㅅㅡ⑨
ㅅㅗᆨㅅㅏᆨㅇㅣ⑨
ㄱㅗ⑨ㅎㅡᆼ
ㅅㅡᆸㄱㅕᆨ
ㅂㅕᆼㅎㅏᆸ
ㅅㅣ⑨ㅈㅓ
ㅇㅜᆼㅈㅣᆫ
ㅋㅣ
ㅇㅣᆫㅈㅗ⑨
ㅅㅏ⑨ㄷㅐ⑨
ㅇㅣᆫㅌㅓ⑨ㄴㅐ⑨
ㅇㅣᆯㄹㅣ⑨
ㄱㅘᆼㅂㅗᆨㅈㅓᆯ
ㅊㅜᆫㅎㅑᆼ
ㄱㅕᆼㅈㅣᆨ
ㅊㅓᆼㄹㅑᆼ
ㅍㅜᆼㅅㅓᆫ
330
ㄱㅗ⑨ㅈㅣᆯ
ㅂㅐ⑨ㄱㅗ⑨
ㅅㅓ⑨ㄱㅟ⑨ㅍㅗ⑨
ㅇㅣ⑨ㄱㅠ⑨
ㅅㅓᆼㄱㅣ⑨
ㅅㅓᆼㅍㅜᆷ
##ㅔᆯㄹㅔ⑨ㅅㅡ⑨
ㅆㅣ⑨ㄹㅡᆷ
ㅈㅜᆼㄱㅗ⑨ㅊㅏ⑨
##ㅇㅔ⑨ㅅㅡ⑨
152
ㅈㅏ⑨ㅂㅗᆫㄱㅡᆷ
ㅎㅕᆼㄱㅜᆨ
vol
ㅈㅏ⑨ㅅㅜ⑨
##ㅁㅣ⑨ㅅㅜᆯㄱㅘᆫ
ㅂㅏ⑨ㄹㅡ⑨ㅅㅔᆯㄹㅗ⑨ㄴㅏ⑨
ᆫㄷㅐ⑨
ㅂㅕ⑨ㄹㅏᆼ
##ㄹㅓ⑨ㄴㅣ⑨
ㅇㅚ⑨ㄹㅐ⑨
ㅂㅣ⑨ㅅㅓᆫ
116
ㄷㅡ⑨ㄹㅜ⑨
ㄱㅏᆯㅇㅏ⑨ㅇ
ㄱㅡ⑨ㄹㅣᆯ
##ㅇㅓᆸㅅㅗ⑨
skㅎㅏ⑨ㅇㅣ⑨
ㅂㅗ⑨ㄱㅗ⑨ㅅㅓ
ㅋㅗ⑨ㅊㅣᆼ
##ㅇㅔᆺ
ㅇㅏᆯㄹㅔ⑨ㄹㅡ⑨ㄱㅣ⑨
ㄱㅗᆼㄱㅛ⑨ㅇㅠᆨ
##ㄱㅏ⑨ㅈㅣᆷ
ㅅㅜᆨㅇㅝᆫ
ㅈㅓᆸㅈㅓᆷ
ㄹㅜ⑨ㅌㅡ⑨
ㅈㅓ⑨ㅂㅓ⑨ㄹㅣ⑨
ㅅㅏᆼㅅㅔ⑨ㅎㅣ⑨
ㅂㅜ⑨ㅈㅓᆼㅂㅜ⑨ㅍㅐ⑨
##ㅍㅗ⑨ㅌㅓ⑨
##ㅈㅏ⑨ㄹㅏᆨ
ᆫㄷㅡᆯ
ㅈㅣᆫㅊㅓᆨ
ㄷㅏ⑨ㅅㅏᆫ
ㅈㅗᆼㄱㅏ⑨
##ㅎㅏᆨㄱㅛ
ㅌㅐ⑨ㅇㅕᆫ
ㅁㅔ⑨ㅇㅣ⑨ㅋㅓ⑨
ㄹㅜ
ㅂㅕᆼㄷㅡᆯ
ㅅㅜᆨㄹㅕᆫ
ㅇㅝᆫㅅㅏᆫㅈㅣ⑨
vr
ㅁㅜ⑨ㅁㅗ⑨
ㅇㅝᆫㅅㅜᆼㅇㅣ⑨
ㅊㅏ⑨ㅁㅏ⑨
ㅎㅏ⑨ㄱㅖ⑨
ㅋㅏ⑨ㅈㅏ⑨
ㄱㅣ⑨ㅈㅏ⑨ㄷㅏᆫ
##ㅎㅐ⑨ㄱㅜᆫ
ㅇㅡᆫㄱㅏ⑨
ㅉㅏ⑨ㄹ
ㅌㅗ⑨ㅊㅏᆨ
ㅎㅘᆼㅎㅐ⑨
##ㅇㅓ⑨ㅅㅡ⑨
ㅅㅔ⑨ㅅㅕᆫ
ㄱㅏᆼㅅㅓ⑨ㄱㅜ⑨
##ㄱㅕᆼㄱㅣ⑨ㅈㅏᆼ
##ㅅㅏ⑨ㅇㅣᆯ
##ᆨㅅㅡ⑨
ㅎㅕᆸㅇㅑ
ㅂㅐᇀ
ㅇㅣ⑨ㄹㅏ
ㅇㅕᆫㄷㅏᆯ
ᆫㄷㅏ⑨ㄱ
ㅎㅏᆫㄱㅜᆨㅈㅣ⑨
ㄹㅡ⑨ㄴㅗ⑨ㅅㅏᆷㅅㅓᆼ
##41
##ㄴㅏ⑨ㄹㅡ⑨
ㅇㅣ⑨ㄱㅜᆨ
ㄱㅗᆼㅂㅓᆷ
ㅈㅐ⑨ㅎㅘ⑨
##ㄷㅣᆼㅅㅡ⑨
##ㄱㅐᆯ
ㄴㅜᆫㅆㅓᆸ
ㄱㅡᆸㅈㅔ⑨
ㅁㅜᆯㄹㅣ⑨ㅎㅏᆨ
156
ㅂㅗ⑨ㅎㅗ⑨ㅈㅏ⑨
##ative
gen
ㅊㅓᆫㅁㅜᆫㅎㅏᆨ
ㅅㅓ⑨ㅇㅣᆫ
203
ㅅㅏᆼㅈㅏᆼㅅㅏ⑨
##ㅉㅜ⑨
ㅅㅏ⑨ㅁㅜ⑨ㄱㅜᆨ
ㄱㅜᆨㅇㅠ⑨
ㅇㅕᆫㄱㅜ⑨ㅅㅣᆯ
ㄱㅜ⑨ㅁㅣ⑨ㅅㅣ⑨
ㅍㅛ⑨ㄹㅠ⑨
ㅇㅜ⑨ㅇㅕ⑨
ㄷㅜ⑨ㅌㅗᆼ
ㅂㅓᆯㄸㅓᆨ
##ㄴㅏᆫㅎㅏ⑨
ㅌㅔᆷ
ㅇㅣ⑨ㅎㅏᆫ
##ㄱㅛ⑨ㅎㅚ⑨
##ase
ㄱㅣᆷㅎㅐ⑨ㅅㅣ⑨
ㅁㅏᆫㅈㅏᆼ
ㄷㅏᆸㅅㅏ⑨
ㅌㅚ⑨ㅎㅐᆼ
##ㄱㅔ⑨ㅇㅣᆷ
ㄱㅘᆫㅌㅗᆼ
ㅅㅜ⑨ㅅㅓᆨㄷㅐ⑨ㅍㅛ⑨
ㅁㅕᆫㅇㅕᆨㄹㅕᆨ
ㅁㅣ⑨ㅇㅏ⑨
ㅈㅣᆨㄱㅕᆨ
ㅅㅣᆫㅎㅗᆫㅂㅜ⑨
ㅊㅣᆷㅅㅣᆯ
##ㅍㅡ⑨ㅅㅡ⑨
ㅂㅓᆫㅂㅗᆨ
ㅅㅣᆨㅇㅑᆨ
ㅍㅡ⑨ㄹㅏᆼㅋㅡ⑨
ㅈㅏ⑨ㄴㅣ⑨
ㅂㅚᆸ
##ear
ㅂㅗ⑨ㅋㅓᆯ
ㅇㅕᆼㅈㅗᆼ
ㅈㅣᆸㅇㅑᆨ
##ㅁㅜ⑨ㄹㅣ⑨
ㅅㅡ⑨ㄴㅗ⑨
ㅎㅣ⑨ㅇㅓ⑨
ㅂㅗ⑨ㅅㅡᆸ
ㅈㅓᆼㅊㅓᆼ
ㄱㅡ⑨ㄹㅓ
ㄱㅡ⑨ㄹㅏ⑨
ㅁㅜᆯㄹㅕ⑨
ㄱㅣ⑨ㅎㅚᆨㄷㅏᆫ
tp
ㅇㅓ⑨ㅈㅔᆺ
ㅂㅕᆫㅎㅘ
ㅋㅣᆫ
ㅁㅜᆯㄹㅕ⑨ㅂㅏᆮ
ㅎㅏᆫㅁㅣ⑨ㅇㅣᆯ
ㅈㅡᆼㅁㅕᆼㅅㅓ⑨
ㄱㅗᆼㄱㅛ⑨
ㅎㅏᆷㄱㅕᆼ
ㅌㅐᆼ
##ㅂㅓᆫㅎㅗ⑨
ㅅㅔ⑨ㅇㅣ⑨ㅂㅡ⑨
ㄱㅗᆼㄱㅘ⑨
ㅂㅏᆫㅎㅏᆼ
ㅌㅗ⑨ㅁㅏᆨ
127
ㅈㅜᆫㅇㅛᆼ
ㄱㅘᆫㄹㅣ⑨ㅂㅣ⑨
ㄱㅐ⑨ㅅㅓ
##ick
ㄱㅡ⑨ㄹㅣ⑨ㅅㅡ⑨ㄷㅗ⑨ㄱㅛ⑨
ㅇㅣᆸㅅㅗ⑨ㅁㅜᆫ
##ㅋㅗᆸ
##ㅋㅗ⑨ㄷㅡ⑨
ㅇㅜ⑨ㅇㅕ⑨ㄱㅗᆨ
##ㅅㅣᆯㅎㅣ⑨
ㅇㅣ⑨ㅂㅏ⑨ㅈㅣ⑨
ㅇㅗ⑨ㅅㅣᆫ
ㄱㅏᆼㅊㅓᆯ
ㅁㅐ⑨ㅌㅡ⑨
ㅅㅗᆫㅌㅗᆸ
ㄷㅗᆼㅁㅔ⑨ㄷㅏᆯ
1962
ㅍㅏᆫㅅㅗ⑨ㄹㅣ⑨
##ㅈㅔ⑨ㅇㅣᆯ
ㅇㅘᆫㅅㅓᆼㄷㅗ⑨
ㅁㅏ⑨ㅇㅣ⑨ㅋㅡ⑨ㄹㅗ⑨ㅅㅗ⑨
ㅇㅟ⑨ㅂㅏ
ㄱㅐ⑨ㅅㅣᆫㄱㅛ⑨
ㄱㅕᆯㅈㅓ
ㄷㅏ⑨ㄴㅡᆫㄷㅔ⑨
ㅅㅜ⑨ㅇㅑᆼ
ㅁㅏ⑨ㅍㅗ⑨
ass
##ㅌㅜᆼㅇㅣ⑨
ㅈㅜ⑨ㄴㅣ⑨ㅇㅓ⑨
1400
one
ㅁㅣ⑨ㅆㅡ⑨
##ㅇㅣᆯㄹㅓ⑨
##ㅋㅜ⑨ㅅㅡ⑨
##ㅇㅑ⑨ㅁㅏ⑨
151
ㅊㅏᆺ
ㅈㅓᆼㅍㅏ⑨
bn
ㅁㅏᆫㅎㅚ⑨
##ㅇㅏ⑨ㅊㅣ⑨
ㅈㅣᆨㅇㅕᆼ
ㅅㅡᆼㅊㅏ⑨
ㅎㅏ⑨ㄷㅡ⑨ㅇㅞ⑨ㅇㅓ⑨
ㅎㅜ⑨ㅂㅏᆼ
165
ㅇㅜᆷㅋㅕ⑨
ㅇㅣ⑨ㅇㅓᆫ
##ㅇㅕ⑨ㅎㅐᆼ
ep
ㅌㅚ⑨ㅈㅣᆨㄱㅡᆷ
##ㅂㅔᆺ
ㄱㅡ⑨ㄹㅔ⑨
ㅇㅜ⑨ㅇㅕ⑨ㄱㅗᆨㅈㅓᆯ
ㅅㅓᆼㅈㅣ⑨
ㄴㅐ⑨ㅅㅕ⑨ㄴㅓᆯ
ㅇㅡᆫㅁㅔ⑨ㄷㅏᆯ
ㅇㅗ⑨ㅅㅡᆼ
ㄱㅛ⑨ㄱㅜ⑨
ㅇㅑᆨㅌㅏᆯ
##ㅋㅗ⑨ㄹㅣ⑨ㅇㅏ⑨
ㅈㅓᆼㄹㅠ⑨ㅈㅏᆼ
ㅈㅓᆨㄱㅣ⑨
ㅎㅐ⑨ㅈㅓ⑨
ㅇㅓ⑨ㄱㅣᆷㅇㅓᆹㅇㅣ⑨
ㅅㅣᆷㄱㅏᆨㅅㅓᆼ
ㅂㅏᆼㅁㅣ⑨
ㅁㅗᆨㅇㅛ⑨ㅇㅣᆯ
ㅅㅗᆼㅍㅏ⑨
ㅎㅏ⑨ㄴㅏ⑨ㅇ
ㅇㅠ⑨ㅎㅘ⑨
ㄱㅜ⑨ㅈㅣᆨㅈㅏ⑨
ㄷㅏᆷㄷㅏᆷ
ㅈㅓᆼㅈㅣᆫㅅㅓᆨ
ㄱㅘ⑨ㅎㅏ
ㅈㅏ⑨ㅇㅠ
ㅇㅜ⑨ㄷㅡ⑨
ㄱㅛ⑨ㅁㅛ⑨
ㄱㅣᆷㅇㅕᆼㄹㅏᆫ
3500
ㅈㅓ⑨ㅌㅐᆨ
ㅈㅣ⑨ㄱㅜ⑨ㅊㅗᆫ
##ㅊㅏ⑨ㄹㅣᆷ
ㅌㅔᆯ
ㅎㅏᆫㄱㅜᆨㅅㅜ⑨
ㄷㅣ⑨ㅅㅡ⑨
ㄱㅣᆷㅂㅕᆼㅈㅜᆫ
ㅌㅗᆼㅎㅏᆨ
ㅌㅡ⑨ㄹㅔ⑨ㅇㅣ⑨ㄴㅣᆼ
ㅅㅣᆯㅊㅐᆨ
ㄱㅓ⑨ㄹㅣ
ㅇㅏᆫㄹㅏᆨ
ㄷㅜ⑨ㅂㅜ⑨
##ㄹㅜ⑨ㅅㅏᆯ
ㅈㅣ⑨ㅎㅚ⑨
ㄱㅗᆼㅎㅘᆼ
ㅇㅢ⑨ㅁㅣ
ㅁㅏ⑨ㄴㅣ⑨ㅇㅏ⑨
ㅇㅜ⑨ㅈㅡ⑨ㅂㅔ⑨
ㅅㅐᆼㅊㅔ⑨
ㄷㅗ⑨ㄹㅣ⑨ㅇㅓ⑨
ㅇㅗ⑨ㄷㅣ⑨
ㄷㅗᆼㅅㅓᆫ
ㅇㅠ⑨ㅈㅓ⑨
ㅊㅓᆯㅇㅝᆫ
ㅅㅡ⑨ㅋㅐᆫㄷㅡᆯ
ㄹㅓᆨㅅㅕ⑨
ㅈㅗᆼㅂㅜᆨ
ㅋㅏ⑨ㄹㅡᆯ
ㄱㅏᆼㄷㅐ⑨ㄱㅜᆨ
176
ㅎㅏᆫㅅㅣᆨ
ㅈㅏ⑨ㄹㅏᆨ
ㄱㅓ⑨ㅈㅜ⑨ㅈㅏ⑨
##ㅍㅏ⑨ㄹ
ㅂㅐ⑨ㅅㅓᆨ
ㄹㅗᆫㅊㅣᆼ
ㅇㅕᆼㄴㅗᆼ
ㅂㅜᆯㅂㅏᆯ
ㄴㅏᆼㄷㅗᆨ
ㄷㅐ⑨ㄹㅏᆫ
ㅅㅗ⑨ㅇㅑᆼ
ㅂㅗ⑨ㅅㅓᆼ
gp
ㅇㅞ⑨ㅅㅡ⑨ㅌㅡ⑨
##ㄱㅜ⑨ㅁㅓᆼ
ㅇㅓ⑨ㅈㅔᆺㅂㅏᆷ
ㅇㅕ⑨ㅇㅜᆫ
ㅇㅛ⑨ㅌㅡ⑨
ㄱㅕᆼㅇㅕᆼㅎㅏᆨ
##ㅡ⑨ㄴㅔ⑨
ㄹㅗ⑨ㅇㅕᆯ
ㅅㅓ⑨ㅇㅕᆼ
##ㅟᆨ
ㅎㅚ⑨ㅂㅜ⑨
ㄱㅜᆨㅈㅔ⑨ㅂㅓᆸ
ㅂㅏ⑨ㄷㅏᆺㅁㅜᆯ
##ㄹㅏ⑨ㄴㅗ⑨
ㅁㅜ⑨ㅅㅡᆯㄹ
ㄷㅏᆫㅎㅏᆸ
ㅂㅏᆨㅈㅜ⑨ㅇㅕᆼ
ㄱㅕᆼㅎㅢ⑨ㄷㅐ⑨
ㅅㅓᆼㅂㅕᆨ
ㅇㅏ⑨ㄹㅣ⑨ㄹㅏᆼ
ㄷㅗ⑨ㄹㅜ⑨
ㅅㅜ⑨ㅅㅏ⑨ㅊㅓ⑨
ㅂㅗ⑨ㅎㅗ⑨ㅂㅓᆸ
ㅎㅏ⑨ㅍㅣᆯ
ㅊㅓᆼㄴㅏ⑨ㄹㅏ⑨
ㄲㅏ⑨ㅁㅏᇂ
ㅂㅜ⑨ㅈㅣ⑨ㅅㅏ⑨
ㅎㅓ⑨ㅂㅓᆨㅈㅣ⑨
ㄱㅕᆼㅂㅗᆨ
ㅇㅡᆫㅎㅐᆼㅈㅏᆼ
ㅁㅐᆷㄷㅗᆯ
ㅊㅐᆯㄹㅣᆫ
ㄱㅗ⑨ㄴㅚ⑨
ㄱㅗ⑨ㄹㅕᆼㅈㅏ⑨
ㄱㅟ⑨ㄴㅗᆼ
ㄷㅐ⑨ㅁㅏ⑨
ㅅㅓᆼㄷㅐ⑨
ㅇㅕᆼㅅㅏᆫ
ㅈㅓᆼㅊㅏ⑨
ㅇㅣ⑨ㅈㅓᆼㅁㅣ⑨
ㅇㅗ⑨ㅋㅣ⑨ㄴㅏ⑨ㅇ
##ai
##ㅏ⑨ㅁㅗ⑨
ㅈㅏᆼㅁㅗ⑨
ㄴㅜᆫㅇㅕ⑨ㄱㅕ⑨ㅂㅗ⑨
ㅈㅓᆼㄱㅐ⑨
ㅍㅗ⑨ㅋㅡ⑨
ㅇㅕᆫㅎㅏ
ㅁㅜ⑨ㄹㅡ⑨
ㄷㅏᆯㄹㅓ⑨ㅎㅘ⑨
ㅅㅜ⑨ㅇㅛ⑨ㅇㅣᆯ
americ
ㅇㅚ⑨ㅈㅣ⑨
ㅂㅐ⑨ㄴㅏᆼ
ㅌㅓ⑨ㅈㅓᆫ
that
ㅅㅓ⑨ㅎㅐ⑨ㅇㅏᆫ
ㄷㅐ⑨ㄱㅘᆫ
ㅈㅔ⑨ㅁㅜᆯ
1940
ㅇㅔ⑨ㅅㅔ⑨ㅇㅣ⑨
ㅇㅣᆯㅌㅏᆯ
ㄱㅏᆼㅍㅏᆫ
mvp
os
ㅈㅓᆼㅂㅕᆼ
ㄱㅏᆯㅁㅏᆼ
ㅉㅏ⑨ㅇㅣ⑨
##ㄷㅣᆺ
ㅍㅕᆼㅅㅏᆼㅅㅣ⑨
ㅎㅏᆫㅈㅣᆫㅎㅐ⑨ㅇㅜᆫ
ㄱㅣᆷㅎㅏᆫㄱㅣᆯ
ㅂㅏ⑨ㄷㅣ⑨
ㄱㅓ⑨ㄹㅜᆨ
ㅂㅐ⑨ㅇㅕᆯ
ㅂㅗᆯㅌㅓᆫ
ㄱㅏ⑨ㅈㅗ
ㄷㅐ⑨ㅂㅏᆨ
139
##ㅋㅐ⑨ㅍㅣ⑨
ㄱㅕᆼㅇㅜ
ㅎㅜ⑨ㅅㅔ⑨
ㅁㅐ⑨ㅅㅏ⑨
ㅇㅏᆨㅁㅗᆼ
ㅇㅣᆫㅍㅡᆯㄹㅜ⑨
ㅊㅗᆷ
ㅇㅕ⑨ㅎㅐ
##ㅅㅏ⑨ㅌㅐ⑨
ㄷㅚ⑨ㅅㅏᆯ
ㄷㅏᆺㅋㅓᆷ
ㅇㅜ⑨ㅅㅡ⑨
ㅅㅗ⑨ㅇㅣ⑨
ㄹㅔ⑨ㅈㅣ⑨
ㄹㅔᆨ
if
ㅎㅏᆫㅌㅏᆫ
ㅌㅗ⑨ㅇㅢ⑨
ㄹㅗᆺㄷㅔ⑨ㅇㅝᆯㄷㅡ⑨
##ㅅㅗ⑨ㅈㅏᆼ
ㅎㅏᆫㅅㅣ⑨ㅈㅓᆨ
280
ㅊㅏᆼㄴㅕᆼ
ㅍㅗᆨㅅㅡ⑨ㅂㅏ⑨ㄱㅔᆫ
1ㅎㅗ⑨ㄱㅣ⑨
##ㅜ⑨ㄹㅏ⑨
ㅅㅓ⑨ㅅㅣᆫ
ㄱㅕᆯㅅㅏ⑨
ㅈㅣᆸㅇㅛ⑨
ㄱㅗᆯㅁㅗᆨㄱㅣᆯ
ㄷㅐ⑨ㅊㅣᆼ
ㅅㅓᆼㅎㅘ⑨
ㄷㅗᆼㄱㅡ⑨ㄹ
ㅂㅓᆫㅅㅣᆨ
118
ㅁㅏ⑨ㄴㅕ⑨
##ㅂㅔ⑨ㅇㅣ⑨ㅅㅡ⑨
ㄴㅐ⑨ㅈㅓᆫ
ㅇㅕᆼㅊㅓᆫ
ㅂㅏᆯㅂㅏᆯ
ㅇㅔ⑨ㄴㅓ⑨ㅈㅣ
ㅎㅜ⑨ㅍㅗᆨ
ㅇㅔᆫㅎㅘ⑨
ㅈㅣ⑨ㅊㅓᆼ
ㅇㅜ⑨ㅂㅕᆼㅇㅜ⑨
ㅇㅏᆷㅎㅡᆨ
ㅌㅣ⑨ㅂㅔ⑨ㅌㅡ⑨
ㅎㅗᆫㄷㅗᆫ
ㅈㅗ⑨ㅈㅣᆨㅇㅟ⑨
ㅇㅣᆨㅅㅏᆫ
mark
ㄱㅓᆫㄷㅐ⑨
ㅅㅡᆼㄹㅠᆯ
ㅇㅏ⑨ㅁㅜ⑨ㄱㅐ⑨
ㄷㅏᆼㅁㅜ⑨
ㅍㅏ⑨ㅌㅡ⑨ㄴㅓ⑨ㅅㅣᆸ
##ㅌㅣ⑨ㅇㅏ⑨
ㅌㅏᆯㅎㅘᆫ
ㄱㅣ⑨ㄴㅕᆷㅇㅣᆯ
ㅊㅏᆫㅅㅡ⑨
ㅅㅏᆫㅊㅐᆨㄹㅗ⑨
ㅆㅡᆸㅆㅡᆯ
ㅇㅣ⑨ㅎㅚ⑨
ㄱㅡᆷㅅㅏᆫ
ㅍㅕᆫㅈㅣᆸㅈㅏ⑨
ㅊㅜᆯㅅㅏ⑨ㅍㅛ⑨
ㅇㅕᆼㄷㅡᆼㅍㅗ⑨ㄱㅜ⑨
ㅂㅜ⑨ㄷㅏᆷㄱㅏᆷ
ㅇㅕ⑨ㄱㅐᆨㅅㅓᆫ
syst
##ㄹㅜ⑨ㅅㅏᆯㄹㅔᆷ
ㄷㅗ⑨ㄷㅏᆼ
ㄱㅐ⑨ㄱㅜ⑨ㄹㅣ⑨
ㅂㅗᆫㅁㅕᆼ
##ㅅㅗ⑨ㄴㅕᆫ
ㅂㅏᆼㅁㅏᆼㅇㅣ⑨
ㄱㅣᆷㅈㅔ⑨
ㄱㅓᆷㄱㅕᆼ
ㅅㅓ⑨ㅅㅡᆷ
ㅍㅔ⑨ㅅㅡ⑨ㅌㅣ⑨ㅂㅓ
ㅁㅣ⑨ㅇㅝ⑨ㅎㅏ⑨
ㄱㅐᆺㅂㅓᆯ
ㄱㅘ⑨ㅎㅏ⑨
ㅅㅗ⑨ㅅㅜ⑨ㅈㅏ⑨
##ㅏ⑨ㅇㅝ⑨ㅎㅏ⑨
ㅇㅣ⑨ㅇㅛ
ㅈㅗ⑨ㅇㅠᆫ
ㅂㅔᆫㅊㅣ⑨ㅁㅏ⑨
ㅌㅗᆼㅅㅣ
ㅊㅗ⑨ㅂㅣᆼ
ㅈㅏ⑨ㅇㅕᆫㅎㅣ⑨
ㅇㅣᆫㅁㅜ
##ㄴㅗ⑨ㅈㅗ⑨
ㅅㅡ⑨ㅍㅣ⑨ㅋㅓ⑨
ㅈㅏᆸㅇㅏ⑨ㄴㅐ⑨
ㅌㅗᆼㅉㅐ⑨
ㅍㅡ⑨ㄹㅔ⑨ㅈㅔᆫㅌㅔ⑨ㅇㅣ⑨ㅅㅕᆫ
##ㅈㅜᆼㅇㅏᆼㅎㅚ⑨
ㄱㅣ⑨ㄹㅗ
ㅍㅜᆼㅌㅗ⑨
ㅊㅏ⑨ㅂㅜᆫㅎㅏ⑨
ㅇㅓ⑨ㅁㅣᆫ
ㄲㅕ⑨ㅇㅏᆫ
ㅈㅓᆫㅅㅗᆨ
ㅌㅜ⑨ㅈㅏ⑨ㄱㅏ⑨
ㅌㅐ⑨ㅇㅏ⑨
ㅊㅓᆯㅅㅐ⑨
ㅋㅓᆷㅂㅐᆨ
ㅇㅕᆷㅅㅗ⑨
ㄸㅜᆼ
ㄴㅡᆨㄷㅐ⑨
ㄹㅏ⑨ㅇ
ㅁㅗ⑨ㅂㅣ⑨ㅅㅡ⑨
ㅅㅜ⑨ㄷㅗᆺㅁㅜᆯ
ㅁㅣ⑨ㅂㅣ⑨
ㅊㅜᆼㅇㅝᆫ
ㅅㅣᆫㅎㅗᆫㅂㅜ⑨ㅂㅜ⑨
ㅈㅏ⑨ㅁㅣᆫㄷㅏᆼ
ㅁㅜ⑨ㅁㅕᆼ
ㅅㅓᆼㅌㅗ⑨
ㄷㅗᆼㄹㅐ⑨
ㅊㅔ⑨ㅎㅓ
ㅇㅚ⑨ㄹㅗ⑨ㅇㅜᆷ
ㄱㅗᆼㅇㅛᆼ
har
ㅂㅏᆼㅎㅘᆼ
##ㄷㅗ⑨ㅅㅓ⑨ㄱㅘᆫ
ㄷㅓ⑨ㄷㅓ⑨ㅇㅜᆨ
ㅅㅡ⑨ㅍㅗᆫㅅㅓ⑨
ㄱㅕᆷㅎㅓ⑨
ㄷㅗᆼㄴㅏᆷㄱㅝᆫ
##ㅍㅓᆷ
ㄸㅏᆨㄸㅏᆨㅎㅏ⑨
##ㅌㅡᆯㄹㅣ⑨
ㄷㅟ⑨ㅇㅣᆺ
ㅂㅕᆼㅅㅣᆯ
ㄱㅓᆫㅅㅓᆯㅇㅓᆸㅊㅔ⑨
ㅊㅔ⑨ㅇㅠᆨㅎㅚ⑨
ㅈㅓᆫㅈㅓᆫ
ㅈㅏᆼㅎㅏ⑨
tbs
##ㅈㅏᆼㄱㅜ⑨
ㅂㅜᆯㅌㅏ⑨
ㄱㅜ⑨ㅅㅓᆨㄱㅜ⑨ㅅㅓᆨ
##ㄴㅟ⑨
ㅎㅏ⑨ㅁㅏ⑨
ㄷㅏ⑨ㅈㅜ⑨ㅌㅐᆨㅈㅏ⑨
ㅅㅏ⑨ㅇㅜ⑨ㄷㅣ⑨ㅇㅏ⑨ㄹㅏ⑨ㅂㅣ⑨ㅇㅏ⑨
270
ㅇㅔᆫㅌㅡ⑨ㄹㅣ⑨
##me
ㅊㅜᆯㄱㅗ⑨
136
ㅎㅐ⑨ㄷㅗᆨ
ㅂㅜᆨㄱㅕᆼ
##ㅢ⑨ㅇㅜ⑨
ㅅㅜ⑨ㅇㅕᆫ
ㄱㅘ⑨ㅎㅏᆨㅂㅜ⑨
ㅊㅐᆨㅈㅏ⑨
ㅇㅠ⑨ㅌㅐ⑨ㅇㅣᆫ
ㅈㅓᆼㅈㅓᆨ
ㄷㅡ⑨ㄹㅏ⑨ㅇㅣ⑨ㅂㅓ⑨
trans
ㅈㅗ⑨ㅇㅣᆫ
##ㅊㅣ⑨ㅇㅏ⑨
ㄱㅗᆯㅉㅏ⑨ㄱㅣ⑨
ㄴㅏ⑨ㄴㅜᆷ
ㅇㅣᆫㅍㅡᆯㄹㅜ⑨ㅇㅔᆫ
ㅇㅝᆫㅂㅗᆫ
##old
ㅎㅏ⑨ㅇㅑ⑨
##ㅎㅚ⑨ㅇㅢ⑨ㅅㅗ⑨
ㅋㅗ⑨ㅇㅔᆨㅅㅡ⑨
ㅅㅣᆷㅂㅜ⑨
ㅇㅝᆯㄷㅡᆼ
##ㅇㅏᆨㄷㅏᆫ
ㅅㅜᆯㅈㅏ⑨ㄹㅣ⑨
ㄱㅗᆼㅎㅓ⑨
ㅁㅣᆫㅇㅢ⑨
ㅂㅜ⑨ㅊㅓᆫㅅㅣ⑨
ㅇㅕᆫㅅㅣᆫ
365
ㅅㅗᆫㅂㅗ⑨
162
ver
##ㅂㅔ
ㅅㅜ⑨ㅈㅏ⑨ㅇㅝᆫ
ㅊㅜᆯㅎㅕᆯ
##ㄱㅛ⑨ㅅㅏ⑨
ㅇㅡᆷㄹㅏᆫ
ㅇㅕᆼㅅㅜ⑨ㅈㅡᆼ
##ㅅㅜ⑨ㅇㅏ⑨
ㅅㅐᆼㅅㅣᆨ
ㅇㅛ⑨ㅎㅏᆫ
ㄴㅗᆼㄱㅕᆼ
ㅂㅗᆫㅂㅜ⑨ㅈㅏ
##ㅅㅣ⑨ㅈㅡᆷ
ㄱㅏ⑨ㅇㅕᆯ
ㄱㅛ⑨ㅍㅗ⑨
ㅁㅗᆷㄷㅏᆷ
ㄱㅏᆼㅈㅓᆫ
ㅅㅣᆯㅁㅏ⑨ㄹㅣ⑨
ㅂㅏᆨㅇㅘᆫ
##ㅈㅣᆼㅇㅓ⑨
ㄱㅜᆯㅂㅗᆨ
ㅎㅏ⑨ㅌㅡ⑨
##ㅁㅣ⑨ㄹㅡ⑨
##ㅎㅕᆫㄷㅗᆼ
ㅍㅗᆨㅍㅏ⑨
ㅁㅏᆽㅇㅡᆫ
ㅇㅢ⑨ㄹㅣ⑨
ㅍㅕᆫㅇㅣᆨ
153
##ㄷㅏ⑨ㅈㅜ⑨
ㅎㅗ⑨ㅎㅘ⑨
ㄱㅡᆷㅈㅣ⑨ㅂㅓᆸ
ㅈㅓᆼㅇㅠᆫ
ㅊㅚ⑨ㅅㅓᆼ
##ㅇㅣᆯㅊㅣ⑨
ㄹㅜ⑨ㅌㅓ⑨
ㅇㅏ⑨ㅋㅣ⑨
##ㅎㅡᆫㄷㅡᆯ
ㅅㅡ⑨ㅋㅗ⑨ㅌㅡᆯㄹㅐᆫㄷㅡ⑨
ㄷㅏᆫㅅㅜ⑨
ㅂㅏᆫㅍㅗ⑨
ㅅㅜ⑨ㅇㅛ⑨ㅈㅏ⑨
ㅅㅗ⑨ㄹㅕᆼ
ㄱㅗᆼㄱㅝᆫㄹㅕᆨ
##ㄷㅡᆨㅇㅣ⑨
ㄱㅗᆼㄱㅜ⑨
ㅇㅣᆫㅎㅓ⑨ㄱㅏ⑨
ㅈㅜᆫㅇㅜ⑨
ㅇㅗ⑨ㄷㅣ⑨ㅇㅗ⑨
##ㅅㅣ⑨ㅎㅓᆷ
ㅇㅔ⑨ㅍㅡ⑨
1946
ㅂㅡ⑨ㄹㅗ⑨ㅋㅓ⑨
ㅈㅏ⑨ㅊㅐᆨㅈㅓᆷ
ㅅㅜ⑨ㄴㅕ⑨
ㅎㅏᆨㄴㅕ
ㅇㅣ⑨ㄱㅏᆼ
ㄸㅟ⑨ㅇㅓ⑨
ㅁㅓ⑨ㅈㅣ⑨
##ights
149
ㅁㅜ⑨ㄷㅓ⑨ㅇㅟ⑨
ㅈㅗᆼㅂㅜ⑨ㅅㅔ⑨
ㅈㅗ⑨ㅅㅓᆫㅈㅜᆼㅇㅏᆼㅌㅗᆼㅅㅣᆫ
##ㅇㅣ⑨ㅅㅡ⑨
ㄱㅡ⑨ㅉㅗᆨ
ㅇㅖ⑨ㄹㅜ⑨ㅅㅏᆯㄹㅔᆷ
ㅅㅏ⑨ㄴㅏᆸ
ㅇㅣ⑨ㅎㅛ⑨
ㅁㅓ⑨ㄱㅡᆷ
chr
##ㅈㅓᆨㄱㅓ⑨ㄹㅣ⑨
ㅂㅏᆼㅎㅘ⑨
ㅊㅏᆷㅅㅣᆫ
ㅂㅜ⑨ㅅㅏᆼㅈㅏ⑨
ㅈㅜ⑨ㅇㅕᆼ
ㅎㅘ⑨ㅅㅜᆫ
##ㅊㅓ⑨ㅂㅜᆫ
ㅂㅣ⑨ㄹㅛ⑨
##ㅇㅕᆼㅎㅘ⑨
ㅂㅣᆽㅇㅓ⑨ㅈㅣ⑨
ㅇㅕᆼㄷㅓᆨ
ㅎㅕᆨㅅㅣ
ㄱㅓ⑨ㅁㅣ⑨
ㄱㅘᆫㅈㅓᆯㅇㅕᆷ
##eth
ㅇㅣ⑨ㄸ
ㄷㅐ⑨ㄴㅐ⑨ㅇㅚ⑨
ㄴㅏ⑨ㅍㅗᆯ
ㅎㅖ⑨ㅅㅓᆼ
##son
ㅅㅏ⑨ㅁㅜᆺ
ㄱㅜᆱㅈㅜ⑨
ㅁㅣ⑨ㅇㅑ⑨
ㅇㅛᆼㄷㅗᆫ
ㅈㅏᆸㅇㅡᆷ
##form
ㅅㅓᆫㄱㅜ⑨
ㄷㅗᆯㄹㅕ⑨ㅂㅗ⑨ㄴㅐ⑨
ㅈㅏᆼㅁㅏᆫ
210
ㅎㅏ⑨ㄴㅏ⑨ㅇㅡᆫㅎㅐᆼ
ㄱㅗᆼㅇㅕ
ㅁㅜᆫㄱㅘ⑨
ㅊㅜ⑨ㄱㅏ⑨ㄱㅕᆼ
ㅇㅢ⑨ㅅㅓᆨㅅㅜ⑨
ㅈㅡ
ㄱㅏᆼㄷㅡᆼ
137
##ㄱㅡᆯㄹㅏ⑨ㅅㅡ⑨
ㅎㅏᆫㄱㅜᆨㅌㅗ⑨ㅈㅣ⑨ㅈㅜ⑨ㅌㅐᆨ
ㅊㅜ⑨ㄱㅏ⑨ㄱㅕᆼㅈㅓᆼ
##ㅂㅓᆺ
ㄱㅘ⑨ㅇㅚ⑨
ㄴㅏᆷㅈㅗ⑨ㅅㅓᆫ
ㅈㅏ⑨ㅅㅗᆫ
ㅇㅜ⑨ㅇㅢ⑨
133
ㅌㅜ⑨ㅍㅛ⑨ㅇㅛᆼㅈㅣ⑨
ㅊㅓᆫㅈㅓᆼㅂㅐ⑨
skㅎㅏ⑨ㅇㅣ⑨ㄴㅣᆨㅅㅡ⑨
ㅈㅣᆨㄱㅕᆨㅌㅏᆫ
ㅋㅏᆫㅌㅡ⑨
ㅅㅏᆷㅅㅓᆼㄷㅗᆼ
ㅎㅕᆫㄷㅐ⑨ㅁㅗ⑨
ㅊㅔ⑨ㅁㅕᆫ
ㅈㅜᆫㅇㅜ⑨ㅅㅡᆼ
ㅇㅏᆫㄱㅘ⑨
ㅂㅏᆨㅅㅡᆼ
ㅎㅗᆫㅅㅓᆫ
ㅁㅗᆯㅇㅣ⑨
##ㄹㅓᆫㅌㅡ⑨
ㅎㅘᆼㅌㅐ⑨
ㅇㅕᆼㄴㅏᆷㄷㅐ⑨
##ㅅㅓᆼㄴㅕᆫ
ㅇㅏ⑨ㅇㅕᆫ
1961
fi
ㄷㅐ⑨ㅇㅡᆼㅊㅐᆨ
##ㄱㅕ⑨ㅈㅣ⑨
ㅂㅗᆫㅊㅓᆼ
ㅍㅏ⑨ㅇㅜᆫㄷㅡ⑨
1966
ㅌㅔ⑨ㅋㅡ⑨ㄴㅗᆯ
ㅅㅐᆨㅅㅗ⑨
ㄱㅣ⑨ㅇㅜᆯㅇㅓ⑨ㅈㅣ⑨
ㅍㅜᆯㄹㅕ⑨ㄴㅏ⑨
ㄱㅓᆫㄱㅜᆨㄷㅐ⑨
was
kbㄱㅡᆷㅇㅠᆼ
ㅁㅜ⑨ㅅㅡᆯㄹㅣᆷ
vip
ㅋㅡ⑨ㄹㅔ⑨ㅇㅣᆫ
ㄴㅜ
ㄷㅏᆫㄹㅕᆫ
ㅂㅗ⑨ㅈㅘ⑨ㅈㅣᆫ
ㅎㅓᆺㄷㅚ⑨
international
ㅊㅚ⑨ㅈㅓᆼ
##ㅇㅟ⑨ㅇㅝᆫㅎㅚ
ㄱㅗ⑨ㅇㅏᆫ
ㅎㅏᆫㄱㅜᆨㄱㅓ⑨ㄹㅐ⑨ㅅㅗ⑨
econom
ㅎㅏ⑨ㅇㅕ⑨
ㅅㅣᆷㄱㅕᆼ
ㅊㅣᆫㅂㅏᆨ
ㄱㅏ⑨ㄷㅏ⑨ㄷㅡᆷ
ㄲㅗ⑨ㅂㅏᆨ
ㅇㅠ⑨ㅂㅐ⑨
ㅍㅗᆨㅇㅜ⑨
##und
ㅁㅏᆯㅁㅜᆫ
ㅅㅜ⑨ㅇㅛᆼㅅㅗ⑨
ㅁㅐᆽㅎㅣ⑨
ㅂㅜᆯㅆㅜᆨ
##yp
ㅇㅏ⑨ㅅㅣ⑨ㅇㅏ⑨ㄴㅏ⑨ㅎㅏᆼㄱㅗᆼ
##ㅇㅏ⑨ㅁㅔ⑨
ㅁㅏᆽㅇㅡᆫㅍㅕᆫ
ㅅㅓᆫㅅㅏᆼ
ㅇㅏ⑨ㅇㅣ⑨ㅇㅓᆫ
ㅈㅣ⑨ㅈㅣ⑨ㅂㅜ⑨ㅈㅣᆫ
ㅁㅏ⑨ㅌㅣᆫ
ㅇㅐ⑨ㄴㅓᆯ
ㅁㅣ⑨ㅅㅓᆼㄴㅕᆫ
ㅎㅏᆫㄱㅜᆨㄱㅐᆯ
##ㅅㅏᆼㄱㅜᆨ
ㅎㅗᆫㅈㅏᆸ
ㅈㅓᆫㄴㅕᆫㄷㅗ⑨
ㅇㅔ⑨ㅌㅣ⑨
ㅅㅡ⑨ㅌㅗᆫ
ㅍㅡᆯㄹㅏ⑨ㅌㅗᆫ
##ik
ㄷㅏᆷㅂㅐᆺ
ㅇㅡ⑨ㄹㅣ⑨ㄹㅏ⑨
##ㄲㅗᆼ
ㅎㅘ⑨ㅂㅐᆨ
ㅇㅠ⑨ㄴㅣ⑨ㅂㅓ⑨
ㅈㅗ⑨ㅈㅓ
ㄹㅓᆨㅅㅕ⑨ㄹㅣ⑨
ㅁㅓ⑨ㄴㅣ⑨
ㄱㅗ⑨ㅇㅣ⑨
##ore
der
ㄱㅕᆼㅎㅕᆸ
##ㅅㅗ⑨ㄱㅐ⑨
ㅁㅜᆫㅎㅘ⑨ㅈㅐ⑨ㅊㅓᆼ
ㅌㅡ⑨ㄹㅣ⑨ㅍㅡᆯ
ㄱㅜᆫㅂㅜ⑨ㄷㅐ⑨
ㅇㅢ⑨ㅅㅓᆼ
ㅅㅏᆷㅅㅓᆼㅈㅡᆼㄱㅝᆫ
ㅇㅣ⑨ㅁㅣᆫㅈㅏ⑨
ㅊㅗᆼㅅㅐᆼㅅㅏ
ㄱㅛ⑨ㅈㅔ⑨
##ㅈㅏᆨㄱㅏ⑨
ㅎㅛ⑨ㅇㅛᆼ
ㅎㅠ⑨ㅇㅓᆸ
ㅇㅏᆫㅅㅏᆫㅅㅣ⑨
ㅊㅜ⑨ㅈㅣᆫㄹㅕᆨ
ㅈㅔ⑨ㅇㅣᆯㅁㅗ⑨
126
ㄱㅗ⑨ㄱㅗᆼ
ㅁㅜᆫㅅㅣᆫ
ㅇㅏᆯㅍ
ㄷㅟ⑨ㅅㅓ
ㅂㅏᆯㅈㅔ⑨
ㅎㅚ⑨ㅅㅣᆨ
ㅇㅓᆼㅁㅏᆼ
##ast
ㅌㅗᆼㅌㅡᆯ
ㄱㅕᆯㅂㅕᆯ
ㄷㅐ⑨ㅎㅘ
##ㅈㅡ⑨ㅇㅡᆷ
ㅈㅓᆱㅇㅡᆷ
ㅅㅔ⑨ㅂㅡᆫ
ㄱㅜ⑨ㅈㅣᆨ
##ㅈㅣᆫㅎㅡᆼㅇㅝᆫ
system
ㅇㅖ⑨ㅅㅜ
ㅎㅕᆫㅅㅏ
ㅇㅟ⑨ㅅㅡ⑨ㅋㅣ⑨
ㅌㅜ⑨ㅅㅓᆼㅇㅣ⑨
##ㅇㅣ⑨ㅇㅓ⑨
ㅎㅏᆫㄱㅣ⑨
##ㅂㅣ⑨ㄱㅔ⑨ㅇㅣ⑨
ㄱㅕᆯㅁㅏᆯ
ㄱㅟ⑨ㄱㅏ⑨
ㅇㅏᆫㅇㅑᆼㅅㅣ⑨
##ㅇㅞᆯ
ㅋㅏ
ㄲㅗᆯㅉㅣ⑨
##ㅊㅜᆨㄱㅜ⑨ㅇㅕᆫㅁㅐ
##ㅇㅔ⑨ㅁㅣ⑨
ㅆㅏ⑨ㄴㅡᆯ
ㄱㅐ⑨ㄴㅕᆫ
ㅇㅏ⑨ㅇㅣ⑨ㄷㅣ⑨
ㄷㅐ⑨ㄱㅛ⑨
ㅇㅝᆯㅅㅡ⑨ㅌㅡ⑨
ㅅㅓ⑨ㅂㅜᆨ
ㄱㅏᆯㅂㅣ⑨
##ㅂㅣᆷ
ㄹㅗ⑨ㅅㅡ⑨ㅋㅜᆯ
ㅅㅏ⑨ㅇㅗ⑨
ㅊㅜ⑨ㄱㅏ⑨ㄱㅕᆼㅈㅓᆼㅇㅖ⑨ㅅㅏᆫ
ㅂㅗ⑨ㅅㅏᆯㅍㅣ⑨
ㅇㅣ⑨ㅌㅗᆼ
ㅇㅣ⑨ㅅㅔ⑨
ㅅㅐᆼㅅㅏ⑨
ㅅㅣᆯㅎㅕᆼ
ㅁㅗᆷㅁㅜ⑨
ㅇㅣᆫㅍㅏ⑨
ㅊㅚ⑨ㅈㅣᆫ
ㅍㅣ⑨ㅈㅣ⑨
ㄹㅣ⑨ㅊㅣ⑨
ㅁㅣ⑨ㄹㅐ⑨ㅂㅜ⑨
ㅈㅓ⑨ㄱㅕᆨ
ㅎㅓ⑨ㅅㅜᆯ
ㄱㅏᆼㄹㅕᆼ
##ㅈㅣ⑨ㄱㅣ⑨
ㄹㅜ⑨ㅋㅣᆼ
##ㄴㅔ⑨ㅁㅏ⑨
kl
ㄹㅖ⑨
ㅂㅓᆫㄱㅐ⑨
##ㅂㅜ⑨ㄹㅣᆷ
##ㅁㅕᆼㅎㅏ⑨
ks
ㄱㅕᆼㄱㅣ⑨ㄹㅕᆨ
##ㄷㅡ⑨ㄹㅡᆷ
ㅈㅓᆼㅊㅓᆼㄹㅐ⑨
ㅇㅗ⑨ㅋㅣ⑨ㄴㅏ⑨ㅇㅘ⑨
oled
##ㅎㅚᆼ
ㅎㅏᆼㅂㅕᆫ
ㅂㅡ⑨ㄹㅔᆨㅅㅣ⑨
144
ㄹㅗ⑨ㅅㅡ⑨ㅇㅐᆫ
ㅇㅠᆫㅎㅢ⑨
ㅇㅕᆯㅈㅜᆼ
ㅇㅓᆨㄹㅠ⑨
ㅈㅐ⑨ㅇㅕᆫ
ㅈㅣ⑨ㅎㅏ⑨ㅅㅜ⑨
##ㄱㅡᆨㅈㅏᆼ
ㅆㅡᆯㄷㅔ⑨ㅇㅓᆹ
ㅋㅏ⑨ㅍㅣ⑨
ㅍㅡᆯㄹㅗ⑨ㄹㅣ⑨
ㅅㅏᆼㄷㅏᆫ
ㅎㅕᆫㅁㅣ⑨
##ㅋㅓ⑨ㄴㅣ⑨ㅈㅡᆷ
ㅇㅟ⑨ㅎㅓᆷㅅㅓᆼ
ㅅㅗ⑨ㅅㅗᆼㅂㅓᆸ
ㄱㅗ⑨ㅁㅗ⑨
ㅅㅣᆫㅂㅕᆫ
ㅍㅏᆫㅌㅏ⑨ㅈㅣ⑨
ㅇㅏᆫㅁㅜ⑨
ㄱㅓ⑨ㄹㅐ⑨ㅇㅣᆯ
##ㅊㅗ⑨ㄹㅣ⑨
ㅁㅣᆫㅂㅕᆼ
ㅎㅑᆼㅇㅠ⑨
750
ㅇㅑᆨㅍㅜᆷ
ㅅㅔᆫㅌㅡ⑨ㄹ
ㅂㅡ⑨ㄹㅔ⑨
ㅇㅜ⑨ㅊㅔ⑨ㄱㅜᆨ
ㅎㅘᆯㅈㅜ⑨
ㅂㅔᆫㅊㅣ⑨ㅁㅏ⑨ㅋㅣᆼ
ㄹㅗ⑨ㅅㅡ⑨ㅇㅐᆫㅈ
ㅂㅗᆨㅅㅓᆫ
ㅍㅏ⑨ㅈㅜ⑨ㅅㅣ⑨
ㅎㅚᆨㅇㅣᆯ
ㅇㅓ⑨ㅊㅓ⑨
ㅇㅢ⑨ㅎㅗ
ㅈㅗᆼㅇㅑᆼ
##ㄹㅗ⑨ㄹㅣ⑨
ㅍㅏ⑨ㅇㅣᆫ
ㅅㅏ⑨ㅎㅏ
ㅇㅕᆫㅈㅓᆫ
ㅍㅕᆼㅎㅘ
ㄱㅜᆼㅈㅜᆼ
ㄱㅣ⑨ㄱㅝᆫ
ᆯㄹㅏ⑨
ㅂㅣ⑨ㄲㅗ⑨
ㅈㅣ⑨ㅇㅕᆨㅈㅜ⑨ㅇㅢ⑨
ㄷㅗ⑨ㅇㅜ⑨ㅁㅣ⑨
ㄱㅗ⑨ㅈㅗᆯ
ㅇㅜ⑨ㅅㅡᆼㅈㅏ⑨
ㅁㅓᆼㅊㅓᆼ
ㅇㅟ⑨ㅅㅓᆫ
1964
ㅈㅣᆱ
ㅇㅡ⑨ㄴㅣ⑨ㄲㅏ⑨ㅇㅛ
ㅋㅓᆫㅅㅔᆸ
ㅅㅓ⑨ㅊㅗ⑨ㄷㅗᆼ
ㅅㅣᆫㅁㅕᆼ
ㅁㅜᆫㅈㅔ⑨ㅇㅢ⑨ㅅㅣᆨ
ㅁㅠ⑨ㅈㅣ⑨ㅅㅕᆫ
ㅁㅜᆯㄴㅗᆯㅇㅣ⑨
ㅈㅓᆫㄴㅏᆷㄷㅐ⑨
ㅋㅗᆫㅅㅓ⑨ㅌㅡ
##ㅇㅣᆯㄹㅣ
ㅇㅛᆼㅈㅓᆨ
ㄱㅡᆷㄴㅕᆫ
ㅊㅏ⑨ㅊㅔ⑨
##ㅌㅐ⑨ㅍㅕᆼ
ㄷㅗᆼㅁㅐᆼㄱㅜᆨ
ㅇㅗ⑨ㅅㅣᆫㅎㅘᆫ
##ㄹㅕ⑨ㄴㅐ⑨
dr
ㅅㅣᆫㅂㅗ⑨
ㅇㅓ⑨ㄸㅓᆨ
ㄴㅏᆷㅇㅏ⑨
ㅅㅏᆫㅅㅜ⑨
ㅈㅜ⑨ㅅㅓᆫ
ㅅㅏ⑨ㅊㅓᆫ
ㄴㅗ⑨ㅂㅣ⑨
ㅎㅠᆼㄱㅣ⑨
ㅎㅏᆫㄱㅕᆯㄱㅏᇀㅇㅣ⑨
ㅊㅜᆯㅇㅝᆫ
ㅅㅣ⑨ㅇㅓ⑨ㅁㅓ⑨ㄴㅣ⑨
##ㅅㅔ⑨ㄱㅣ⑨
##ㄴㅕᆿ
lpga
ㅇㅢ⑨ㄱㅣ⑨
ㅋㅗ⑨ㄲㅣ⑨ㄹㅣ⑨
ㄱㅖ⑨ㅇㅑᆨㅈㅣᆨ
ㄱㅐ⑨ㄱㅜ
ㄲㅐ⑨ㄸㅡ⑨ㄹㅣ⑨
ㅇㅏᆫㅌㅣ⑨
ㅇㅣᆫㅊㅓᆫㅎㅏᆼ
##ㄸㅜᆶ
ㅅㅣᆫㅂㅜᆫㅈㅡᆼ
ㅂㅏᆼㅈㅓᆷ
ㅋㅏ⑨ㅈㅏ⑨ㅎㅡ⑨
ㄴㅏᆨㅇㅣᆫ
ㄷㅗᆼㄴㅏᆷㅇㅏ⑨ㅅㅣ⑨ㅇㅏ⑨
ㅇㅏ⑨ㄹㅏᆼㄱㅗᆺ
ㅎㅕᆫㄷㅐ⑨ㅈㅔ⑨ㅊㅓᆯ
ㅇㅓ⑨ㅊㅓ⑨ㄱㅜ⑨ㄴㅣ⑨
##ㄴㅔ⑨ㅇㅣ⑨
ㅂㅜ⑨ㄷㅣ⑨
ㄱㅝᆫㅇㅟ⑨ㅈㅜ⑨ㅇㅢ⑨
ㅂㅏ⑨ㅇㅣ⑨ㅇㅗᆯㄹㅣᆫ
ㅍㅕᆼㅈㅜᆫ
ㅂㅕᆯㅅㅔ⑨
ㄷㅟ⑨ㅎㅡᆫㄷㅡᆯ
ㅂㅗ⑨ㅇㅏᆫㅂㅓᆸ
ㅅㅏᆼㅅㅜ⑨ㄷㅗ⑨
ㄱㅕᆼㅇㅏᆨ
ㅇㅖ⑨ㄱㅏᆷ
ㄷㅏᆯㅅㅓᆼㄱㅜᆫ
ㄲㅞ⑨ㄸㅜᆶ
ㅌㅠ⑨
ㅌㅗᆼㅍㅖ⑨
ㅌㅜ⑨ㅇㅕ⑨
ㅎㅔ⑨ㄹㅏ⑨
lif
##ㅅㅡ⑨ㅋㅡ
ㅎㅜ⑨ㅍㅗᆨㅍㅜᆼ
ㅈㅣᆱㅇㅓ⑨ㅈㅣ⑨
ㄷㅐ⑨ㅌㅗᆼㄹㅕᆼㅅㅣᆯ
ㅅㅜᆫㅈㅗᆼ
##ㄲㅐ⑨ㅂㅣ⑨
ㅋㅓᆺㅇㅗ⑨ㅍㅡ⑨
ㅌㅏᆯㅅㅔ⑨
ㅇㅝᆯㅅㅡ⑨ㅌㅡ⑨ㄹㅣ⑨ㅌㅡ⑨
1100
ㅅㅡ⑨ㅌㅏ⑨ㄷㅣ⑨ㅇㅜᆷ
ㅈㅜ⑨ㅅㅣᆷ
ㅎㅐᆼㅂㅏᆼ
ㅂㅜ⑨ㅅㅏᆫㅈㅣ⑨ㅇㅕᆨ
ㅇㅣ⑨ㅈㅐ⑨ㅇㅗ⑨
ㅇㅟ⑨ㄱㅖ⑨
ㅂㅕᆯㅈㅏᆼ
ㅈㅣ⑨ㄱㅔ⑨
ㅂㅗᆨㄹㅣ⑨
ㅋㅔ⑨ㅇㅣ⑨ㅂㅡᆯㅋㅏ⑨
ㅅㅔ⑨ㄱㅏᆫ
##ㅅㅏ⑨ㄱㅣ⑨
ㅇㅕ⑨ㅈㅣᆫ
ㅂㅏᆨㅁㅣᆫ
172
##ㅈㅣ⑨ㅂㅏᆼㅂㅓᆸㅇㅝᆫ
ㅇㅝᆯㅍㅕᆼㄱㅠᆫ
ㄱㅣᆯㄷㅡᆯㅇㅣ⑨
##oss
1910
ㅈㅡᆼㅅㅣᆨ
ㅂㅣ⑨ㅈㅏᆼ
ㅇㅏᆯㅂㅏ⑨
ㅇㅏ⑨ㅇㅣ⑨ㅋㅗᆫ
fe
ㄱㅏ⑨ㄷㅡ⑨
ㅂㅏᆼㄹㅠ⑨
ㅅㅗᆫㅂㅏᆯ
ㄴㅏ⑨ㅍㅗᆯㄹㅔ⑨
ㅎㅏᆫㄱㅜᆨㄱㅐᆯㄹㅓᆸ
ㄱㅏᆯㅇㅏ⑨ㅇㅣᆸ
ㅈㅓᆼㅁㅣ⑨
ㄱㅓ⑨ㅊㅓ⑨
##ㄹㅗ⑨ㅇㅣ⑨
ㅅㅣᆫㅂㅕᆼ
ㅍㅔ⑨ㄹㅜ⑨
ㅋㅐ⑨ㅅㅣ⑨
ㅈㅓᆼㅁㅗᆼㅈㅜᆫ
##ㄷㅡ⑨ㄹㅏ⑨
ㅇㅠ⑨ㅇㅕᆨ
##ㅌㅚ⑨ㅈㅣᆨ
ㅈㅣ⑨ㅈㅜᆼㅎㅐ⑨
ㅁㅜ⑨ㄱㅗ⑨
ㅂㅐ⑨ㄷㅏᆼㄱㅡᆷ
##ㅈㅓᆨㅇㅣ⑨
ㅇㅠ⑨ㅂㅕᆼ
ㅊㅗ⑨ㅇㅕᆫ
ㅈㅜ⑨ㅇㅣᆷ
ㅎㅏᆫㄱㅕ⑨ㄹㅔ
##ㄹㅓ⑨ㄱㅣ⑨
ㅂㅐ⑨ㄷㅡ⑨
ㄷㅟ⑨ㅊ
ㅊㅜᆷㅊㅜ⑨
ㅈㅣ⑨ㄹㅚ⑨
ㅍㅕᆼㅍㅏᆫ
ㅈㅡᆼㅇㅕ⑨ㅅㅔ⑨
db
##ㄷㅔᆨㅅㅡ⑨
132
##ㅅㅣᆫㅁㅜ
ㄱㅕᆼㅈㅔ⑨ㄹㅕᆨ
ㅅㅏ⑨ㄱㅖ⑨
ㅁㅗᆯㅇㅏ⑨ㄴㅐ⑨
ㄲㅗᆨㄷㅐ⑨ㄱㅣ⑨
ㅅㅏ⑨ㅌㅐ
ㅅㅏ⑨ㅁㅗ⑨ㅍㅓᆫㄷㅡ⑨
ㅁㅗ⑨ㄹㅗ⑨
ㄹㅗ⑨ㅁㅐᆫㅌㅣᆨ
ㅇㅏᇁㅂㅏ⑨ㄷㅏ⑨
##ㅌㅡ⑨ㄹㅡ⑨
ㅈㅓᆫㅁㅐ⑨
ㅈㅏ⑨ㅅㅏ⑨ㄱㅗ⑨
ㅊㅓᆼㄷㅗ⑨
ㅇㅝᆫㅎㅏᆫ
ㅅㅜᆯㅈㅏᆫ
ㅌㅐ⑨ㅈㅗ⑨
ㅍㅔ⑨ㄴㅓᆯ
ㅎㅏᆫㄱㅜᆨㅈㅣ⑨ㅇㅔᆷ
ㄷㅚ⑨ㅅㅏᆯㅇㅏ⑨ㄴㅏ⑨
ㅇㅘᆼㅇㅟ⑨
##ㅅㅏ⑨ㄹㅡ⑨
ㅇㅕᆫㅁㅐ
ㅇㅓ⑨ㅂㅓ⑨
1919
ㅂㅏᆫㄹㅕ⑨ㄷㅗᆼㅁㅜᆯ
ㅂㅏᆼㅍㅐ⑨
ㅎㅐ⑨ㅋㅓ⑨
ㅃㅏᆯㄱㅏᆫ
ㅅㅣᆫㄹㅏᆼ
ㅎㅕᆫㅁㅜᆯ
##ㅂㅡᆯㄹㅣ⑨
ㅂㅏᆨㅎㅢ⑨
ㄷㅔ⑨ㅅㅡ⑨
ㅇㅑ⑨ㄷㅏᆫ
ㅁㅗᆷㅌㅗᆼ
ㅎㅏᆫㅁㅕᆼㅅㅜᆨ
ㅌㅡᆨㅎㅘᆯ
ㅌㅗ⑨ㅁㅏ⑨ㅅㅡ⑨
ㅈㅓᆼㅇㅣᆫ
ㅇㅜᆫㅎㅏ⑨
ㅁㅏᆽㅎㅣ⑨
ㄱㅘ⑨ㅂㅏᆫㅅㅜ⑨
ㄱㅓᆫㄴㅓ⑨ㅍㅕᆫ
ㅅㅜ⑨ㅂㅏᆨ
##ㅈㅓᆼㅅㅏ⑨
ㅅㅓᆼㄷㅗ⑨
ㄱㅕᆼㅅㅏᆼㄷㅗ⑨
ㅋㅓᆫㅅㅓᆯㅌㅓᆫ
ㅎㅠ⑨ㄱㅔ⑨ㅅㅗ⑨
ㄴㅐ⑨ㄹㅏᆫ
ㅂㅏᆼㄱㅘ⑨
ㄷㅗᆼㄱㅓ⑨
ㅊㅚ⑨ㅎㅕᆼ
147
ㅅㅣᆫㅊㅗᆫ
ㄷㅜ⑨ㅅㅔ⑨
ㅂㅓᆯㅇㅓ⑨ㄷㅡᆯㅇㅣ⑨
ㄹㅗ⑨ㅁㅐᆫㅅㅡ⑨
ㅂㅕᆫㅈㅡᆼ
##tiv
##ㄱㅡ⑨ㄹㅐᆷ
wto
ㅁㅣ⑨ㄹㅡ⑨
ㅋㅏ⑨ㄹㅏ⑨
ㅇㅗ⑨ㅈㅣᆼㅇㅓ⑨
ㅇㅕ⑨ㄷㅐ⑨
ㅂㅗᆼㅎㅏᆸ
ㅁㅓ⑨ㅁㅜᆺ
##ㅊㅜᆺ
ㅅㅜ⑨ㅈㅔ⑨
ㅇㅓ⑨ㅊㅗᆫ
ㅅㅗ⑨ㄱㅡᆸ
ㅇㅓᆫㄸㅡᆺ
ㅅㅣᆫㄴㅕᆫㅅㅏ⑨
##ㅇㅗ⑨ㅇㅣᆯ
cent
ㅈㅓᆫㅁㅏᆼㄷㅐ⑨
ㅁㅗ⑨ㅊ
ㄱㅖ⑨ㅈㅣᆸ
##ㄹㅗ⑨ㄹㅏ⑨
##ㅇㅏᆷㄷㅗᆼ
ㅇㅗᆯㄹㅏ⑨ㅌㅏ⑨
ㅊㅜᆼㅁㅏᆫ
ㅌㅗᆼㅍㅖ⑨ㅎㅏᆸ
ㄹㅏ⑨ㅇㅗ⑨ㅅㅡ⑨
ㅅㅡ⑨ㄹㅣ⑨
ㅁㅣᆯㄱㅏ⑨ㄹㅜ⑨
ㅇㅏ⑨ㄹㅏᆸㅇㅔ⑨ㅁㅣ⑨
ㅎㅘ⑨ㅅㅓ
ㅊㅣᆫㅅㅓᆫ
##ㄹㅗ⑨ㅇㅜ⑨
ㅊㅗ⑨ㅈㅜᆼ
ㄱㅣᆷㄱㅘᆫㅇㅕᆼ
ㅇㅡᆵ
ㄱㅏ⑨ㄲㅏ⑨
ㅅㅏ⑨ㅁㅜ⑨ㄱㅘᆫ
ㅁㅗᆷㅁㅜ⑨ㄱㅔ⑨
ㅁㅗ⑨ㄷㅔ
ㅍㅏᆫㅅㅏ
ㄱㅣᆷㅌㅐ⑨ㅎㅗ⑨
ㄷㅚ⑨ㄷㅗᆯㅇㅏ⑨ㅂㅗ⑨
med
ㅉㅣᆼ
##ㅈㅔ⑨ㄹㅣ⑨
ㄷㅐ⑨ㄴㅣ⑨
ㅇㅠ⑨ㄹㅗ
ㅇㅛᆼㅇㅣ⑨
inc
ㅁㅜᆯㄱㅏᆯ
ㅁㅜᆫㅈㅓᆼ
##ㅂㅗ⑨ㄱㅓᆫ
ㅇㅏᆫㅈㅏᆼ
ㅈㅏᆸㅇㅏ⑨ㅁㅓᆨ
ㅂㅕᆫㅈㅔ⑨
##ㅌㅗ⑨ㅍㅣ⑨
ㅎㅣ⑨ㅇㅓ⑨ㄹㅗ⑨
##ㅇㅝᆫㅈㅏ⑨ㄹㅕᆨ
ㄹㅏ⑨ㅇㅣ
##hd
ㅇㅗᆱㄱㅣᆫ
ㅁㅓᆯㅉㅓᆼ
ㅈㅓᆼㅈㅗᆼ
ㄱㅓ⑨ㅈㅏᆼ
ㅇㅣᆯㅂㅕᆼ
ㅅㅏ⑨ㅇㅓᆸㄷㅏᆫ
ㅊㅣᆫㅅㅓ⑨
ㄱㅕᆨㅈㅓᆫ
260
ㅁㅏ⑨ㅇㅗ⑨
ㅂㅜ⑨ㅉㅓᆨ
##eral
ㄴㅔᆨㅅㅡᆫ
ㅁㅏᆽㅂㅓᆯㅇㅣ⑨
ㄱㅘᆼㅁㅜᆯ
ㄱㅗᆼㄱㅘᆫㅇㅟ⑨
ㅅㅡ⑨ㅋㅓ⑨
ㅊㅜᆫㅊㅓᆫㅅㅣ⑨
1949
ㅅㅣᆼㅋㅡ⑨ㅌㅐᆼㅋㅡ⑨
ㅎㅏ⑨ㅊㅏ⑨
ㅈㅏ⑨ㄹㅛ
ㅊㅓᆼㅅㅏ⑨ㅈㅣᆫ
ㅅㅗ⑨ㅈㅐ
ㅅㅣᆫㄱㅗᆨ
ㅁㅣᇀㅂㅏ⑨ㄷㅏᆨ
ㄹㅗ⑨ㅍㅓᆷ
ㅈㅓᆼㄱㅐ⑨ㅌㅡᆨㅇㅟ⑨
##ㅅㅣ⑨ㅈㅡᆫ
ㅇㅜ⑨ㄷㅜ⑨
ㅇㅛ⑨ㅋㅓᆫㄷㅐ⑨
ㅅㅡ⑨ㅋㅔ⑨ㅇㅣ⑨ㅌㅣᆼ
ㅍㅖ⑨ㅁㅏᆨ
##ㅆㅡ⑨ㄱㅣ⑨
##gr
ㅅㅣᆷㅅㅣᆫ
ㅋㅣ⑨ㄹㅗ⑨
ㄱㅣᆷㄱㅣ⑨ㅊㅜᆫ
ㅂㅐ⑨ㅅㅓᆯ
##ㅈㅐᆼㅇㅣ⑨
ㄱㅣᆫㅊㅜᆨ
ㅇㅚ⑨ㅇㅑ⑨
org
ㅂㅣ⑨ㅇㅔᆫㄴㅏᆯㄹㅔ⑨
ㄴㅏ⑨ㅇㅕᆯ
##ㅇㅕᆫㅎㅏᆸㅎㅚ⑨
ㅈㅏ⑨ㅇㅣ⑨ㅇㅓᆫ
ㅎㅏᆫㅍㅏ⑨
ㅈㅣᆨㅈㅗᆼ
ir
ㄱㅘ⑨ㄱㅕᆨ
##ㅂㅗ⑨ㅅㅏᆼ
ㅋㅡᆯㄹㅓ
ㅇㅓᆰㅁㅐ⑨
ㄱㅕᆯㅎㅐᆨ
ㅈㅗᆼㄹㅐ⑨
ㄱㅗ⑨ㄹㅜ⑨
ㄱㅐ⑨ㅈㅓᆷ
ㅂㅣ⑨ㅍㅕᆼㄱㅏ⑨
ㅋㅜᆼ
ㅂㅜ⑨ㄹㅠ⑨
ㅈㅗ⑨ㄹㅕᆨ
ㅅㅣᆷㅈㅐ⑨ㅊㅓᆯ
ㅅㅜ⑨ㄱㅜᆫ
ㅇㅕ⑨ㅎㅗ⑨
ㄹㅐᆫㄷㅡ⑨ㅁㅏ⑨ㅋㅡ⑨
ㅊㅗᆨㅊㅗᆨㅎㅏ⑨
ㅂㅏᆨㅂㅓᆷㄱㅖ⑨
ㄷㅗᆯㅂㅏᆯ
ㅂㅗᆼㅅㅏ⑨ㅈㅏ⑨
##ㅅㅡ⑨ㅍ
ㅅㅓᆫㄹㅗ⑨
ㅁㅣ⑨ㅁㅗ⑨
2025
320
ㅂㅜ⑨ㄴㅕ⑨
ㅌㅜ⑨ㅅㅣᆫ
ㅂㅗᆨㅈㅣᆨ
ㅈㅜᆼㅇㅛ⑨ㅅㅣ⑨
ㅅㅓᆨㅁㅕᆫ
ㅈㅜ⑨ㅂㅕᆫㄱㅜᆨ
124
ㄱㅡᆸㅅㅓᆼㅈㅏᆼ
ㄷㅡᆷ
##ton
ㅇㅝᆫㅇㅚ⑨
##ated
ㅎㅏ⑨ㄴㅏ⑨ㄱㅏ
##ㄷㅏ⑨ㄴㅏ⑨
ㅌㅏ⑨ㄱㅜ⑨
ㄸㅟ⑨ㅇㅓ⑨ㅇㅗ⑨ㄹㅡ⑨
ㅇㅑᆼㄷㅗᆼ
ㅈㅣᆫㅂㅗ⑨ㅅㅣᆫㄷㅏᆼ
ㄷㅐ⑨ㅁㅕᆼㅅㅏ⑨
ㄷㅏ⑨ㅁㅗᆨ
ㅅㅓᆼㅁㅗ⑨
ㅇㅑᆼㅈㅣ⑨
ㄴㅡ⑨ㄷㅏᆺ
ㄱㅐᆯㄹㅓᆨㅅㅣ
ㅂㅓᆸㄹㅣ⑨
ㅍㅏ⑨ㅇㅜᆯ
ㅇㅏ⑨ㄴㅏ⑨
ㅈㅗ⑨ㄱㅘᆼ
ㅊㅜᆯㅅㅔ⑨
ㅍㅏ⑨ㅊㅜᆯ
##ㅈㅣᆼㄱㅖ⑨
ㄱㅗ⑨ㅁㅏ⑨ㅇㅜᆷ
##ㅇㅣᆫㅁㅜᆯ
ㄴㅗᆫㄹㅏ
ㅇㅝᆫㅈㅏ⑨ㄹㅗ⑨
min
163
##ㅋㅜ⑨ㄹㅡ⑨
ㄷㅚ⑨ㄷㅗᆯㅇㅏ⑨ㅇㅗ⑨
##ㅇㅡᆯㄱㅓ⑨ㄹㅣ⑨
##ㅇㅣ⑨ㄷㅗ⑨
ㄷㅏᆼㅎㅓᆫ
ㅎㅚ⑨ㄱㅟ⑨
ㅎㅐ⑨ㅇㅣᆫ
ㄱㅖ⑨ㅇㅑᆨㄱㅡᆷ
ㅂㅗᆯㅌㅡ⑨
ㅁㅏᆫㅈㅏᆼㅇㅣᆯㅊㅣ⑨
ㅎㅐ⑨ㄴㅏᆷ
##ㅅㅣᆷㅇㅝᆫ
ㅌㅗ⑨ㅌㅗ⑨
ㅌㅏᆨㄱㅜ⑨
ㄱㅏ⑨ㄲㅏ⑨ㅅㅡ⑨ㄹㅗ⑨
ioc
ㅅㅣ⑨ㅊㅏᆯ
ㅈㅓᆨㅈㅐ⑨
ㅇㅣᆯㅈㅜ⑨ㅇㅣᆯ
ㅁㅕᆼㅅㅣᆯㅅㅏᆼ
ㅎㅔ⑨ㄹㅡ⑨
ㅊㅗᆼㅍㅏ⑨ㅇ
ㅊㅏ⑨ㄱㅘᆫㅂㅗ⑨
ㅅㅜ⑨ㅅㅣᆷ
ㅇㅏ⑨ㄷㅏᆷ
ㄷㅏᆺㅅㅐ⑨
ㅍㅔ⑨ㄴㅓᆯㅌㅣ⑨
ㅂㅗ⑨ㅇㅣᆯㄹㅓ⑨
ㅁㅏᆫㄴㅕᆫ
##ㄹㅛ⑨ㅇㅝᆫ
ㅅㅓᆫㄱㅓ⑨ㅇㅣᆯ
ㄱㅣ⑨ㄱㅗ⑨
ㅅㅓᆼㅁㅜᆫ
ㅁㅗᆷㅈㅣᆸ
rec
ㅁㅕᆼㅅㅣᆯㅅㅏᆼㅂㅜ⑨
164
ㅈㅓᆫㅎㅘ⑨ㄱㅣ⑨
##da
ㅇㅏᆸㅅㅡᆼ
ㅅㅑᆸ
ㅅㅏ⑨ㅇㅛᆼㄹㅛ⑨
ㅊㅓᆨㄱㅕᆯ
ㅌㅏ⑨ㅇㅗ⑨ㄹㅡ⑨
##ㅍㅐᆨㅌㅡ⑨
ㅃㅛ⑨ㅈㅗᆨ
ㅎㅗᆷㄹㅓ
1953
##ㅁㅏᆽㅊㅜ⑨
ㄱㅏᆼㅅㅓ⑨
ㅂㅏᆷㅈㅜᆼ
ㄱㅛ⑨ㅁㅣᆫ
ㅍㅣ⑨ㅇㅓ⑨ㄴㅏ⑨
ㅈㅓᆫㅈㅣ⑨ㅎㅜᆫㄹㅕᆫ
ㅋㅡ⑨ㄹㅣ⑨ㅅㅡ⑨ㅌㅣ⑨
ㅅㅜ⑨ㅇㅝ
ㄱㅕᆼㄹㅑᆼ
ㄱㅜᆨㅂㅗ⑨
ㅇㅝᆫㄹㅗᆫ
ㅎㅕᆯㅅㅔ⑨
ㄷㅏ⑨ㅁㅗᆨㅈㅓᆨ
ㅇㅣ⑨ㅎㅏ
ㅍㅣᆯㅅㅡᆼ
148
ㅍㅏ⑨ㅇㅣ⑨ㅍㅡ⑨
ㅎㅏ⑨ㄹㅜ⑨ㅃㅏᆯㄹㅣ⑨
ㅁㅜ⑨ㄹㅡᆸ
ㄱㅏ⑨ㅅㅏᆫㅈㅓᆷ
ㄷㅡᆼㄱㅡ
##ㅈㅜᆼㅎㅏ⑨
ㅅㅗ⑨ㅎㅐᆼ
mod
ㄷㅐ⑨ㅈㅗᆯ
ㅂㅗᆼㅎㅘ⑨
##ㄲㅓᆯ
ㅉㅏ⑨ㄹㅣᆺ
ㅅㅣᆯㅈㅏ
ㅊㅓᆼㄱㅖ⑨ㅊㅓᆫ
ㅎㅏ⑨ㄴㅏ⑨ㄱㅏᇀㅇㅣ⑨
ㅇㅏ⑨ㅅㅣ⑨ㅇㅏ
##ㅌㅜᆯ
ㅁㅔ⑨ㅋㅓ⑨ㄴㅣ⑨ㅈㅡᆷ
##ㅁㅏᆽㅇㅣ⑨
ㅅㅖ⑨ㅍㅡ⑨
rights
ㅂㅏᆯㅎㅕᆫ
ㅎㅕᆫㅈㅓ⑨ㅎㅣ⑨
ㅈㅣᆫㄴㅏ⑨ㄹㅏ⑨
ㅂㅏᆯㄷㅗᆮ
ㄱㅣᆷㄴㅏᆷ
ㅎㅕᆫㄷㅐ⑨ㅅㅏ⑨
ㅅㅔ⑨ㅂㅓᆸ
ㄱㅜ⑨ㅊㅣ⑨
ㄴㅡᆫㄷㅏ⑨ㅁㅕ
ㅊㅜᆼㅂㅜᆨㄷㅗ⑨
ㅇㅜ⑨ㄹㅓ⑨
ㅂㅏᆨㅅㅔ⑨
ㄷㅡᆼㄱㅛ⑨
##ㄷㅐ⑨ㅅㅏ⑨
ㅅㅣᆨㅇㅣ⑨
ᆫㄷㅏ⑨ㅁㅕᆫㅅㅓ⑨
ㅈㅓᆫㅅㅔᆺ
ㅈㅜᆼㅅㅏ⑨
146
ㄸㅏ⑨ㄹㅏ⑨ㄷㅏ⑨ㄴㅣ⑨
ㅈㅗ⑨ㅈㅣ
ㅁㅣ⑨ㅅㅣ⑨
ㅈㅏᆷㄱㅡ⑨
ㄱㅕᆷㅂㅣ⑨
ㅈㅔ⑨ㅇㅣᆯㅁㅗ⑨ㅈㅣᆨ
ㅈㅣ⑨ㅈㅓ
ㅈㅓᆫㅂㅕᆼ
ㅎㅏ⑨ㅇㅣ⑨ㄷㅔ⑨
ㅅㅣ⑨ㅎㅏᆸ
ㄷㅏᆫㅈㅓᆨ
ㅍㅏᆯㄲㅜᆷㅊㅣ⑨
ㅂㅏᆨㅊㅏᆫㅎㅗ⑨
ㅎㅘᆫㅂㅜᆯ
ㅊㅏᆷㅈㅗ
ㅋㅏ⑨ㅁ
ㄴㅐ⑨ㄱㅜ⑨
ㅇㅠ⑨ㄹㅓᆸㅇㅕᆫㅎㅏ
##ㅣᆯㄹㅣ⑨ㅌㅣ⑨
ㅍㅏ⑨ㅇㅜ⑨
ㅅㅣ⑨ㅁㅠᆯㄹㅔ⑨ㅇㅣ⑨ㅅㅕᆫ
ㅍㅗ⑨ㅅㅡ⑨ㅌㅡ⑨ㅅㅣ⑨ㅈㅡᆫ
top
ㅂㅕᆫㅅㅗᆨ
ㅌㅏᆫㅅㅣᆨ
##ㄲㅡᆫㅎㅏ⑨
ㅌㅏ⑨ㅈㅣ⑨
ㅅㅓᆼㅂㅜᆨ
##ㅈㅜ⑨ㅇㅣᆫ
ㅅㅜ⑨ㄴㅏᆸ
##ㅃㅜ⑨ㄹㅣ⑨
ㅈㅣᆯㄹㅑᆼ
ㅍㅣ⑨ㄷㅡ⑨
ㅎㅘᆼㅅㅏ⑨
tvㅈㅗ⑨ㅅㅓᆫ
ㅉㅐ
ㄷㅗᆼㅎㅗ⑨ㅎㅚ⑨
##ㅋㅡᆯㄹㅣ⑨
ㄱㅏ⑨ㅅㅡᆸㄱㅣ⑨
ㅇㅣᆫㅅㅣᆫ
ㅁㅣᆫㅈㅜ⑨ㄷㅏ
##nal
##ㅁㅗᆯㄹㅣ⑨
ㅇㅠ⑨ㄹㅏ⑨
ㅍㅔ⑨ㅁㅣ⑨ㄴㅣ⑨ㅈㅡᆷ
ㅅㅓᆫㅅㅜᆫㅎㅘᆫ
ㅇㅏᇁㅉㅗᆨ
ㅈㅜᆼㅅㅐᆼ
ㅈㅔ⑨ㅈㅜ
ㅎㅏᆷㅅㅓᆼ
ㄹㅣ⑨ㄱㅡ
ㅅㅗ⑨ㅇㅣᆫ
ㅇㅕᆫㅊㅏ⑨
ㅊㅓᆼㄷㅏᆷ
##ㄱㅗ⑨ㄹㅐ⑨
ㅂㅜᆫㅅㅣᆯ
ㄱㅏᆫㄱㅗᆨ
ㅁㅏᆽㅇㅣ⑨
141
##ㅍㅜ⑨ㄷㅡ⑨
ㅅㅓᆯㅈㅓᆫ
ㅌㅏ⑨ㄹ
ㅍㅡ⑨ㄹㅗ⑨ㄷㅠ⑨ㅅㅓ⑨
ㅅㅡ⑨ㅋㅗ⑨ㅇㅓ⑨
##ㅈㅓᆫㄷㅏᆼ
ㅂㅓᆸㄹㅠᆯㅇㅏᆫ
ㅇㅜᆯㅈㅜ⑨ㄱㅜᆫ
ㄴㅏ⑨ㄹㅣ⑨
ㅈㅓ⑨ㄱㅓᆺ
ㄷㅏ⑨ㅇㅜ⑨
##ㄱㅣ⑨ㄱㅖ⑨
##ㄱㅕᆼㅇㅕᆼ
ㄱㅕᆯㅈㅐ⑨
ㄱㅣ⑨ㅎㅚᆨㅅㅏ⑨
ㅇㅏ⑨ㅇㅣ⑨ㅍㅐ⑨
mba
dc
129
##port
ㅊㅓᆼㄷㅗᆼ
##ㅈㅏᆨㅁㅜᆯ
ㄸㅏ⑨ㄹㅏ⑨ㅈㅏᆸ
ㅂㅏᆰㅎㅕ⑨ㄴㅐ⑨
ㅅㅛᆸ
ㅁㅔᆫㅌㅗ⑨ㄹㅣᆼ
##ㅐᆺㅁㅏᆯ
ㅇㅕᆫㄱㅜ⑨ㅅㅗ⑨ㅈㅏᆼ
ㅇㅗ⑨ㅋㅡ⑨
ㅇㅡᆫㅇㅡᆫ
ㅋㅏᆯㄴㅏᆯ
##ㅉㅗ
ㅍㅡᆯㄹㅔ⑨
##ㅁㅏᆫㅈㅣ⑨
##ph
ㅁㅜ⑨ㄹㅡᆸㅆㅡ⑨
##ㅉㅓ⑨
ㅇㅏ⑨ㅁㅗ⑨ㄹㅔ⑨
ㅈㅓ⑨ㅇㅜᆯ
ㄱㅏᆼㅎㅘ
161
ㅁㅏᆨㅁㅏᆯ
ㄲㅗᆽㅎㅣ⑨
ㅂㅓᆫㅂㅓᆫ
ㄱㅗ⑨ㄱㅜ⑨ㅁㅏ⑨
##ㅅㅓᆨㅇㅠ⑨
ㅆㅡᆫㅅㅗ⑨ㄹㅣ⑨
ㅈㅜᆷ
ㄱㅣ⑨ㅈㅗᆼ
ㅁㅗᆷㅂㅜ⑨ㄹㅣᆷ
ㅎㅝᆫ
ㅅㅔᆫㅌㅡ⑨ㄹㅓᆯ
ㅂㅏᆨㅎㅗᆼ
ㅁㅏ⑨ㄹㅕᆨ
##ㅎㅏ⑨ㄱㅣ⑨
ㅌㅗ⑨ㅇㅛ⑨
ㄱㅣ⑨ㅊㅔ⑨
ㄴㅡᆼㄱㅏ⑨
##les
ㄷㅗᆯㄹㅕ⑨ㅂㅏᆮ
##ㅌㅗ⑨ㄴㅣ⑨
##ba
ㅁㅏ⑨ㅈㅜᆼ
ㅁㅗᆫㅅㅡ⑨ㅌㅓ⑨
ㅇㅕ⑨ㅎㅏ⑨
ㅈㅘ
ㅎㅏᆫㅈㅏᆫ
##ㅈㅣ⑨ㄱㅜ⑨
ㅊㅓᆺㅎㅐ⑨
ㅇㅓ⑨ㅁㅓ⑨ㄴㅣᆷ
ㅈㅣ⑨ㄴㅡ
ㅇㅠ⑨ㄹㅗ⑨ㅈㅗᆫ
ㅇㅜᆯㄹㅡᆼㄷㅗ⑨
ㅋㅓᆷㅍㅓ⑨ㄴㅣ⑨
ㅇㅝᆫㄷㅐ⑨
ㅅㅡᆯㅉㅓᆨ
ㄴㅗᆼㅇㅓᆸㅇㅣᆫ
ㅍㅣ
ㄱㅕᆼㅁㅣ⑨
ㅍㅣ⑨ㅇㅏ⑨ㄴㅣ⑨
ㄷㅗᆼㄱㅜᆨㄷㅐ⑨
ㅇㅏᆷㄱㅣ⑨
##ㅇㅓ⑨ㄴㅐ⑨ㄹㅣ⑨
##ㅅㅣ⑨ㅅㅡ⑨ㅌㅡ⑨
ㅂㅣ⑨ㄴㅜ⑨
ㅂㅜᆫㅊㅜᆯ
##ㅇㅕᆫㅅㅓᆯ
ㅁㅜᆯㄲㅗ⑨
ㅊㅟ⑨ㅎㅏᆼ
168
ㅈㅏ⑨ㅅㅓ⑨
ㄱㅗᆫㄷㅜ⑨ㅅㅔ⑨ㅇㅜ⑨
ㅁㅏ⑨ㅇㅡᆷㄱㅏ⑨ㅈㅣᆷ
ㄴㅏ⑨ㅍㅗᆯㄹㅔ⑨ㅇㅗᆼ
ㅇㅑᆼㄱㅜᆼ
ㅈㅏ⑨ㅇㅠ⑨ㅅㅓᆫ
ㅇㅣ⑨ㅂㅓᆷ
ㄷㅏᆼㅇㅢ⑨
ㅅㅓᆫㅊㅓᆫ
ㅇㅚ⑨ㄱㅘ⑨
ㅍㅡ⑨ㄹㅔᆫ
ㅁㅣᇀㄷㅗᆯ
ㅅㅜ⑨ㄴㅚ⑨ㅂㅜ⑨
##ame
ㅋㅗᆷㅍㅡᆯㄹㅔᆨㅅㅡ⑨
ㅎㅏ⑨ㅂㅜ⑨
ㄷㅏ⑨ㅋㅏ⑨
ㅎㅗᆯㄹㅣ⑨
ㄱㅣᆷㅂㅓᆷ
ㅈㅏᆫㅈㅏᆫ
ㄴㅏᇀㅁㅏᆯ
ㅋㅔᆫ
##ㅅㅣ⑨ㄱㅕᆼ
ㄷㅚ⑨ㅇㅓ⑨ㄱㅏ⑨
ㄹㅗ⑨ㅈㅡ⑨
ㄱㅡᆷㅎㅗ⑨ㅌㅏ⑨ㅇㅣ⑨ㅇㅓ⑨
ㅈㅓᆫㅎㅕ
ㅇㅕᆯㄱㅓ⑨
ㅇㅏᇁㄴㅏᆯ
##ㅁㅏᆫㅎㅏ⑨
ㅇㅟ⑨ㅉㅗᆨ
ㅇㅚ⑨ㅊㅣᆷ
##ㅂㅕ⑨
ㅇㅏᆫㅈㅜᆼㄱㅡᆫ
ds
##ㅋㅐ⑨ㅍㅣ⑨ㅌㅏᆯ
##ㄲㅗᆨ
ㅂㅏᆨㅈㅜ⑨ㅅㅓᆫ
lig
ㅂㅗ⑨ㄷㅗ
ㄱㅡᆷㄱㅣ⑨
ㅈㅣ⑨ㅋㅣᆷ
ㅈㅔ⑨ㅊㅓᆫ
ㅁㅕᆼㄹㅛ⑨
social
ㅇㅕᆼㅈㅣᆫ
##ㅌㅏ⑨ㄹ
ㅅㅜ⑨ㅇㅓᆨ
ㅂㅏᆯㅈㅓ
ㅈㅣᆼㅂㅓᆯ
ㅂㅣᆾㄲㅏᆯ
ke
ㄱㅏᆫㄱㅕᆯ
ㅋㅏ⑨ㅌㅔ⑨
ㅎㅘ⑨ㅅㅏ⑨
ㅇㅕᆨㄹㅕᆨ
ㅇㅓᆷㄱㅕᆨㅎㅣ⑨
ㅈㅐᆨㅅㅡᆫ
ㅂㅏ⑨ㅇㅜ⑨
##ㄹㅣ⑨ㅈㅗ⑨
ㅁㅜ⑨ㅇㅓᆫ
ㄴㅔᆨㅌㅏ⑨ㅇㅣ⑨
ㅇㅜ⑨ㄹㅣ
ㅁㅜ⑨ㅁㅏ⑨
ㄱㅕᆼㅅㅏᆼㅂㅜᆨㄷㅗ⑨
ᆫㄷㅏᆸ
ㅅㅓ⑨ㅎㅜᆫ
ㅍㅓᆷㅍㅡ⑨
##ution
ㅎㅗᆼㅁㅕᆼ
ㅅㅓᆫㅍㅜᆼ
ㅅㅔ⑨ㅊㅏ⑨
ㄴㅗᆫㅅㅓᆯ
##ㅇㅜᆺㅇㅡᆷ
ㅈㅐ⑨ㅎㅗᆫ
ㄱㅛ⑨ㅇㅠᆨㅇㅝᆫ
ㅋㅗᆯㄹㅔ⑨ㅅㅡ⑨ㅌㅔ⑨
ㅁㅜᆫㅎㅏᆨㅅㅏᆼ
ㅇㅣᆯㅌㅓ⑨
ㅊㅓ⑨ㅅㅏ⑨
ㄷㅟ⑨ㅍㅕᆫ
ㄷㅣᆯㄹㅔ⑨
ㄴㅡ⑨ㅅㅡᆫ
ㅈㅏᆼㄹㅖ⑨ㅅㅣᆨㅈㅏᆼ
ㅇㅑᆫ
ㅅㅣ⑨ㄱㅏ⑨ㅈㅣ⑨
ㄴㅐ⑨ㄱㅜᆨ
ㅇㅠ⑨ㅈㅓᆨㅈㅣ⑨
ㅇㅏ⑨ㅁㅔ⑨ㄹㅣ⑨ㅋㅏᆫ
ㅂㅜᆫㅎㅑᆼㅅㅗ⑨
ㅁㅏᆫㄹㅠ⑨
ㄱㅜᆨㅎㅘ⑨
ㅊㅗᆼㅍㅏ⑨ㅇㅓᆸ
##ma
ㅊㅔᆯㅅㅣ⑨
ㅅㅓᆼㅎㅘᆼ
ㅅㅓ⑨ㄱㅕᆼ
ㅇㅏ⑨ㅂㅜ⑨
ㅎㅗ⑨ㅇㅜ⑨
ㄱㅕᆯㅈㅓᆼㅈㅣᆺ
ㅅㅔᆫㅌㅣ⑨
ㄷㅏ⑨ㄴㅣ⑨ㅇㅔᆯ
ㅇㅏ⑨ㅋㅜ⑨
ㅈㅣᆫㄱㅗᆼ
ㄴㅗ⑨ㄱㅗ⑨
ㅇㅛᆨㅅㅣᆯ
##ㅣᆯㄹㅏ⑨
ㅈㅓᆼㅇㅗ⑨
ㅇㅣᆫㅁㅕᆯ
##ㄱㅘᆫㄹㅣ⑨ㅇㅟ⑨ㅇㅝᆫㅎㅚ⑨
ㅇㅏ⑨ㅂㅓ⑨ㅈㅣ
ㅎㅘᆯㅈㅜ⑨ㄹㅗ⑨
ㅅㅣᆨㅈㅐ⑨ㄹㅛ⑨
##ㅁㅓ⑨ㄴㅣ
ㅅㅏ⑨ㅅㅜ⑨
ㅇㅜ⑨ㄹㅏ⑨ㄴ
ㄴㅗ⑨ㄹㅏᆫ
ㅍㅕᆼㅎㅕᆼ
ㅅㅜ⑨ㄷㅏ
ㅈㅜᆼㄷㅗ
ㄷㅗᆨㅅㅜ⑨ㄹㅣ⑨
##ㅊㅏᆼㄱㅣ⑨
ㅋㅟ⑨ㅈㅡ⑨
ㅎㅏᆫㄸㅐ⑨
ㅇㅘᆺ
ㄱㅡᆸㅂㅜ⑨ㅅㅏᆼ
ㅂㅏᆨㅇㅛᆼㅈㅣᆫ
ㄱㅏ⑨ㄱㅕ
##ㄱㅗᆼㅅㅏᆫ
ㅇㅑ⑨ㅁㅏᆫ
ㅇㅐ⑨ㄴㅓᆯㄹㅣ⑨ㅅㅡ⑨ㅌㅡ⑨
ㅊㅗᆼㅇㅕᆼ
ㄱㅝᆫㄹㅕᆨㅈㅏ⑨
ㅇㅡᆼㄱㅡᆸㅅㅣᆯ
ㄹㅐᆷㅍㅡ⑨
ㅇㅣ⑨ㅇㅠ
ㅇㅓ⑨ㅍㅣᆯ
ㅎㅏᆯㅇㅐ⑨
bi
ㅌㅡᆯㅇㅓ⑨
ㅍㅣᆫㅌㅔ⑨ㅋㅡ⑨
ㅅㅣᆷㅍㅗ⑨ㅈㅣ⑨ㅇㅓᆷ
ㅂㅏᆯㄷㅗᆮㅇㅜᆷ
ㅈㅓᆼㅇㅐᆨ
##ㅂㅏ⑨ㄴ
ㅅㅓ⑨ㄷㅗᆨ
ㄱㅛ⑨ㅌㅗᆼㅇㅏᆫㅈㅓᆫ
ㅎㅕᆫㄷㅐ⑨ㅁㅗ⑨ㅂㅣ⑨ㅅㅡ⑨
##ㅍㅔᆺ
ㅅㅣᆫㅁㅜ
ㄱㅣ⑨ㅅㅡᆼ
ㄴㅐ⑨ㅃ
ㅁㅜᆮㅇㅓ⑨ㄴㅏ⑨
ㅅㅏᆫㅌㅏ⑨
ㅇㅓ⑨ㅇㅣ⑨ㅇㅓᆹ
ㄱㅗᆨㅅㅣᆨ
##ㅈㅡᆯ
ㄷㅐ⑨ㄱㅜᆫ
ㅁㅣ⑨ㅇㅑᆨ
ㅅㅏ⑨ㄱㅗ
ㄷㅣ⑨ㅌㅔ⑨ㅇㅣᆯ
ㄷㅓᆨㅁㅗᆨ
ㅈㅐ⑨ㅅㅏᆫㅅㅔ⑨
ㅅㅜ⑨ㅍㅓ⑨
ㅈㅓᆫㅂㅗ⑨
ㅁㅐ⑨ㅈㅣᆨ
ㅈㅡᆼㄱㅣ⑨
ㄱㅣ⑨ㅈㅏ⑨ㅈㅐ⑨
ㅅㅣᆫㅇㅢ⑨
ㅂㅣ⑨ㄱㅣ⑨
ㅅㅡ⑨ㅌㅏ⑨ㅂㅓᆨ
part
ㅂㅜᆫㄱㅣ
ㅊㅣᆫㅇㅣᆫ
##ㅏ⑨ㄱㅜ⑨ㅇㅛ
ㄱㅏ⑨ㅅㅗᆯ
ㅇㅓᆹㅇㅓ⑨ㅈㅣ⑨
ㄹㅗ⑨ㅅㅡ⑨ㅇㅐᆫㅈㅔᆯㄹㅔ⑨ㅅㅡ⑨
ㅋㅓᆫㅅㅓᆯㅌㅓᆫㅌㅡ⑨
ㅂㅏᆼㅈㅐ⑨
ㅁㅏᆼㅇㅓᆫ
ㅅㅣᆷㄱㅣ⑨
ㅇㅕᆯㅅㅓᆼ
ㅁㅣ⑨ㄹㅐ⑨ㅎㅏᆫㄱㅜᆨ
ㅁㅗᆯㅇㅏ⑨ㄱㅏ⑨
ㅅㅐ⑨ㄹㅗ⑨ㅇㅣ⑨
lgㄷㅣ⑨ㅅㅡ⑨ㅍㅡᆯㄹㅔ⑨ㅇㅣ⑨
##ound
ㅅㅏ⑨ㅅㅡᆷ
ㄴㅐ⑨ㅅㅓᆼ
550
ㄱㅐᆯㄹㅓ⑨
ㄱㅜᆫㄹㅣᆷ
ㅇㅕᆯㄹㅣᆫㅇㅜ⑨ㄹㅣ⑨
jour
ㅊㅓ⑨ㅊㅣ⑨
ㅇㅑᆨㅅㅏ⑨
ㅈㅓᆫㅁㅜᆫㅈㅣᆨ
ㄷㅐ⑨ㅊㅜ
ㅎㅘ⑨ㅇㅛ⑨ㅇㅣᆯ
ㅎㅘᆨㄱㅗ⑨ㅎㅣ⑨
ㅅㅓᆫㅈㅜ⑨
ㅅㅔ⑨ㅇㅛ⑨
ㄷㅏᆷㄷㅏᆼㄱㅘᆫ
ㅎㅏᆫㄱㅜᆨㅈㅓᆫㅈㅐᆼ
ㅊㅡ⑨
ㅈㅔ⑨ㄱㅏᆨ
ㅎㅗ⑨ㅂㅏᆨ
ㅇㅛᆼㅅㅜ⑨
ㅂㅗ⑨ㅎㅐᆼㅈㅏ⑨
ㄱㅕᆼㅊㅜᆨ
ㄱㅏᆫㄹㅑᆨ
ㅊㅣ⑨ㅇㅢ⑨
ㅇㅏ⑨ㅇㅣ⑨ㄹㅓ⑨ㄴㅣ⑨
ㄱㅣ⑨ㅇㅓᆸㅂㅜ⑨
ㅇㅏ⑨ㅅㅏ⑨ㅎㅣ⑨
ㄷㅗᆼㄷㅗᆨ
##ㅌㅚ
ㄱㅕᆼㄱㅣ⑨ㄷㅗ⑨ㅈㅣ⑨ㅅㅏ⑨
ㅌㅏ⑨ㄱㅐ⑨
ㄱㅜᆰㅈㅣᆨ
ㅈㅣᆨㄱㅡᆸ
ㅆㅡ⑨ㄷㅏ⑨ㄷㅡᆷ
ㅇㅏ⑨ㅍㅡ⑨ㄱㅏᆫ
##ㅕᆺ
ㅇㅡ⑨ㄹㅏ⑨ㄴㅡᆫ
ㄹㅣ⑨ㅍㅗ⑨ㅌㅡ⑨
ㄷㅏᆼㅅㅏ⑨ㄱㅜᆨ
ㅂㅜᆫㅅㅣᆨ
ㅎㅚ⑨ㅇㅢ⑨ㅅㅗ⑨
ㅂㅏᆷㄴㅡᆽ
ㄱㅣᆷㅈㅣᆫㅍㅛ⑨
ㅇㅗᆯㄹㅕ⑨ㄷㅏ⑨ㅂㅗ⑨
ㅅㅜ⑨ㅇㅕᆨ
##ㅋㅔ⑨ㅁㅣ⑨ㅋㅏᆯ
ㅂㅏᆫㄷㅐ⑨ㅍㅕᆫ
ㄴㅐ⑨ㅁㅗᆯㄹㅣ⑨
ㅇㅓᆷㄷㅜ⑨
ㅍㅡ⑨ㄹㅗ⑨ㄱㅡ⑨ㄹㅐ⑨
ㅇㅗᆸㅌㅣ⑨
ㅅㅓ⑨ㄱㅏᆼㄷㅐ⑨
##ㅈㅡ⑨ㄴㅣ⑨
##ㅋㅠᆯ
ㄱㅐ⑨ㅂㅏᆯㅈㅏ⑨
ㅇㅗᆺㅊㅏ⑨ㄹㅣᆷ
ㅁㅓ⑨ㅁㅜᆺㄱㅓ⑨ㄹㅣ⑨
ㄱㅘᆯ
ㅅㅜᆼㄱㅗ⑨
ㅎㅕᆼㅇㅣ⑨ㅅㅏᆼ
ㄱㅗᆫㅎㅗᆨ
ㅁㅗ⑨ㅌㅣ⑨ㅂㅡ⑨
ㅎㅘ⑨ㄲㅡᆫ
ㅅㅣᆫㅈㅓᆼ
ㅌㅗ⑨ㄴㅣ⑨
ㅌㅣᆷㅇㅝᆫ
bbc
ㅇㅣᆫㅈㅣᆯ
ㅁㅗ⑨ㅅㅔ⑨
ㅅㅡ⑨ㅋㅏ⑨
ㅈㅏ⑨ㄱㅣ⑨ㅅㅗ⑨ㄱㅐ⑨
ㅁㅣᆯㄹㅕ⑨ㅇㅗ⑨
ㄸㅡᆷ
ㅅㅡ⑨ㅌㅡ⑨ㄹㅔ⑨
##ㄹㅣ⑨ㅈㅣ⑨
ㅁㅕᆼㅎㅏ⑨
ㄱㅟ⑨ㄱㅕᆯ
bus
ㄱㅏᆫㅅㅗ⑨
ㄱㅣ⑨ㅇㅓᆸㅇㅡᆫㅎㅐᆼ
ㄴㅏ⑨ㄹㅜ⑨
##ㅚᆺ
ㅁㅕᆫㅎㅚ⑨
##ㄷㅡᆫㅈㅣ
ㅈㅜᆼㅅㅗ
171
ㄱㅛ⑨ㅌㅗ⑨
ㅈㅔ⑨ㅈㅏᆨㅂㅣ⑨
ㅇㅜ⑨ㅈㅡ⑨ㅂㅔ⑨ㅋㅣ⑨ㅅㅡ⑨ㅌㅏᆫ
pm
ㅊㅓᆼㅅㅗᆼ
ㄷㅗᆨㅇㅣ
ㅇㅔᆯㄹㅣ⑨ㅈㅏ⑨ㅂㅔ⑨ㅅㅡ⑨
ᆯㄹㅐ⑨
##ㅂㅣᆺ
ㅈㅏ⑨ㄱㅡᆼ
from
ㄴㅏ⑨ㄷㅗᆯ
ㅌㅡᆨㅁㅗᆨ
ㅈㅓᆼㅈㅜᆫ
ㅊㅓᆯㄷㅗ
ㅋㅕ⑨ㅈㅣ⑨
##ㅇㅏ⑨ㅁㅔ⑨ㄹㅣ⑨ㅋㅏ⑨
##ㅅㅓ⑨ㅇㅑᆼ
ㅁㅐᆨㄷㅗ⑨
rev
ㄷㅗᆨㅅㅓᆫ
158
ㄱㅘᆷ
ㅎㅚᆼㅍㅗ⑨
ㄱㅣ⑨ㅌㅏᆨ
ᆫㄷㅏ⑨ㄴ
ㄱㅡᆫㄹㅣᆫ
ㅎㅘᆨㅇㅕᆫㅎㅣ⑨
ㅊㅏᆼㄱㅓᆫ
ㅅㅜᆫㅈㅣᆫ
##ile
##ㄹㅏ⑨ㄷㅡ⑨
ㅅㅣ⑨ㄴㅣ⑨ㅇㅓ⑨
ㅎㅕᆫㅈㅓ⑨
ㅍㅕᆼㅇㅗᆫ
ㅊㅏ⑨ㄱㅡᆫ
ㅌㅏᆫㅅㅓᆼ
ㅁㅟᆫㅎㅔᆫ
ㅍㅣᆯㅈㅣ⑨
##ㅌㅗ⑨ㅅㅡ⑨
##ㅅㅏᆫㅅㅓᆼ
ㅋㅝᆯ
ㅅㅜᆨㅈㅗᆼ
ㄱㅏᆼㅇㅝᆫㄹㅐᆫㄷㅡ⑨
ㄱㅕᆼㅂㅜ
ㅁㅜ⑨ㄷㅡᆼ
ㅅㅗᆨㄷㅏᆷ
ㄴㅏ⑨ㅁㅜ⑨ㄹㅏ⑨
ㅇㅓ⑨ㅂㅓ⑨ㅇㅣ⑨
##ㅈㅓᆫㅈㅐᆼ
fin
ㅁㅗᆷㄱㅏᆹ
ㄴㅗᆨㅊㅏ⑨
##ㄷㅐᆷ
ㄹㅏ⑨ㅅㅡ⑨
##ㅅㅗᇀ
ㄱㅏᆹㅆㅏ⑨
ㅇㅣᆫㅅㅡ⑨ㅌ
ㅇㅓᆰㅁㅐ⑨ㅇㅣ⑨
ㅈㅓᆼㅅㅏ⑨
ㅇㅑᇀ
ㅈㅓᆼㄱㅘᆫㅇㅛᆼ
ㅁㅗ⑨ㅊㅏ⑨ㄹㅡ⑨ㅌㅡ⑨
ㅇㅣ⑨ㅅㅡᆯ
ㅊㅜ⑨ㅇㅝᆯ
ㅅㅗᆫㅅㅐᆨ
##ord
ㅂㅣ⑨ㅇㅑᆨ
ㅋㅔ⑨ㄴㅔ⑨
ㅂㅣ⑨ㅂㅣᆷ
ㅊㅓᆫㅊㅔ⑨
##ㅂㅏ⑨ㅇㅣ⑨ㅇㅗ⑨
ㄱㅣᆺㄷㅡᆯ
ㅉㅏᆷ
##ㅁㅏᆷ
ㅈㅡᆼㅊㅜᆨ
ㄱㅏ⑨ㅈㅏᆼㅈㅏ⑨ㄹㅣ⑨
ㄱㅐ⑨ㅎㅕᆨㅇㅏᆫ
ㄱㅜᆨㄱㅗᆼㄹㅣᆸ
ㄷㅏᆼㅈㅓᆼㅊㅓᆼ
ㅈㅏᆼㄱㅘ⑨
war
ㄷㅗᆨㄱㅏᆷ
ㅁㅔ⑨ㅌㅏ⑨
##ㄸㅗᆯ
ㅇㅜ⑨ㄹㅜ⑨
ㅁㅐ⑨ㄲㅡ⑨ㄹㅓᆸ
ㅂㅏᆷㄴㅏᆽ
ㅇㅡᆫㄱㅡᆫㅎㅣ⑨
##sh
ㅅㅜ⑨ㅌㅏᆨ
ㅍㅕᆫㅈㅜᆼ
ㅅㅗᆼㅊㅣ⑨
ㅅㅜ⑨ㅅㅣᆸㅇㅓᆨ
ㅁㅐ⑨ㄱㅕᆼ
ㅈㅓᆼㅊㅣ⑨ㄱㅏ⑨
ㄱㅣ⑨ㅍㅛ⑨
ㄱㅘᆫㄹㅣ⑨ㅂㅓᆸ
ㅇㅜᆼㅈㅏᆼ
ㄱㅣᆷㅇㅓ⑨
ㅇㅕᆼㅇㅓ
ㅂㅏᆨㅁㅕᆼ
ㅃㅏᆨ
ㅂㅜ⑨ㄹㅓ⑨
##act
ㄱㅓ⑨ㅈㅜ⑨ㅈㅣ⑨
ㅇㅣᆫㅁㅣᆫㄱㅜᆫ
ㅍㅡ⑨ㄹㅣ⑨ㅁㅣ⑨ㅇㅓ⑨ㄹㅣ⑨ㄱㅡ⑨
ㅇㅣ⑨ㄸㅏ⑨ㄱ
ㄱㅗ⑨ㅍㅡ⑨
ㄱㅐ⑨ㅎㅘ⑨
ㅊㅗ⑨ㅊㅏᆼㄱㅣ⑨
ㅇㅐ⑨ㅊㅏᆨ
ㅊㅓᆼㅊㅜᆫㄴㅟ⑨
##ㄸㅡ
ㅅㅓᆼㅅㅜ⑨ㄱㅣ⑨
ㅇㅠ⑨ㄹㅏᆷ
ㄱㅏᆼㅌㅏ⑨
ㅈㅓᆯㄷㅏᆫ
ㄱㅛ⑨ㅊㅏ⑨ㄹㅗ⑨
ㅇㅠ⑨ㅈㅣ
ㅇㅢ⑨ㅅㅣ
ㄷㅓᆼㄷㅏᆯ
ㅇㅕᆼㅇㅠ⑨ㅇㅏ⑨
ㅇㅕ⑨ㄱㅏᆫ
ㄷㅔ⑨ㅇㅣᆯㄹㅣ⑨
ㅅㅏᆫㄱㅗᆯ
##ㅅㅔᆫㅅㅡ⑨
ㅈㅗ⑨ㄱㅡᆸ
##ㅋㅜ⑨ㅂㅓ⑨
ㅇㅕᆯㄷㅜ⑨
ㅁㅣᆫㅁㅏᆼ
##ㄴㅗ⑨ㅁㅣ⑨
ㅌㅡ⑨ㄹㅐᆫㅅㅡ⑨
ㅍㅏ⑨ㅇㅕᆯ
ㄱㅜ⑨ㅇㅕ
ㄱㅣᆷㅈㅐ⑨ㅇㅝᆫ
ㅈㅏᆯㄴㅏ⑨
ㅍㅗᆨㅈㅜ⑨
ㅂㅜ⑨ㄹㅡ⑨ㅈㅜ⑨
ㄱㅜᆨㅁㅜ⑨ㅈㅏᆼㄱㅘᆫ
##ㄱㅜᆸ
ㅈㅔ⑨ㅅㅡ⑨
ㅌㅏ⑨ㅍㅏ⑨
ㅇㅕᆫㄱㅜ⑨ㅇㅝ
ㅅㅜ⑨ㅊㅓᆫㅁㅏᆫ
ㅇㅣ⑨ㄸㅏ⑨ㄱㅡᆷ
ㅅㅓᆼㅇㅏᆨ
ㅎㅏᆨㅅㅐ
ㅁㅐ⑨ㅅㅓᆸ
ㅎㅏ⑨ㅇㅣ⑨ㄷㅔ⑨ㄱㅓ⑨
##ㄱㅓᇂ
ㅇㅣ⑨ㄱㅡᆫ
ㅅㅗ⑨ㅊㅣ⑨
ㄱㅐ⑨ㅇㅓᆸ
ㅈㅣᆫㅅㅓᆼ
ㅍㅕᆫㅎㅣ⑨
ㄱㅕᆼㅂㅣ⑨ㅇㅝᆫ
##ㅊㅗᆷ
ㅎㅏᆨㅂㅣ⑨
ㅅㅏᆼㄱㅡᆫ
ㄷㅏᆯㄹㅏ⑨ㅂㅜᇀ
##ㄹㅏᆯㅎㅏ⑨
ㄴㅏ⑨ㅁㅜᆺㄱㅏ⑨ㅈㅣ⑨
##ㅇㅗ⑨ㅅㅡ⑨
ㅇㅣᆫㅅㅜ
ㅅㅓᆸㅅㅓᆸ
##ㄱㅘᆫㄱㅘᆼㄱㅗᆼㅅㅏ⑨
ㅇㅕᆫㅈㅜᆫ
ㅅㅓᆼㄱㅘ⑨ㄱㅡᆸ
ㅇㅏ⑨ㅁㅗ⑨ㄹㅔ⑨ㅍㅓ⑨
ㄱㅘ⑨ㅈㅏ
##ㅁㅣ⑨ㅇㅏᆫ
ㅈㅏᆫㅎㅗᆨ
ㅋㅏ⑨ㅅㅡ⑨ㅌㅡ⑨
mp
142
ㅇㅠᆨㅅㅣᆫ
##ㅌㅐ⑨ㅍㅕᆼㅇㅑᆼ
ㄷㅏ⑨ㄴㅔ
ㅂㅏᆼㅋㅗᆨ
ㅈㅣᆫㅇㅟ⑨
ㄷㅗᆨㄱㅓ⑨
138
ㅎㅐᆫㄷㅡ⑨ㅍㅗᆫ
ㅁㅏᆯㄲㅡᆷ
ㄱㅏᆷㅇㅐᆨ
ㄱㅕᆼㅅㅏᆼㄴㅏᆷㄷㅗ⑨
ㅇㅕ⑨ㅎㅐᆼㅈㅣ⑨
ㅁㅏᆽㅇㅏ⑨
ㅈㅏ⑨ㅇㅠ⑨ㅅㅓᆫㅈㅣᆫㄷㅏᆼ
ㅇㅕᆫㅈㅏᆼㅅㅓᆫ
ㅂㅣᆺㅁㅜᆯ
ㅈㅓ⑨ㄹㅕᆨ
ㄷㅡᆼㅇㅛᆼ
ㅅㅓᆼㅇㅢ⑨
ㅎㅏᆫㄱㅜᆨㅍㅏᆫ
ㅎㅗ⑨ㄱㅜᆨ
ㅇㅣᆫㅅㅠᆯ
ㅅㅏ⑨ㅁㅏ⑨
ㅈㅗ⑨ㅈㅜᆫ
##ㅏ⑨ㅁㅏᆫ
ㄷㅡᆯㅇㅣ⑨ㄷㅐ⑨
##ade
ㄱㅗ⑨ㅊㅟ⑨
ㅈㅐ⑨ㅊㅣ⑨
ㅍㅗ⑨ㅅㅓᆨ
##ㄱㅣᇁ
##ㅋㅐᆷㅍㅡ⑨
166
##ㅂㅜ⑨ㅈㅗᆨ
ㄱㅏᆼㅂㅏᆨ
ㄱㅔ⑨ㅅㅣ⑨ㅁㅜᆯ
ibk
ㅅㅜᆨㅅㅓᆼ
ㅃㅓᆫㅃ
ㄱㅣ⑨ㄴㅕᆷㅅㅏ⑨ㅇㅓᆸ
ㅇㅣ⑨ㄱㅡᆯ
ㅎㅏ⑨ㄹㅠ⑨
ㅅㅐᆼㄱㅏ⑨
##enti
ㅊㅣᆫㅇㅣᆫㅊㅓᆨ
li
ㄱㅛ⑨ㅅㅣ
ㄱㅟ⑨ㄸ
ㅇㅕᆯㄹㅣᆫㅇㅜ⑨ㄹㅣ⑨ㄷㅏᆼ
ㅈㅓᆼㅇㅡᆫ
ㅊㅓᆯㄱㅡᆫ
ㅍㅣ⑨ㅇㅏ⑨ㄴㅣ⑨ㅅㅡ⑨ㅌㅡ⑨
ㅇㅕᆫㅎㅚ⑨
ㄱㅏ⑨ㅈㅓᆫㅈㅔ⑨ㅍㅜᆷ
##ㄱㅏᆺ
ㅊㅗᆷㅊㅗᆷ
ㅎㅘ⑨ㅎㅏ
ㅂㅐ⑨ㅊㅓᆨ
ㅋㅓ⑨ㅌㅡᆫ
ㄱㅠᆫㄷㅡᆼ
ㅇㅠ⑨ㅂㅏᆼㅇㅏᆷ
ㅃㅜ⑨ㄷㅡᆺ
2ㅅㅣᆷ
##fer
##ㅏᆫㅌㅡ⑨
ㅂㅣᆾㄴㅐ⑨
ㄱㅣᆷㅅㅏᆼㅈㅗ⑨
##ㅇㅕᆫㄱㅜ⑨ㅇㅝ
##ㄱㅕᆼㅊㅏᆯㅊㅓᆼ
ㅈㅏ⑨ㄱㅡᆼㅅㅣᆷ
ㅅㅜ⑨ㅎㅐ⑨
ㅅㅓᆫㅎㅜ⑨
ㅊㅏᆫㄹㅏᆫ
ㄷㅡᆫㅈㅣ
##ㄷㅓᆸ
ㅈㅓᆫㄱㅣ
ㄱㅣᆷㅅㅣᆫ
ㅁㅜᆫㅎㅘ⑨ㅇㅝᆫ
ㄷㅓ⑨ㄱㅜᆫㄷㅏ⑨ㄴㅏ⑨
ㄱㅏᆨㅅㅓᆼ
ㅅㅣᆨㅇㅛᆼ
ㅇㅗᆫㄴㅏᆫ
##ann
ㅈㅐ⑨ㅈㅣᆯ
ㅁㅏᆽㅅㅓᆫ
ㄸㅗᆯ
ㅍㅗ⑨ㅋㅔᆺ
ㅍㅡᆯㄹㅏ⑨ㅇㅣ⑨
ㄴㅗ⑨ㄹㅏᆫㅅㅐᆨ
##tr
ㅈㅔ⑨ㅈㅜ⑨ㅅㅣ⑨
ㄱㅡᆸㅅㅗᆨㄷㅗ⑨
ㄷㅜ⑨ㅍㅣ⑨
ㅂㅗ⑨ㅂㅕᆼ
ㅁㅕᆫㅊㅐᆨ
ㄴㅏ⑨ㅁㅜᆯ
ᆫㄷㅏ⑨ㄴㅣ⑨
ㄷㅟ⑨ㅈㅣᆸㅎㅣ⑨
ㅇㅗ⑨ㅈㅜᆨ
ㄴㅏᆷㅇㅝᆫ
ㅌㅗ⑨ㄴㅓ⑨
ㅍㅖ⑨ㅅㅜ⑨
ㅇㅡᆷㅇㅏᆨㄱㅏ⑨
ㅈㅣ⑨ㅅㅣ
ㅈㅣᆸㄱㅕᆯ
ㅁㅜ⑨ㄱㅜᆼㅎㅘ⑨
ㅇㅏ⑨ㅇㅣᆫ
##ㅇㅟᆺ
##fl
ㅈㅏ⑨ㅈㅏᆨ
ㄱㅕᆨㄷㅗᆯ
ㅅㅓᆼㅅㅣᆯㅎㅣ⑨
ㅊㅚ⑨ㅈㅐ⑨ㅎㅕᆼ
ㅈㅓ⑨ㅂㅕᆫ
ㄱㅜ⑨ㅅㅣᆷ
ㅇㅑᆼㅈㅐ⑨
ㅎㅗᆫㄷㅗᆼ
ㅈㅗ⑨ㅅㅓ⑨
ㄲㅡᇀㅇㅓᆹ
ㄱㅣᆷㄷㅜ⑨ㅎㅏᆫ
ㅇㅣ⑨ㅁㅕᆼㅂㅏ
her
ㄸㅓ⑨ㅇㅏᆫ
ㅈㅗ⑨ㅈㅣᆨㄹㅕᆨ
ㄱㅠᆫㅎㅕᆼㅂㅏᆯㅈㅓᆫ
ㅈㅣᆫㅈㅜᆼㄱㅝᆫ
ㅊㅗᆼㄹㅑᆼ
ㅇㅓ⑨ㅁㅓ⑨ㄴㅣ
ㄱㅣᆷㅇㅓ⑨ㅈㅜᆫ
ㅃㅓᆫㅃㅓᆫ
##ier
ㅎㅏ⑨ㄱㅗ
ㅇㅢ⑨ㅈㅜᆼ
ㅈㅜ⑨ㅅㅡ⑨
ㅇㅕᆫㅇㅓ⑨
ㄴㅠ⑨ㅇㅛᆨㅌㅏ⑨ㅇㅣᆷㅅㅡ⑨
##ㄱㅓᆫㄱㅏᆼ
174
##ose
ibm
ㅅㅜᆾ
ㄷㅟ⑨ㅊㅓ⑨ㅈㅣ⑨
ㅌㅓ⑨ㄷㅡᆨ
ㅅㅓ⑨ㅇㅜᆫㅎㅏ⑨
ㅋㅏᆯㅅㅠᆷ
ㅇㅣ⑨ㄷㅔ⑨ㅇㅣᆯㄹㅣ
ㅂㅏᆨㅈㅜ⑨ㅁㅣᆫ
ㅍㅣ⑨ㅅㅓ⑨
ㅍㅣ⑨ㅋㅔᆺ
ㅇㅖ⑨ㅅㅜᆯㄷㅏᆫ
ㅈㅜ⑨ㅈㅣᆫ
143
ㄴㅗᆼㅅㅣᆨㅍㅜᆷ
commun
ㅇㅣ⑨ㄹㅗ
ㅈㅗᆼㅅㅣᆫ
1947
ㅂㅣ⑨ㄷㅐ⑨ㅇㅟ⑨ㅇㅝᆫ
##ㅢᆷ
ㅇㅟ⑨ㄹㅖ⑨
##ㅅㅜ⑨ㅅㅏᆫ
ㄱㅕᆼㅈㅏᆨ
ㄱㅖ⑨ㅅㅜ⑨
ㅌㅏ⑨ㅈㅣᆫ
ㅎㅗᆫㄷㅏ⑨
public
ㅇㅝᆯㅅㅓᆼ
ㅈㅜᆼㅇㅏ
ㅇㅣᆷㅅㅏᆫ
ㅇㅑᆯ
ㄱㅛ⑨ㅌㅗᆼㅁㅏᆼ
ㅇㅔᆫㅈㅣ⑨ㄴㅣ⑨ㅇㅓ⑨ㄹㅣᆼ
ㅅㅠᆯ
ㅂㅗ⑨ㄹㅕᆼ
ㅅㅏ⑨ㅅㅏ
ㄷㅗ⑨ㄲㅣ⑨
ㅎㅕᆨㅅㅣᆫㅇㅟ⑨
##ㅅㅠ⑨ㅌㅏ⑨ㅇㅣᆫ
ㅇㅠ⑨ㄹㅣ⑨ㅊㅏᆼ
ㅇㅣᆸㄱㅏ⑨
ㄷㅟ⑨ㅅㅓᆩㅇㅣ⑨
ㅅㅏ⑨ㄷㅏ⑨ㄹㅣ⑨
ㅂㅣ⑨ㅊㅜᆨ
ㅎㅕᆼㅇㅣ⑨ㅅㅏᆼㅎㅏᆨ
ㄱㅣ⑨ㅇㅔ
ㅂㅕᆼㅈㅏᆼ
##ㄷㅓ⑨ㅁㅣ⑨
ㅈㅓᆷㅍㅓ⑨
ㄱㅣ⑨ㅇㅏ⑨ㅈㅏ⑨ㄷㅗᆼㅊㅏ⑨
ㅎㅓ⑨ㅅㅜᆯㅎㅏ⑨
ㅁㅣ⑨ㅌㅜ⑨
ㅎㅛ⑨ㅈㅏ⑨
ㄷㅗᆼㄸㅓᆯㅇㅓ⑨ㅈㅣ⑨
ㄷㅓᆫㄷㅔ⑨
##ㅌㅡ⑨ㄹㅣᆨ
ㄱㅏ⑨ㅅㅗᆯㄹㅣᆫ
ㅈㅓᆨㅅㅣᆸㅈㅏ⑨
ㅇㅖ⑨ㄹㅣ⑨
ㄱㅕᆯㅎㅏ⑨
ㅊㅏᆫㅁㅜᆯ
ㄱㅟ⑨ㄸㅢᆷ
##ㅅㅏᆼㄱㅏ⑨
ㅎㅚ⑨ㄱㅗ⑨ㄹㅗᆨ
ㅂㅏᆼㅈㅗ⑨
ㅈㅓᆯㅊㅣᆫ
ㅇㅣ⑨ㅇㅣ
ㅇㅓ⑨ㄸㅓᆨㅎㅏ⑨
ㅅㅣᆯㄱㅣ⑨
ㅂㅡ⑨ㄹㅐ⑨
ㄱㅏᆹㅈㅣ⑨
ㅇㅣ⑨ㅇㅘᆫㄱㅜ⑨
##ㄴㅏ⑨ㄹㅣ⑨
ㅇㅣ⑨ㅇㅠᆯ
ㅇㅣ⑨ㅌㅗ⑨ㄹㅗᆨ
ㄱㅜᆫㅇㅛᆼ
##ㅂㅣ⑨ㄱㅔ⑨ㅇㅣ⑨ㅅㅕᆫ
##ㄷㅣᆨ
ㅅㅏ⑨ㅇㅕᆨ
ㅇㅜᆫㅇㅕᆼㅈㅏ⑨
ㅅㅜ⑨ㄱㅓᆫ
ㅇㅚ⑨ㅇㅕᆫ
ㅂㅗ⑨ㄷㅏ
ㅇㅕ⑨ㅈㅜ⑨ㅇㅣᆫ
ㅇㅣ⑨ㅎㅕᆼ
ㅂㅏᆨㄷㅗᆼ
ㅊㅓᆼㅂㅏ⑨ㅈㅣ⑨
ㄹㅣ⑨ㅌㅓ⑨
##iet
1700
ㅂㅕᆨㅁㅕᆫ
##ㄷㅏ⑨ㅌㅜ⑨
ㅈㅣᆸㅈㅜ⑨ㅇㅣᆫ
ㅈㅓᆼㅊㅣ⑨ㄱㅜᆨ
ㅊㅚ⑨ㅇㅜ⑨
ㅅㅡ⑨ㅌㅔᆯ
##ㄴㅜᆨ
ㄷㅐ⑨ㅊㅓᆼ
ㅂㅓᆫㄱㅓ⑨
ㅁㅓᆨㅇㅡᆯㄱㅓ⑨ㄹㅣ⑨
ㅎㅡ⑨ㅌㅡ⑨ㄹ
ㅇㅣ⑨ㅋㅗ⑨
ㅈㅓᆼㅎㅚ⑨
ㅊㅚ⑨ㅇㅣᆫ
ㅇㅕᆨㅎㅐᆼ
ㅅㅜᆫㅊㅓᆫㅅㅣ⑨
ㅊㅜᆯㅇㅣᆸㄱㅜ⑨
ㅇㅕᆼㅈㅣ⑨
##ㄴㅣ⑨ㄷㅏ⑨ㅁ
##ㅂㅜ⑨ㅁㅗ⑨
ㅌㅐ⑨ㅈㅏ⑨
ㅇㅕᆺㅂㅗ⑨ㅇㅣ⑨
ca
ㅅㅣ⑨ㅂㅔ⑨ㄹㅣ⑨ㅇㅏ⑨
ㅇㅏᆺ
ㅂㅏᆨㄱㅣ⑨
ㅇㅣ⑨ㅇㅗᆫ
##ㅏ⑨ㄱㅡ⑨ㄹ
ㄱㅣᆯㅁㅗᆨ
ㅇㅏᇁㄷㅏ⑨ㅌㅜ⑨
nat
##ㅋㅔᆫ
ㅊㅗ⑨ㅅㅓᆨ
ㅁㅏᆼㅇㅝᆫㄱㅕᆼ
##ㅍㅜᆺ
ㅅㅓᆫㄱㅡᆯㄹㅏ⑨ㅅㅡ⑨
ㅂㅕᆼㅁㅜ⑨
ㄱㅜ⑨ㅁㅐ⑨ㅈㅏ⑨
ㅅㅠ⑨ㅍㅓ⑨ㅁㅏ⑨ㅋㅔᆺ
ㅇㅟ⑨ㄱㅣ
ㅅㅏ⑨ㅌㅏᆼ
ㄹㅣ⑨ㅂㅗᆫ
ㄹㅔ⑨ㄴㅣᆫ
ㄷㅏᆼㅊㅓᆷㅈㅏ⑨
ㅇㅏ⑨ㄴㅣ⑨ㅎㅏ⑨
ㅁㅣᆫㄱㅕᆼ
##ㅍㅜ⑨ㅅㅡ⑨
ㅇㅕᆼㅇㅝᆯ
ㅇㅔ⑨ㄷㅡ⑨ㅇㅝ⑨ㄷㅡ⑨
##ㅍㅗ⑨ㄷㅡ⑨
ㄱㅕᆷㅇㅣᆷ
ㄱㅕᆼㅎㅘ⑨
ㅁㅗ⑨ㅌㅓ⑨ㅅㅛ⑨
ㅇㅣᆯㅅㅜ⑨
ㅊㅣ⑨ㅁㅏ⑨
ㄴㅗ⑨ㅈㅗ⑨ㅇㅝᆫ
ㅊㅏ⑨ㄱㅡᆫㅊㅏ⑨ㄱ
ㅁㅗ⑨ㄴㅗ⑨
ㅁㅏ⑨ㅎㅡᆫ
ㄷㅣ⑨ㄷㅣ⑨
167
ㅂㅣᆨㅂㅐᆼ
ㅈㅏᆼㅅㅔ⑨
ㅇㅑᆼㅎㅕᆫ
ㅈㅜᆼㅅㅗ⑨ㄱㅣ⑨ㅇㅓᆸㅊㅓᆼ
ㅎㅕᆫㅈㅓ⑨ㅎㅏ⑨
ㅍㅐᆫㅊㅡ⑨
ㅍㅏᆨ
##ㅇㅟ⑨ㅅㅓᆼ
ㅎㅘᆯㄱㅣ⑨ㅊㅏ⑨
##ㅈㅏᆼㅁㅕᆫ
ㅅㅏ⑨ㅊㅜᆫ
ㅅㅣᆨㄷㅏᆫ
ㅌㅗᆼㅅㅣᆫㅂㅣ⑨
ㅈㅏ⑨ㄷㅗᆼㅊㅏ
pga
ㅈㅏ⑨ㅅㅓ⑨ㅈㅓᆫ
##ㄷㅐ⑨ㅎㅚ⑨
ㄱㅛ⑨ㅊㅏᆨ
ㅇㅣᆫㅅㅠᆯㄹㅣᆫ
ㅁㅣ⑨ㄹㅐ
ㅇㅣᆫㄱㅏ
ᆫㄷㅏᆫㄷㅏ
oc
ㄷㅣᆯㄹㅓ⑨
ㅂㅜ⑨ㄷㅡᆨㅇㅣ⑨
ㅊㅗᆼㄱㅕᆨ
ㅈㅓᆼㅊㅣ⑨ㅎㅏᆨ
ㅅㅏᆷㅅㅓᆼㅈㅜᆼㄱㅗᆼㅇㅓᆸ
##own
ㅁㅏᆫㅈㅗᆨㄱㅏᆷ
ㅁㅏ⑨ㅊㅟ⑨
ㅊㅜ⑨ㅈㅣᆫㄷㅏᆫ
ㅎㅚ⑨ㄹㅗ⑨
ㅇㅑᆼㅁㅕᆫ
ㅇㅏ⑨ㅇㅜ⑨ㄷㅣ⑨
ㅅㅣᆫㅅㅐᆼㅇㅏ⑨
ㅋㅗᆯㄹㅔ⑨ㅅㅡ⑨ㅌㅔ⑨ㄹㅗᆯ
ㅊㅏ⑨ㄱㅡᆫㅊㅏ⑨ㄱㅡᆫ
ㅂㅜᆯㅅㅣᆨ
ㄴㅏᆨㅌㅐ⑨
ㅇㅓ⑨ㅉㅓ⑨ㄷㅏ⑨
ㅈㅓᆼㅅㅡᆼ
ㅈㅗ⑨ㄱㅐ⑨
##he
ㅎㅘ⑨ㄱㅣ⑨
ㅂㅗᆫㄱㅜᆨ
134
ㄸㅡᆺㄷㅐ⑨ㄹㅗ⑨
office
ㅇㅜ⑨ㄹㅏ⑨ㄴㅠᆷ
ㄱㅏ⑨ㄷㅡᆫ
ㅇㅗ⑨ㄱㅓ⑨
ㄱㅏᆨㄹㅛ⑨
ㅇㅣ⑨ㄱㅓᆺㅈㅓ⑨
ㅍㅏᆫㄱㅕᆯㅁㅜᆫ
ㄱㅗ⑨ㄱㅏᆯ
##ㅎㅐᆼㅅㅏ⑨
ㅇㅑᆼㅁㅏᆯ
ㄱㅡᆫㄹㅐ⑨
kaist
##ㄲㅡᆺ
ㄴㅐ⑨ㄱㅗᆼ
ㅅㅣᆯㄹㅖ⑨
ㅂㅏᆯㅈㅓᆫㄱㅣ⑨
ㅈㅓᆼㅅㅏᆼㄱㅡᆸ
ㄱㅣ⑨ㅈㅗ⑨ㅇㅕᆫㅅㅓᆯ
ny
ㅈㅐ⑨ㄹㅐ⑨ㅅㅣ⑨ㅈㅏᆼ
ㅂㅗᆼㅎㅏ⑨ㅁㅏ⑨ㅇㅡᆯ
ㄱㅘᆫㄱㅘ
ㅇㅝᆫㄹㅜᆷ
##ㄱㅐᆼㅇㅣ⑨
ㄸㅏ⑨ㄹㅡᆷ
##ㅌㅏ⑨ㅇ
ㄱㅡ⑨ㄹㅐᆫ
ㄱㅕᆼㅈㅔ⑨ㅎㅕᆸㄹㅕᆨ
ㄴㅡᆼㅅㅓᆫ
ㄱㅕᆼㅈㅔ⑨ㅎㅕᆸㄹㅕᆨㄱㅐ⑨ㅂㅏᆯ
ㅍㅣ⑨ㅊㅡ⑨
##ㅈㅣᇁ
ㅅㅔ⑨ㄹㅣ⑨
ㄱㅏᆼㅇㅏᆸ
ㅎㅗᆷㄱㅕᆼㄱㅣ⑨
ㅈㅚ⑨ㅊㅐᆨ
ㅇㅐᆫㄷㅡ⑨ㄹ
##ㄱㅡ⑨ㄹㅐ⑨
##ㄷㅔ⑨ㄱㅣ⑨
ㅇㅗᆯㄹㅣ⑨ㅂㅡ⑨
##ㄴㅏᆯㄹㅣ⑨
ㄱㅗᆼㅇㅕ⑨
##ㅍㅜ⑨ㄹㅡ⑨
ㄷㅟ⑨ㅈㅣᆸㅇㅓ⑨
##sa
ㄷㅏ⑨ㄹㅑᆼ
##tical
ㄴㅗᆼㅈㅏᆨㅁㅜᆯ
ㅂㅐᆨㄹㅕᆼ
ㅇㅣ⑨ㄱㅓᆺㅈㅓ⑨ㄱㅓᆺ
ㅂㅕᆼㄱㅣ⑨
ㄴㅚ⑨ㅈㅗᆯ
ㅇㅕ⑨ㅈㅣᆨㅇㅝᆫ
ㄱㅏ⑨ㄹㅗ⑨ㅊㅐ⑨
##ㅟᆼㄱㅜᆯ
##ㅂㅡ⑨ㄹㅔ⑨
ㄱㅗ⑨ㄱㅜᆨ
ㄱㅣᆷㄱㅠ⑨
ㅈㅡᆼㄱㅝ
##ㄱㅣ⑨ㄹㅗᆨ
##ㅋㅏᆷ
ㅅㅣᆯㅅㅗᆨ
ㄹㅣ⑨ㅊㅡ⑨
ㅂㅐᆨㅎㅕᆯ
##ㅍㅡᆯㄹㅐ⑨
glob
ㅈㅏᆼㅎㅡᆼ
ㅊㅓ⑨ㅈㅓᆯ
ㄱㅜᆯㅇㅛᆨ
ㅊㅓᆫㅁㅏ⑨
ㅁㅏᆺㅈㅣᆸ
##ㅈㅣ⑨ㅇㅜ⑨
##ㅅㅗ⑨ㅍㅡ⑨ㅌㅡ⑨
ㄱㅜ⑨ㅊㅜᆯ
ㄲㅡᇀㅈㅏᆼ
ㅇㅖᆯ
ㄷㅗ⑨ㅈㅓᆫㅈㅏᆼ
ob
ㅇㅣᆫㄷㅗ
ㄱㅕᆫㅂㅗᆫ
ㅈㅔ⑨ㅎㅜ⑨
ㅈㅣᆫㅅㅗᆯ
ㄱㅏᆷㄱㅡᆷ
ㅇㅏ⑨ㅇㅣ
ㅎㅓᆫㅎㅕᆯ
ㅊㅜᆯㅂㅓᆷㅅㅣᆨ
##ㅅㅣ⑨ㅇㅏ
ㅂㅓᆫㅂㅓᆫㅇㅣ⑨
##ㅈㅣ⑨ㅈㅜ⑨
ㅋㅏ⑨ㅈㅏ⑨ㅎㅡ⑨ㅅㅡ⑨ㅌㅏᆫ
##ㄷㅗ⑨ㄱㅜᆨ
da
national
ㅎㅜ⑨ㅅㅐᆼ
ㅊㅏᆼㅍㅣ⑨
ㄱㅗᆼㅅㅗᆫ
ㄸㅡᆫ
##ㅇㅗ⑨ㅋㅏ⑨
ㄷㅡ⑨ㄹㅓᆷ
ㅈㅣᆨㅅㅣ⑨
ㅎㅔ⑨ㄱㅔᆯ
ㄸㅏᆼㄱㅏᆹ
ㄱㅣᆷㅅㅗ⑨
##ㅍㅡ⑨ㅌㅡ
ㅎㅓ⑨ㅈㅓᆷ
ㅂㅏᆯㅅㅏ⑨ㄷㅐ⑨
ㅎㅏᆸㅂㅕ
ㄷㅐ⑨ㅈㅣᆫ
ㅁㅐᆼㅎㅘᆯ
##ㅈㅓᆼㅊㅐᆨ
ㅊㅚ⑨ㅁㅜᆫ
ㅅㅗᆫㅈㅏᆸㅇㅣ⑨
ㄱㅡᆨㅁㅕᆼ
ㅁㅗᆷㅆㅏ⑨ㅇㅜᆷ
ㅇㅏᆸㄱㅜ⑨
ㅇㅟ⑨ㅎㅓᆷㄷㅗ⑨
##ㄱㅏ⑨ㅇㅝᆫ
##ㅌㅓ⑨ㅅㅡ⑨
ㅂㅏᆫㅊㅜᆯ
ㅇㅑᆼㅅㅗᆫ
ㅂㅓᆨㅊㅏ⑨
ㅁㅓ⑨ㅈㅣ⑨ㅇㅏᆭ
ㅂㅐ⑨ㅅㅣᆷㅇㅝᆫ
ㅅㅏᆫㅁㅗ⑨
ㄷㅗᆨㅂㅗ⑨
els
ㅇㅡ⑨ㄸㅡᆷ
##ㅑ⑨ㅇㅗ⑨
ㅌㅗ⑨ㅂㅓᆯ
ㄴㅏ⑨ㄷㅡᆯ
ㅌㅗᆼㅅㅏᆼㅂㅜ⑨
ㅅㅏ⑨ㄷㅐ⑨ㅂㅜ⑨
##ㅇㅣᆯㅊㅔ⑨
ㄴㅗᆫㅅㅏᆫ
ㅎㅏᆼㅅㅐᆼ
##ㅍㅕᆼㅎㅘ⑨
ㅇㅛ⑨ㅈㅣᆨ
##ㅇㅕᇂ
##ㄴㅗ⑨ㅇㅣᆫ
##ater
##ㄹㅓ⑨ㄷㅡ⑨
ㄱㅗ⑨ㅇㅕᆼ
ㅎㅕᆫㅂㅣᆫ
ㅇㅜᆫㄷㅗᆼㅎㅘ⑨
ㅅㅡ⑨ㅌㅏ⑨ㅂㅓᆨㅅㅡ⑨
131
ㅈㅜ⑨ㄱㅓ⑨ㅈㅣ⑨
##ㅇㅓ⑨ㄷㅡ⑨
ㄹㅟ⑨
##ㄴㅜ⑨ㅅㅡ⑨
ㅅㅡᆼㄱㅏᆼㅈㅏᆼ
ㅇㅏᆫㅌㅏ
ㅂㅗ⑨ㅇㅗᆫ
ㅇㅛ⑨ㅁㅣ⑨
ㅂㅣᆺㄷㅐ⑨
ㅂㅓᆯㄱㅡᆷㅎㅕᆼ
ㅇㅣ⑨ㅎㅚ⑨ㅊㅏᆼ
##ㄱㅣ⑨ㅅㅏ⑨
##ㅇㅡᆷㅇㅏᆨ
ㅈㅓᆫㅇㅜ⑨
##ㅂㅗ⑨ㄷㅗ⑨
ㅁㅗ⑨ㄷㅓᆫ
ㄱㅛ⑨ㄹㅏᆫ
ㅂㅐ⑨ㅂㅏᆫ
ㄷㅏᆫㅊㅔ⑨ㅈㅓᆫ
##iew
ㄱㅛ
##ㄱㅗᆼㅅㅓ⑨
ㅍㅕᆼㄱㅏ⑨ㅈㅓᆫ
##inc
ㅂㅗ⑨ㄱㅗ⑨ㅎㅚ⑨
ㄱㅐ⑨ㅅㅜ⑨
ㅂㅡ⑨ㄹㅏ⑨ㅇㅣ⑨ㅇㅓᆫ
##ㅂㅜ⑨ㄷㅐ⑨
##ㄱㅖ⑨ㅅㅓᆫ
ㅍㅐ⑨ㄹㅓᆯ
ㄱㅖ⑨ㄹㅛᆼ
ㅂㅗᆨㅅㅣᆨ
ㅇㅜᆯㄹㅣᆷ
ㄴㅗ⑨ㄷㅗᆼㅅㅣᆫㅁㅜᆫ
ㅂㅜ⑨ㅈㅣ⑨ㄹㅓᆫㅎㅣ⑨
naver
ㅇㅗ⑨ㄹㅏ⑨
ㅂㅗ⑨ㅇㅠ⑨ㅈㅏ⑨
##ㅁㅏᆽㅊㅜᆷ
ㅅㅡᆼㅂㅗᆨ
ㅂㅏᆼㅅㅜ⑨
ㅂㅜᆯㅁㅕᆼ
##ㅈㅡᆨ
ㅍㅗ⑨ㅅㅡ⑨ㅋㅗ⑨ㄱㅓᆫㅅㅓᆯ
rob
ㄱㅐ⑨ㅇㅕᆫ
ㅌㅣᆨ
ㄱㅏ⑨ㄸㅡᆨㅇㅣ⑨
ㅅㅏᆷㄱㅕᆸ
ㅅㅏ⑨ㄱㅗ⑨ㄹㅕᆨ
ㄱㅏ⑨ㄸㅡᆨㅇㅣ⑨ㄴㅏ⑨
ㅇㅐ⑨ㄷㅗ⑨
##ㄴㅔ⑨ㅌㅡ⑨
ㅁㅔᆫㅌㅡ⑨
ㅂㅐᆨㄴㅏᆷ
##ogr
ㄱㅕᆼㄹㅗ⑨ㄷㅏᆼ
ㄱㅣᆷㅅㅣ⑨
ㅍㅐ⑨ㅅㅗ⑨
ㅂㅜ⑨ㅍㅜ
ㄷㅐ⑨ㅊㅜᆯㄱㅡᆷ
ㅁㅗᆯㅇㅏ⑨ㅂㅜᇀㅇㅣ⑨
ㅎㅏᆫㅂㅏ⑨ㅌㅏᆼ
ㄱㅏ⑨ㅂㅜ⑨ㅈㅏᆼ
##ㄱㅓᆨ
ㅇㅏᆫㅂㅜ⑨
##ㅊㅔ⑨ㅇㅣᆫ
ㅎㅏᆼㅇㅏ⑨ㄹㅣ⑨
ㄹㅗᆺㄷㅔ
##ㅇㅣᆫㅁㅣᆫㄱㅗᆼㅎㅘ⑨ㄱㅜᆨ
ㅈㅓ⑨ㄱㅏ⑨
ㅌㅏ⑨ㅇㅣ
ㅌㅐᆯ
ㄷㅐ⑨ㅇㅕᆨ
ㅊㅏ⑨ㄹㅗ⑨
ㅂㅟ⑨
ㅇㅕᆯㄹㅕᆯ
ㄱㅏ⑨ㅃㅡ⑨
ㄱㅓ⑨ㅁㅜᆯ
ㅈㅓᆫㅈㅏ⑨ㄹㅐᆫㄷㅡ⑨
ㄷㅗᆼㅇㅠ⑨ㄹㅓᆸ
##able
ㄱㅜ⑨ㅊㅣ⑨ㅅㅗ⑨
ㅅㅏ⑨ㅇㅓᆸㅊㅔ⑨
##ㅂㅓ⑨ㅅㅓᆺ
ㅌㅡᆨㅁㅗᆨㄱㅗ⑨
ㅅㅓᆫㅇㅣᆫ
ㅇㅏᆫㅅㅣᆨ
ㅅㅏᆼㄱㅕᆼ
ㄴㅡᆼㄹㅠᆯ
ㅇㅕᆫㄱㅜ⑨ㅇㅝᆫㅈㅏᆼ
ㅍㅡ⑨ㄹㅣᆫㅌㅡ⑨
##ㅁㅜᆫㄱㅗ⑨
##ㄱㅗᆼㅎㅏᆨ
ㄷㅟ⑨ㅂㅏ⑨
ㅁㅏ⑨ㅇㅣ⑨ㅋㅡ⑨ㄹㅗ⑨ㅅㅗ⑨ㅍㅡ⑨ㅌㅡ⑨
ㅇㅡᆫㅇㅠ⑨
ㅎㅡᆸㅇㅣᆸ
ㅁㅐᆼㅎㅘᆯㅇㅑᆨ
ㅈㅗ⑨ㅁㅣ⑨
ㅎㅏᆨㅈㅏ⑨ㄱㅡᆷ
ㅅㅗ⑨ㅈㅐ⑨ㅈㅣ⑨
ㄱㅗ⑨ㄹㅗ⑨
ㅇㅓᆸㅈㅜ⑨
ㅂㅏ⑨ㄹㅐ⑨
##ㅇㅏ⑨ㅍㅡ⑨ㄹㅣ⑨ㅋㅏ⑨
ㅈㅣ⑨ㄷㅗ
ㅅㅜ⑨ㄷㅏ⑨
ㅃㅐ⑨ㅇㅓ⑨ㄴㅏ⑨
ㄷㅏ⑨ㄴㅕ⑨ㄱㅏ⑨
##ㄷㅡᆯㄱㅣ⑨
ㄹㅐ
##ㅈㅏᆺ
ㄱㅝᆯ
ㅂㅗ⑨ㅌ
ㅅㅏ⑨ㅎㅚ⑨ㄱㅘᆫㄱㅖ⑨
ㅋㅔ⑨ㄴㅔ⑨ㄷㅣ⑨
ct
##ㅍㅓᆯ
ㅎㅏᆨㅊㅏᆼ
ㅈㅜᆫㅅㅓᆯ
##ㅇㅖ⑨ㅍㅡ⑨
ㅇㅏ⑨ㅁㅗ⑨ㄹㅔ⑨ㅍㅓ⑨ㅅㅣ⑨ㅍㅣᆨ
ㅈㅜᆼㅅㅜ⑨
##ㅂㅓ⑨ㄱㅓ⑨
ㅅㅓ⑨ㅇㅜᆯㄷㅐ⑨ㅂㅕᆼㅇㅝᆫ
ㅍㅕᆼㅎㅐᆼ
ㄴㅏ⑨ㅇㅣ⑨ㅈㅣ⑨
ㅂㅏᆯㅇㅕᆯ
##ㄱㅏᆷㄷㅗᆨ
##ㅎㅐ⑨ㅊㅓᆯ
ㅈㅜᆼㄱㅘ⑨
ㅂㅏᆯㅇㅓ
##ㅋㅣ⑨ㅅㅡ⑨
ㄱㅖ⑨ㅇㅑᆨㅈㅏ⑨
ㅊㅏ⑨ㄴ
ㅅㅓ⑨ㅂㅕᆼ
ㅎㅕᆫㄷㅐ⑨ㄱㅡ⑨ㄹㅜᆸ
ㅈㅜ⑨ㅈㅣ⑨ㅅㅏ⑨
ㅂㅏᆫㅇㅕᆨ
ㅇㅘᆼㄹㅐ⑨
ㅎㅕᆸㅇㅑᆨㅅㅣᆨ
ㅇㅕᆼㄱㅜ
ㄴㅗᆼㅅㅣᆨㅍㅜᆷㅂㅜ⑨
ㅎㅏ⑨ㄷㅏᆫ
ㄱㅡ⑨ㄹㅣ⑨ㅇㅝ⑨ㅎㅏ⑨
##ㄲㅡᆶ
ㄷㅗ⑨ㅎㅘ⑨
ㅅㅜ⑨ㅇㅣ
journal
ㅅㅜ⑨ㅊㅜᆨ
ㅅㅗᆫㄴㅕ⑨
ㅍㅗ⑨ㄷㅗ⑨ㅈㅜ⑨
ㅃㅏᆯㄱㅏᆫㅅㅐᆨ
wr
ㅈㅣ⑨ㅇㅝᆫㅊㅐᆨ
ㅅㅓᆫㄱㅓ⑨ㄱㅘᆫㄹㅣ⑨ㅇㅟ⑨ㅇㅝᆫㅎㅚ⑨
ㅇㅔ⑨ㅅㅡ⑨ㅋ
ㅅㅣ⑨ㅎㅐᆼㅊㅏᆨㅇㅗ⑨
##ㅋㅝ⑨
ㄱㅓ⑨ㅎㅐᆼ
ㄴㅏᆨㅇㅕᆸ
ㅇㅟᆼ
ㅉㅏᆼ
##br
ㅅㅓᆼㅈㅗᆼ
ㅅㅓᆫㅎㅚ⑨
ㄷㅜ⑨ㄷㅡᆯㄱㅣ⑨
ㄸㅏ⑨ㅅㅡ⑨
ㅈㅔ⑨ㄴㅔ⑨ㅂㅏ⑨
ㅅㅏ⑨ㅊㅜᆫㄱㅣ⑨
ㄱㅏ⑨ㅁㅕᆫ
ㄱㅘᆫㅈㅓᆫ
ᆯㄹㅐ
##ㅋㅣᆨ
ㅂㅏᆼㅈㅜᆼ
ㄱㅡ⑨ㅈㅣ⑨
ㅈㅓᆫㅇㅣᆷㅈㅏ⑨
##ㄷㅜᆯㄱㅣ⑨
ㅈㅔ⑨ㅊㅓᆼ
ㅅㅗᆫㅈㅣᆺ
ㅈㅜᆼㄷㅐ⑨ㅎㅕᆼ
ㅎㅏᆸㅂㅕᆼㅈㅡᆼ
ㄷㅏᆫㄷㅏᆫㅎㅏ⑨
ㅇㅚ⑨ㅇㅏᆸ
ㅍㅣᆯㄹㅏ⑨
ㅎㅕᆫㄷㅐ⑨ㅋㅐ⑨ㅍㅣ⑨ㅌㅏᆯ
ㅇㅣᆫㅅㅡ⑨ㅌㅏ⑨ㄱㅡ⑨ㄹ
ㅂㅐ⑨ㅈㅐ⑨
ㅋㅗ⑨ㄷㅣ⑨
ㅇㅠ⑨ㅇㅕᆫㅎㅏ⑨
ㅎㅗ⑨ㅍㅡ⑨
ㅅㅣᆯㅎㅓᆷㅅㅣᆯ
ㄴㅏᆫㅇㅣ⑨ㄷㅗ⑨
##ㅅㅏᆼㅎㅚ⑨
##sch
ㅊㅓᆫㅇㅕᆫㄱㅏ⑨ㅅㅡ⑨
ㅇㅏᆯㄹㅔᆨㅅㅏᆫㄷㅓ⑨
##ㄹㅣᆯㄹㅏ⑨
ㅅㅜ⑨ㅎㅏ⑨
ㅂㅗ⑨ㄹㅏ⑨
ㄱㅣᆷㄱㅡᆫ
ㅈㅜᆫㅇㅟ⑨
ㅊㅜᆨㅈㅓᆫ
##ㅇㅐ⑨ㄴㅏ⑨
ㅂㅕ⑨ㄹㅏᆨ
ㄱㅣ⑨ㅌㅡᆯ
ㅇㅏᇁㅈㅣ⑨ㄹㅡ⑨
ㅅㅣᆷㅍㅡᆯ
ㅁㅓᆯㅌㅣ⑨ㅁㅣ⑨ㄷㅣ⑨ㅇㅓ⑨
ㅇㅛ⑨ㄷㅗᆼㅊㅣ⑨
ㄱㅣ⑨ㅅㅏ
ㄱㅏᆼㅈㅓᆼㅎㅗ⑨
ㅇㅕᆯㅂㅕᆼㅅㅣᆨ
ㅅㅜ⑨ㅅㅜ⑨ㄲㅔ⑨
ㅅㅜ⑨ㄱㅡᆼ
ㄱㅜ⑨ㅇㅣ⑨
ㅍㅗ⑨ㅈㅡ⑨
ㄱㅏ⑨ㄹㅗ⑨ㅅㅜ⑨
ㅇㅕᆼㅇㅑᆼㅅㅗ⑨
ㄱㅗ⑨ㄱㅟ⑨
ㅅㅗ⑨ㄷㅡ
ㅇㅣᆯㅅㅏ⑨
ㅇㅝᆯㄴㅏᆷ
##ㅇㅏ⑨ㅌㅏ⑨
ㄴㅣ⑨ㅌㅡ⑨
ㅅㅡ⑨ㅌㅗᆨ
ㅎㅟᆸㅆㅡᆯㄹㅣ⑨
ㄱㅕᆼㅂㅗᆨㄱㅜᆼ
bar
ㅈㅏ⑨ㄱㅏᆯ
ㅊㅣ⑨ㅅㅏ⑨
ㅅㅜ⑨ㄷㅗ⑨ㅇㅝᆫ
ㅇㅕᆯㄷㅡᆼ
ㅊㅣᆫㄱㅜ
##ㅋㅗ⑨ㅅㅡ⑨
##ital
ㄱㅏᆼㅎㅘ⑨ㄷㅗ⑨
ㅈㅣ⑨ㅇㅑᆼ
ㅇㅕᆼㅇㅏᆷ
ㅁㅗᆨㅈㅏᆼ
##ise
##ㅋㅡ⑨ㄹㅏ⑨ㅌㅔ⑨ㅅㅡ⑨
ㄱㅡ⑨ㄹㅡ⑨
ㅁㅠ⑨ㅈㅣᆨㅂㅣ⑨
ㅂㅡ⑨ㄹㅔᆨㅅㅣ⑨ㅌㅡ⑨
out
##ood
ㅅㅜᆫㅎㅏᆼ
ㅊㅗ⑨ㅅㅗ⑨
ㅅㅛ⑨ㅌㅡ⑨ㅌㅡ⑨ㄹㅐᆨ
ㅅㅗ⑨ㄴㅕ⑨ㅅㅏᆼ
ㅇㅠ⑨ㄱㅗ⑨
ㅁㅣ⑨ㄴㅕ⑨
ㅂㅣᆫㅁㅣᆫ
ㅇㅠᆫㅅㅏᆼㅎㅕᆫ
ㄴㅑᆼ
ㅊㅞ⑨
ㄱㅏ⑨ㅁㅕ
ㅍㅕᆼㅌㅐᆨㅅㅣ⑨
ㄱㅣ⑨ㅅㅓᆼㅇㅛᆼ
ㄱㅜᆨㅁㅣ
ㅅㅐᆼㅅㅗ⑨
ㅇㅣᆸㅈㅏᆼㄹㅛ⑨
ㅎㅘᆯㅇㅛᆼㄷㅗ⑨
ㄲㅜᆷㅌㅡᆯ
##pt
ㅈㅗ⑨ㅇㅕᆫ
##ㅌㅣ⑨ㅁㅗ⑨
ㄱㅐ⑨ㅈㅓᆼㅇㅏ
ㅍㅣ⑨ㄷㅡ⑨ㅂㅐᆨ
ㅂㅗ⑨ㄴㅓ⑨ㅅㅡ⑨
ㄹㅔᆨㅅㅡ⑨
##ㅍㅓᆼ
ㄷㅡᆯㅆㅓᆨ
ㅇㅕᆫㄹㅣᆸ
ㅎㅕᆼㅇㅛᆼ
##ㅇㅝ⑨ㅋㅡ⑨
ㄱㅣᆷㅈㅗᆼㅁㅣᆫ
##ㅍㅏ⑨ㄹㅣ⑨
mon
ㅎㅢ⑨ㄱㅗᆨ
ㅇㅣᆷㅅㅏᆫㅂㅜ⑨
bu
##ㅁㅏ⑨ㅇㅓ⑨
ㄱㅣ⑨ㅎㅕᆼ
ㄱㅣ⑨ㄴㅐ⑨
ㅊㅣᆫㄴㅗ⑨
ㅂㅣ⑨ㅌㅏ⑨ㅁㅣ
ㄱㅐ⑨ㄷㅗ⑨ㄱㅜᆨ
ㅎㅕᆫㅇㅜ⑨
ㄱㅕᆼㅈㅓᆫㅊㅓᆯ
ㄱㅟ⑨ㅅㅜᆫ
##ㅇㅏ⑨ㄴㅓᇂ
io
ㅍㅣᆯㄱㅣ⑨
ㄴㅗᆼㅅㅜ⑨ㅅㅏᆫㅁㅜᆯ
ㅂㅏᆯㅉㅏᆨ
ㄷㅏᆫㅂㅓᆫㅇㅔ⑨
ㅅㅗ⑨ㄴㅕ⑨ㅅㅣ⑨ㄷㅐ⑨
ㅇㅏ⑨ㅂㅏ⑨
ㅇㅕᆯㅇㅕᆫ
ㅅㅏ⑨ㅎㅚ⑨ㄱㅘᆫㄱㅖ⑨ㅁㅏᆼ
ㅍㅏ⑨ㄴ
##ㅁㅣᆫㅌㅓᆫ
ㄷㅗᆨㄷㅏᆫ
ㅈㅜ⑨ㅊㅏᆼ
ㅅㅐᆼㅅㅜ⑨
##ㅇㅣᆯㄷㅡ⑨
ㄱㅕᆼㄱㅣ⑨ㄷㅗ⑨ㅇㅢ⑨ㅎㅚ⑨
ㅂㅜ⑨ㅅㅓᆯ
ㅅㅜ⑨ㅋㅓᆺ
ㅎㅏᆫㅁㅜᆫ
ㅇㅏ⑨ㅌㅗ⑨ㅍㅣ⑨
ㅍㅏᆫㅊㅗᆨ
ㄱㅓ⑨ㄹㅐ⑨ㅂㅓᆸ
ㄴㅐ⑨ㅇㅛ
ㅂㅜᆫㅇㅑ
ㅂㅏᆯㄱㅘᆼ
ㅎㅏᆷㅊㅜᆨ
ㅇㅣᆸㅈㅏᆼㄱㅝᆫ
ㅌㅣᆼ
ㅈㅗᆼㄱㅛ⑨ㅇㅣᆫ
ㅇㅑᆷ
##ㄴㅗ⑨ㄷㅗᆼㅈㅗ⑨ㅎㅏᆸ
ㄹㅜ⑨ㅅㅡ⑨
ㄱㅘᆫㅊㅓᆼ
ㅂㅏᆼㅎㅑ
ㅈㅏᆨㅈㅏ⑨
ㅋㅗ⑨ㅇㅏᇁ
ㅎㅚ⑨ㅇㅢ⑨ㄹㅗᆨ
ㅎㅗ⑨ㅌㅔ
ㅇㅜᆷㅋㅕ⑨ㅈㅟ⑨
##ㄷㅣᆮ
sci
##bi
ㅇㅜ⑨ㄱㅣ⑨
ㅊㅓ⑨ㅅㅣᆫ
ㅇㅣᆫㄴㅐ⑨ㅅㅣᆷ
##ㅃㅜᆯ
ㄱㅣᆷㅂㅗ⑨
ㅊㅜᆯㄱㅕᆨ
ㅈㅜ⑨ㅈㅏ
ㅂㅕᆼㅇㅕᆼ
##ower
ㅈㅔ⑨ㅇㅑᆨㅅㅏ⑨
ㅈㅓᆼㅇㅖ⑨
ㅅㅏᆼㄷㅏ
ㅇㅙ⑨ㄱㅜᆫ
ㅂㅡᆯㄹㅜᆷ
ㄴㅐ⑨ㄷㅣᆮ
ㄹㅣ⑨ㅌ
ㅂㅣᆫㅌㅡᆷ
ㅇㅏᆫㅂㅗ
ㅇㅜ⑨ㄹㅣ⑨ㄱㅡᆷㅇㅠᆼ
ㅇㅕᆨㅂㅜ⑨ㅈㅗᆨ
ㅁㅏᆫㄹㅜ⑨
ㄸㅓ⑨ㄴㅏ⑨ㄱㅏ⑨
ㄸㅓᆺ
ㄴㅏᆷㅎㅏᆨㅅㅐᆼ
ㅅㅗ⑨ㅂㅏᆼㅅㅓ⑨
life
ㅎㅡᆨㅂㅐᆨ
ㄷㅓᆫㄷㅔ
ㅁㅜᆫㅎㅏᆨㅅㅏ⑨
ㅈㅓᆫㅎㅕᆫ
##ㅇㅝᆨㅅㅡ⑨
ㄱㅣᆷㅈㅓᆼㄴㅏᆷ
ㅂㅓᆸㅈㅗ⑨ㅇㅣᆫ
##ㅈㅜᆼㄱㅜᆨㅎㅐ⑨
ㅅㅣᆷㅂㅜ⑨ㄹㅡᆷ
ㅁㅠ⑨ㅈㅣᆨㅂㅣ⑨ㄷㅣ⑨ㅇㅗ⑨
ㅍㅣ⑨ㄹㅏ⑨ㅁㅣ⑨
##24
ㅈㅡᆯㅂㅣ⑨
##ㄹㅣ⑨ㅅㅡ⑨ㅌㅗ⑨
ㅇㅏᆫㄴㅕᆼㅎㅏ⑨
ㅍㅕᆫㅊㅏ⑨
ㅊㅏᆨㅇㅗ⑨
ㅅㅜ⑨ㅊㅜᆯㅇㅐᆨ
ㅊㅜᆯㅇㅣᆸㅁㅜᆫ
ㄱㅕᆼㅋㅙ⑨
ㅂㅗᆨㅂㅜ⑨
gsㄱㅓᆫㅅㅓᆯ
ㅌㅡᆨㅅㅏᆫㅁㅜᆯ
ㅇㅣ⑨ㅈㅣᆯ
ㄱㅜ⑨ㄱㅡᆷ
ㅈㅏᆼㅅㅣᆫ
ㅅㅓ⑨ㅊㅓᆼ
ㄱㅏᆯㅇㅏ⑨ㅌㅏ⑨
ㄱㅗᆼㅎㅏ
ㄱㅔ⑨ㄹㅡ⑨
ㄴㅐ⑨ㅅㅣ⑨ㄱㅕᆼ
ㅁㅐ⑨ㅎㅗᆨ
ㅅㅣ⑨ㄷㅡᆯ
##ㄹㅣ⑨ㅇㅏ
ㅈㅓᆫㄹㅣᆸ
ㅁㅜᆫㅇㅑᆼ
ㅊㅜᆯㄹㅜ⑨
ㅎㅓ⑨ㅌㅏᆯ
ㅈㅣᆸㅈㅓᆨ
ㅅㅣ⑨ㅎㅐᆼㅈㅏ⑨
ㅊㅏ⑨ㅇㅛᆼ
##ㄴㅏ⑨ㅁㅣ⑨
##ㄷㅏ⑨ㅇ
ㅅㅡᆯㄹㅣᆷ
ㅈㅓᆫㅈㅐᆼㅌㅓ⑨
ㅇㅛ⑨ㄹㅣ⑨ㅅㅏ⑨
ㅇㅝ⑨ㅋㅡ⑨ㅇㅏ⑨ㅇㅜᆺ
ㄴㅣᆺㅅㅏᆫ
ㅁㅜᆫㅊㅐᆨ
ㅍㅣ⑨ㅋㅏ⑨
ㅂㅔ⑨ㅇㅣᆯ
ㅊㅓ⑨ㅂㅓᆯㅂㅓᆸ
ㅇㅠ⑨ㅁㅏᆼㅈㅜ⑨
ㅈㅏ⑨ㅁㅏᆫ
ㄷㅡᆼㅈㅏᆼㅇㅣᆫㅁㅜᆯ
ㄱㅐᆨㅅㅓᆨ
ㅆㅏᆷ
ㅅㅓᆼㅍㅐ⑨
ㅇㅣᆫㅌㅓ⑨ㄴㅐ⑨ㅅㅕ⑨ㄴㅓᆯ
ㅇㅏᆫㅈㅗᆼ
ㅊㅜᆯㅎㅏᆼ
ㅍㅜ⑨ㄹㅡᆫ
ㅅㅓᆫㅇㅠᆯ
##ㅅㅔ⑨ㅇㅛ⑨
ㅅㅣᆨㅅㅜ⑨
ㅂㅓ⑨ㅂㅡᆯ
ㅂㅣ⑨ㅅㅓ⑨ㄱㅘ
ㄹㅣ⑨ㅇㅗ⑨
ㅁㅣᆯㄹㅔ⑨
ㅅㅗ⑨ㅂㅣ⑨ㅅㅔ⑨
ㅍㅔ⑨ㅇㅣᆫㅌㅡ⑨
##ㅂㅔ⑨ㄹㅡ⑨ㅋㅡ⑨
ㅁㅗ⑨ㄹㅔ⑨
ㅎㅘᆫㅅㅗᆼ
ㅇㅔ⑨ㅇㅣ⑨ㅈㅓᆫ
kcal
ㅅㅓ⑨ㅇㅜᆯㅈㅣ⑨ㅂㅏᆼ
1958
ㅇㅜᆫㅈㅓᆫㅅㅏ⑨
ㅇㅕ⑨ㄱㅏ⑨ㅂㅜ⑨
ㅅㅜ⑨ㅇㅣᆷ
ㄷㅗᆼㅈㅣᆯ
ㅁㅣᆨㅅㅡ⑨
ㅎㅏᆫㅇㅑᆨ
##ㅋㅡ⑨ㄹㅗ⑨
ㅂㅗᆨㅅㅜᆼ
ㅂㅏᆫㄱㅜᆫ
ㅌㅚ⑨ㅊㅣ⑨
work
ㅈㅣ⑨ㄱㅣ⑨
##ㄷㅓᆨㅅㅜ⑨
##ㄷㅓ⑨ㄱㅣ⑨
ㄱㅕᆼㄱㅣ⑨ㅈㅣ⑨ㅇㅕᆨ
ㅁㅜᆯㄱㅏᆯㅇㅣ⑨
ㅇㅕ⑨ㅂㅗ⑨
ㅎㅕᆫㅈㅜ⑨
##ㅈㅜᆸ
ㅇㅣ⑨ㄴㅗ⑨
ㅅㅔ⑨ㅅㅏ
ㅊㅐ⑨ㅉㅣᆨ
ㅈㅓᆯㄱㅐ⑨
ㅂㅐᆫㅋㅜ⑨ㅂㅓ⑨
ㄱㅛ⑨ㅁㅛ⑨ㅎㅏ⑨
##ㅇㅓᆺ
ㄷㅏᆷㅇㅏ⑨ㄴㅐ⑨
ㅍㅡ⑨ㄹㅣᆫㅌㅓ⑨
ㅎㅏ⑨ㄱㅣ⑨
ㄱㅘ⑨ㄷㅐ⑨
ㅎㅏᆫㄴㅏᆷ
ㅇㅑ⑨ㅁㅏ⑨
ㅎㅣᆷㄲㅓᆺ
ㅍㅏ⑨ㅇㅣ⑨ㄴㅐᆫㅅㅕᆯ
ㅂㅜ⑨ㅊㅗᆼ
ㅎㅜ⑨ㄷㅐ⑨
ㅋㅏ⑨ㅇㅜᆫㅌㅓ⑨
##erved
ㄱㅖ⑨ㅁㅕᆼㄷㅐ⑨
ㅇㅓ⑨ㅁㅏ⑨ㅇㅓ⑨
##ㅅㅡᆯㄹㅓ⑨
ㅂㅏᆫㅊㅣᆨ
##ㄱㅡ⑨ㄹㅓ⑨
ㅅㅣ⑨ㄷㅡ⑨ㄴㅣ⑨
ㅁㅗ⑨ㅁㅔᆫ
ㅅㅓᆫㅇㅣᆸ
ㅎㅘᆼㅍㅖ⑨
##ㅇㅘᆼㅎㅜ⑨
cam
ㅇㅕᆫㅈㅜ⑨ㅎㅚ⑨
ㅇㅜ⑨ㄹㅣ⑨ㅁㅏᆯ
ㅊㅓᆫㅅㅏᆼ
ㄷㅗ⑨ㄲㅐ⑨ㅂㅣ⑨
ㅁㅏᆽㄷㅏᇂ
ㅁㅐ⑨ㅊㅣᆼ
ㅇㅓ⑨ㅁㅏ⑨ㅇㅓ⑨ㅁㅏ⑨
ㄷㅗ⑨ㅇㅓ⑨
ㄱㅕᆼㅇㅕᆼㅇㅣᆫ
ㅎㅜᆫㄹㅕ
ㅈㅏ⑨ㅇㅝᆫㅂㅗᆼㅅㅏ⑨ㅈㅏ⑨
ㅂㅗ⑨ㅌㅐᆷ
pers
ㄴㅏ⑨ㄷㅡᆯㅇㅣ⑨
ㄱㅘᆫㅅㅏᆼ
ㅈㅓᆨㅈㅜᆼ
##ㅁㅏ⑨ㄷㅡ⑨
char
ㅇㅣ⑨ㅇㅕ
ㄱㅕᆼㅈㅣᆫ
ㅂㅗ⑨ㅎㅓᆷㅈㅏ⑨
ㅅㅐᆼㅈㅗᆫㅈㅏ⑨
ㄱㅗ⑨ㅊㅏᆨ
ㅌㅗᆼㅇㅛᆼ
ㄷㅟᆺㅁㅗ⑨ㅅㅡᆸ
650
ㅂㅏᆨㅌㅐ⑨ㅎㅘᆫ
ㄱㅛ⑨ㅅㅏ
ㅈㅓᆼㄷㅐ⑨
ㄱㅗᆼㅈㅓᆨ
ㄷㅔ⑨ㅁㅗ⑨
ㅎㅏᆼㅅㅐᆼㅈㅔ⑨
##ㅁㅏ⑨ㄴㅣ⑨
ㅁㅕᆫㅁㅣᆯㅎㅏ⑨
ㄴㅏᆷㅇㅣᆫ
ㄱㅏᆫㅂㅕᆼ
ㅁㅗᆨㄱㅓᆯㅇㅣ⑨
4500
ㅌㅡ⑨ㄹㅗ⑨ㅍㅣ⑨
ㄱㅛ⑨ㅇㅠᆨㅈㅏᆼ
ㅎㅜᆫㅎㅜᆫ
ㅈㅜ⑨ㅎㅢ⑨
ㅁㅣ⑨ㅅㅜ⑨
##gh
ㅇㅕ⑨ㄷㅡ⑨ㄹㅡᆷ
ㅇㅛᆼㅇㅢ⑨
##ild
ㅇㅗ⑨ㅅㅡᆼㅎㅘᆫ
ㄱㅏᆯㅈㅡᆼ
ㅎㅕᆫㄷㅐ⑨ㅅㅏᆼㅅㅓᆫ
ㅅㅜ⑨ㅎㅕᆸ
ㅍㅣᆯㄷㅜ⑨
ㅇㅝ⑨ㅋㅓ⑨
ㄷㅗᆨㅈㅐ⑨ㅈㅏ⑨
ㅇㅓ⑨ㅅㅜ⑨
ㅇㅝᆫㄷㅜ⑨
ㅂㅏ⑨ㅂㅣ⑨
ㄷㅗᆼㅁㅜᆯㅇㅝᆫ
ㄱㅚ⑨ㄹㅗ⑨ㅇㅜᆷ
ㅁㅏ⑨ㅇㅣ⑨ㅋㅡ⑨ㄹㅗ⑨
##ㄲㅔ
ㅊㅗ⑨ㅇㅝᆫ
ㅂㅏᆫㅉㅗᆨ
ㄷㅏ⑨ㅅㅓᆺㅉㅐ⑨
ㅎㅘᆼㅇㅜ⑨ㅇㅕ⑨
ㅇㅏ⑨ㅉㅣᆯ
ㅎㅏᆫㄱㅜᆨㄱㅕᆼㅈㅔ⑨
ㅇㅣᆫㅊㅓᆫㅈㅣ⑨ㅇㅕᆨ
ㄷㅗᆼㅂㅐᆨ
ㅈㅏᆨㅂㅕᆯ
ㅋㅗ⑨ㅁㅣᆨ
ㅇㅡᆼㅈㅣᆼ
##pa
ㅅㅒ⑨
ㅇㅛ⑨ㅈㅓᆼ
ㅁㅜᆫㅈㅐ⑨ㅇㅣ
ㄱㅏ⑨ㅈㅓ
ㅆㅗ⑨ㄴㅏ⑨ㅌㅏ⑨
ㅋㅏᆯㄹㅗ⑨ㄹㅣ⑨
ㄱㅜᆨㄹㅣᆸㄷㅐ⑨
ㅇㅣᆯㄱㅘ⑨
ㅈㅜᆼㅅㅓᆼ
ㅇㅕᆫㅎㅢ⑨
ㅁㅜ⑨ㄷㅗ⑨
ㅇㅢ⑨ㅈㅏᆼㄷㅏᆫ
ㅊㅗ⑨ㅅㅏᆼㅎㅘ⑨
204
ㅇㅗ⑨ㅅㅡ⑨
ㅎㅏᆨㄱㅛ⑨ㅈㅏᆼ
ㅅㅜ⑨ㄱㅣ⑨
ㅈㅗ⑨ㅅㅓᆫㅈㅗᆨ
ㄱㅚ⑨ㄹㅣ⑨
##ㅈㅔ⑨ㄷㅏᆼ
ㅈㅓᆫㄴㅏ
ㄱㅏᆼㅅㅓᆨ
ㅅㅜᆫㄱㅛ⑨
##ㅅㅏᆨㅅㅡ⑨
ㅇㅣᆫㅅㅡ⑨ㅌㅏ⑨ㄱㅡ⑨ㄹㅐᆷ
ㅎㅗᆯㄷㅣᆼㅅㅡ⑨
##ㅃㅓᆨ
##ㄱㅜᆨㅇㅓ⑨
ㄷㅓ⑨ㅁㅣ⑨
ㅎㅘ⑨ㅂㅜᆫ
ㅅㅛ⑨ㅋㅡ⑨
##ㄷㅐ⑨ㅇㅝᆫ
ㅅㅔ⑨ㅅㅔ⑨
ㄱㅓᆷㅇㅕᆨ
ㅎㅘᆼㅎㅗᆯ
ㅋㅏᆯㄹㅏ⑨
ㄷㅡᆼㅂㅏᆫ
ㄴㅗ⑨ㅈㅓᆷ
ㄴㅐᆼㅅㅗ⑨
##ㅇㅛᆼㅅㅜ⑨
##ㅇㅡᆷㄹㅛ⑨
ㄷㅏᆯㅇㅣᆫ
ㅂㅏ⑨ㄴㅏ⑨ㄴㅏ⑨
ㄸㅓᆺㄸ
ㅈㅣᆨㄱㅖ⑨
ㅅㅏᆷㅊㅓᆼ
##ㅙ⑨ㄱㅣ⑨
ㅇㅏ⑨ㅍㅏ⑨ㅌㅡ
ㅈㅏᆷㅈㅐ⑨ㅇㅜ⑨
ㅇㅕᆼㅇㅟ⑨
ㅂㅏᆨㄱㅘᆼ
ㄱㅡᆸㅅㅜ⑨
ㅁㅏ⑨ㄹㅕ
ㄱㅓᆷㅅㅐᆨㅇㅓ⑨
##ㅅㅏ⑨ㄹㅕᆼㅂㅜ⑨
##ㅂㅜ⑨ㄷㅗᆼ
ㅁㅗ⑨ㄷㅗᆨ
ㄴㅐ⑨ㄱㅘ⑨
ㅅㅔ⑨ㅈㅓᆼ
ㅂㅗᆼㄱㅣ⑨
ㄸㅓᆺㄸㅓᆺ
ㅇㅣ⑨ㅊㅔ⑨
##ㅂㅏ⑨ㅋㅟ⑨
ㅁㅗᆯㅇㅏ⑨ㄴㅓᇂ
ㄱㅗ⑨ㅁㅣᆫㅈㅓᆼ
ㄴㅡ⑨ㄹㅏ⑨ㄱㅗ⑨
ㅈㅓᆫㅅㅣ
ㅅㅔ⑨ㄱㅘᆫ
ㅂㅜᆫㅎㅏ⑨
ㄱㅗᆯㄱㅕᆨ
ㄱㅏᆯㄹㅐ⑨
ㄱㅣ⑨ㅊㅣ⑨
##ㅇㅏ⑨ㅊㅣᆷ
ㅁㅜ⑨ㅈㅣ⑨ㄱㅐ⑨
ㅇㅣ⑨ㄱㅗᆼ
ㅈㅓᆫㄹㅑᆼ
ㅈㅏᆸㅅㅡ⑨
##ㄱㅘ⑨ㅎㅏᆨㄱㅣ⑨ㅅㅜᆯ
ue
val
ㅅㅏᆷㅈㅣ⑨
ㅂㅜ⑨ㅎㅗ⑨
ㄱㅣᆯㄱㅏ⑨
ㄱㅡᆨㅊㅏᆫ
ㅇㅘᆫㅅㅓᆼㅊㅏ⑨
ㅇㅝᆫㅇㅠ⑨ㅊㅓᆯ
##ㅅㅠ
ㅈㅣ⑨ㅍㅏᆼㅇㅣ⑨
ㅇㅛ⑨ㄱㅕᆨ
ㄱㅡᆷㅅㅓᆼ
ㅊㅗ⑨ㄱㅖ⑨
ㄱㅣ⑨ㄴㅕᆷㅎㅚ⑨
##ㅈㅣ⑨ㅇㅗ⑨
ㅅㅏ⑨ㅅㅡᆯ
ㅇㅝᆫㅅㅡ⑨ㅌㅗᆸ
ㄴㅏᆷㄱㅜᆼ
ㅍㅖ⑨ㅇㅏᆷ
ㅂㅜᆰㅇㅡᆫㅅㅐᆨ
##ㅁㅏ⑨ㄴ
ㅍㅖ⑨ㅎㅏ⑨
ㅌㅏᆯㅊㅟ⑨
ㅈㅗ⑨ㅈㅣᆨㅇㅝᆫ
ㅅㅣ⑨ㅎㅓᆷㅈㅏᆼ
ㅍㅗᆯㄹㅣ⑨ㅅㅡ⑨
ㄱㅐ⑨ㅅㅗ⑨ㅅㅣᆨ
ㅇㅜᆯㅇㅡᆷㅅㅗ⑨ㄹㅣ⑨
##ㅅㅏ⑨ㅋㅣ⑨
##ㄱㅏ⑨ㄴ
ㄷㅏᆷㅇㅑᆼ
ㅁㅐᆨㅅㅡ⑨
ㅇㅕᆨㅍㅜᆼ
ㅊㅚ⑨ㄱㅗ⑨ㅇㅣᆫㅁㅣᆫ
ㅍㅓ⑨ㄸㅡ⑨ㄹㅣ⑨
ㅂㅡᆯㄹㅗᆨㅊㅔ⑨ㅇㅣᆫ
ㅅㅓ⑨ㅇㅑᆨ
ㅊㅐ⑨ㅌㅣᆼ
ㅂㅣ⑨ㄷㅜᆯㄱㅣ⑨
ㄱㅣ⑨ㅁㅛ⑨
ㅂㅗ⑨ㅈㅓᆼ
ㅁㅗ⑨ㅌㅐ⑨
ㄸㅟ⑨ㅇㅓ⑨ㄷㅏ⑨ㄴㅣ⑨
ㄴㅏ⑨ㅇㅣ⑨ㅈㅣ⑨ㄹㅣ⑨ㅇㅏ⑨
ㅇㅣ⑨ㅅㅡ⑨ㅌㅡ⑨
ㅈㅜ⑨ㅊㅣ⑨
ㅅㅣᆫㅎㅏᆨㅈㅏ⑨
ㅁㅏ⑨ㅇㅑ⑨
ㄴㅗ⑨ㅂㅔᆯㅅㅏᆼ
##ㅊㅔ⑨ㅇㅠᆨㄱㅘᆫ
ㄱㅣᆷㅍㅗ⑨ㄱㅗᆼㅎㅏᆼ
ㄱㅕᆼㅁㅕᆯ
ㄱㅗᆼㅅㅏᆼ
ㅅㅗ⑨ㅊㅗᆼ
ㅎㅗ⑨ㄴㅏᆯ
ㅅㅟᆸㅅㅏ⑨ㄹㅣ⑨
ㅎㅏ⑨ㄹㅜ⑨ㅇㅏ⑨ㅊㅣᆷ
##ㅇㅜᆺㄱㅓ⑨ㄹㅣ⑨
##ㄹㅏ⑨ㅇㅜᆷ
ㅈㅓᆼㅂㅗ⑨ㄱㅣ⑨ㄱㅘᆫ
ㅂㅔ⑨ㅌㅗ⑨
##ㄹㅔ⑨ㅇㅣ⑨ㄷㅡ⑨
##ㅍㅡ⑨ㄹㅏ⑨ㅇㅣ⑨
ㅂㅓᆸㄷㅐ⑨
##ㅅㅔ⑨ㄱㅖ⑨
ㅍㅔ⑨ㄹㅣ⑨
ㄱㅓ⑨ㅊㅣᆷㅇㅓᆹㅇㅣ⑨
ㅇㅣ⑨ㄴㅗᆷ
ㅅㅐᆼㄷㅗᆼ
ㄱㅏᆨㅎㅏ⑨
global
ㅅㅣᆫㅎㅏ
ㅊㅓᆫㅈㅏ⑨
ㅌㅐ⑨ㅎㅘ⑨
ㅃㅏ⑨ㅈㅣᆷ
ㅅㅏᆨㅂㅏᆯ
ㄴㅗ⑨ㄷㅗ
ㄹㅕ⑨ㅁㅕ
ㅊㅓᆼㅊㅜᆫㄴㅟ⑨ㅇㅜ⑨ㅅㅡ⑨
ㅌㅡᆨㄷㅏᆫ
ㅈㅜᆯㄱㅓ⑨ㄹㅣ⑨
ㅈㅐ⑨ㅂㅗ⑨ㄱㅝᆯ
ㄷㅣᆯㄹㅔ⑨ㅁㅏ⑨
ㅅㅓᆼㅈㅓᆫ
ㄱㅕᆼㅈㅔ⑨ㅈㅏ⑨ㅇㅠ⑨ㄱㅜ⑨ㅇㅕᆨ
cons
ㅌㅗ⑨ㄹㅗᆫㅎㅚ
ㄴㅐ⑨ㄱㅜᆨㅇㅣᆫ
ㅃㅏ⑨ㅈㅣᆷㅇㅓᆹㅇㅣ⑨
##ull
ㄱㅠ⑨ㅁㅗ
ㅅㅏᆫㅇㅓᆸㅊㅔ⑨
380
ㅎㅠ⑨ㄱㅏ⑨ㅊㅓᆯ
ㅇㅣ⑨ㅈㅗᆼㄱㅓᆯ
ㄱㅣ⑨ㄹㅗ⑨
173
ㅌㅣᆸ
ㅈㅣ⑨ㅍㅣ⑨
ㅅㅓ⑨ㅂㅜ⑨ㅌㅓ⑨
ㅁㅣᆫㅈㅜ
ㅊㅐᆨㅇㅣ
169
ㅂㅐ⑨ㄷㅡ⑨ㅁㅣᆫㅌㅓᆫ
ㅁㅏᆽㅂㅏᆮ
ㅅㅔᆫㅅㅡ⑨
##ㄱㅡ⑨ㅁㅓ⑨ㄴㅣ⑨
ㄱㅗᆼㄱㅗ⑨ㅎㅏ⑨
ㅇㅣ⑨ㅅㅓᆫ
ㄴㅗ⑨ㄹㅕᆼ
ㅌㅏᆫㅅㅏᆫ
ㅊㅓ⑨ㅊㅏᆷ
ㅎㅜ⑨ㅈㅏᆨ
ㄱㅜᆫㅎㅏᆷ
##use
ㅇㅔ⑨ㅁㅣᆯㄹㅣ⑨
ㅅㅜ⑨ㅇㅠ⑨
ㅇㅕᆼㄱㅜᆨㅇㅣᆫ
ㄹㅗ⑨ㅇㅣ⑨ㅌㅓ⑨
ㅇㅐ⑨ㅎㅗ⑨
ㄱㅜ⑨ㄷㅗᆼ
##ㄱㅏᆷㅈㅓᆼ
##ㅎㅏᆨㅎㅚ⑨
ㄴㅣ⑨ㅈㅡ⑨
ㅈㅐ⑨ㅂㅗ⑨ㄱㅝᆯㅅㅓᆫㄱㅓ⑨
ㅂㅏᆨㅎㅕᆫ
ㄱㅗᆼㅅㅡᆸ
ㅇㅏ⑨ㄷㅡᆨ
ㄴㅐ⑨ㅁㅜ⑨
ㅎㅡ⑨ㄴㅡ⑨
ㅇㅡᆫㅋㅓ⑨ㄴㅕᆼ
ㅂㅗᆯㄹㅠᆷ
ㄱㅘᆫㅅㅔ⑨ㅊㅓᆼ
ㄱㅏᆼㄴㅏ
ㅊㅓᆼㅈㅏ⑨
ㅅㅣᆼㅅㅣᆼ
ㄲㅡᆯㅇㅓ⑨ㅇㅗ⑨
ㄱㅗ⑨ㅇㅏ⑨
##ㄱㅓᆷㅅㅏ⑨
ㅈㅓᆫㅎㅘᆫㅈㅓᆷ
ㅇㅖ⑨ㅂㅣ⑨ㄱㅜᆫ
ㅅㅏ⑨ㅅㅐᆨ
ㅅㅜ⑨ㅅㅜ⑨ㄲㅔ⑨ㄲㅣ⑨
##ㄱㅞ⑨
ㅂㅏᆼㅅㅣᆷ
ㄸㅗ⑨ㄹㅕᆺ
ㅎㅡ⑨ㅁㅜᆺ
ㅇㅏ⑨ㄹㅣ⑨ㅇㅏ⑨
ㅅㅏ⑨ㅇㅜ⑨ㅅㅡ⑨
ㄷㅗ⑨ㅅㅓᆼ
ㅅㅣᆸㅅㅏᆼ
ㅈㅗ⑨ㅎㅕᆼㅁㅜᆯ
ㅇㅠ⑨ㄹㅏ⑨ㅅㅣ⑨ㅇㅏ⑨
ㅇㅏ⑨ㅇㅣ⑨ㅍㅐ⑨ㄷㅡ⑨
##ㅇㅔ⑨ㄴㅓ⑨ㅈㅣ⑨
ㄱㅏ⑨ㅊㅜᆯ
ㅅㅓ⑨ㄴㅡᆯ
ㄷㅏᆫㅁㅕᆫ
ㅇㅏᆯㅊㅏ⑨
ㅈㅜᆼㅈㅣᆼㄱㅖ⑨
ㅇㅝᆫㅈㅏ
ㄱㅝᆫㅇㅗ⑨
ㅈㅗᆫㅅㅡ⑨
ㅇㅏᆷㅋㅓᆺ
##por
ㅇㅣᆷㅌㅐ⑨
ㅅㅏ⑨ㄱㅛ⑨ㅇㅠᆨㅂㅣ⑨
ㄱㅘ⑨ㅇㅗ⑨
ㄱㅕᆷㅈㅣᆨ
##ㅇㅔ⑨ㅌㅡ⑨
ㅋㅔᆯ
ㅇㅢ⑨ㄱㅘ⑨
ㅂㅜᆫㅎㅗᆼ
ㄱㅡ⑨ㄴㅗᆷ
ㅌㅡᆨㅈㅓᆫ
ㅅㅏ⑨ㅅㅏᆼㄱㅏ⑨
iptv
ㅈㅚ⑨ㅊㅐᆨㄱㅏᆷ
ㅂㅔ⑨ㄹㅣ⑨
ㅎㅘᆫㅈㅓᆫ
ㄲㅐ⑨ㅁㅜᆯ
ㄴㅡ⑨ㄷㅏᆺㅇㅓᆹㅇㅣ⑨
are
##ㅊㅏ⑨ㄱㅣ⑨
ㄴㅏ⑨ㅈㅣ⑨
reserved
ㄱㅗ⑨ㅊㅏᆼ
ㅌㅜ⑨ㅈㅏ⑨ㄱㅡᆷ
ㅂㅓ⑨ㄱㅡᆷ
ㅂㅗᆼㅈㅣ⑨
ㅍㅐ⑨ㄹㅓ⑨ㄷㅣ⑨
ㅌㅡᆨㅅㅏ⑨ㄷㅏᆫ
jp
ㅂㅗᆨㅁㅕᆫ
ㅅㅓᆼㅇㅘᆫ
ㅁㅣ⑨ㄷㅓᆨ
ㅎㅘ⑨ㅇㅣ⑨
##ㅏ⑨ㅇㅜ⑨ㅌㅡ⑨
ㅌㅗᆼㅎㅐᆼㄹㅛ⑨
ㅇㅕ⑨ㅎㅗ⑨ㅇㅘ⑨
ㅅㅜ⑨ㄹㅗ⑨
ㅈㅓᆼㄹㅕᆨ
ㄴㅐ⑨ㅎㅗᆼ
ㅍㅏ⑨ㅍㅕᆫ
ㅍㅐ⑨ㅈㅓᆫ
ㄱㅜᆼㄹㅣ⑨
ㅅㅣ⑨ㄱㅣ
ㅍㅕᆫㅍㅏ⑨
##ㅍㅔ⑨ㅇㅣ
ㅅㅓ⑨ㄷㅐ⑨ㅁㅜᆫㄱㅜ⑨
ㄱㅡ⑨ㄹㅏᆼㅍㅡ⑨ㄹㅣ⑨
ㄴㅗᆼㅅㅣᆷ
##ㄴㅗ⑨ㅅㅗ⑨
ㅈㅏᆸㅇㅏ⑨ㄷㅏᆼㄱㅣ⑨
ㅈㅜᆼㅈㅓᆫ
ㅇㅏ⑨ㄹㅣ⑨ㅅㅡ⑨ㅌㅗ⑨
ㅇㅚ⑨ㅎㅏᆯ
ㅈㅓᆫㅅㅣ⑨ㅅㅣᆯ
ㅎㅡ⑨ㅌㅡ⑨ㄹㅓ⑨ㅈㅣ⑨
tec
##ㄹㅜᆼ
ㄷㅏᆼㅁㅕᆼ
ㅅㅣᆨㅇㅛᆨ
ㅁㅛ⑨ㅅㅗ⑨
ㅌㅓ⑨ㅁㅜ⑨ㄴㅣ⑨ㅇㅓᆹ
##ㅈㅏ⑨ㅂㅜ⑨
ㅁㅏ⑨ㅆㅡ⑨
ㅇㅓᆸㅊㅔ
ㅎㅘᆼㅇㅕᆼ
##ㅍㅓ⑨ㅌㅡ⑨
##ㅍㅡᆯㄹㅓ⑨
##ㅈㅏ⑨ㄹㅣ
ㅅㅜ⑨ㅅㅣᆨㅇㅓ⑨
ㅇㅔ⑨ㄷㅏ⑨ㄱㅏ⑨
##ㄱㅣ⑨ㅈㅣ⑨
ㅁㅜ⑨ㅅㅣᆫ
ㅎㅏ⑨ㅇㅣ⑨ㅌㅡ⑨
ㅃㅜ⑨ㄹㅣ⑨ㅊㅣ⑨
ㅅㅏᆯㄱㅠᆫㅈㅔ⑨
ㅁㅜᆯㄹㅓ⑨ㄱㅏ⑨
ㅂㅜᆯㅋㅙ⑨ㄱㅏᆷ
ㄱㅗ⑨ㅇㅟ⑨ㅈㅣᆨ
ㅇㅣ⑨ㅎㅖ⑨ㅎㅜᆫ
ㅂㅕᆫㅈㅡᆼㅂㅓᆸ
ㅂㅣ⑨ㄱㅓᆸ
ㄴㅏᆯㅊㅣ⑨ㄱㅣ⑨
ㄷㅗᆨㅅㅗ⑨
ㅇㅓᆯㅍㅣᆺ
##ㅂㅏ⑨ㄹㅏ⑨
ㄱㅕᆼㅅㅣᆯ
ㅁㅗᆷㅅㅏᆯ
ㅅㅏ⑨ㅇㅡᆫ
time
ㄴㅗᆯㄹㅏ⑨ㅇㅜᆷ
ㄱㅐ⑨ㅇㅣ
ㅍㅜᆼㅅㅜ⑨
ㅎㅢ⑨ㅁㅏᆼㅈㅏ⑨
ㅇㅘ⑨ㅇㅣ⑨ㅍㅏ⑨ㅇㅣ⑨
##ake
ㄱㅓ⑨ㄴㅣ⑨ㅇㅘ⑨
##ㅈㅔ⑨ㅇㅑᆨ
ㄱㅐ⑨ㅌㅏᆫ
ㄴㅐ⑨ㅂㅣ⑨ㄱㅔ⑨ㅇㅣ⑨ㅅㅕᆫ
ㅇㅏᆫㄱㅏᆫ
##ㅅㅜᇁ
ㅎㅡᆫㅋㅙ⑨
ㄱㅣᆷㅎㅕᆫㅅㅜ⑨
##ㅏᆫㅅㅡ⑨
ㅈㅔ⑨ㅇㅚ
##ㅅㅣᆷㅍㅏᆫ
ㅌㅗ⑨ㅋㅡ⑨ㅅㅛ⑨
ㅂㅜᆨㅎㅏᆫㅅㅏᆫ
ㅂㅓ⑨ㄷㅡ⑨
ㅇㅏ⑨ㅇㅜᆯ
ㅂㅐᆨㄹㅕᆼㄷㅗ⑨
ㅈㅓᆼㅇㅕᆯ
ㄱㅝᆫㅇㅡᆫㅎㅢ⑨
ㅊㅔ⑨ㅎㅓᆷㄱㅘᆫ
ㄱㅏ⑨ㅇㅗᆨ
ㅅㅜᆫㅈㅣᆨ
ㅍㅡ⑨ㄹㅏᆼㅅㅡ
ㅆㅗᆨ
ㅎㅔᆺ
ㄹㅏ⑨ㄱㅜ
ㅆㅗᆮㅇㅏ⑨ㅂ
ㅈㅣᆫㅅㅗᆯㅎㅏ⑨
ㅎㅢ⑨ㅅㅗ⑨
ㅆㅗᆮㅇㅏ⑨ㅂㅜᆺ
ㅅㅕᆫ
##ㄹㅔᆨㅅㅡ⑨
ㅅㅏ⑨ㅇㅓᆸㅈㅜ⑨
ㅍㅕᆫㅈㅣ
1956
ㅂㅜ⑨ㄱㅓᆷ
ㅅㅓ⑨ㅇㅖ⑨
ㄴㅐ⑨ㅃㅜᆷ
ㅎㅐ⑨ㅇㅣ⑨
ㅂㅜᆯㅅㅜᆫ
ㅇㅗᆨㅅㅕᆫ
ㄱㅜᆨㅈㅏ
##ㅎㅚ⑨ㄱㅖ⑨
ㅌㅡᆨㅇㅣᆷ
ㅍㅣ⑨ㅇㅏ⑨
ㅇㅖ⑨ㄱㅣ⑨
ㅅㅏᆺ
good
ㅎㅚ⑨ㄷㅏ
ㅇㅑ⑨ㄷㅡ⑨
ㄴㅏᆸㅅㅔ⑨
ㅇㅏ⑨ㄴㅏᆯ
##ㅍㅔᆨ
ㅇㅣ⑨ㅃㅏᆯ
ㄷㅡᆯㄲㅡᆶ
##ㅅㅗ⑨ㅂㅏᆼ
ㅅㅏᆫㅁㅜᆫ
ㅎㅚ⑨ㅊㅏ⑨
ㅅㅏ⑨ㄹㅖ
ㅈㅏᆼㅈㅏ⑨
ㄱㅣ⑨ㄲㅓᆺ
ㄱㅣᆷㅎㅗ⑨
##ㅇㅜᆫㅈㅓᆫ
ㅂㅏ⑨ㄱㅡ⑨
ㅈㅓ⑨ㄷㅏᆼ
##ene
##ㅌㅡᆨㄱㅜ⑨
ㅅㅏᆫㄱㅣᆯ
ㅂㅕᆯㄱㅘᆫ
ㅅㅡᆯㅍㅓ⑨
ㅅㅣᆫㅅㅔ⑨ㄱㅖ⑨ㅂㅐᆨㅎㅘ⑨ㅈㅓᆷ
ㅍㅏ⑨ㄹㅡ⑨
ㅂㅏᆯㅁㅏᆽㅊㅜ⑨
ㅎㅐᆼㅂㅗ
##ㄷㅣ⑨ㅇㅓᆫ
ㄱㅜᆯㄸㅜᆨ
ㅅㅡᆯㅍㅓ⑨ㅎㅏ⑨
ㅇㅜᆫㅇㅕ
ㅈㅓᆯㅁㅛ⑨
##ㅎㅏ⑨ㅋㅣ⑨
ㄷㅗᆯㅊㅜᆯ
ㅌㅐ⑨ㅂㅡᆯㄹㅣ
##ㅂㅣ⑨ㅇㅓ⑨
ㅈㅓᆫㅂㅜ
ㅈㅓ⑨ㅅㅡᆼ
##ㄱㅡ⑨ㄹㅡᆺ
ㅌㅡᆨㅂㅕᆯㅅㅣ⑨
ㄸㅡᆺㄱㅣᇁ
ㅊㅚ⑨ㄱㅗ⑨ㅇㅣᆫㅁㅣᆫㅎㅚ⑨ㅇㅢ⑨
ㅁㅔᆺ
ㄱㅜᆫㅈㅏ⑨
ㄴㅏᆷㅂㅏᆯ
ㅈㅜᆼㅅㅣᆷㅂㅜ⑨
ㄱㅣ⑨ㄱㅗᆼ
##ㅁㅜᆯㄱㅘ
ㅅㅜ⑨ㅅㅓᆫ
ㅅㅜ⑨ㅈㅜᆸ
##ㅅㅜ⑨ㅇㅔᆯ
ㅇㅓ⑨ㅅㅓᆯ
ㅈㅣ⑨ㅍㅖ⑨
##ㅈㅗ⑨ㄱㅓᆫ
ㄴㅗ⑨ㅌㅡ
ㅋㅗ⑨ㄹㅡ⑨
ㄲㅜ⑨ㅈㅣᆽ
##ㅇㅓᆯㄹㅣ⑨
ㅅㅣᆫㅇㅖ⑨
##ㄹㅜ⑨ㅅㅡ⑨
ㄱㅡ⑨ㅈㅣ⑨ㅇㅓᆹ
ㅅㅣ⑨ㅁㅣ
ㄱㅘᆨㅅㅏᆼ
##ㄱㅜᆨㅅㅜ⑨
ㅈㅏᆼㄴㅐ⑨
nas
ㄱㅏᆫㅈㅓᆯㅎㅏ⑨
ㅅㅏᆷㄱㅕᆸㅅㅏᆯ
ㅇㅓ⑨ㅅㅓᆯㅍㅡ⑨
ㄱㅗᆼㅈㅓ
ㄱㅕᆼㅈㅔ⑨ㅇㅣᆫ
ㅅㅡᆼㅂㅜ⑨ㅅㅜ⑨
ㅈㅣᆫㄹㅛ⑨ㅂㅣ⑨
##ㅡ⑨ㅁㅏ⑨
ㅊㅜᆼㅊㅓᆼㄷㅗ⑨
ㅉㅗᆨㅈㅣ⑨
ㅊㅐ⑨ㄴㅓᆯa
ㅇㅏᆫㄱㅏᆫㅎㅣᆷ
ㅂㅗ⑨ㅇㅡᆫ
ㅈㅓᆼㅇㅛᆼ
ㅋㅡᆯㄹㅣ⑨ㄴㅣᆨ
ㅈㅔ⑨ㅊㅓᆯㅅㅗ⑨
ㅌㅗ⑨ㅌㅡ⑨
ㅇㅜᆫㅇㅕᆼㅇㅟ⑨
ㅋㅗᆯㅅㅔᆫㅌㅓ⑨
ㄷㅐ⑨ㅎㅏᆫㅅㅏᆼㄱㅗᆼ
ㅇㅠ⑨ㅇㅕᆼ
ㄱㅡ⑨ㄹㅣᆫㅂㅔᆯㅌㅡ⑨
ㅍㅏ⑨ㅊㅜᆯㅅㅗ⑨
acc
##ㄴㅓ⑨ㄹㅣ⑨
ㅇㅣ⑨ㅊㅜᆫ
ㅅㅣ⑨ㅁㅣᆫㅇㅜᆫㄷㅗᆼ
ㅅㅔ⑨ㄷㅐ⑨ㄱㅛ⑨
##iam
ㄱㅏᆨㅈㅣᆯ
ㅇㅠᆫㄱㅣ⑨
ㅎㅣ⑨ㄷㅣᆼ
ㅇㅕᆫㅅㅔ⑨
ㅂㅏᆼㅈㅔ⑨
ㄴㅚ⑨ㅈㅗᆯㅈㅜᆼ
ㅁㅏᆫㄷㅜ⑨
ㅎㅠ⑨ㅁㅓᆫ
ㅅㅜ⑨ㅂㅐ⑨
ㅇㅣᆯㅇㅛᆼ
ㅈㅏ⑨ㅇㅣᆫ
ㅎㅕᆫㄱㅣ⑨
ㅅㅡ⑨ㅌㅔᆸ
ㅈㅜᆼㄹㅑ
ㅇㅕ⑨ㄷㅏᆫ
ㄷㅐ⑨ㅊㅏ⑨
ㅇㅕᆫㅇㅠ⑨
ㅇㅔ⑨ㅇㅣ⑨ㅈㅡ⑨
##erg
ㅅㅏ⑨ㅇㅏ
ㅎㅏᆨㅂㅓᆯ
ㅇㅛ⑨ㅁㅣ⑨ㅇㅜ⑨ㄹㅣ⑨
sf
sel
ㅊㅏᆷㅎㅗᆨ
ㄱㅣ⑨ㅎㅚᆨㄱㅘᆫ
inv
ㄴㅏᆷㅎㅐ⑨ㅇㅏᆫ
ㅂㅏ⑨ㄹㅏ
ㄴㅗ⑨ㄹㅐ⑨ㅂㅏᆼ
ㅎㅙ
ㅈㅓᆫㅇㅣ⑨
ㅅㅏᆼㅊㅜᆼ
ㄷㅗᆨㅅㅣᆨ
ㄹㅗᆺㄷㅔ⑨ㅎㅗ⑨ㅌㅔᆯ
ㅊㅓᆫㅇㅏᆫㅅㅣ⑨
ㄷㅗᆼㄱㅡ⑨ㄹㅏᇂ
##ㄷㅡᆯㄹㅣ⑨
ㅋㅜᆨ
##ㄷㅙ⑨ㅈㅣ⑨
##ㅏ⑨ㅇㅣ⑨ㅌㅡ⑨
ㄴㅗ⑨ㄹㅐ
ㅎㅏ⑨ㅅㅏᆫ
ㅂㅏᆫㅇㅕᆯ
mw
ㅊㅓᆼㅈㅜ⑨ㅅㅣ⑨
ㅇㅣ⑨ㅈㅣᆨ
ㅈㅏᆼㄷㅗᆼ
ㅈㅗ⑨ㅈㅣᆨㅂㅓᆸ
ㅌㅡ⑨ㅇㅟᆫ
manag
ㅇㅕᆫㄱㅡ
ㅅㅏᆫㅂㅜ⑨ㅇㅣᆫ
ㅇㅓ⑨ㄹㅜ⑨
ㅌㅗᆼㅊㅏᆯㄹㅕᆨ
ㅅㅣᆨㄹㅛ⑨
ㅈㅜ⑨ㅇㅛ⑨ㄱㅜᆨ
ㄱㅏ⑨ㅇㅟ⑨
ㅈㅜᆼㅇㅛᆼ
ㅌㅐ⑨ㅅㅜ⑨
ㅂㅏᆨㅂㅕᆼㅅㅓᆨ
ㄱㅗᆯㅈㅓᆯ
ㅈㅔ⑨ㄴㅣ⑨
ㅇㅠ⑨ㅅㅏ⑨ㅅㅣ⑨
ㅅㅗᆼㅇㅕᆼㅁㅜ⑨
ㄹㅗ⑨ㄹㅔᆫ
ㅅㅗ⑨ㅇㅠ⑨ㅈㅜ⑨
ㄱㅜᆯㄹㅓ⑨
ㅅㅜᆮ
ㄱㅔᆫ
ㅇㅘᆫㄱㅕᆯ
##━━━━
ㅇㅑᆨㅈㅣᆫ
ㅁㅗ⑨ㅁㅔᆫㅌㅓᆷ
##ㅆㅡᆨ
ㄱㅕᆼㅊㅣ⑨
ㅅㅏᆫㅊㅓᆼ
##ㅅㅓ⑨ㅂㅜ⑨
ㅁㅐᆼㅁㅗᆨ
ㄱㅘ⑨ㅇㅓᆸ
##ㅎㅛ⑨ㄱㅘ⑨
ㅊㅗ⑨ㅅㅣᆷ
ㅇㅣ⑨ㅅㅏᆼㅁㅣᆫ
ㅋㅗ
##ㅅㅏ⑨ㄱㅏ⑨
ㅎㅏᆫㄹㅣᆷ
ㅇㅝᆫㄷㅏᆫ
ㅂㅏᆯㄱㅏ⑨ㄹㅏᆨ
ㅇㅗ⑨ㄹㅣ⑨ㅈㅣ⑨
##ㅅㅏ⑨ㅎㅏᆼ
##cl
ㄴㅗ⑨ㅇㅕᆼㅁㅣᆫ
ㅂㅗ⑨ㅇㅠ⑨ㅅㅔ⑨
ㅂㅔ⑨ㄴㅔ⑨ㅅㅜ⑨ㅇㅔᆯ
ㅅㅓᆼㅇㅘᆫㅈㅗᆼ
##ㅇㅢ⑨ㅈㅓᆫㄷㅏᆼ
ㅇㅟ⑨ㅇㅏ
ㅅㅕ⑨ㅌㅡᆯ
ㅈㅣ⑨ㅈㅓ⑨
ㅂㅏᆺ
ㅊㅣ⑨ㅎㅏ⑨
ㅇㅣᆫㅎㅏ⑨ㄷㅐ⑨
ㄴㅣᆯ
ㅁㅐ⑨ㅎㅘ⑨
ㄱㅜᆫㅂㅣ⑨
##ㅊㅏ⑨ㅇ
ㅎㅏᆨㄱㅛ⑨ㅅㅐᆼㅎㅘᆯ
ㅈㅏᆫㅅㅗ⑨ㄹㅣ⑨
ㅈㅛ⑨
ㅇㅣ⑨ㅉㅡᆷ
ㅈㅓᆫㅅㅏ⑨ㅈㅏ⑨
ㄱㅡᆯㅆㅡ⑨ㄱㅣ⑨
ㅅㅔ⑨ㄱㅖ⑨ㅅㅏ⑨
ㅇㅓᆷㅅㅜᆨ
ㅈㅗᆯㅅㅗᆨ
ㅂㅐ⑨ㄱㅘᆫ
##ㄹㅏ⑨ㄴㅏᆷ
ㅈㅓᆫㄹㅏ⑨ㄴㅏᆷ
ㅁㅣᆫㅇㅛ⑨
ㅇㅜ⑨ㅂㅏᆼ
ㅂㅓ⑨ㅌㅓ⑨
ㅅㅏᆼㄱㅘᆫㄱㅘᆫㄱㅖ⑨
ㄴㅏᆷㅇㅑᆼㅈㅜ⑨ㅅㅣ⑨
pos
ㅅㅓᆨㄱㅏ⑨
ㄱㅗᆼㅁㅐ⑨ㄷㅗ⑨
ㅈㅏ⑨ㅅㅏ
ㅁㅜ⑨ㄹㅖ⑨
ㅁㅓᆨㅎㅣ⑨
ㅅㅣ⑨ㅎㅐᆼㅅㅏ⑨
##○○○○
ㅈㅓᆫㅈㅏᆨㄱㅝᆫ
ㅅㅏ⑨ㅎㅘᆯ
ㄱㅘᆫㅇㅕᆼ
ㅇㅚ⑨ㄱㅖ⑨
ok
ㄹㅗ⑨ㅋㅓᆯ
##ㄲㅏᆷ
ㅊㅣ⑨ㄹㅛ⑨ㅂㅣ⑨
1959
ㅇㅠ⑨ㅅㅏᆼㅈㅡᆼ
ㅇㅏ⑨ㄲㅣᆷ
ㄱㅣ⑨ㄴㅕᆷㅍㅜᆷ
##oll
ㅁㅜ⑨ㅅㅜᆯ
ㅈㅜ⑨ㅌㅐᆨㅈㅏ⑨
ㅈㅗ⑨ㅈㅓᆼㅅㅣᆯ
##oph
serv
ㅎㅐ⑨ㅇㅜᆫㄷㅐ⑨ㄱㅜ⑨
ㅅㅗ⑨ㅎㅘ⑨ㄱㅣ⑨
ㄷㅔ⑨ㅇㅣ⑨ㅌㅓ⑨ㅂㅔ⑨ㅇㅣ⑨ㅅㅡ⑨
ㅈㅐ⑨ㅈㅓᆨ
##oth
ㅈㅗ⑨ㅍㅗᆨ
ㅇㅕ⑨ㅈㅏ
ㅅㅣᆫㅂㅗᆼ
##aa
ㄷㅜ⑨ㄱㅏᆨ
ㅎㅏᆷㅇㅏᆫ
ㅅㅏ⑨ㅎㅚ⑨ㅈㅏ⑨
ㅇㅣ⑨ㅇㅘᆼ
ㄱㅡ⑨ㄹㅐ⑨ㅍㅡ⑨
ㅁㅐᆼㅂㅣ⑨
ㅅㅣᆫㅎㅗ⑨ㅌㅏᆫ
ㄱㅛ⑨ㅎㅑᆼㄱㅗᆨ
ㅂㅔ⑨ㅌㅗ⑨ㅂㅔᆫ
ㅇㅓ⑨ㅉㅓᆫㅈㅣ⑨
ㅅㅓᆫㅌㅐ
##ㅁㅜᆫㅎㅘ⑨ㅈㅐ⑨
ㅂㅜᆯㄴㅡᆼ
ㅇㅏ⑨ㅇㅣ⑨ㅍㅗ
ㅍㅏᇀ
ㅈㅜ⑨ㄱㅗᆼ
ㅅㅐᆼㅎㅘ
ㅅㅗᆺㅇㅏ⑨ㅇㅗ⑨ㄹㅡ⑨
ㄱㅜ⑨ㅇㅑᆨ
ㅇㅡ⑨ㅁㅕᆫㅅㅓ
ㄴㅐᆼㅁㅕᆫ
ㅇㅠ⑨ㄱㅕᆨㅅㅜ⑨
ㄱㅏ⑨ㅎㅣ⑨
ㅈㅓ⑨ㅁㅕᆼ
ㅈㅜᆼㅇㅏᆼㅈㅓᆼㅂㅗ⑨
ㅇㅠ⑨ㄱㅗᆯ
##ㅁㅗᆺㅎㅏ⑨
ㅂㅏᆼㅅㅗᆼㅂㅓᆸ
ㅊㅓ⑨ㄹㅣ⑨ㅈㅏᆼ
ㅇㅔᆫㅆㅣ⑨
##ㅂㅐᆨㅎㅏ⑨
ㅁㅓᆼㅎㅏ⑨ㄴㅣ⑨
ㅇㅐᆯㄹㅣ⑨ㅅㅡ⑨
market
hum
ㅅㅣ⑨ㄹㅣ⑨ㅈㅡ
##ㄹㅏᆫㄷㅏ⑨
pop
##ㄱㅓ⑨ㄹㅡᆷ
ㅇㅕᆼㅂㅕᆫ
ㅈㅣᆨㄱㅓ⑨ㄹㅐ⑨
ㅅㅣ⑨ㅌㅣ
ㄱㅗᆽ
ㅂㅏᆯㄷㅐ⑨
ㄱㅓᆫㄴㅓ⑨ㅇㅗ⑨
ㅋㅐᆷㅍㅡ
ㅅㅡ⑨ㅋㅗᆺ
ㅍㅐ⑨ㄹㅓᆯㄹㅣᆷㅍㅣᆨ
ㄱㅖ⑨ㅎㅚᆨㅇㅏᆫ
1955
##ㅈㅣ⑨ㅇㅝᆫ
ㅅㅡ⑨ㅍㅔ⑨ㅇㅣ⑨ㅅㅡ⑨
ㅇㅣ⑨ㅎㅏᆨ
ㄷㅐ⑨ㄹㅗ
##ㅅㅓᆫㅌㅐᆨ
##ㅊㅓ⑨ㄹㅣ⑨
ㅈㅔ⑨ㅈㅏ
ㅅㅗ⑨ㅇㅛᆼㄷㅗᆯㅇㅣ⑨
ㅁㅗᆨㅎㅚ⑨ㅈㅏ⑨
ㄱㅡᆷㅎㅏ⑨
ㅊㅏᆼㅂㅐᆨ
ㅁㅜᆫㅈㅣ⑨ㄹㅡ⑨
ㄴㅔ⑨ㅇㅗ⑨
ㅎㅘᆼㄱㅡᆸ
ㅁㅣᆫㄱㅏᆫㄷㅏᆫㅊㅔ⑨
ㅇㅣ⑨ㄹㅏ⑨ㄷㅡᆫㅈㅣ⑨
ㅈㅓᆨㅅㅣ⑨ㅌㅏ⑨
##ㅇㅟ⑨ㅊㅣ⑨
ㄱㅣ⑨ㅇㅑᆨ
ㅅㅏᆼㅁㅣᆫ
##ㅎㅕᆫㅊㅜᆼㅇㅝᆫ
ㅅㅡ⑨ㅌㅏ⑨ㅇㅣ
ㄷㅡᆯㅋㅣ⑨
##ㅏ⑨ㅁㅏ
ㅎㅏᆸㅊㅓᆫ
##ural
ㅅㅡ⑨ㅌㅗ⑨ㄹㅣ⑨ㅌㅔᆯ
ㄱㅣ⑨ㅇㅣ⑨
ㅈㅣ⑨ㅇㅝᆫㄷㅏᆫ
ㅈㅓ⑨ㄴㅓᆯㄹㅣ⑨ㅈㅡᆷ
ㅁㅗ⑨ㄷㅓ⑨
ㅊㅜᆯㄱㅡᆫㄱㅣᆯ
ㅆㅓᆯㅁㅐ⑨
nsc
ㅇㅠ⑨ㅁㅗ⑨
ㅁㅣᆫㄴㅗ⑨
pet
ㄱㅗᆼㅅㅐᆼ
ㅈㅓᆼㄱㅡᆯ
ㅂㅓ⑨ㄱㅡᆷㄱㅏ⑨
ㅇㅓ⑨ㄹㅚ⑨
##ㅅㅡ⑨ㅌㅔ⑨ㅇㅣ⑨
ㅁㅣ⑨ㅅㅖᆯ
ㄱㅣᆷㅎㅐ⑨ㄱㅗᆼㅎㅏᆼ
##ㅅㅏᆫㄷㅗᆼ
##ㄹㅐᆫㄷㅡ
##vd
ㅇㅣ⑨ㅅㅗ⑨
ㄱㅗ⑨ㅇㅏᆸ
ㅇㅕᆫㄹㅖ⑨
ㅎㅚ⑨ㅇㅝᆫㅅㅏ⑨
ㅇㅏᆼㅅㅏᆼ
ㅅㅏᆼㅊㅔ⑨
ㅎㅜ⑨ㅂㅏᆯ
ㄷㅟ⑨ㄷㅗᆯ
ㄱㅐ⑨ㅂㅏᆯㄷㅗ⑨
ㅁㅐᆼㅂㅣ⑨ㄴㅏᆫ
##ㄷㅣᆷ
ㅅㅏ⑨ㅂㅕᆼ
ㄱㅏᆷㄷㅗᆯ
ㅎㅗ⑨ㅊㅜᆯ
ㅅㅏ⑨ㄱㅣ
ㅋㅗᆫㄷㅗ⑨
ㄴㅑ⑨ㄱㅗ
ㅋㅡᆯㄹㅔ⑨ㅇㅣ⑨
##ㅌㅟ⑨
ㅌㅜ⑨ㅂㅕᆼ
##ㅌㅐ⑨ㅇㅕᆼ
ㅈㅐ⑨ㅅㅏᆼ
sub
ㅇㅐᆷ
ㅅㅏ⑨ㅈㅓ
ㅅㅡᆼㄴㅏᆨ
##ㅇㅏ⑨ㅇㅓ⑨
ㅇㅗ⑨ㄷㅡ⑨ㄹㅣ⑨
##ㄱㅓ⑨ㅅㅡ⑨
ㅂㅜᆯㅇㅓ⑨ㅇㅗ⑨
ㅎㅗ⑨ㅌㅜ⑨
ㄱㅜᆨㅈㅔ⑨ㅌㅗᆼ
aut
hist
ㄹㅣ⑨ㅅㅡ⑨ㅌㅡ
ㄱㅏᆷㅅㅗ⑨ㅅㅔ⑨
ㅍㅏ⑨ㄹㅏᆫㅅㅐᆨ
ㅇㅏ⑨ㄴㅏᆯㄹㅗ⑨ㄱㅡ⑨
il
ㄴㅗ⑨ㄹㅕᆫ
ㅁㅐᆼㅈㅏ⑨
ㅅㅡ⑨ㅌㅓ⑨
ㅇㅜᆯㅂㅜ⑨
eng
cap
ㅅㅑᆼ
ㅇㅚ⑨ㅈㅜ⑨
ㄱㅜᆨㅈㅔ⑨ㅌㅗᆼㅎㅘ⑨ㄱㅣ⑨
ㄱㅏᆨㄱㅡᆸ
ㅎㅢ⑨ㅂㅏᆨㅎㅏ⑨
dg
ㅊㅓᆼㅅㅏ
1954
ㅉㅗᆾㅇㅏ⑨ㄴㅐ⑨
ㅍㅏ⑨ㅁㅜᆮ
ㅇㅕᆫㄲㅗᆾ
ㅈㅓᆫㄹㅏ⑨ㄴㅏᆷㄷㅗ⑨
ㅇㅣ⑨ㅂㅡ⑨
ㄱㅗ⑨ㅇㅛ
ㅍㅗ⑨ㄷㅐ⑨
##ㄹㅣᆸㄷㅐ⑨
##ㄹㅜ⑨ㅅㅜ⑨
ㅋㅐᆸㅊㅓ⑨
ㅅㅏ⑨ㅈㅓᆯㄷㅏᆫ
ㄷㅣ⑨ㅈㅓ⑨
##tio
ㄱㅓ⑨ㄹㅐ⑨ㅊㅓ⑨
ㅇㅠᆫㄹㅣ⑨ㅇㅟ⑨
ㅋㅐ⑨ㅍㅣ⑨ㅌㅓᆯ
ㅇㅠ⑨ㅅㅏᆼㅈㅡᆼㅈㅏ⑨
ㅇㅔ⑨ㅌㅣ⑨ㅇㅗ⑨
ㅎㅏ⑨ㄱㅡᆸ
ㄱㅛ⑨ㅁㅜᆫ
ㅂㅏᆨㅊㅓᆯ
ㅁㅏᆼㅅㅣᆫ
##ㄹㅏ⑨ㅇㅣ
ㅂㅏᆨㅅㅜ⑨ㅎㅕᆫ
##ㅍㅖ
ㄱㅜᆨㅈㅔ⑨ㄱㅗᆼㅎㅏᆼ
ㅅㅗᆼㅇㅝᆫ
ㅇㅜᆯㅂㅜ⑨ㅈㅣᆽ
ㅎㅓ
ㄱㅡ⑨ㅂㅜᆫ
ㅅㅔ⑨ㅇㅣᆫ
ㅇㅕᆼㅇㅓᆸㅈㅓᆷ
ㅅㅐᆷㅍㅡᆯ
skㅇㅣ⑨
ㄲㅗᆾㅇㅣᇁ
ㄱㅕᆼㅈㅜ⑨ㅅㅣ⑨
ㄱㅜᆨㅈㅔ⑨ㅅㅓᆫ
ㄸㅟ⑨ㅊㅕ⑨
ㅅㅣᆯㅎㅓᆷㅈㅏᆼ
ㅌㅟ⑨ㄱㅣ⑨
bas
##ㄱㅐ⑨ㅇㅝᆯ
##ina
ㅇㅏ⑨ㄹㅣ⑨ㅅㅡ⑨ㅌㅗ⑨ㅌㅔᆯㄹㅔ⑨
##ㄷㅗᆷ
dec
ㅁㅜᆯㄷㅗᆼ
##ㄸㅏ⑨ㄹㅣ⑨
ㄱㅐ⑨ㅂㅏᆯㄷㅗ⑨ㅅㅏᆼㄱㅜᆨ
kw
ㄷㅗᆼㅁㅜ⑨
gu
ㅇㅕ⑨ㅉㅜ⑨
ㅇㅓ⑨ㄹㅜ⑨ㅁㅏᆫㅈㅣ⑨
ㅅㅣᆫㅇㅑᆨ
ㅇㅑᆨㅎㅗᆫ
ㅅㅗᆼㅈㅓᆫㅌㅏᆸ
ㅋㅓ⑨ㅁㅓ⑨ㅅㅡ⑨
ㅅㅣ⑨ㅋㅡ⑨
ㅈㅓᆫㅇㅓᆸ
ㅍㅣ⑨ㅅㅏᆯ
ㅅㅜ⑨ㄱㅜ⑨
ㅅㅏᆼㅊㅜ⑨
ㅇㅛ⑨ㄱㅏ⑨
ㅈㅓᆼㅅㅜ⑨ㅈㅏᆼ
ㅅㅜ⑨ㅅㅜ
##ㅁㅜ⑨ㄴㅢ⑨
ㅁㅗᆨㄷㅗᆫ
ㄷㅡ⑨ㄹㅐ⑨ㅍㅡ⑨ㅌㅡ⑨
ㄱㅗ⑨ㅎㅏ⑨
ㅇㅓᆼㅌㅓ⑨ㄹㅣ⑨
ㄱㅗᆷㅍㅏᆼㅇㅣ⑨
ㄱㅜᆨㅈㅣ⑨
ㅇㅘᆼㅅㅔ⑨ㅈㅏ⑨
ㅂㅏᆨㄹㅏᆷㅎㅚ
##ㅇㅕ⑨ㄹㅡᆷ
ㅎㅚ⑨ㅅㅏ⑨ㅇㅝᆫ
ㅇㅛ⑨ㅈㅡ⑨ㅇㅡᆷ
ㄴㅠ⑨ㅅㅣ⑨ㅅㅡ⑨
ㅂㅓ⑨ㄱㅡ⑨
ㅌㅔ⑨ㄹㅏ⑨ㅅㅡ⑨
ㅅㅗ⑨ㅈㅜᆼㅎㅣ⑨
ㅅㅗᆺㄱㅜ⑨ㅊㅣ⑨
ㅇㅣᆯㄹㅔᆨ
ㅈㅓᆫㅈㅏ
ㅈㅓᆫㅁㅜᆫㄷㅐ⑨
ㅎㅓᆫㅈㅏᆼ
##21
ㅇㅣᆯㄱㅓ⑨
ㄱㅏᆷㄴㅐ⑨
ㅌㅜ⑨ㅅㅏ⑨
ㅎㅜᆫㄹㅕᆫㅈㅏᆼ
ㅉㅜ⑨
ㅈㅔ⑨ㅂㅣ⑨
ㅂㅏᆼㄱㅗᆼ
ㅍㅏ⑨ㅁㅕᆯ
ㅎㅘ⑨ㅇㅑᆨ
ㅆㅙ⑨ㄱㅣ⑨
ㅎㅓ⑨ㅇㅕᆼ
ㅁㅜᆨㅈㅣᆨ
##ㅂㅗ⑨ㄱㅣ⑨
ㅇㅗᆯㄷㅡ⑨
ㄱㅘᆼㄱㅣ⑨
ㅅㅗ⑨ㄹㅡᆷ
ㄱㅗᆯㅁㅜᆫ
phil
ㅌㅡᆨㄱㅏ⑨
ㄷㅗᆯㅈㅣᆫ
cgv
ㄹㅣ⑨ㅌㅠᆷ
##ㅇㅣᆨㅅㅡ⑨ㅍㅣ⑨
ㅋㅡᆯㄹㅔᆫ
ter
ㅂㅏ⑨ㄱㅜ⑨ㄴㅣ⑨
ㅂㅔ⑨ㅌㅣᆼ
ㅌㅐᆯㄹㅓᆫㅌㅡ⑨
ㅂㅏᆼㅊㅓᆼ
ㅍㅣ⑨ㅂㅗ⑨ㅎㅓᆷ
ㅊㅓᆺㄱㅓᆯㅇㅡᆷ
ㅌㅔ⑨ㄷㅜ⑨ㄹㅣ⑨
ㅂㅜ⑨ㄹㅡ⑨ㅈㅜ⑨ㅇㅏ⑨
ㄴㅏᆷㄱㅡᆨ
ㅌㅐ⑨ㅅㅐᆼ
ㅇㅠᆫㅁㅣ⑨
ㄱㅜᆨㅁㅜ⑨ㅊㅗᆼㄹㅣ⑨ㅅㅣᆯ
ㅋㅘ⑨
ㅎㅜ⑨ㅁㅕᆫ
ㄱㅕᆯㅂㅜ⑨
##ㅅㅡᆰ
ㅌㅖᆫ
ㅇㅠ⑨ㅊㅏᆼ
ㄱㅣᆷㅊㅓᆯ
ㅊㅓᆼㄱㅕᆯ
ㅁㅜᆯㅅㅐᆨ
ㅇㅓᆨㄴㅜ⑨ㄹㅡ⑨
##ink
ㅌㅗᆼㅅㅣᆫㅂㅜ⑨
ㄷㅡᆨㅈㅓ
ㄹㅓ⑨ㅅㅣ⑨ㅇㅏ
ㄴㅓᆷㄱㅕ⑨ㅂㅏᆮ
ㅈㅜ⑨ㅅㅣ
ㅅㅏᆼㅂㅕᆼ
ㅎㅗᆫㅅㅣᆫ
pre
ㅇㅕ⑨ㅅㅣᆯㅎㅣ⑨
ㅋㅗᆯㄹㅗ⑨
ㅁㅏ⑨ㅁㅏ⑨
##ㅗᆯㄹㅔ⑨
ㅈㅏᆨㅇㅓᆸㅈㅏᆼ
ㅅㅠ⑨ㅈㅡ⑨
ㅎㅠᆼㅌㅓ⑨
ㅎㅗ⑨ㅈㅓᆷ
##ㄲㅓ⑨ㅍㅜᆯ
ㅂㅜᆯㄹㅓ⑨ㄴㅐ⑨
ㅈㅣ⑨ㄹㅡᆷㄱㅣᆯ
ㅅㅗ⑨ㅎㅚ⑨
ㅇㅑᆼㅎㅕᆼ
ㅇㅗ⑨ㅅㅜ⑨
ㄷㅔ⑨ㅇㅣ
ㅋㅗ⑨ㅋㅏ⑨
class
ㅎㅣ⑨ㄷㅣᆼㅋㅡ⑨
ㄱㅜ⑨ㅌㅏ⑨
ㄹㅏᆸㄴㅣ⑨ㄷㅏ
ㅈㅓᆫㄱㅝᆫ
ㅌㅡᆨㅈㅓᆼㅇㅣᆫ
ㅍㅕᆷㅎㅏ⑨
##ㅈㅣᆫㄱㅏᆼ
ㅎㅕᆸㅎㅚ⑨ㅈㅏᆼ
ㅊㅗᆼㄹㅕᆨㅈㅓᆫ
ㅇㅘᆫㄷㅗ⑨
ㅇㅘᆼㄱㅝᆫ
ㅈㅔ⑨ㅇㅏᆫㅅㅓ⑨
ㅍㅖ⑨ㅎㅓ⑨
ㅇㅜᆷㅊ
ㅊㅣᆼㅅㅗᆼ
ㅅㅐᆯㄹㅓ⑨ㄷㅡ⑨
ㅅㅗ⑨ㅅㅐᆼ
ㄱㅣ⑨ㅈㅓᆼㅅㅏ⑨
ㅇㅣᆷㅈㅐ⑨
ㅋㅓ⑨ㄴㅔᆨ
ㄱㅣ⑨ㄴㅕᆷㅂㅣ⑨
ㅂㅜᆰㅎㅣ⑨
ㅂㅜᆯㅇㅜ⑨
ㅇㅣ⑨ㄱㅘᆼㅈㅐ⑨
ㄹㅕ⑨ㄴㅣ⑨
ㅇㅣ⑨ㅅㅓᆼㄱㅖ⑨
ㄹㅣ⑨ㅌㅡᆯ
ㅎㅠ⑨ㅈㅣ⑨
##str
ㅇㅚᆫㅂㅏᆯ
ㄲㅐ⑨ㅇㅜ⑨ㅊㅣ⑨
ㄱㅐ⑨ㅊㅓᆫ
ㅁㅔ⑨ㅌㅏᆯ
ㅋㅗᆫㅍㅓ⑨ㄹㅓᆫㅅㅡ⑨
ㅇㅗ⑨ㅅㅡ⑨ㅌ
ㄷㅏᆫㄱㅘ⑨
ㄱㅏᆫㄷㅏᆷ
ㅈㅜᆼㅇㅏᆼㅇㅏ⑨ㅅㅣ⑨ㅇㅏ⑨
ㅂㅗ⑨ㅎㅓᆷㅇㅓᆸ
ㅈㅚ⑨ㅅㅜ⑨
ㅂㅐᆺㅅㅗᆨ
ㅂㅐᆼㅋㅣᆼ
##ㅎㅠᆼ
ㅇㅣ⑨ㄴㅣ⑨
ㅊㅔ⑨ㅂㅜᆯ
ㅇㅗ⑨ㄹㅡᆫㅂㅏᆯ
ㅂㅘ⑨
ㅎㅏᆫㅁㅏ⑨ㅇㅡᆷ
ㄱㅐ⑨ㅇㅛ⑨
ㅇㅓ⑨ㄷㅏ⑨ㄱㅏ⑨
##ㄱㅘ⑨ㅈㅓᆷ
ㅇㅕᇁㄱㅜ⑨ㄹㅣ⑨
ㄱㅣᆷㄱㅘᆼㅎㅕᆫ
nor
ㅅㅣ⑨ㄷㅏᆼ
ㄷㅏᆫㅈㅗ⑨
ㅎㅣ⑨ㅁㅏᆯ
ㅈㅣ⑨ㄱㅓᆷㅈㅏᆼ
ㅇㅡᆫㅅㅏ⑨
ㅇㅣ⑨ㄹㅐᆫㄷㅡ⑨
ㅍㅕᆼㅇㅝᆫ
ㅎㅡᆷㅈㅣᆸ
ㅂㅔ⑨ㄴㅔ⑨ㅅㅜ⑨ㅇㅔᆯㄹㅏ⑨
ㄱㅖ⑨ㅇㅑ
ㄷㅏᆫㅊㅡᆼ
ㅍㅏᆫㅁㅕᆼ
ㅈㅣ⑨ㅈㅜ⑨ㅅㅏ⑨
ㄱㅡ⑨ㅁㅜᆯ
ㄹㅣᆼㅋㅓᆫ
ㅇㅣ⑨ㄷㅗᆼㄱㅜᆨ
##ㄸㅡᆮ
ㅅㅏ⑨ㅈㅣ⑨
ㅇㅏ⑨ㄹㅔ⑨
ㅅㅜᆫㅌㅏᆫ
##ㅆㅏᆼ
ㅁㅜ⑨ㅅㅗᆨ
##ㅈㅜᆫㅂㅣ⑨
ㅅㅓᆸㅇㅚ⑨
ㅁㅔ⑨ㄹㅡ⑨ㅅㅔ⑨
ㅅㅓᆯㅊㅣ
##out
ste
ㅂㅗ⑨ㄸㅏ⑨ㄹㅣ⑨
ㅅㅗ⑨ㅅㅏᆼ
ㅇㅣᆸㅎㅏᆼ
ㄱㅔ⑨ㅇㅡᆯㄹㅣ⑨
ㅁㅣ⑨ㄹㅡᆨ
ㅅㅏ⑨ㄹㅏ⑨
ㅎㅐ⑨ㅂㅜ⑨
ㅅㅗ⑨ㅈㅓᆼ
ㄱㅜ⑨ㄱㅣ⑨
##iness
ㄱㅏᆯㄷㅐ⑨
ㄹㅔᆫㅌㅓ⑨
ㅅㅓ⑨ㅂㅕᆼㅅㅜ⑨
ㄱㅣ⑨ㅈㅓᆼㅅㅏ⑨ㅅㅣᆯ
ㄸㅏ⑨ㄱ
ㅂㅏᆨㅅㅓᆫ
ㅁㅗᆷㅅㅗ⑨
ㅁㅜᆨㅇㅣᆫ
ㅅㅏ⑨ㅎㅡᆯㄱㅏᆫ
tw
ㅂㅏᆯㅈㅏᆨ
ㄷㅜ⑨ㄱㅡᆫ
ㅈㅔ⑨ㅈㅏᆨㅈㅏ⑨
ㅂㅕᆫㅎㅏᆷㅇㅓᆹ
##ㅈㅣ⑨ㅎㅟ⑨
##ㅈㅣᆫㅎㅏ⑨
ㅊㅜᆯㅌㅗ⑨
ㅇㅕᆨㅅㅏ⑨ㄱㅘᆫ
225
ㅎㅣ⑨ㅁㅏᆯㄹㅏ⑨ㅇ
##ㅁㅣᆨㅅㅡ⑨
ㅊㅗᆼㅇㅏᆯ
ㅇㅠ⑨ㄱㅏ
ㅅㅔ⑨ㅈㅗᆼㄷㅐ⑨
ㅈㅣᆯㅇㅢ⑨ㅇㅡᆼ
ㄴㅐ⑨ㄷㅓᆫㅈㅣ⑨
ㅁㅜᆫㄹㅏᆫ
ㅈㅣ⑨ㅁㅏᆼ
ㅅㅗ⑨ㄱㅕᆫ
ㄹㅔᆨㅅㅓ⑨ㅅㅡ⑨
ㅈㅣᆫㄱㅕᆨ
ㅂㅏᆷㅎㅏ⑨ㄴㅡᆯ
ㅇㅠᆯㄱㅗᆨ
ㅍㅜ⑨ㅈㅣᆷ
##ㅅㅏᆼㅍㅜᆷ
ㅅㅣ⑨ㅊㅏ⑨
ㅇㅡ⑨ㄹㅏ
ㄱㅕᆯㅈㅓᆷ
ㅎㅠ⑨ㅈㅓᆫ
ㅅㅡᆯㄱㅣ⑨
ㅇㅢ⑨ㅇㅘᆼㅅㅣ⑨
ㄱㅣᆷㅇㅕᆼㄹㅏᆫㅂㅓᆸ
ㄴㅏᆷㄴㅕ⑨ㄴㅗ⑨ㅅㅗ⑨
ㅎㅏ⑨ㅅㅜᆫ
ㅁㅜ⑨ㅂㅏᆼ
ㅈㅡᆨㅎㅡᆼ
##ㅁㅛ⑨ㅈㅣ⑨
ㄷㅜ
ㅇㅐ⑨ㅇㅘᆫ
ㅊㅜᆯㅇㅣᆸㄱㅜᆨ
ㅂㅜ⑨ㄲㅡ⑨ㄹㅓ⑨ㅇㅜᆷ
##ㅉㅡ⑨
ㅈㅜᆼㄱㅓ⑨ㄹㅣ⑨
##ㅂㅡᆯㄹㅗ⑨
ㅈㅗ⑨ㄱㅡ⑨ㅁㅏ⑨
ㅅㅏ⑨ㄱㅖ⑨ㅈㅓᆯ
##ㅁㅕ⑨ㅅㅣ⑨
ㄱㅜᆨㅎㅚ
ㄱㅘᆼㅎㅐ⑨ㄱㅜᆫ
ㅎㅏ⑨ㅇㅣ⑨ㄴㅣᆨㅅㅡ⑨
ㅊㅣᆫㅇㅣᆯㅍㅏ⑨
##ven
ㅈㅜ⑨ㅈㅓᆷ
ㅅㅓᆫㄹㅑᆼ
ㅌㅡᆨㅇㅑᆨ
ㅂㅜᆫㅈㅏᆼ
ㄲㅡᆯㅇㅓ⑨ㄷㅏᆼㄱㅣ⑨
cjㅈㅔ⑨ㅇㅣᆯ
ㅈㅓᆫㅅㅓ
ㅇㅏ⑨ㅃㅏ
ㅈㅣᆫㄱㅡᆸ
ㄹㅏ⑨ㄷㅡᆫㅈㅣ⑨
ㅇㅣᆸㄱㅣᆷ
ㅅㅜᆫㅇㅡᆼ
ㅅㅣᆫㄱㅗ⑨ㅈㅏ⑨
ㅇㅕᆫㅍㅣᆯ
ㅅㅣ⑨ㄷㅐ⑨ㅈㅓᆼㅅㅣᆫ
ㄲㅣ⑨ㅇㅓ
ㄷㅚ⑨ㄹㅔ⑨
ㅁㅏᆫㄴㅡᆼ
ㅁㅗ⑨ㄱㅗᆼ
ㅅㅡᆼㅅㅓᆫ
ㄷㅏ⑨ㄹㅡᆷ
ㅅㅔ⑨ㅇㅣᆫㅌㅡ⑨
ㄷㅏ⑨ㅂㅏᆯ
ㅅㅣᆨㅅㅐᆼㅎㅘᆯ
ㅇㅕᆼㅎㅘ⑨ㅇㅣᆫ
ㅇㅣᆯㅂㅏᆫㄱㅗ⑨
ㄱㅕᆼㄱㅖ⑨ㅅㅓᆫ
##ㅍㅏ⑨ㅇㅣ⑨ㅇㅓ⑨
##ㅋㅜᆯ
ㅇㅗ⑨ㅈㅜᆷ
ㄱㅕᆨㅎㅘ⑨
##ㄴㅗᆼㅎㅕᆸ
##ㄹㅐᆫ
ㅈㅣ⑨ㅇㅝᆫㅊㅓᆼ
ㅂㅐᆨㅅㅐᆨ
ㅎㅕᆫㅈㅣ⑨ㅇㅣᆫ
031
ㄲㅣ⑨ㅇㅓᆬ
ㅍㅓᆨ
ㅁㅕᆫㅈㅓ
ㅈㅏ⑨ㅅㅓᆼ
ㅂㅓᆸㅇㅏ
ㅊㅞ⑨ㅈㅏᆼ
ㅂㅜ⑨ㅇㅝᆫㅈㅏᆼ
ㄱㅕᆼㄱㅓᆫ
ㅇㅏ⑨ㄹㅡᆷㄷ
##ㄱㅖ⑨ㄹㅣ⑨
##ㅇㅜ⑨ㅂㅕᆼ
ㅇㅣ⑨ㅂㅏᆯ
ㅎㅕᆸㄹㅕ
ㅅㅣᆫㄴㅏ⑨
##ㅁㅏ⑨ㅌㅡ
ㄸㅏᆨㅎㅣ⑨
ㅅㅡ⑨ㅋㅓ⑨ㅌㅡ⑨
ㅊㅏᆼㅅㅣ⑨
ㅁㅗ⑨ㅇㅡᆷ
ㅂㅏᆯㅎㅘ⑨
ㅎㅘ⑨ㅁㅜᆯㅊㅏ⑨
ㅇㅣ⑨ㅇㅓᆫㅈㅜ⑨
ㄴㅐᆷㅂㅣ⑨
ㅁㅓ
ㅇㅣ⑨ㅁㅜᆫ
ㄱㅕᆼㄱㅏᆨ
ㄱㅡᆷㅈㅓᆼ
##ㅈㅠ⑨
##ㅇㅑᇂ
ㅍㅗ⑨ㅁ
ㅇㅘᆫㅊㅣ⑨
ㅇㅣᆫㅍㅡᆯㄹㅜ⑨ㅇㅔᆫㅈㅏ⑨
ㅈㅣ⑨ㅋㅣᆷㅇㅣ⑨
ㅅㅣ⑨ㅊㅓ
ㅅㅗ⑨ㅅㅣ⑨
ㄱㅕ⑨ㄴㅜ⑨
ㄱㅘᆼㅁㅕᆼㅅㅣ⑨
ㅂㅏᆨㅎㅕᆼㅈㅜᆫ
ㅁㅜ⑨ㅅㅣᆨ
ㄷㅏᆫㅅㅏᆼ
##ㄱㅛ⑨ㄷㅗᆼ
ㅈㅣ⑨ㅅㅓᆫ
ㅅㅏ⑨ㅅㅏᆼㅈㅏ⑨
##ㅌㅗ⑨ㅌㅗ⑨
ㅈㅓᆨㄹㅣᆸㅅㅣᆨ
ㅅㅜ⑨ㅂㅕᆫ
ㄱㅛ⑨ㅈㅓᆫ
ㅂㅏᆨㅈㅏ⑨
ㅂㅣ⑨ㅎㅐᆼㅈㅏᆼ
ㅈㅔ⑨ㄴㅔ⑨ㅅㅣ⑨ㅅㅡ⑨
ㅇㅣ⑨ㅂㅜᆫ
ㅇㅣᆯㅅㅗᆫ
ㅎㅏᆷㄹㅏᆨ
ㅅㅜᆨㅊㅓᆼ
ㅈㅔ⑨ㄱㅏᆯㄹㅑᆼ
ㅅㅜ⑨ㄱㅐ⑨ㅇㅝᆯ
ㄷㅗᆼㅅㅣᆨ
ㅁㅜ⑨ㅅㅐᆨ
ㄱㅣᆷㅍㅗ⑨ㅅㅣ⑨
ㅅㅡ⑨ㅌㅡ⑨ㄹㅣ⑨ㅌㅡ⑨
ㄷㅐ⑨ㅎㅏᆫㅅㅏᆼㄱㅗᆼㅎㅚ⑨ㅇㅢ⑨ㅅㅗ⑨
ㅇㅣ⑨ㄲ
ㅁㅜ⑨ㅅㅗ⑨
ㄱㅜᆨㅂㅏᆼㅇㅟ⑨
ㅇㅑᆨㅊㅗ⑨
ㅅㅓᆼㅎㅕᆼㅇㅚ⑨ㄱㅘ⑨
##ㅎㅗᆷㅅㅛ⑨ㅍㅣᆼ
ㄷㅐ⑨ㄷㅡᆼ
ㅊㅏ⑨ㅊㅜᆯ
ㅁㅗᆨㅇㅛᆨㅌㅏᆼ
ㄹㅔᆺ
ㅎㅕᆼㄹㅑᆼ
ㅁㅏ⑨ㅋㅔ⑨ㅌㅣ
ㅇㅏ⑨ㅇㅣ⑨ㅅㅡ⑨ㅎㅏ⑨ㅋㅣ⑨
##25
ㄷㅐ⑨ㅇㅣᆯ
ㅅㅓ⑨ㄹㅏᆸ
ㅎㅏᆫㅅㅏᆫ
ㄹㅏ⑨ㅇㅣ⑨ㅇㅓᆫ
content
ㅈㅣᆯㅇㅢ⑨ㅇㅡᆼㄷㅏᆸ
ㅈㅗ⑨ㄱㅓ
ㄱㅘᆫㅇㅜ⑨
ㄱㅓᆫㅊㅜ
ㄱㅏᆨㅂㅕᆯㅎㅣ⑨
ㅎㅐᆼㅅㅔ⑨
ㅍㅜᆼㅁㅣ⑨
ㅈㅓᆫㄹㅣᆸㅅㅓᆫ
ㅇㅕᆫㅇㅕᆫ
ㄷㅣ⑨ㅈㅓ⑨ㅌㅡ⑨
ㅇㅖ⑨ㅅㅏ⑨
##ㄱㅐ⑨ㅊㅣ⑨
ㅁㅣᇀㄱㅓ⑨ㄹㅡᆷ
ㅍㅣ⑨ㄹㅏ⑨ㅁㅣ⑨ㄷㅡ⑨
ㄸㅏ⑨ㅇㅗ⑨
ㅇㅕᆼㄱㅕᆯ
ㅅㅜ⑨ㅅㅣᆸㅁㅏᆫ
ㅅㅏᆫㄹㅣᆷㅊㅓᆼ
ㅇㅜ⑨ㅊㅡᆨ
ㄱㅚ⑨ㄹㅗ⑨
ㅌㅔ⑨ㅋㅡ⑨ㄴㅗᆯㄹㅗ⑨ㅈㅣ⑨
ㅎㅡᆫㅋㅙ⑨ㅎㅣ⑨
ㅈㅔ⑨3
##ㅇㅠ⑨ㅇㅓᆸ
ㄷㅔ⑨ㅅㅡ⑨ㅋㅡ⑨
##ale
ㅂㅕᆼㅇㅝᆫㅈㅏᆼ
ㅈㅐᆼㅊㅟ⑨
techn
##ㅌㅐ⑨ㅅㅓᆸ
ㅎㅓ⑨ㅈㅓᆼ
ㅈㅗᆫㄹㅣᆸ
ㅊㅏᆷㅁㅗ⑨ㅈㅣᆫ
##ㄷㅐ⑨ㅈㅏᆼ
ㅅㅜ⑨ㅈㅏᆨ
ㅇㅣ⑨ㄲㅡᆯㄹㅣ⑨
ㅅㅓᆼㄹㅣ⑨ㅎㅏᆨ
1952
##pga
ㄱㅐ⑨ㅎㅏᆼ
ㄱㅜ⑨ㅅㅓ
ㅅㅡ⑨ㄴ
ㅈㅓᆫㅇㅛᆼㄱㅣ⑨
ㅂㅗᆷㅊㅓᆯ
ㅅㅓᆫㅎㅜ⑨ㅂㅐ⑨
ㄱㅣᆷㅅㅏᆼㄱㅗᆫ
ㅂㅐ⑨ㄱㅗ⑨ㅍㅡ⑨
ㅂㅗᆨㅅㅜᆼㅇㅏ⑨
ㄱㅕᆼㅅㅣ⑨
##ㄷㅣ⑨ㄷㅣ⑨
ㅋㅏ⑨ㄷㅣ⑨
ㄱㅕᆨㅍㅏ⑨
ㅈㅓᆫㅌㅗᆼㅁㅜᆫㅎㅘ⑨
ㅅㅡ⑨ㅇㅟ⑨ㅊㅣ⑨
ㅊㅗᆼㄱㅏᆨ
ㅇㅏᆫㅌㅏ⑨ㄲ
ㅆㅏᆫ
ㅇㅣ⑨ㅌㅗᆼㅅㅏ⑨
##ㅇㅣᆨㅅㅡ⑨ㅍㅣ⑨ㅇㅓ⑨
##ㄱㅜ⑨ㄹㅡᆷ
ㅇㅕᆫㅁㅣᆫ
ㅋㅗ⑨ㅇㅓ⑨
ㅇㅏ⑨ㄹㅣ⑨ㅅㅡ⑨ㅌㅗ⑨ㅌㅔᆯㄹㅔ⑨ㅅㅡ⑨
##ㅇㅓ⑨ㅂㅓᆸ
ㅎㅏ⑨ㅍㅡ⑨
ㅌㅗ⑨ㄹㅗ
ㅅㅗ⑨ㅂㅣ⑨ㄹㅑᆼ
ㅇㅖ⑨ㅂㅣ⑨ㅇㅕᆨ
ㅅㅗ⑨ㅋㅡ⑨ㄹㅏ⑨ㅌㅔ⑨ㅅㅡ⑨
ㅍㅖ⑨ㄹㅕᆷ
ㅅㅏᆼㅅㅗᆨㅅㅔ⑨
ㅂㅔ⑨ㄴㅔ⑨ㅊㅣ⑨ㅇㅏ⑨
ㅎㅘᆼㄱㅡᆸㅎㅣ⑨
##ㄴㅏ⑨ㄱ
ㄷㅗᆼㄱㅜᆨ
ㅂㅜᆯㄹㅠᆫ
ㅂㅏ⑨ㅌㅣ⑨
ㄱㅡᆨㅅㅗ⑨
ㅂㅗᆼㅇㅜ⑨ㄹㅣ⑨
ㄱㅣᆷㅎㅖ⑨ㄱㅕᆼ
ㅇㅣᆯㅁㅗᆯ
ㅅㅣᆷㄹㅣ⑨ㅈㅓᆫ
ㅍㅡᆯㄹㅐ⑨ㅅㅣ⑨
ㄲㅏᆨ
ㅇㅓ⑨ㅈㅣᆯ
ㅇㅣᆷㅊㅏᆼ
ㄱㅣ⑨ㅇㅓᆨㄹㅕᆨ
##ㅇㅗ⑨ㄴㅡᆯ
##ㅅㅜ⑨ㅅㅏᆼ
can
ㄱㅖ⑨ㄹㅑᆼ
ㅇㅗᆫㅎㅘ⑨
##ㅅㅡ⑨ㅋㅗ
##ㅁㅔᆯ
ㄱㅕᆼㄴㅏᆷㅈㅣ⑨ㅇㅕᆨ
ㅇㅠᆫㅅㅓᆨㅁㅣᆫ
##uct
ㄷㅗᆼㅊㅓᆫ
ㄷㅣ⑨ㅈㅡ⑨ㄴㅣ⑨
ㅅㅓᆯㄱㅖ⑨ㅅㅏ⑨
ㅂㅜᆷㅂㅣ⑨
ㄷㅐ⑨ㄹㅣᆷㅅㅏᆫㅇㅓᆸ
ㅁㅗ⑨ㅌㅔᆯ
ㅇㅝᆫㅈㅐ⑨ㄹㅛ⑨
ㄱㅗᆼㅅㅏ⑨ㅈㅏᆼ
ㅁㅓᆺㅇㅣᆻ
ㅅㅐᆼㅍㅣᆯ
ㄱㅜ⑨ㅁㅕᆼ
ㅂㅏᆯㅅㅣᆫ
ㄷㅗᆨㅇㅣᆯㅇㅓ⑨
ㅋㅔ⑨ㄴㅑ⑨
ㅂㅡ⑨ㄹㅣ⑨ㅍㅣᆼㄹㅜᆷ
##ㅅㅔ⑨ㅈㅗᆼ
ㅁㅣ⑨ㅅㅜᆯㅍㅜᆷ
ㅁㅔ⑨ㄹㅡ⑨ㅋㅔᆯ
ㅌㅗᆼㅊㅣ⑨ㅈㅏ⑨
ㄱㅔ⑨ㅇㅣ⑨ㅌㅡ
ㅁㅜ⑨ㅂㅏᆼㅎㅏ⑨
ㅇㅟ⑨ㅈㅡᆼ
ㄱㅐ⑨ㅈㅣᆫ
ㅂㅣ⑨ㅁㅜᆫ
ㅎㅘ⑨ㅇㅕᆷ
ㅎㅘᆼㅌㅗ⑨
ㄴㅏᆫㅊㅓ⑨
ㅅㅡᆯㄹㅓᆷ
ㅈㅓᆼㅅㅜ⑨ㄱㅣ⑨
ㅅㅡ⑨ㅌㅣ⑨ㅋㅓ⑨
ㅅㅓᆮㅂㅜᆯㄹㅣ⑨
ㄸㅐᆼ
ㅁㅗᆺㅁㅏ⑨
ㅂㅜᆨㄷㅗᆮ
##ㅍㅜ⑨ㄹㅡ⑨ㅌㅡ⑨
ㅂㅏᆨㅂㅕᆼㅎㅗ⑨
ㅅㅓ⑨ㅍㅗ⑨ㅌㅓ⑨
ㅈㅣᆨㅎㅐᆼ
ㅈㅓᆫㅅㅔᆺㄱㅏᆹ
ㅁㅗᆺㅁㅏ⑨ㄸㅏᆼ
ㅎㅐᆫㄷㅡᆯ
ㅈㅏᆼㅇㅐ
##ons
ㅈㅣ⑨ㄷㅗ⑨ㄹㅕᆨ
ㄱㅣᆫㅂㅏᆨ
ㅍㅏ⑨ㄱㅜᆨ
##ㅇㅓ⑨ㅎㅏ⑨
ㅈㅗ⑨ㅁㅗᆨ
##ics
ㄴㅓᆲㅇㅣ⑨
ㅂㅜ⑨ㄷㅏᆼㅇㅣ⑨
ㅂㅏᆨㅇㅕᆼㅅㅜ⑨
ㅍㅣ⑨ㄹㅗ⑨ㄱㅏᆷ
ㅂㅣᆨㅌㅗ⑨ㄹㅣ⑨ㅇㅏ⑨
american
ㅈㅗᆼㅇㅛᆼ
##ㅆㅜᆨ
ㄹㅔ⑨ㅁㅣ⑨
ㅇㅣᆷㅁㅕᆼㅈㅏᆼ
ㄱㅣ⑨ㅎㅏ⑨ㅎㅏᆨ
ㄱㅏᆼㄷㅗᆼㄱㅜ⑨
dd
ㄷㅐ⑨ㅎㅏᆨㄹㅗ⑨
ㅆㅣᆨㅆㅣᆨ
ㄴㅏᆸㅅㅔ⑨ㅈㅏ⑨
ㅅㅜ⑨ㅅㅣᆫㄹㅛ⑨
ㅅㅏᆫㅂㅜ⑨ㅇㅣᆫㄱㅘ⑨
##ㅇㅞ⑨ㅇㅣ⑨ㅌㅡ⑨
1951
ㅅㅜ⑨ㅅㅜ⑨ㅎㅏ⑨
##ㅁㅜᆫㅎㅘ⑨ㅎㅚ⑨ㄱㅘᆫ
ㅁㅜᆫㅅㅓᆼ
ㄱㅜ⑨ㅁㅓ
##ㅈㅡᆸ
ㅆㅣ⑨ㅌㅣ⑨
ㅍㅔ⑨ㄹㅡ⑨ㅅㅣ⑨ㅇㅏ⑨
ㄷㅐ⑨ㅍㅛ⑨ㅈㅏᆨ
ㅌㅗᆼㄱㅏᆷ
ㅅㅜ⑨ㄴㅏᆫ
ㅇㅣᆯㅁㅕᆫ
ㅅㅏᆼㅇㅕ⑨ㄱㅡᆷ
##ㅌㅗᆼㅅㅜ⑨
ㅎㅏᆨㅈㅏᆼ
ㄴㅐ⑨ㅊㅣ⑨
ㄷㅗᆨㅎㅏ⑨
ㅇㅠ⑨ㄹㅗ⑨ㅎㅘ⑨
ㅈㅓᆼㄷㅜ⑨
ㅊㅜᆯㅇㅕᆫㅈㅏ⑨
ㅇㅣ⑨ㄹㅏ⑨ㄷㅡᆫㄱㅏ⑨
ㄷㅐ⑨ㅊㅣ⑨ㄷㅗᆼ
##ㄴㅏᆷㅂㅜ⑨
##ㅅㅗᆫㄱㅏ⑨ㄹㅏᆨ
ㅈㅓᆼㅇㅜᆫㅊㅏᆫ
ㄱㅙ⑨
##ㄴㅐᆼ
ㅅㅡᆼㅅㅡᆼ
ㅈㅔ⑨ㅂㅗ⑨ㅈㅏ⑨
ㅊㅚ⑨ㅌㅐ⑨ㅇㅝᆫ
ㅎㅚ⑨ㅇㅠ⑨
ㅎㅐ⑨ㅌㅐ⑨
##ㅇㅏ⑨ㅅㅏᆫ
##ㅅㅏ⑨ㄱㅓᆫ
ㄱㅕᆼㅅㅣᆯㄹㅕᆫ
ㅈㅓᆨㄱㅜᆫ
ㅈㅏ⑨ㅎㅘ⑨
ㅅㅏ⑨ㅌㅜ⑨ㄹㅣ⑨
ㅇㅕ⑨ㄱㅘ⑨
ㄴㅣ⑨ㄹㅏ
ㅇㅓᆷㅎㅏ⑨
##ㅁㅜ⑨ㄹㅏ⑨
ㅇㅓ⑨ㄹㅣ⑨ㄷㅜᆼ
ㅂㅗᆨㅇㅏᆫ
ㅅㅔ⑨ㄷㅐ⑨ㄱㅛ⑨ㅊㅔ⑨
##ah
ㄱㅗ⑨ㅇㅝᆫ
ㅈㅓᆼㄷㅗᆫ
ㅁㅜᆫㅁㅜ⑨
ㅈㅓᆼㅂㅜ⑨ㅇㅏᆫ
ㅇㅝᆫㄹㅣ⑨ㄱㅡᆷ
##ㅅㅜ⑨ㄷㅏᆫ
ㅇㅟ⑨ㅇㅓᆷ
ㅈㅔ⑨ㄱㅕᆨ
ㅂㅏᆫㄷㅐ
ㅂㅏᆨㄷㅐ⑨
ㅈㅡᆼㅅㅓ⑨
ㅎㅜᆫㅎㅜᆫㅎㅏ⑨
ㅋㅐᆷㅋㅗ⑨
##ㄷㅜᆯㄹㅣ⑨
cre
ㅈㅓᆫㄱㅘᆫ
ㄷㅐ⑨ㅌㅗᆼㄹㅕᆼㄹㅕᆼ
ㅂㅣᆺㄴㅏ⑨ㄱㅏ⑨
ㄷㅗ⑨ㅂㅗᆼ
ㄷㅏᆼㄱㅡᆫ
kdb
##ㅇㅛᆼㅍㅜᆷ
##ner
ㅈㅓᆼㅂㅓᆯ
ㅂㅜ⑨ㅈㅔ⑨
ㅅㅓᆫㅂㅏᆼ
ㅌㅗ⑨ㅁㅓ⑨ㅅㅡ⑨
fm
ㅈㅐᆺ
ㅈㅓ⑨ㅁㅜᆯ
ㄱㅏᆼㅎㅕᆫ
1957
ㅇㅡᆫㅊㅗᆼ
ㄱㅘᆫㄱㅗᆼㅅㅓ⑨
ㅇㅕᆼㄴㅏᆷㅇㅣᆯㅂㅗ⑨
ㅂㅓ⑨ㅍㅣᆺ
ㅎㅐᆼㅈㅓᆼㅅㅗ⑨ㅅㅗᆼ
ㄱㅗ⑨ㅂㅏᆯㅈㅏᆼ
##ㅅㅑ⑨ㅇㅗ⑨
ㅈㅜᆯㄱㅣ⑨ㅅㅔ⑨ㅍㅗ⑨
love
lp
ㅈㅣᆸㄱㅝᆫㄷㅏᆼ
ㄴㅏᇀㄴㅏ
ㅅㅗᆼㄱㅜ⑨ㅅㅡ⑨ㄹㅓᆸ
ㄱㅗ⑨ㅇㅗᆫ
ㄱㅗᆼㄱㅗ⑨ㅎㅣ⑨
ㄱㅡᆯㅆㅔ
ltd
ㅂㅜᆫㄱㅐ⑨
##ㅇㅑᆨㅍㅜᆷ
ㅇㅔ⑨ㅌㅣ⑨ㅇㅗ⑨ㅍㅣ⑨ㅇㅏ⑨
ㅅㅣ⑨ㅇㅏ⑨
ㅈㅜ⑨ㅊㅗᆼ
ㄱㅏᆫㅇㅕᆷ
ㅅㅏ⑨ㄱㅡᆨ
ㅍㅗᆨㄷㅗᆼ
ㅎㅔ⑨ㅇㅓᆷ
ㅅㅣᆷㅇㅢ
ㅇㅐᆫㄷㅡ⑨
##ward
ㅂㅗ⑨ㄷㅣ⑨
ㅁㅏᆫㅎㅐᆼ
ㅅㅏᆼㄱㅗᆼㅇㅣ
ㄷㅗᆼㄷㅜ⑨ㅊㅓᆫ
##ㅃㅜᆨ
ㄱㅜ⑨ㅂㅗᆫ
ㅂㅔ⑨ㄱㅐ⑨
ㅍㅓ⑨ㅌㅡ⑨
ㄴㅔᆺㅁㅏ⑨
ㄱㅜ⑨ㄱㅏᆼ
##ㅎㅖ⑨ㅇㅝᆫ
ㅈㅏ⑨ㄹㅕᆨ
ㅅㅡ⑨ㅋㅔ⑨ㅇㅣ⑨ㅌㅡ⑨
ㅌㅡᆷㅌㅡᆷ
skㅇㅣ⑨ㄴㅗ⑨ㅂㅔ⑨ㅇㅣ⑨ㅅㅕᆫ
##ㅅㅣ⑨ㅍㅣ⑨
ㅇㅓ⑨ㄷㅡ⑨
ㄷㅐ⑨ㅌㅏ⑨
ㄷㅗᆼㅈㅏᆨㄱㅜ⑨
ㅋㅏ⑨ㅇㅜᆫㅌㅡ⑨
ㅌㅡ⑨ㄹㅓ⑨ㅂㅡᆯ
ㅌㅓ
ㅂㅣ⑨ㅎㅗ⑨
ㅌㅡᆨㅅㅓᆼㅎㅘ⑨
ㅈㅣ⑨ㄷㅐ⑨ㅎㅏ⑨
##ㅅㅏ⑨ㅈㅏᆼ
##ition
ㅍㅛ⑨ㅈㅣ⑨ㅍㅏᆫ
ㅅㅡ⑨ㅇㅘᆫ
ㅎㅘᆨㅅㅓᆼㄱㅣ⑨
ㅍㅏ⑨ㅅㅐᆼㅅㅏᆼㅍㅜᆷ
ㄴㅐ⑨ㅎㅏᆫ
ㅋㅓᆫㅌㅔᆫㅊㅡ⑨
ㄱㅛ⑨ㅎㅘ⑨
ㅅㅏ⑨ㅇㅣ⑨ㅇㅓᆫㅅㅡ⑨
ㄷㅐ⑨ㅇㅠ⑨
vo
ㅈㅐᆷ
##ㅓᆼㄱㅓ⑨ㄹㅣ⑨
##ㅇㅡᆫㅎㅖ⑨
##ㄱㅡᆺㅎㅏ⑨
ㅅㅣ⑨ㅅㅡᆼ
ㅇㅣᆯㄱㅏᆯ
ㅎㅐᆼㅈㅓᆼㅊㅓ⑨
ㅈㅜ⑨ㅇㅢ⑨ㅂㅗ⑨
ess
ㅅㅣᆫㅂㅣᆼ
ㄷㅏᆷㅍㅏᆫ
ㅂㅐᆨㅅㅓ⑨
ㅎㅓ⑨ㄷㅓᆨㅇㅣ⑨
ㄹㅔ⑨ㅇㅣ⑨ㅊㅔᆯ
mr
ㅂㅣ⑨ㅅㅓ⑨ㄱㅘᆫㅅㅣᆯ
ㄱㅣᆷㅅㅜ⑨ㅎㅕᆫ
ㅃㅐᆺㄱㅣ⑨
ㅎㅣᆫㄷㅜ⑨
ㅈㅗ⑨ㅎㅏ
ㅈㅏ⑨ㅂㅗᆫㄱㅏ⑨
ㅋㅏ⑨ㅌㅔ⑨ㄱㅗ⑨ㄹㅣ⑨
ㅅㅡ⑨ㅁㅏ⑨ㅌㅡ⑨ㅅㅣ⑨ㅌㅣ⑨
398
ㅇㅗᆼㅈㅣᆫ
ㄱㅗ⑨ㅃㅣ⑨
ㄷㅐ⑨ㅇㅜᆼ
ㅇㅜ⑨ㅂㅏᆯ
##ㅁㅏ⑨ㄷㅏᆼ
ㅁㅐ⑨ㄹㅣᆸㅈㅣ⑨
ㅂㅜ⑨ㄷㅏᆼㅇㅣ⑨ㄷㅡᆨ
ㅁㅗ⑨ㅅㅓᆼ
ㅅㅣᆯㅅㅐᆼㅎㅘᆯ
ㅈㅓᆼㅅㅣᆫㅇㅓᆹㅇㅣ⑨
ㅃㅕ⑨ㅇㅏ⑨ㅍㅡ⑨
ㅋㅡ⑨ㄹㅗ⑨ㅇㅏ⑨
ci
ㅇㅏᆫㅌㅗ⑨ㄴㅣ⑨
ㅈㅏᆼㅂㅗᆫ
ㄷㅏᆫㅎㅗ⑨ㅎㅣ⑨
ㅅㅐᆼㅍㅣᆯㅍㅜᆷ
##ㄱㅡ⑨ㄹㅣᆷ
ㄷㅗᆼㅅㅣ⑨ㄷㅐ⑨
ㅇㅣ⑨ㅇㅜ⑨
ㅍㅜᆼㅅㅡᆸ
ㅈㅓᆫㅂㅜᆨㄷㅗ⑨
ㅅㅜ⑨ㅂㅐᆨㅇㅓᆨ
lond
##ㅎㅛ
ㅎㅟ⑨ㄷㅜᆯㄹㅣ⑨
ㅇㅓ⑨ㅅㅜ⑨ㅅㅓᆫ
ㄷㅣᆸ
ㅅㅡ⑨ㅌㅐᆫㄷㅡ⑨
ㄱㅜ⑨ㅅㅜᆯ
ㅅㅏ⑨ㅇㅏᆨ
ㄱㅓᆫㅁㅏᆫ
ㅇㅜ⑨ㅈㅜ⑨ㅅㅓᆫ
ㄱㅔ⑨ㅇㅣ⑨ㅊㅡ⑨
ㅋㅣᆫㅌㅔᆨㅅㅡ⑨
ㅇㅢ⑨ㅎㅚ
ㅅㅏ⑨ㄹㅣᆸㅎㅏᆨㄱㅛ⑨
ㅊㅐᆯㄹㅣᆫㅈㅣ⑨
ㅇㅗᆫㄱㅓᆫ
##ㅂㅔ⑨ㅇㅣ⑨ㅌㅡ⑨
ㅇㅣᆯㄹㅓ⑨
ㅊㅗᆼㅈㅏ
##ㅅㅏᆼㅈㅓᆼ
ㅁㅜᆺ
ㅈㅣ⑨ㄱㅕᆸ
ㅇㅏ⑨ㄹㅗ⑨
ㅌㅡᆨㅈㅗ⑨
ㅅㅏ⑨ㄱㅘ
ㅎㅏᆼㅇㅜ⑨
ㅅㅙ⑨ㄷㅗ⑨
ㅇㅖ⑨ㄹㅣ⑨ㅎㅏ⑨
##ㄴㅏ⑨ㄹ
##ㅃㅐ⑨
ㄷㅗ⑨ㅍㅛ⑨
ㅇㅟ⑨ㅎㅓ
##ㅁㅜ⑨ㅈㅏᆼ
ㅊㅓ⑨ㄱㅏ⑨
ㅎㅚᆼㅅㅓᆼ
ㅌㅗᆼㄱㅗᆨ
ㅇㅕᆯㅇㅐ⑨
ㅍㅗ⑨ㅅㅡ⑨
ㄱㅕᆯㅈㅓᆼㅈㅓᆫ
##ㅏ⑨ㅇㅣᆫㄱㅝᆫ
ㅎㅏᆫㅌㅔ⑨ㅅㅓ⑨
ㄱㅣᆷㅎㅕᆫㅁㅣ⑨
ㅁㅕᆼㄷㅏᆼ
ㅎㅏᆨㅅㅓᆯ
ㅁㅏ⑨ㅇㅣᆯㄹㅣ⑨ㅈㅣ⑨
ㅎㅏᆫㄱㅜᆨㅇㅚ⑨
ㅈㅗᆯㅇㅓᆸㅅㅣᆨ
who
ㅅㅏᆫㄹㅏᆫ
ㅇㅣᆷㅈㅓᆼ
ㄱㅘᆼㅎㅏᆨ
mor
##ex
ㅂㅜᆨㅇㅠ⑨ㄹㅓᆸ
ㅎㅗ⑨ㅅㅡ⑨
ㅇㅘᆫㄱㅏᆼ
ㅂㅜ⑨ㄹㅡ⑨ㅈㅣᆽ
ㅈㅐ⑨ㄱㅏ⑨
ㅌㅜ⑨ㄷㅓᆯ
ㅂㅓᆸㅅㅏ⑨ㅇㅟ⑨ㅇㅝᆫㅈㅏᆼ
ㅅㅔ⑨ㅊㅓᆨ
ㅎㅓ⑨ㅎㅓ⑨
ㄴㅏᆨㅈㅓᆷ
ㅅㅡᆯㄱㅡ⑨ㅁㅓ⑨ㄴㅣ⑨
ㅅㅜ⑨ㅈㅣ
ㅈㅣᆯㅅㅗ⑨
ㅁㅗᆯㅅㅜ⑨
ㄱㅗᆷㄱㅗᆷ
ㅅㅏ⑨ㅂㅜ⑨
ㄷㅏ⑨ㅋㅔ⑨
ㅁㅕᆼㅋㅙ⑨ㅎㅏ⑨
ㅎㅕᆫㅍㅏᆫ
ㄴㅜᆯㄹㅣ⑨
ㅂㅕᆫㅅㅗᆨㄱㅣ⑨
hub
##ㅂㅔᆨ
ㄷㅗ⑨ㄱㅛ⑨
ㅁㅏᆯㄹㅏ⑨
ㅎㅗᆼㅊㅓᆫ
ㅇㅛ⑨ㄱㅜ⑨ㅅㅏ⑨ㅎㅏᆼ
ㅋㅜ⑨ㅇㅞ⑨ㅇㅣ⑨ㅌㅡ⑨
ㅋㅡᆯㄹㅣ⑨ㅂㅡᆯㄹ
nhㄴㅗᆼㅎㅕᆸ
ㅈㅜᆼㄹㅕᆼ
ㅁㅗ⑨ㅇㅠ⑨
ㅇㅔᆺ
ㅅㅜ⑨ㅎㅏ
ㅈㅔ⑨ㅊㅏᆼ
ㄴㅐ⑨ㅉㅗᆾ
ㅂㅜᆫㅅㅏ⑨
ㅃㅐᆨ
ㅈㅔ⑨2
##ㅁㅜ⑨ㅅㅣ⑨
##ㄷㅣ⑨ㅇㅓ
ㅇㅠᆯㅂㅓᆸ
ㅅㅣᆯㅁㅏᆼㄱㅏᆷ
ㄱㅜᆨㄱㅏ⑨ㅇㅣᆫㄱㅝᆫ
ㅁㅏᆨㅁㅏᆨ
ㅇㅣ⑨ㅈㅓᆼㅎㅢ⑨
ㅁㅣ⑨ㅅㅡ⑨ㅌㅓ⑨ㄹㅣ⑨
cjㅈㅔ⑨ㅇㅣᆯㅈㅔ⑨ㄷㅏᆼ
ㅇㅟ⑨ㅇㅣᆫ
ㅎㅗᆼㅂㅗ⑨ㄱㅘᆫ
ㅇㅣᆼㅇㅕ⑨
ㅁㅣᆫㄴㅗ⑨ㄷㅏᆼ
##ㄱㅣ⑨ㄹㅡᆷ
ㅅㅣᆨㅎㅣ⑨
ㅌㅐ⑨ㄱㅘᆼ
ㅌㅡ⑨ㄹㅏ⑨ㅇㅜ⑨
ㅊㅏ⑨ㅇㅐᆨ
ㅇㅗᆼㄱㅣ⑨
ㄱㅜᆨㄹㅕᆨ
ㅅㅔ⑨ㅈㅗ⑨
ㅈㅓ⑨ㄹㅓ⑨
ㅎㅕᆫㅊㅜᆼ
ㅊㅜᆨㅅㅏᆫㅁㅜᆯ
ㅋㅏᆯㅂㅣᆫ
ㄱㅏᆫㄷㅣ⑨
ㄱㅣᆷㄷㅐ⑨ㅈㅜ
ㅇㅏᆯㅈㅔ⑨ㄹㅣ⑨
ㄱㅠ⑨ㅇㅑᆨ
ㅆㅡ⑨ㄹㅣ⑨
ㄷㅗᆮㅇㅜ⑨
##ㅈㅏ⑨ㄹㅛ⑨
##ㅅㅗ⑨ㅅㅓ
ㅅㅓᆷㅈㅣᆫㄱㅏᆼ
ㄱㅕᆼㅊㅏ
ㅊㅚ⑨ㅅㅡᆼ
ㅂㅣᆫㅂㅜ⑨
ㄲㅡᆯㅇㅓ⑨ㄴㅐ⑨ㄹㅣ⑨
ㅇㅏᆯㅇㅏ⑨ㅊㅐ⑨
ㅂㅐᆯㄹㅓᆫㅅㅡ⑨
##ft
##75
ㅈㅗ⑨ㅎㅢ⑨
ㅇㅏ⑨ㄴㅑ
ㅇㅑᆼㅅㅏᆫㅅㅣ⑨
ㅍㅡ⑨ㄹㅏᆫㅊㅣ⑨
ㅂㅜ⑨ㅅㅏ⑨ㄱㅘᆫ
ㅇㅕᆨㅈㅓᆫㅅㅡᆼ
ㅊㅚ⑨ㅁㅜᆫㅅㅜᆫ
ㅅㅣ⑨ㄱㅜᆫ
ㄴㅐ⑨ㅁㅗᆯ
ㅇㅠ⑨ㅅㅣᆷㅎㅣ⑨
ㅇㅕᆫㅊㅓᆫ
##ㅌㅗᆼㅇㅣᆯ
ㅈㅜᆼㄷㅗ⑨ㄱㅡᆷ
ㅈㅏᆼㄹㅕ⑨ㄱㅡᆷ
##ㅂㅏᆮㅊㅣ⑨
##ㄷㅔ⑨ㅇㅣ
ㅈㅣ⑨ㅋㅡ⑨
ㅁㅗ⑨ㄱㅛ⑨
ㅇㅑ⑨ㅇㅕᆼ
ㅎㅘᆼㅎㅢ⑨
ㅎㅔᆯㄹㅣ⑨
ㅂㅓᆼㅋㅓ⑨
ㅎㅚ⑨ㅈㅏ⑨
ㅊㅣ⑨ㄹㅛ
ㄷㅗ⑨ㅁㅏᇀ
ㅌㅜᆯ
ㅇㅣ⑨ㅅㅓ⑨
ㅇㅕᆨㄱㅕᆼ
##ㄴㅡᆼㄹㅕᆨ
ㄱㅏᆸㅅㅏᆼㅅㅓᆫ
ㅅㅗᆫㅅㅣᆯㅂㅗ⑨ㅅㅏᆼ
ㅇㅑᆼㄱㅜ⑨
ㅇㅟ⑨ㄱㅣ⑨ㄱㅏᆷ
ㅋㅏᆷㅋㅏᆷ
##ning
##ㅁㅔ⑨ㄹㅡ⑨
ㄴㅏ⑨ㅁㅜᆺㅇㅣᇁ
ㄷㅗ⑨ㅂㅣ⑨
ㅇㅠ⑨ㅅㅣᆯ
ㅇㅑᆼㅈㅓᆼ
340
ㄱㅖ⑨ㅇㅓᆷㄹㅕᆼ
ㅂㅏᆯㄷㅐ⑨ㅅㅣᆨ
ㅇㅗ⑨ㅅㅡ⑨ㅌㅡ⑨ㄹㅔ⑨
ㄱㅏᆼㅅㅗ⑨
reg
ㄷㅡᆼㅅㅏᆫㄹㅗ⑨
##ㅌㅡᆨㅂㅕᆯ
ㅅㅓᆼㅇㅜ⑨
ㄴㅐ⑨ㄹㅣ⑨ㅁㅏᆨ
ㅈㅓᆽㅎㅣ⑨
ㅇㅝᆯㅅㅡ⑨ㅌㅡ⑨ㄹㅣ⑨ㅌㅡ⑨ㅈㅓ⑨
ㅅㅏ⑨ㅂㅗᆫ
ㅇㅖ⑨ㅁㅣᆫㅎㅏ⑨
##ㄴㅓᆺ
ㄷㅗ⑨ㄴㅏᆫ
ㅇㅕ⑨ㅈㅜᆼ
ㅇㅠ⑨ㄴㅕᆫ
ㅇㅕᆨㅎㅏ
ㅅㅓ⑨ㅎㅢ⑨
ㅇㅖ⑨ㅈㅓᆯ
ㅅㅓᆫㅊㅜᆯㅈㅣᆨ
ㅅㅓᆯㄴㅏᆯ
ㄱㅏ⑨ㄹㅗ⑨ㄷㅡᆼ
ㅅㅖ⑨ㅇㅣᆨㅅㅡ⑨ㅍㅣ⑨ㅇㅓ⑨
http
ㄸㅏᆯㄹㅣ⑨
ㄴㅜ⑨ㅅㅓᆯ
ㅇㅗ⑨ㄹㅣ⑨ㅈㅣ⑨ㄴㅓᆯ
##ㄴㅔᆫ
ㅇㅓ⑨ㄷㅜ⑨
##ㅅㅔ⑨ㅈㅓᆷ
ㅈㅓᆼㅇㅠ⑨ㄹㅏ⑨
ㅊㅏᆯㄹㅣ⑨
ㅅㅜ⑨ㅁㅜᆫ
ㅂㅡᆯㄹㅐᆨㅎㅗᆯ
ㅎㅏᆨㅅㅜᆯㅈㅣ⑨
ㅇㅕᆼㄱㅕᆯㅅㅣᆨ
ㄷㅜᆨ
ㅁㅐᆼㄹㅕᆯ
ㅅㅡ⑨ㅌㅗ⑨ㄹㅣ⑨ㅌㅔᆯㄹㅣᆼ
ㅈㅏ⑨ㅁㅕᆼ
ㅇㅣᆯㅁㅜᆫ
ㅇㅟ⑨ㅇㅏᆷ
ㅌㅏᆫㄱㅘᆼ
ㅇㅡᆼㅅㅜ⑨
ㅈㅏ⑨ㄱㅡᆷㅂㅓᆸ
ㅇㅗ⑨ㄹㅐ⑨ㄷㅗ⑨ㄹㅗᆨ
ㄲㅡ⑨ㅈㅣᆸ
ㄸㅏᆨㅈㅣ⑨
ㅇㅣ⑨ㅈㅓᆼㅍㅛ⑨
ㅋㅓ⑨ㄹㅣ⑨ㅇㅓ⑨
ㅈㅏ⑨ㄱㅣ⑨ㅅㅗ⑨ㄱㅐ⑨ㅅㅓ⑨
ㅅㅔ⑨ㄹㅕ
ㄱㅝᆫㅇㅕᆼㅅㅔ⑨
ㅇㅠ⑨ㅊㅜ⑨
##ㅗᆺㅇㅣ⑨
ㅍㅕᆫㄷㅗ⑨
ㅈㅣ⑨ㅂㅐ⑨ㄹㅕᆨ
ㄱㅗᆯㄷㅡ⑨ㅁㅏᆫ
die
ㄱㅡᆷㅌㅐ⑨ㅅㅓᆸ
ㅅㅡᆸㄷㅗ⑨
##ㅈㅡᆼㄱㅣ⑨
ㄴㅐᆼㅊㅓᆯ
ㅈㅣᆫㅅㅣᆯㄹㅗ⑨
##ㅎㅕᆸㅇㅢ⑨ㅎㅚ⑨
ㄷㅡᆼㄷㅐ⑨
ㄲㅣ⑨ㄴㅣ⑨
##ㄹㅣ⑨ㅎㅣ⑨
ㅈㅜ⑨ㅇㅏᆫ
ㄷㅏᆯㄹㅕᆨ
ㄲㅓᆯ
ㅇㅏᆫㅇㅣᆯ
ㅋㅏ⑨ㄹㅣ⑨
ㄱㅗᆼㄷㅗᆼㅊㅔ
ㅈㅜ⑨ㅌㅐᆨㄱㅏ⑨
ㄱㅗ⑨ㄴㅗ⑨
ㅂㅏᆼㅈㅓᆼㅅㅣᆨ
ㅇㅚ⑨ㅂㅕᆨ
ㅇㅑᆼㄹㅣᆸ
ㅁㅗ⑨ㄴㅏ⑨
ㅂㅜᆯㅌㅗᆼ
ㄱㅏᆽㅇㅡᆫ
ㅇㅠᆨㅅㅏ⑨
ㅈㅣ⑨ㅂㅐ⑨ㅈㅏ⑨
di
ㅇㅣᆯㅈㅓᆯ
##ㅂㅗ⑨ㄹㅔ⑨
ㄱㅛ⑨ㅇㅚ⑨
ㅇㅏ⑨ㄷㅡ
ㅍㅜᆼㄱㅘᆼ
ㅍㅏᆯㅈㅏ⑨
ㅁㅣ⑨ㅇㅑᆨㅎㅏ⑨
##ㄷㅗ⑨ㅅㅡ⑨
ㅂㅏᆼㅌㅏᆫ
ㅁㅜᆯㄱㅣᆯ
ㅋㅏ⑨ㅌㅓ⑨
ㅂㅘ⑨ㅈㅜ⑨
ㅈㅏ⑨ㄱㅡ
ㅋㅓᆫㅍㅓ⑨ㄹㅓᆫㅅㅡ⑨
ㅎㅡᆨㅅㅐᆨ
ㅈㅜ⑨ㅅㅣᆯ
ㅅㅏ⑨ㄷㅡ
ㅅㅓᆨㄱㅝᆫ
ㅅㅜ⑨ㅈㅓ
ㅈㅏ⑨ㅂㅗ
ㅇㅝᆫㅊㅗ⑨
ㅅㅓ⑨ㅋㅡᆯ
ㅂㅏᆫㅈㅜᆨ
##ㅌㅜ⑨ㅇㅓ⑨
ㄱㅚ⑨ㅌㅔ⑨
ㄱㅚ⑨ㄹㅗ⑨ㅇㅝ⑨ㅎㅏ⑨
ㅅㅓᆼㅅㅜ⑨
ㅇㅚ⑨ㅌㅜ⑨
ㅂㅗᆫㅊㅔ⑨
ㅁㅐ⑨ㅇㅣᆯㄱㅕᆼㅈㅔ⑨ㅅㅣᆫㅁㅜᆫ
ㅇㅗᆸㅌㅣ⑨ㅁㅓ⑨ㅅㅡ⑨
ㅈㅜ⑨ㅁㅣ⑨
ㄷㅗᆨㅇㅣᆯㅇㅣᆫ
ㄱㅏᆼㅇㅢ⑨ㅅㅣᆯ
day
##ㄹㅗᆺ
ㅇㅣ⑨ㅎㅐ
##ㅇㅣᆷㄱㅡᆷ
ㄱㅕᆼㅈㅔ⑨ㅎㅏᆨㄱㅘ⑨
##ㄱㅏ⑨ㅇㅐᆨ
ㄱㅓ⑨ㄷㅗᆼ
ㅈㅜᆼㅅㅣ
ㅂㅣ⑨ㅇㅜᆫ
ㄷㅏᆸㅇㅏᆫ
ㅇㅓᆮㅇㅓ⑨
ㄲㅗᆼㄲㅗᆼ
ㄷㅓ⑨ㅇㅓᆹㅇㅣ⑨
ㅈㅓᆼㄷㅗ⑨ㅈㅓᆫ
ㅎㅐᆷㅂㅓ⑨ㄱㅓ⑨
ㅍㅡ⑨ㄹㅏᆼㅋㅡ⑨ㅍㅜ⑨ㄹㅡ⑨ㅌㅡ⑨
abc
ㅅㅜ⑨ㅎㅘ⑨ㄱㅣ⑨
ㅁㅏᆨㅈㅜᆼㅎㅏ⑨
ㅎㅘᆼㅅㅗ⑨
ㅊㅏᆷㅇㅕ⑨ㅇㅕᆫㄷㅐ⑨
ㅅㅜ⑨ㅅㅏ⑨ㄷㅐ⑨
ㅌㅏᆯㅅㅏᆷ
##ication
ㅍㅓ⑨ㅅㅡ⑨ㅌㅡ⑨
ㅈㅓᆫㅂㅕᆼㅎㅓᆫ
ㅈㅓᆨㄹㅣᆸㄱㅡᆷ
ㄴㅜ⑨ㅊㅜᆯ
ㄲㅡᇀㄴㅐ⑨ㄱㅣ⑨
ㅇㅣ⑨ㄹㅕᆨㅅㅓ⑨
ㅁㅣ⑨ㄴㅔ⑨ㄹㅏᆯ
ㅇㅣ⑨ㅊㅐ⑨
ㄱㅣ⑨ㅈㅜᆫㅂㅓᆸ
ㅋㅗᆼㅋㅜ⑨ㄹㅡ⑨
##ㄱㅗᆼㄷㅗᆼ
ㅊㅗᆨㅁㅐ⑨
ㄱㅗᆨㅅㅓᆼ
ㅎㅕᆨㅅㅣᆫㅇㅏᆫ
ㅅㅜ⑨ㄹㅣ
ㅎㅜ⑨ㅇㅣᆯ
ㅎㅐ⑨ㄹㅣ⑨ㅅㅡ⑨
ㄱㅘᆫㄹㅣ⑨ㅇㅣᆫ
ㅌㅐ⑨ㅅㅡ⑨ㅋㅡ⑨ㅍㅗ⑨ㅅㅡ⑨
ngo
ㅂㅏᆯㄹㅣ⑨
ㅅㅏᆷㅊㅓᆫ
ㄱㅏ⑨ㅈㅕ⑨ㄷㅏ⑨ㅈㅜ⑨
ㅎㅓᆷㄴㅏᆫㅎㅏ⑨
ㄴㅗ⑨ㅇㅝᆫㄱㅜ⑨
ㅎㅏ⑨ㅊㅏᆭ
ㅂㅜ⑨ㅊㅗᆼㅈㅏᆼ
ㅍㅡ⑨ㄹㅏᆼㅅㅡ⑨ㅇㅓ⑨
ㅎㅣ⑨ㅁㅏᆯㄹㅏ⑨ㅇㅑ⑨
ㅌㅡᆷㅌㅡᆷㅇㅣ⑨
205
ㄷㅟ⑨ㅌㅗᆼㅅㅜ⑨
ㅊㅓᆺㅂㅏᆯ
ㅈㅓᆯㅅㅣᆯㅎㅣ⑨
poli
ㅋㅐ⑨ㅍㅣ⑨ㅌㅏᆯ
ㄱㅕᆨㅈㅓᆫㅈㅣ⑨
ㅈㅣ⑨ㅎㅟ⑨ㅂㅗᆼ
ko
ㄹㅏ⑨ㅈㅣ⑨
ㅋㅗᆨ
ㄱㅣᆷㅂㅏᆸ
ㅅㅗ⑨ㅁㅜᆫㄴㅏ⑨
ㅁㅕᆼㅁㅜᆫㄷㅐ⑨
ㅋㅡ⑨ㄹㅣ⑨ㅅㅡ⑨ㅌ
ㄱㅡ⑨ㄹㅐᆷ
ㅈㅐ⑨ㅇㅟ⑨
ㅋㅏ⑨ㅍㅡ⑨
ㄱㅘᆼㅅㅏᆫㄱㅜ⑨
ㅊㅔ⑨ㅇㅣᆫㅈㅣ⑨
ㅈㅓᆼㅁㅣᆫ
ㅇㅕᆼㅎㅗ⑨
ㅅㅏᆯㅊㅜᆼ
##ㅈㅓᆯㅊㅏ⑨
##ㄱㅜᆽ
ㄱㅗ⑨ㅅㅏᆫ
ㅇㅡᆷㄹㅛ⑨ㅅㅜ⑨
ㅁㅜᆯㄷㅗᆼㄹㅑᆼ
##ㅋㅏ⑨ㄱㅗᆼ
ㅇㅖ⑨ㅅㅣ⑨
ㅇㅕᆯㄸㅣ⑨
ㅂㅗᆼㅊㅏᆨ
ㅉㅗᆯ
ㅅㅗ⑨ㅂㅣ⑨ㅇㅔ⑨ㅌㅡ⑨
kbㄱㅜᆨㅁㅣᆫㅇㅡᆫㅎㅐᆼ
ㅍㅣ⑨ㅊㅡ⑨ㅂㅓ⑨ㄱㅡ⑨
ㅅㅗ⑨ㅂㅣ⑨ㅈㅐ⑨
ㅇㅗ⑨ㄹㅡᆷㅅㅔ⑨
ㅇㅏᆫㄴㅕᆼㅎㅏ⑨ㅅㅔ⑨ㅇㅛ⑨
ㅇㅝᆫㅅㅔ⑨
ㅈㅣᆫㅈㅜ⑨ㅅㅣ⑨
ㅈㅐ⑨ㅁㅜ⑨ㅈㅔ⑨
ㅅㅣ⑨ㅇㅐ⑨
ㅇㅣᆫㄷㅐ⑨
ㄱㅡᆷㅈㅣ
ㄴㅜᆫㄱㅏ⑨
ㅈㅓᆫㅁㅜᆫㄱㅏ
ㄷㅗᆼㄱㅡᆸ
ㄱㅡᆫㅅㅏ⑨
ㅂㅏ⑨ㄲㅏᇀㅉㅗᆨ
ㄷㅣᆼ
ㅇㅗ⑨ㄴㅡ
ㅁㅐ⑨ㄹㅛ⑨
ㅂㅐᆨㅎㅘ⑨
ㅎㅓ⑨ㅇㅑᆨ
ㅂㅏᆮㅇㅏ⑨ㄷㅡᆯ
ㅇㅣ⑨ㅋㅗ⑨ㄴㅗ⑨ㅁㅣ⑨
ㄹㅓ
ㅌㅓ⑨ㅂㅗ⑨
ㄴㅏᆫㅁㅜ⑨
ㅂㅓᆺㄱㅕ⑨ㅈㅣ⑨
ㅃㅜᆷㅇㅓ⑨ㄴㅐ⑨
ㄹㅔᆫㅌㅓ⑨ㅋㅏ⑨
##ㅈㅐ⑨ㅎㅐ⑨
##ㅈㅏ⑨ㅇㅕᆫ
ㄲㅜᆨ
ㅇㅢ⑨ㄹㅛ
ㅈㅓᆼㅂㅜ⑨ㅅㅔ⑨ㅈㅗᆼ
ㅂㅕᆫㅂㅏᆼ
ㄱㅛ⑨ㅇㅠᆨㅈㅏ⑨
ㅅㅣᆨㅇㅑᆨㅊㅓ⑨
ㄱㅏᆨㅂㅗᆫ
##ㅌㅣ⑨ㅈㅣ⑨
ᆫㅈㅣ⑨ㄹㅏ⑨
ㅈㅜᆼㄱㅗᆼㅇㅓᆸ
ㅈㅏ⑨ㄱㅡᆸ
##ㅇㅓ⑨ㅊㅣ⑨
ㅂㅗᆷㄴㅏᆯ
ㅈㅣ⑨ㅈㅓᆷㅈㅏᆼ
ㅈㅣ⑨ㄱㅕᆼㅂㅜ⑨
ㅂㅏᆯㄷㅏᆫ
ㅂㅓᆸㅇㅣ
ㄷㅗᆨㄱㅓ⑨ㄴㅗ⑨ㅇㅣᆫ
ㅂㅓ⑨ㅈㅣ⑨
ㅅㅗ⑨ㅌㅗ
ㄴㅗ⑨ㅈㅗ
ㅈㅜ⑨ㅊㅣ⑨ㅇㅢ⑨
ㄷㅏ⑨ㅂㅜᆫ
ㅊㅔ⑨ㄱㅕᆨ
ㅎㅖ⑨ㅇㅕᆼ
##ㄴㅣ⑨ㅈㅣ⑨
ㅇㅣᆫㅅㅣᆷ
ㅍㅐᆼㅂㅐ⑨
ㅇㅗ⑨ㄱㅓ⑨ㄷㅗᆫ
ㄱㅣᆷㅇㅕᆼㅊㅜᆫ
ㅅㅓᆼㅎㅗ⑨
ㄱㅜ⑨ㄹㅖ⑨
ㅉㅗᆾㅇㅏ⑨ㄱㅏ⑨
ㅈㅡᆯㄱㅓ⑨ㅇㅝ⑨ㅎㅏ⑨
ㅇㅏ⑨ㅇㅜᆯㄹㅔᆺ
ㅈㅓᆼㅂㅜ⑨ㅅㅔ⑨ㅈㅗᆼㅊㅓᆼㅅㅏ⑨
ㅎㅐ⑨ㅎㅕᆸ
ㅈㅏ⑨ㄱㅡ⑨ㅁㅏ⑨
ㅎㅗᆨㅅㅣ⑨ㄴㅏ⑨
ㅁㅔᆺㄷㅙ⑨ㅈㅣ⑨
ㅁㅗ⑨ㅈㅗᆼ
ㅇㅠ⑨ㅅㅗ⑨ㄴㅕᆫ
ㅇㅛ⑨ㄹㅡ⑨
ㅊㅣ⑨ㅇㅛᆨ
ㄱㅗᆼㅅㅗ⑨ㅈㅏᆼ
ㅊㅜ⑨ㄱㅖ⑨
ㅂㅕᆼㅁㅜ⑨ㅊㅓᆼ
ㅇㅡ⑨ㄴㅑ
ㅁㅕᆼㅈㅏᆼ
ㅎㅗ⑨ㄱㅏ⑨
##85
##ㅍㅏ⑨ㄴ
ㅇㅜᆺㅇㅡᆷㅅㅗ⑨ㄹㅣ⑨
ㄱㅗᆼㅁㅣᆫ
##ㅎㅘᆫㅈㅏ⑨
ㄱㅟ⑨ㅎㅘ⑨
ㄸㅡᆺㅂㅏᆩㅇㅔ⑨
ㅇㅑᆼㅊㅓᆫㄱㅜ⑨
ns
ㅋㅓ
##ek
ㄹㅏ⑨ㄷㅓᆫ
##ㅈㅏᆼㅊㅣ⑨
ㅇㅝᆫㅇㅓ⑨
ㅎㅗ⑨ㅅㅔ⑨
ㄱㅣ⑨ㄴㅕᆷㅎㅐᆼㅅㅏ⑨
##ㄷㅏᆫㅈㅏᆼ
ㅇㅣᆫㄷㅔᆨㅅㅡ⑨
ㅇㅖ⑨ㅅㅣᆨ
##ㄷㅏ⑨ㅇㅗ⑨
ㅈㅓᆼㄹㅑᆨ
ㅂㅜ⑨ㅈㅓᆫ
##ㅇㅣᆯㄱㅘᆫ
ㅊㅣᆫㅈㅣ⑨
ㅈㅓᆫㅂㅏᆼㅇㅟ⑨
ㅎㅐ⑨ㅍㅡ⑨
ㄱㅡᆷㅊㅓᆫ
ㅈㅓᆯㅎㅏ⑨
ㄷㅗ⑨ㅅㅜ⑨
ㅈㅏᆼㅂㅣ
ㅇㅏ⑨ㄹㅐ⑨ㅉㅗᆨ
##ㅂㅡ⑨ㄹㅏᆫㅅㅡ⑨
ㄴㅔᆺㅁㅏ⑨ㅂㅡᆯ
ㅂㅏ⑨ㅇㅗ⑨
ㅇㅕᆫㅎㅗ⑨
ㅇㅝᆯㅂㅜᆨ
##ㄱㅘ⑨ㅎㅏᆨㅇㅝᆫ
ㄷㅟᆺㅁㅕᆫ
ᆫㄷㅏᆸㄴㅣ⑨ㄷㅏ
ㄱㅗᆼㅅㅏᆫㅈㅜ⑨ㅇㅢ⑨ㅈㅏ⑨
##ㅋㅡᆯㄹㅣᆫ
ㅋㅡ⑨ㄹㅣ⑨ㅇㅔ⑨ㅇㅣ⑨
ㅁㅗ⑨ㅇㅢ⑨ㄱㅗ⑨ㅅㅏ⑨
ㅇㅘ⑨ㅇㅣᆯㄷㅡ⑨
ㅈㅐ⑨ㅇㅜ⑨
##ㄹㅓᆼㄱㅓ⑨ㄹㅣ⑨
ㅅㅓᆫㅈㅔ⑨ㄱㅗᆯ
##ㅋㅘ⑨
ㅇㅣ⑨ㅅㅣᆸ
ㅁㅣᆯㄹㅏ⑨ㄴㅗ⑨
ㅇㅟᆫㄷㅗ⑨ㅇㅜ⑨
##ㅇㅣᆫㅈㅏ⑨
##ㄸㅓ⑨
ㅈㅣ⑨ㅇㅡᆫㅇㅣ⑨
##ㅅㅣᆫㄷㅗ⑨
ㅊㅣᆼㅎㅗ⑨
ㅅㅓᆼㅌㅏᆫ
##isti
ㄴㅏᇀㄴㅏᇀㅇㅣ⑨
ㅂㅗ⑨ㅅㅜ⑨ㄷㅏᆼ
ㄷㅏᆫㄱㅜᆨㄷㅐ⑨
ㅁㅣ⑨ㅅㅏ⑨ㅇㅣ
ㄱㅜᆨㄹㅣᆸㅈㅜᆼㅇㅏᆼ
ㅁㅕᆯㅊㅣ⑨
ㅎㅜᆴㅇㅓ⑨ㅂㅗ⑨
ㅈㅣᆨㄱㅏᆷ
ㅈㅐ⑨ㅅㅏᆫㄱㅝᆫ
ㅅㅜ⑨ㅅㅏᆼㅈㅏᆨ
ㄱㅕᆼㅈㅔ⑨ㅎㅕᆸㄹㅕᆨㄱㅐ⑨ㅂㅏᆯㄱㅣ⑨ㄱㅜ
##ㅋㅣᆷ
ㄱㅓᆫㅈㅐ⑨
ㄱㅏᆯㄹㅏ⑨
ㅋㅣ⑨ㅌㅡ⑨
ㄱㅐ⑨ㅇㅣᆫㅈㅜ⑨ㅇㅢ⑨
##ric
##15
ㅂㅜᆫㄱㅏᆫ
ㅁㅗᆨㅈㅓ
ㅅㅏ⑨ㅈㅗ⑨
ㅇㅏ⑨ㅅㅡᆯ
ㅁㅏᆽㄷㅏᆨ
ㅁㅏ⑨ㄴㅜ⑨ㄹㅏ⑨
ㄱㅔ⑨ㅇㅡ⑨ㄹㅡ⑨
ㅅㅏᆫㅎㅜ⑨
ㅌㅏᆫㅇㅝᆫ
##ㅋㅔ⑨ㅇㅣ⑨ㅅㅕ
ㅍㅗᆨㅇㅓᆫ
ㅅㅡ⑨ㅋㅏ⑨ㅇㅜ⑨ㅌㅡ⑨
ㅅㅓ⑨ㅇㅜᆯㄱㅗ⑨ㅂㅓᆸ
ㅈㅐ⑨ㅁㅜ⑨ㅈㅔ⑨ㅍㅛ⑨
ㄹㅗ⑨ㄱㅡ⑨
ㅁㅗ⑨ㅈㅣᆯ
ㅇㅕᆼㅅㅏ⑨
ㄱㅏ⑨ㅅㅡᆷㅅㅗᆨ
ㅊㅚ⑨ㅇㅜ⑨ㅅㅜ⑨ㅅㅏᆼ
ㅈㅓᆫㅈㅜ⑨ㅅㅣ⑨
ㄴㅏᆷㄷㅐ⑨ㅁㅜᆫ
ㅍㅣ⑨ㅋㅏ⑨ㅅㅗ⑨
ㄱㅣ⑨ㄴㅡ
##ㅁㅣ⑨ㅇㅏ⑨
##ㄱㅐᆼ
ㄱㅛ⑨ㄷㅜ⑨
ㄷㅓᆨㅅㅜ⑨
ㅈㅓᆨㄴㅏ⑨ㄹㅏ⑨
##ㅁㅣᆫㅅㅓᆨ
ㅊㅜ⑨ㅇㅣᆫ
ㅎㅘᆯㅈㅏ⑨
ㅇㅛᆼㅅㅓᆫ
ㄴㅡᆯㅇㅓ⑨ㅅㅓ⑨
ㄱㅡᆸㅅㅓᆫ
ㅈㅜᆼㄹㅏᆼ
ㄷㅜ⑨ㄹㅣ⑨
ㄷㅏᆫㅈㅗᆼ
ㅅㅗ⑨ㄹㅑᆼ
ㄹㅔ⑨ㅂㅏ⑨ㄴ
ㅇㅏ⑨ㅂㅡ⑨ㄹㅏ⑨
ㄷㅣ⑨ㅈㅏ⑨ㅇㅣ
ㅅㅓᆫㅁㅜ
ㅁㅣ⑨ㅇㅜᆷ
ㅈㅏᆯㅅㅐᆼㄱㅣ⑨
ㅇㅕᆫㄱㅣ⑨ㄹㅕᆨ
ㅅㅗ⑨ㅇㅣ⑨ㄷㅏ
ㅎㅗ⑨ㄴㅏᆯㄷㅜ⑨
ㅊㅜ⑨ㅈㅣᆫㅇㅟ⑨
##ms
ㅂㅜᆫㄹㅣᆸ
ㄱㅕᆼㅈㅔ⑨ㅎㅏᆨㅈㅏ⑨
ㄷㅡᆼㄷㅏᆫ
ㅈㅔ⑨ㄴㅓ⑨
ㅇㅡᆷㄹㅕᆨ
ㅂㅗᆨㅅㅣᆼ
ㅁㅜ⑨ㅅㅣ⑨ㅁㅜ⑨ㅅㅣ⑨
ㄱㅏᆼㄱㅕᆼㅍㅏ⑨
##ㅊㅟ
ㅊㅓᆼㅇㅑᆼ
ㅂㅡ⑨ㄹㅔ⑨ㅇㅣᆫ
ㅂㅗᆫㅂㅗ⑨ㄱㅣ⑨
ㅇㅠ⑨ㄹㅏᆷㅅㅓᆫ
ㅈㅣ⑨ㅈㅣ
ㅊㅚ⑨ㅎㅕᆫ
ㄴㅗ⑨ㅍㅏ⑨
ㅅㅓᆯㄱㅖ
ㅂㅓ⑨ㅅㅡ
420
○○○
ㅅㅜᆮㄱㅏ⑨ㄹㅏᆨ
ㅇㅝᆫㅅㅐᆨ
ㅎㅗᆫㅅㅜ⑨
ㄷㅡ⑨ㄹㅣ⑨ㅇㅜ⑨
ㅇㅢ⑨ㅅㅏ⑨ㄷㅏᆼ
ㅈㅣᆫㅂㅗ
ㅂㅏᆫㅅㅔ⑨ㄱㅣ⑨
ㄷㅐ⑨ㅈㅏᆼㅇㅏᆷ
##ㅍㅏᆸ
ㄴㅏᆷㅈㅜᆼㄱㅜᆨㅎㅐ⑨
ㅅㅏᆷㅇㅟ⑨
ㅊㅜᆯㄱㅏ⑨
ㄱㅡᆷㄹㅣ
370
ㅅㅡ⑨ㅋㅣ⑨ㅈㅏᆼ
ㄷㅐ⑨ㅇㅝᆫㄱㅜᆫ
eur
##ㅌㅏ⑨ㄱㅣ⑨
##ㄸㅏᆫ
ㅈㅓᆫㅁㅜᆫㅈㅣ⑨
ㄷㅗ⑨ㅅㅣ⑨ㄱㅏ⑨ㅅㅡ⑨
ㄱㅣ⑨ㅎㅚᆨㅈㅓᆫ
ㄹㅜ⑨ㅁㅓ⑨
ㄱㅣᆷㅁㅕᆼㅅㅜ⑨
##ㅈㅜ⑨ㄱㅣ⑨
ㅁㅣ⑨ㄹㅏ⑨
##ㅅㅓᆫㅁㅣ⑨
ㅇㅗᆫㄱㅣ⑨
ㅎㅘᆼㅎㅜ⑨
ㅂㅏᆯㅎㅐ⑨
##ㅊㅏᆨㄹㅠᆨ
ws
ㄴㅐ⑨ㅈㅣᆫ
ㅈㅏ⑨ㄹㅣ
ㅇㅠᆼㅌㅗᆼ
ㅁㅔᆯㄹㅗ⑨ㄷㅣ⑨
ak
kㅅㅡ⑨ㅍㅗ⑨ㅊㅡ⑨
ㄱㅝᆫㅎㅕᆨ
ㅇㅣᆷㄱㅘᆫ
ㅇㅏ⑨ㄹㅏᆸㅇㅔ⑨ㅁㅣ⑨ㄹㅣ⑨ㅌㅡ⑨
##ㅂㅣ⑨ㅅㅣ⑨
ㅈㅜ⑨ㅈㅓᆼ
ㅊㅜᆯㅁㅏ⑨ㅈㅏ⑨
ㄸㅗᆯㄸㅗᆯ
ㅅㅓ⑨ㅊㅓᆼㅇㅝᆫ
ㅂㅗ⑨ㅇㅣᆼ
ㄴㅏ⑨ㅁㅜ
ㅈㅓᆸㄱㅡᆫㅂㅓᆸ
ㅅㅣᆫㅎㅏᆫㅋㅏ⑨ㄷㅡ⑨
##ㅌㅏ⑨ㅇㅝ⑨
ㅁㅏᆼㅅㅏᆼ
ㅎㅓᆫㅂㅓᆸㅈㅐ⑨ㅍㅏᆫ
ㄷㅠ⑨ㅇㅓᆯ
ㅇㅑᆼㅎㅐ⑨ㄱㅏᆨㅅㅓ⑨
ㄷㅐ⑨ㅅㅓ⑨ㅇㅑᆼ
ㄱㅟ⑨ㅊㅗᆫ
##ㅊㅏ⑨ㅂㅕᆯ
ㅁㅝᆫ
ㄸㅏ⑨ㄹㅏ⑨ㅂㅜᇀ
ㅌㅏᆯㅂㅜᆨㅁㅣᆫ
ㅈㅓᆼㄱㅕᆼㄷㅜ⑨
ㅅㅜᆫㅊㅓᆫㅁㅏᆫ
ㄷㅏᆫㅇㅣᆯㅌㅣᆷ
ㄸㅏ⑨ㄱㅏᆸ
##up
##22
ㄱㅘᆫㅅㅏ⑨
ㅇㅚ⑨ㅈㅓᆨ
ㅊㅜ⑨ㅈㅣᆫㅂㅣ⑨
ㅇㅗ⑨ㅁㅣ⑨
ㅈㅏᆷㅈㅏᆷ
ㅅㅑ⑨ㅇㅣ⑨
1937
ㅋㅏ⑨ㅇㅣ⑨ㅅㅡ⑨ㅌㅡ⑨
ㅊㅜ⑨ㄷㅗ⑨ㅅㅣᆨ
hs
sam
##ㅅㅡᆸㄱㅘᆫ
ㅅㅜᆫㅈㅓᆫㅎㅣ⑨
ㄷㅏ⑨ㅇㅟᆺ
ㅅㅡ⑨ㅍㅣᆫ
ㄱㅏᆼㅅㅡᆸ
ㅅㅓᆫㅇㅣᆸㄱㅕᆫ
ㅌㅡᆨㅅㅓᆼㅎㅘ⑨ㄱㅗ⑨
ㅇㅕ⑨ㅅㅗ⑨
ㅂㅜᆨㄷㅗᆼ
ㅌㅡᆨㅂㅕᆯㅂㅓ
##velop
##ㅅㅡ⑨ㄹㅡᆷ
ㅈㅓ⑨ㄱㅓ⑨
ㄱㅓᆫㅂㅗ⑨
ㅊㅔ⑨ㅎㅕᆼ
ㄸㅟ⑨ㅇㅓ⑨ㄴㅐ⑨ㄹㅣ⑨
ㄱㅏᆼㄱㅣ⑨ㅈㅓᆼ
ㅅㅣ⑨ㅂㅏᆯ
ㅈㅓᆷㅈㅏᆭ
##ㅋㅗᆯㄹㅏ⑨
ㅅㅡᆼㅅㅡᆼㅈㅏᆼㄱㅜ⑨
ㅎㅕᆫㅎㅗᆨ
ㅇㅏᆯㅂㅔ⑨ㄹㅡ⑨
ㅍㅓ⑨ㅌㅣᆼ
440
ㅃㅓᆯ
ㅈㅓᆫㅈㅣ
ㅂㅣ⑨ㅇㅏ⑨ㄴ
ㅅㅓ⑨ㅇㅠ⑨ㄹㅓᆸ
##ㅁㅏ⑨ㅅㅣ⑨
ㄱㅓᆷㅊㅏ
##33
ㄱㅡᆷㅅㅏᆼ
ㄱㅠ⑨ㅈㅓ
ㅁㅔ⑨ㅇㅣ⑨ㄷㅡ⑨
ㅂㅜ⑨ㅇㅑᆼㅊㅐᆨ
ㅇㅣᆯㄱㅡ⑨ㄹㅓ⑨ㅈㅣ⑨
ㅁㅣ⑨ㅈㅜᆼ
pf
ㅈㅏ⑨ㅈㅗᆨ
ㅅㅏᆼㄱㅖ⑨
ㅂㅏᆫㅈㅡᆼ
ㄱㅏᆸㅇㅗᆺ
ㅎㅣ⑨ㄷㅔ⑨
ㄹㅏ⑨ㅇㅣ⑨ㅇㅗᆫ
1939
ㄹㅔ⑨ㅇㅣᆯ
ㅂㅜᆫㄱㅣ⑨ㅈㅓᆷ
ㄱㅓ⑨ㄴㅣᆯ
ㅂㅜᆯㅂㅕᆫ
ㄱㅡᆷㅅㅜ⑨
##ㄱㅗ⑨ㄹㅣ⑨ㅈㅡᆷ
ㅂㅐᆨㅅㅜ⑨
ㅇㅕᆫㄹㅏᆨㅊㅓ⑨
ㅁㅏᆽㄷㅏᆨㄸㅡ⑨ㄹㅣ⑨
ㅇㅛ⑨ㅅㅔᆸ
290
ㄷㅏ⑨ㅇㅣ⑨ㅂㅣᆼ
ㄱㅘᆼㅎㅘ⑨ㅁㅜᆫㄱㅘᆼㅈㅏᆼ
ㅊㅓᆼㅈㅓᆼㄱㅣ⑨
ㅎㅏᆫㅈㅣᆫㅈㅜᆼㄱㅗᆼㅇㅓᆸ
##ㅈㅏ⑨ㅇㅣ⑨
ㅍㅗ⑨ㅇㅗᆼ
ars
ㄱㅣ⑨ㄱㅖ
ㅇㅣᆫㅅㅏ⑨ㅇㅣ⑨
ㅇㅠ⑨ㅁㅣᆫ
ㅂㅡᆯㄹㅜᆷㅂㅓ⑨ㄱㅡ⑨
ㅅㅜᆷㅌㅗᆼ
ㅇㅣ⑨ㄱㅣ⑨ㅈㅜ⑨ㅇㅢ⑨
ㅇㅕ⑨ㅈㅜ⑨ㅇㅣᆫㄱㅗᆼ
ㅈㅓᆫㅇㅠ⑨
ㅁㅜᆫㅎㅗ⑨
ㅎㅏᆷㅍㅕᆼ
ㅊㅜᆯㅇㅕᆫㅈㅣᆫ
ㅌㅏ⑨ㄹㅡ⑨
ㅈㅜ⑨ㅇㅓ⑨
ㄱㅘᆫㅇㅘᆼ
ㅎㅕᆫㅎㅘ
ㅈㅣᆨㅂㅜᆯ
ㅊㅓᆫㅅㅓᆼ
ㅇㅏ⑨ㅅㅡᆯㅇㅏ⑨
##ㄱㅡᆯㄹㅏ⑨
ㅁㅔᆷㅂㅓ⑨ㅅㅣᆸ
##ㅎㅘ⑨ㅁㅜᆯ
ㄱㅣ⑨ㅁㅕᆼ
ㅈㅓᆼㅁㅐᆨ
ㅇㅛᆼㅇㅣ⑨ㅎㅏ⑨
ㅈㅗ⑨ㅈㅣ⑨ㅇㅏ⑨
ㅇㅏᆯㄱㅗ⑨ㄹㅣ⑨ㅈㅡᆷ
ㅍㅔ⑨ㄷㅏᆯ
ㅌㅏᆫㅎㅐᆨㅇㅏᆫ
##ㅍㅏ⑨ㄴㅣ⑨
ㅅㅣ⑨ㅇㅏᆫ
ㅅㅏᆼㄱㅜᆼ
ㄸㅐ⑨ㅁㅏ⑨
ㄷㅣ⑨ㄹㅔᆨ
ㄱㅚᆼㅈㅏᆼㅎㅏ⑨
ㄱㅏᆼㄱㅏ⑨
ㄲㅏᆷㄲㅏᆷ
ㅈㅏᆷㅅㅣᆨ
ㅋㅡᆯㄹㅣ⑨ㅂㅡᆯㄹㅐᆫㄷㅡ⑨
dav
ㅂㅐ⑨ㅂㅜ⑨
ㄷㅐ⑨ㅎㅏᆫㅈㅔ⑨ㄱㅜᆨ
ㄱㅐ⑨ㅎㅚ⑨ㅅㅣᆨ
fir
ㅅㅣᆫㅅㅣ⑨
ㄱㅣᆯㄹㅐ⑨
ㄴㅏᆯㅇㅏ⑨ㄷㅡᆯ
ㅍㅗ⑨ㅅㅏᆼㄱㅡᆷ
ㅇㅠ⑨ㅈㅓᆼㅂㅗᆨ
ㅈㅏᆼㅂㅗᆫㅇㅣᆫ
kㅅㅡ⑨ㅍㅗ⑨ㅊㅡ⑨ㅈㅐ⑨ㄷㅏᆫ
##ㄱㅘᆫㅇㅘᆼ
ㅈㅣᆸㅎㅚ
ㅁㅜᆫㅎㅘ⑨ㅈㅔ⑨
ㅆㅏᆨㅆㅡᆯ
ㄱㅜ⑨ㅅㅓᆯ
ㅂㅏᆨㅇㅡᆫ
ㅈㅏᆸㅊㅗ⑨
ㄴㅏ⑨ㅇㅣᆫ
test
ㅈㅏ⑨ㅍㅕᆼ
##are
ㅎㅏᆫㅎㅘ⑨ㄱㅡ⑨ㄹㅜᆸ
ㅁㅣᆫㅇㅝᆫㅇㅣᆫ
ㅇㅜ⑨ㄹㅜ⑨ㄱㅘ⑨
##ㅈㅓᆼㄱㅝᆫ
ㅂㅏ⑨ㅎㅡ⑨
ㅇㅣᆼㅋㅡ⑨
1936
ㅅㅗ⑨ㅇㅛᆼㅇㅓᆹ
ㅂㅣ⑨ㅇㅏ⑨ㄴㅑᆼ
ces
##ㄹㅏ⑨ㄱㅣ⑨
ㅇㅣᆯㄷㅏᆼ
##ㅁㅓᆫㅌㅡ
ㅁㅗᆺㅁㅏ⑨ㄸㅏᆼㅎㅏ⑨
ㅁㅏ⑨ㄹㅣ
1933
ㅅㅔ⑨ㅁㅜ⑨ㅅㅓ⑨
##ㄸㅜ⑨ㄱㅣ⑨
ㅎㅏᆨㄱㅜᆫ
ㄹㅕ⑨ㄷㅏ⑨ㄱㅏ⑨
ㅇㅣᆯㅂㅜ⑨ㅂㅜᆫ
ㄱㅣ⑨ㅅㅓᆫ
ㄷㅓᆷㅍㅣᆼ
ㄹㅏ⑨ㄷㅗ
ㅎㅡᆷㅃㅓᆨ
##ㅁㅓᆺ
ㅇㅏ⑨ㅇㅏ
1905
ㄹㅣᆯㄹㅣ⑨
##ㅂㅣᆨ
ㅇㅣ⑨ㄹㅠᆨ
ㅅㅓᆫㅈㅗᆼ
ㅇㅠ⑨ㅁㅗᆨ
ㅌㅡ⑨ㄹㅜ⑨
ㅅㅗᆫㅅㅜ⑨ㄱㅓᆫ
ㅅㅏ⑨ㅊㅔ⑨
ㅂㅜᆫㅅㅣᆫ
ㅎㅗᆷㅈㅡ⑨
ㅁㅏᆼㄹㅏ⑨
ㅇㅗ⑨ㄹㅏᆨㄱㅏ⑨ㄹㅏᆨ
##ㄷㅏ⑨ㄷㅡ⑨
ㅂㅏᆼㄱㅘᆫ
ㅇㅣ⑨ㅊㅓᆼㅇㅛᆼ
ㄱㅏᆫㄱㅏᆫ
ㄱㅗᆯㅊㅣ⑨
ㄱㅜᆨㅈㅔ⑨ㅎㅚ⑨ㅇㅢ⑨
ㅊㅓᆼㅅㅗ⑨ㄱㅣ⑨
ㅍㅓ⑨ㄹㅔ⑨ㅇㅣ⑨ㄷㅡ⑨
pres
##ha
ㅌㅗᆼㅍㅜᆼ
ㅎㅘᆫㄷㅏᆷ
ㅊㅏᆼㄱㅏ⑨
ㅈㅡᆼㅎㅜ⑨ㄱㅜ
ㄷㅟ⑨ㅈㅣᆸㅇㅓ⑨ㅆㅡ⑨
ㅎㅏᆫㅁㅗ
ㅇㅏ⑨ㄹㅣ⑨ㄹㅏ
ㅇㅣ⑨ㅂㅜᆫㅂㅓᆸ
ㅅㅓ⑨ㄷㅜ⑨
##ㅍㅛ⑨ㅅㅣ⑨
ㅎㅏ⑨ㅂㅓ⑨ㄷㅡ⑨ㄷㅐ⑨
ㅁㅗ⑨ㅅㅡ
ㄷㅐ⑨ㅍㅛ⑨ㅅㅣᆯ
ㅅㅗᆨㅅㅏᆼㅎㅏ⑨
ㅂㅏᆨㅇㅣᆫㅂㅣ⑨
ㄴㅏ⑨ㅌㅡ⑨ㄹ
ㅇㅏ⑨ㄹㅚ⑨
ㅇㅘᆼㄸㅏ⑨
ㅅㅓᆫㅈㅓᆨ
ㅅㅓᆨㅌㅏᆸ
ㅋㅐ⑨ㄹㅣ⑨
ㅎㅚ⑨ㄱㅖ⑨ㅅㅏ⑨
##ㄹㅓᆯㄷㅡ⑨
ㅂㅏᆨㅅㅓᆨ
gtx
ㅇㅏ⑨ㅅㅡᆯㅇㅏ⑨ㅅㅡᆯ
ㄷㅗ⑨ㅈㅣ⑨
ㅅㅣ⑨ㅎㅘᆼ
ㅈㅜ⑨ㅇㅓᆯㄹㅣ⑨
ㄷㅓ⑨ㄱㅜ
ㅎㅘ⑨ㅂㅓᆸ
ㅎㅐ⑨ㅅㅓ
##ㅔᆫㅌㅡ
##ㄴㅏ⑨ㅅㅡ⑨
ㄱㅏᆷㄹㅑᆼ
ㅇㅣ⑨ㄷㅗᆼㅅㅣᆨ
ㅂㅓᆸㅊㅣ⑨ㅈㅜ⑨ㅇㅢ⑨
business
ㄹㅗ⑨ㅂㅣᆫ
ㅂㅗ⑨ㅅㅣ⑨
ㄱㅜᆨㅈㅗ⑨
ㅈㅗᆼㅇㅕᆼ
ㅊㅓᆫㅅㅣᆨ
ㅎㅡᆼㄱㅕᆸ
ㅇㅣᆯㄷㅏᆫㄹㅏᆨ
ㅎㅗᆼㅇㅣᆨㅍㅛ⑨
ㅅㅏᆼㅋㅡᆷ
ㅊㅗ⑨ㅇㅡᆷ
ㅁㅏᆽㅁㅓᆨ
nhk
ㅈㅔ⑨ㅈㅗ
##ㅇㅢ⑨ㅅㅏ⑨
##ㅇㅓ⑨ㅌㅣ⑨
ㅁㅜ⑨ㅇㅟ⑨
ㅋㅗ⑨ㅌㅣᆼ
##ㅂㅗᆼㅈㅜ⑨
ㅅㅣᆫㅅㅓᆫㅎㅏ⑨
ㅅㅓᆼㅊㅟ⑨ㄷㅗ⑨
ㅅㅓ⑨ㄹㅓᆸ
ㅅㅏᆼㄹㅗᆨ
ㄷㅗᆼㄱㅏᆸ
ㅅㅏᆷㅇㅑᆼ
ㅅㅏᆷㅅㅓᆼㅋㅏ⑨ㄷㅡ⑨
ㅋㅓ⑨ㅂㅡ⑨
ㄸㅜᆼㄸㅜᆼ
ㅅㅗᆼㅂㅜ⑨
ㄹㅔ⑨ㅁㅗᆫ
ㄴㅗᆨㅈㅗ⑨
ㄱㅘᆼㄱㅗ⑨ㅈㅜ⑨
1941
ㅇㅏ⑨ㄷㅗ
ㅈㅣᆫㄷㅜ⑨
ㅍㅏᆫㅅㅓ⑨
ㄱㅗᆼㄱㅡᆸㅈㅏ⑨
##ㅍㅏ⑨ㅋㅡ
ㅇㅕᆫㅁㅕᆼ
ㅍㅡᆯㄹㅗ⑨ㄹㅣ⑨ㄷㅏ⑨
ㅇㅗ⑨ㅅㅡ⑨ㅌㅡ⑨ㄹㅔ⑨ㅇㅣᆯ
##ㅁㅏ⑨ㄹㅜ⑨
ㅈㅓᆼㅅㅓᆨ
ㅈㅣᆫㅈㅜ⑨ㅇㅢ⑨
ㄴㅏᆫㄱㅏᆫ
int
ㄷㅟ⑨ㄷㅓᇁ
ㅈㅏ⑨ㅇㅣ⑨ㅇㅓᆫㅊㅡ⑨
ㅇㅗ⑨ㅅㅡ⑨ㅌㅡ⑨ㄹㅔ⑨ㅇㅣᆯㄹㅣ⑨ㅇㅏ⑨
##ㄷㅔ⑨ㄹㅡ⑨
ㅇㅝᆫㅌㅗᆼ
ㅇㅕᆫㄱㅗᆯ
ㅅㅡᆸㄱㅣ⑨
ㅂㅔ⑨ㄷㅡ⑨ㄹㅗ⑨
ㄹㅐ⑨ㅁㅣ⑨ㅇㅏᆫ
ㅈㅐ⑨ㄱㅖ⑨ㅇㅑᆨ
ㄱㅜᆫㅅㅜ
ㅇㅠ⑨ㅇㅔᆫㄱㅜᆫ
ㄷㅜᆫㅎㅏ⑨
ㅇㅟᆯㅅㅡᆫ
ㅍㅣ⑨ㅂㅗ⑨ㅎㅓᆷㅈㅏ⑨
ㅍㅣ⑨ㅅㅕ⑨
ㅁㅣᆯㄹㅕ⑨ㄷㅡᆯ
ㄴㅐᆼㅂㅏᆼ
ㄹㅏ⑨ㅌㅣᆫㅇㅓ⑨
ㅈㅏᆼㄷㅐ⑨
ㅇㅐ⑨ㅌ
ㅂㅣᆫㅈㅏ⑨ㄹㅣ⑨
ㄱㅏᆷㅁㅣ⑨
ㅈㅓᆯㅎㅗ⑨
ㅇㅐ⑨ㄱㅜᆨㅅㅣᆷ
ㅍㅠ⑨ㅈㅓᆫ
ㅈㅣ⑨ㅂㅓᆸ
ㅈㅣ⑨ㄱㅡᆺ
ㅎㅢ⑨ㅅㅓᆨ
ㄸㅟ⑨ㅇㅓ⑨ㄱㅏ⑨
ㅂㅏᆺㅈㅜᆯ
ㅈㅗ⑨ㅅㅡᆼ
ㅎㅏᆫㄱㅜᆨㄱㅣ⑨
ㅇㅕᆫㄱㅜ⑨ㅂㅣ⑨
##itt
ㅎㅏ⑨ㅇㅣ⑨ㄹㅏ⑨ㅇㅣ⑨ㅌㅡ⑨
##ㅇㅏ⑨ㄱㅣ⑨
##99
ㄷㅐ⑨ㄴㅗᇂ
ㅈㅓᆼㅇㅑᆨ
ㄴㅜᆫㅊㅗ⑨ㄹㅣ⑨
si
##ㅈㅏ⑨ㄹㅜ⑨
ㅈㅓᆼㅂㅏᆨ
ㅅㅗ⑨ㅅㅣᆯ
ㄱㅜ⑨ㅂㅜ⑨ㄹㅣ⑨
ㄱㅘᆼㅇㅜ⑨ㅂㅕᆼ
ㅍㅗᆨㅅㅓᆯ
##ㅋㅜ⑨ㄴㅣ⑨
ㄸㅐ⑨ㅁㅏ⑨ㅊㅣᆷ
keb
ㅈㅜ⑨ㅅㅡᆼ
ㄷㅗᆯㄱㅣ⑨
ㅂㅏᆫㄷㅐ⑨ㅍㅏ⑨
ㅇㅣᆫㅈㅡᆼㅅㅓ⑨
ㅂㅣᆼㅅㅏᆼ
ㅌㅟᆼ
ㅁㅣ⑨ㄴㅏᆷ
ㅈㅏᆨㅈㅓ
ㅍㅏᆫㅁㅐ
ㄹㅣ⑨ㅂㅏ⑨ㅇㅜᆫㄷㅡ⑨
ㅂㅜ⑨ㅍㅣ⑨
ㅇㅑ⑨ㅁ
##ㅁㅣᆫㅈㅜ⑨ㄷㅏ
ㅂㅐ⑨ㅇㅕᆼ
##ㅇㅓᆫㄹㅗᆫ
ㅇㅕᆫㅅㅓᆯㅁㅜᆫ
ㅈㅜᆼㅈㅐ⑨ㅇㅏᆫ
ㅂㅜᆫㅅㅜ⑨ㄹㅕᆼ
ㅎㅏᆫㅁㅗᆪ
ㄱㅏ⑨ㅇㅛᆼ
ㅂㅔ⑨ㄲㅣ⑨
ㅅㅓ⑨ㅇㅜᆯㅅㅣ⑨ㄱㅛ⑨ㅇㅠᆨㅊㅓᆼ
386
ㅎㅐ⑨ㅈㅓᆫ
##ㅅㅣᆷㅈㅏᆼ
ㅎㅘᆼㅈㅓᆼ
ㅊㅜ⑨ㅎㅐᆼ
ㅍㅣ⑨ㅋㅡ⑨
ㅂㅕᆫㄱㅣ⑨
ㅁㅔ⑨ㅌㅡ⑨ㄹㅗ⑨
ㅅㅓᆫㅇㅑᆼ
ㅅㅗ⑨ㅈㅏᆨ
##ㄴㅠ⑨ㅅㅡ
ㄹㅔ⑨ㅇㅣ⑨ㄱㅓᆫ
ㄴㅏᆼㅍㅐ⑨
ㅂㅜ⑨ㅇㅕᆼ
ㅇㅝᆫㄷㅓ⑨
##ㄴㅏᆫㅂㅏᆼ
ㅈㅣᆯㅅㅣᆨ
ㅎㅕᆯㅌㅗᆼ
ㅇㅣ⑨ㅂㅏᆼㅇㅣᆫ
##ㅂㅡ⑨ㄹㅗ⑨ㄷㅡ⑨
ㅈㅣᆫㅈㅜ⑨ㅇㅢ⑨ㄹㅛ⑨ㅇㅝᆫ
book
nhn
ㅈㅓᆼㄹㅕᆼ
ㅈㅔ⑨ㅃㅏᆼ
ㅁㅜᆯㅈㅜᆯㄱㅣ⑨
ㅅㅡᆼㄹㅣ
ㄱㅡᆯㄱㅟ⑨
##ough
ㅇㅓ⑨ㅉㅣ⑨ㄴㅏ⑨
ㅊㅏ⑨ㅇㅣᆸㄱㅡᆷ
ㅍㅡ⑨ㄹㅏᆫㅊㅣ⑨ㅅㅡ⑨ㅋㅗ⑨
ㄱㅗᆼㅈㅓᆫ
ㅋㅗ⑨ㅋㅗ⑨
ㅆㅏᆯㅆㅏᆯ
ㅈㅏ⑨ㅇㅟ⑨ㄷㅐ⑨
ㅅㅐᆫㄷㅡ⑨ㅇㅟ⑨ㅊㅣ⑨
ㅈㅏᆼㅇㅕᆼ
ㅂㅏᆮㅊㅣᆷ
##ㅅㅏ⑨ㅇㅢ⑨
how
ㅋㅡᆷ
ㅈㅏᆼㅈㅜᆼ
ㅊㅜᆯㅈㅓᆼㅅㅣᆨ
ㅇㅠᆫㅈㅗᆼ
ㅌㅔ⑨ㅇㅣᆯㄹㅓ⑨
ㄷㅏᆫㅇㅑᆼ
ㄹㅔ⑨ㅋㅗ⑨ㄷㅡ⑨
ㅈㅣᆫㅂㅗ⑨ㄷㅏᆼ
##ㅌㅡ⑨ㄹㅜ⑨
ㅈㅓᆫㅈㅏ⑨ㅊㅐᆨ
ㅇㅓᆯㄹㅜᆨㅈㅣ⑨
ㅌㅟᆼㄱㅣ⑨
ㅅㅓᆫㅅㅓ⑨
ㅊㅏᆷㅊㅣ⑨
##ㄴㅗ⑨ㅌㅡ⑨
ㅎㅔᆺㄱㅏᆯㄹㅣ⑨
ㅂㅓ⑨ㅈㅣ⑨ㄴㅣ⑨ㅇㅏ⑨
ㅈㅓᆼㅇㅝᆯ
ㅈㅏᆼㅇㅠᆫ
ㄱㅝᆫㅌㅐ⑨
##ㅁㅗ⑨ㅌㅗ⑨
ㄹㅣ⑨ㅂㅔ⑨ㅇㅣ⑨ㅌㅡ⑨
##ㅇㅏ⑨ㄴㅐ⑨ㄹㅣ⑨
ㅈㅏᆨㅍㅜ
ㅇㅚ⑨ㅈㅏ⑨
##ㅅㅡᆯㄹㅣᆼ
ㅅㅡ⑨ㅋㅔ⑨ㅊㅣ⑨
##ㅅㅏ⑨ㄹㅕᆼㄱㅘᆫ
ㄷㅟ⑨ㅂㅏ⑨ㄲㅟ⑨
ㅋㅏ⑨ㅇ
ㄱㅜᆨㄱㅛ⑨
ㅅㅓ⑨ㄷㅗ⑨
ㅍㅗᆨㄱㅕᆨㄱㅣ⑨
ㅍㅣᆯㄹㅏ⑨ㄷㅔᆯ
ㅌㅡᆨㅈㅗ⑨ㅇㅟ⑨
ㅂㅜᆫㅁㅏᆫ
ㄱㅗᆮㅇㅣ⑨ㅇㅓ⑨
ㄸㅏᆼㅂㅗᆯ
ㅇㅜ⑨ㅅㅡᆼㅋㅓᆸ
ㅇㅣᆸㅂㅓᆸㅂㅜ⑨
ㄱㅗᆼㅇㅑ
ㄱㅏᆼㅍㅜᆼ
ㅂㅏᆨㅇㅕᆫ
ㅈㅏᆷㅂㅗᆨ
##ㅂㅏ⑨ㅇㅣ⑨ㅅㅡ⑨
1929
ㅈㅣ⑨ㄱㅏ⑨
ㅅㅏ⑨ㅅㅣ⑨
ㄱㅡ⑨ㄹㅣᆷㅊㅐᆨ
ㅇㅕᆼㅅㅏᆼㅁㅜᆯ
ㅂㅕᆫㅎㅗ⑨ㅅㅏ
ㄱㅘᆨㅅㅏᆼㄷㅗ⑨
##ㄷㅗ⑨ㄹㅣ⑨
ㅅㅓᆫㅈㅓ
ㅇㅕᆨㄷㅗ⑨
ㅋㅐᆷㅍㅔ⑨ㅇㅣ
ㄱㅜᆱㅈㅜ⑨ㄹㅣ⑨
sol
ㅂㅣ⑨ㅅㅓᆨ
ㅇㅕᆨㅇㅚ⑨
##ㅊㅐᆨㅇㅣᆷ
ㅇㅑ⑨ㅅㅜ⑨
ㅈㅓᆯㅂㅏᆨ
ㅋㅗ⑨ㅅㅡ
ㄹㅗᆯㄹㅓ⑨
ㅂㅗ⑨ㅇㅟ⑨
ㄱㅛ⑨ㅌㅗ
ㄱㅏᆫㅅㅓᆫ
ㅅㅡ⑨ㅌㅏ⑨ㅇㅣᆯㄹㅣ⑨ㅅㅣ⑨
educ
ㄱㅛ⑨ㅂㅜ⑨ㄱㅡᆷ
ㅂㅏᆯㄲㅡᇀ
##ames
##ㅅㅓ⑨ㅇㅝᆫ
ㅈㅓᆷㅎㅘ⑨
ㅅㅣ⑨ㅇㅐ⑨ㅌㅡᆯ
ㄷㅏ⑨ㄷㅗᆨ
ㅍㅗ⑨ㄱㅗ⑨
develop
ㅂㅜ⑨ㅅㅣᆨ
ㅌㅔ⑨ㄹㅏ⑨
ㄷㅡᆷㅃㅜᆨ
ㅅㅓ⑨ㅇㅜᆯㅅㅣ⑨ㅊㅓᆼ
ㄱㅘ⑨ㅊㅓᆫㅅㅣ⑨
ㄴㅗᆨㅅㅐᆨㄷㅏᆼ
ㄷㅟ⑨ㄷㅓᇁㅇㅣ⑨
ㄹㅔᆫㅌㅡ⑨
ㅎㅐᆫ
ㅎㅘ⑨ㄷㅏᆫ
ㅇㅡᆷㅇㅏ
ㄴㅓᆨㄴㅓᆨㅎㅏ⑨
ㅇㅝᆫㅅㅔ⑨ㅎㅜᆫ
ㅅㅗ⑨ㅇㅣᆷ
ㄷㅣ⑨ㄷㅣᆷ
ㅇㅣ⑨ㅅㅔ⑨ㄷㅗᆯ
ㅈㅣᆫㅇㅢ⑨
act
ㄱㅛ⑨ㄷㅜ⑨ㅂㅗ⑨
ㅅㅏᆷㅇㅟ⑨ㅇㅣᆯㅊㅔ⑨
ㅈㅜᆯㄹㅣ⑨
1907
ㅅㅣᆯㅈㅣᆨ
ㅂㅗᆼㄱㅡᆸ
ㅈㅗ⑨ㄱㅖ⑨ㅈㅗᆼ
ㅈㅣᆸㅇㅛ⑨ㅎㅏ⑨
##ㅇㅢ⑨ㅈㅓᆼ
##ㅅㅜ⑨ㄹㅗ
ㅈㅗ⑨ㄹㅖ
ㅁㅜ⑨ㄷㅓᆸ
##ㅈㅏᆨㅈㅓᆫ
ㅊㅓᆯㄱㅘᆼ
ㅋㅗᆫㅅㅡ⑨ㅌㅏᆫ
ㄷㅔ⑨ㅂㅟ⑨ㅈㅓᆫ
ㅂㅐᆨㅂㅓᆷ
ㅎㅏᆼㄱㅗᆼㅍㅕᆫ
7500
ㄲㅏᆷㅃㅏᆨ
uhd
##oul
ㅅㅣᆫㄷㅗᆼㅂㅣᆫ
ㅁㅜᆫㅎㅘ⑨ㅂㅜ⑨
hy
ㅎㅐ⑨ㅈㅣᆨ
##ㄱㅡᆯㄹㅗ⑨
ㅁㅓ⑨ㅅㅣᆫ
ㅇㅣ⑨ㅇㅛᆼㅅㅓᆸ
##ㄹㅣ⑨ㅈㅡ⑨
ㅈㅗ⑨ㄷㅗᆼ
##ㅂㅜᆯㄱㅛ⑨
ㅈㅚ⑨ㅇㅏᆨ
ㅇㅕᆼㅅㅏᆫㄱㅏᆼ
ㅅㅓ⑨ㅇㅜᆯㄱㅘᆼㅈㅏᆼ
2400
ㅂㅜ⑨ㅈㅗ
ㅇㅛ⑨ㅋㅗ⑨
##ㄴㅗ⑨ㅇㅟ⑨
##ㅁㅔ⑨ㄷㅡ⑨
ㅂㅣᆫㅇㅑᆨ
##ㄷㅏᆯㄹㅣ⑨ㅅㅡ⑨ㅌㅡ⑨
ㅇㅣᆫㄱㅖ⑨
ㅅㅜᆫㄱㅕᆼ
##ㅌㅣ⑨ㄴㅗ⑨
##enn
ㅁㅣᆮㄱㅣ⑨
ㄱㅐᆯㄹㅓᆨㅅㅣ⑨s
ㅇㅖ⑨ㅇㅓᆫㅈㅏ⑨
ㅌㅜ⑨ㅇㅕᆼ
##ㄴㅕᆫㄷㅏᆫ
ㅌㅗ⑨ㄴㅓ⑨ㅁㅓᆫㅌㅡ⑨
##ㄹㅣ⑨ㅅㅏ⑨
ㅌㅜ⑨ㅇㅑᆨ
ㄴㅗ⑨ㅅㅜᆨㅇㅣᆫ
ㅇㅗᆯㅅㅡ⑨ㅌㅏ⑨ㅈㅓᆫ
ㅇㅡᆫㄴㅣᆨ
ㅈㅜ⑨ㅈㅗ⑨
ㅇㅑ⑨ㄷㅡ
ㅁㅗᆼㄸㅏᆼ
ㅅㅣᆫㅈㅜᆼㅎㅣ⑨
ㄸㅜ⑨ㄹㅕᆺㅇㅣ⑨
rp
ㄱㅗ⑨ㅊㅔ⑨
ㅅㅔ⑨ㅊㅜᆯ
ㄱㅏᆷㅅㅏ⑨ㄱㅘᆫ
##ㅁㅗ⑨ㅇㅡ⑨
ㄹㅣ⑨ㅍㅡ⑨
ㅂㅏᆯㅎㅐᆼㅇㅣᆫ
##ㅋㅏ⑨ㄱㅗᆼㅎㅘ⑨ㄱㅜᆨ
cia
##ㅂㅏᆼㅇㅟ⑨
ㄷㅐ⑨ㅎㅘ⑨ㄹㅗᆨ
##ㅓᆼㅋㅡ⑨
ㅈㅗ⑨ㅊㅏᆫ
coun
ㅅㅓᆼㅇㅕᆨ
ㄱㅜ⑨ㅈㅏ⑨
ㅇㅐᆨㅁㅕᆫ
ㄷㅏ⑨ㄱㅡ⑨ㅊㅣ⑨
ㅇㅏᆫㅌㅏ⑨ㄲㅏ⑨ㅇㅝ⑨ㅎㅏ⑨
ㅉㅣᆯㄹㅣ⑨
ㅇㅏᆯㅉㅏ⑨
ㅈㅏᆫㄱㅡᆷ
##ision
ㅅㅓᆫㄹㅖ⑨
##ㅅㅡ⑨ㅌㅔᆨ
ㅎㅏᆫㄷㅗᆼㅎㅜᆫ
##ㄷㅐ⑨ㅊㅐᆨ
ㅅㅜ⑨ㅈㅗ⑨
ㄴㅐ⑨ㅂㅗ⑨ㅇㅣ⑨
##ㅅㅗ⑨ㄹㅣ
ㄷㅏ⑨ㅅㅡᆼ
ㄱㅛ⑨ㅊㅔ
ㄱㅏᆷㅅㅏ
ㅁㅏ⑨ㅎㅏ⑨
ㄸㅏᆼㅂㅏ⑨ㄷㅏᆨ
ㅇㅢ⑨ㅈㅓᆼㅂㅜ⑨ㅅㅣ⑨
##ㅇㅏ⑨ㅅㅣ⑨
ㅇㅣᆷㄱㅡ
ㄱㅣ⑨ㄱㅡ
ㅇㅗ⑨ㅅㅕᆫ
ㅇㅜ⑨ㅇㅘᆼ
ㅊㅏ⑨ㅇㅣ⑨ㄴㅏ⑨
ㅇㅕ⑨ㄱㅐᆨㄱㅣ⑨
ㄹㅔ⑨ㅂㅏ⑨ㄴㅗᆫ
ㅅㅏ⑨ㅁㅏ⑨ㅇ
ㄷㅗ⑨ㅇㅣᆫ
ㅈㅓᆫㅂㅜᆫ
ㄱㅜᆨㄹㅗᆫ
ㅈㅗ⑨ㄱㅛ⑨
##ange
##ㅇㅔ⑨ㄹㅡᆫ
ㅂㅗᆫㅂㅏᆮ
ㅎㅢ⑨ㄱㅡᆨ
ㅅㅐᆼㄱㅖ⑨ㅂㅣ⑨
ㄷㅐ⑨ㄴㅗᇂㄱㅗ⑨
ㅁㅏᆫㅅㅜ⑨
ㅁㅗ⑨ㄴㅕ⑨
ㅂㅏᆫㄷㅗᆼ
ㅍㅗ⑨ㄱㅜ⑨
ㅌㅏᆯㄹㅔ⑨
ㅈㅏ⑨ㅍㅏᆫ
ㄷㅏ⑨ㄷㅓ⑨
ㅈㅗᆫㅈㅐ
ㅇㅞᆫㅇㅣᆯ
ㅅㅔᆫㅌㅣ⑨ㅁㅣ⑨ㅌㅓ⑨
ㅂㅗ⑨ㄷㅡᆷ
ㅅㅡᆼㅎㅏ⑨
ㅇㅝ⑨ㅊㅣ⑨
ㅇㅏ⑨ㅂㅡ⑨ㄹㅏ⑨ㅎㅏᆷ
ㅂㅏᆯㄱㅏᆨ
##ㄸㅜᆯ
ㅅㅔ⑨ㅇㅏᆫ
ㅅㅏ⑨ㅇㅣ
ㅍㅕᆼㄱㅠ
##ㅅㅡ⑨ㅌㅗᆫ
ᆫㄷㅏ⑨ㄱㅓ⑨ㄴㅏ⑨
ㅇㅠ⑨ㄹㅣᆷ
law
ㅁㅜ⑨ㄷㅡᆼㅅㅏᆫ
ㄱㅘᆫㄷㅐ⑨ㅎㅏ⑨
ㅍㅕᆫㅈㅣᆸㅈㅏᆼ
ㅎㅕᆼㅇㅛᆼㅅㅏ⑨
ㅇㅡᆯㅈㅣ
##ㅌㅔ⑨ㄹㅣ⑨ㅇㅏ⑨
ㅁㅏᆽㅇㅏ⑨ㄸㅓᆯㅇㅓ⑨ㅈㅣ⑨
##ㅅㅔ⑨ㄹㅏ⑨
ㅅㅏᆯㅊㅜᆼㅈㅔ⑨
ㄷㅗ⑨ㅅㅣᆨ
##ㅅㅣᆯㅎㅏ⑨
ㅂㅔ⑨ㄷㅡ⑨
ㅁㅏ⑨ㅇㅜ⑨ㅅㅡ⑨
ㄱㅏᆼㄹㅡᆼㅅㅣ⑨
ㄷㅏᆶ
ㅋㅏ⑨ㅍㅔ
ㄱㅠ
ㄴㅐ⑨ㅅㅏ⑨
ㄱㅏᆸㅍㅏᆫ
ㅇㅠ⑨ㄷㅗᆼㅅㅓᆼ
ㄷㅏᆼㄱㅝᆫㅍㅏ⑨
ㅋㅗ⑨ㄹㅣ⑨ㅇㅏᆫ
ㅊㅗ⑨ㅇㅡᆷㅍㅏ⑨
##ㅌㅣᆨㅅㅡ⑨
ㄱㅜ⑨ㅌㅗ⑨
##ㄷㅣ⑨ㅇㅗ
ㅁㅣᇀㄱㅡ⑨ㄹㅣᆷ
##ㅊㅔᆫ
ㅈㅣ⑨ㄱㅡ
ㅍㅗ⑨ㅅㅡ⑨ㅌㅡ⑨ㅁㅗ⑨
ㅅㅓ⑨ㄱㅟ⑨ㅍㅗ⑨ㅅㅣ⑨
##ㅍㅡ⑨ㅌㅓ⑨
##ㅍㅣ⑨ㄴㅣ⑨
ㅇㅜᆼㅋㅡ⑨ㄹㅣ⑨
ㅅㅏ⑨ㄱㅘᆫㅎㅏᆨㄱㅛ⑨
##ㄷㅡᆫㄱㅏ
ㅅㅐᆺ
##iff
ㅁㅗᆺㄴㅏ⑨
ㅇㅕᆫㅅㅜ⑨ㄱㅜ⑨
ㅁㅐ⑨ㅅㅜ⑨ㅅㅔ⑨
ㅈㅓᆼㅁㅜ⑨ㅇㅟ⑨
ㅂㅐᆨㅎㅕᆯㅂㅕᆼ
ㅊㅜᆨㄱㅜ⑨ㅈㅏᆼ
ㄱㅜᆨㅁㅜᆫ
ㅋㅡᆯㄹㅏ⑨
ㅎㅕᆸㅈㅜ⑨
ㄴㅜ⑨ㅈㅣᆫ
ㅌㅜ⑨ㅇㅓ
ㅍㅖ⑨ㄷㅏᆫ
ㄴㅐ⑨ㄷㅣ⑨ㄷㅣ⑨
ㅂㅓᆸㅊㅣ
ㅈㅓᆯㄱㅠ⑨
ㅇㅏᆷㅅㅔ⑨ㅍㅗ⑨
ㅎㅜ⑨ㅋㅜ⑨ㅇㅗ⑨ㅋㅏ⑨
##ㄴㅏ⑨ㄱㅣ⑨
ㅇㅕ⑨ㅁㅕᆼ
ㅅㅏᆼㄴㅏᆸ
ㅅㅓ⑨ㅌㅜᆯ
ㅅㅜᆷㄱㅕᆯ
##ㄱㅏ⑨ㅇㅡᆯ
ㅊㅐᆨㅈㅏᆼ
ㅎㅏ⑨ㅅㅜ⑨ㄷㅗ⑨
ㅂㅏᆯㅈㅏ⑨
2200
ㅈㅘ⑨ㅈㅣ⑨ㅇㅜ⑨
##ㅂㅠ
ㅁㅜ⑨ㄴㅏᆫ
ㄹㅏ⑨ㅁㅏ⑨
##ㅂㅏᆯㅊㅣ⑨
ㅈㅘ⑨ㅊㅗ⑨
ㅂㅣᆫㅅㅗᆫ
bet
ㅅㅓᆼㅋㅡᆷ
ㅎㅏᆨㅎㅚ
ㅅㅣᆷㅅㅓᆼ
ㅊㅜ⑨ㅈㅣᆼㄱㅡᆷ
ㅇㅔ⑨ㅂㅓ⑨ㄹㅐᆫㄷㅡ⑨
ㅊㅓᆼㄴㅕ
ㅇㅏ⑨ㅇㅣ⑨ㅍㅏ⑨ㅋㅡ⑨
ㅈㅓᆼㅊㅐᆨㄱㅘᆫ
ㅎㅛ⑨ㄷㅗ⑨
ㅅㅡ⑨ㅌㅔ⑨ㅇㅣᆫ
ㅅㅜ⑨ㅎㅐᆼㅇㅝᆫ
##ute
##ㅇㅏ⑨ㄹㅡ⑨
ㅈㅐ⑨ㅇㅢ⑨
ㅊㅣ⑨ㅁㅣᆯㅎㅏ⑨
ㅈㅘ⑨ㅊㅡᆨ
ㅎㅟ⑨ㅊㅓᆼ
ㅇㅕᆼㅎㅘ⑨ㅅㅏ⑨
ㄷㅏᆸㅂㅏᆼ
ㅅㅗᆨㄷㅗ⑨ㄱㅏᆷ
ㅍㅕᆷㅎㅞ⑨
ㄱㅕᆼㄱㅏᆨㅅㅣᆷ
##ㅅㅣᆫㄹㅏ⑨
##ster
ㅂㅏᆯㄷㅡᆼ
ㄷㅗᆨㅎㅐ⑨
ㅇㅠᆫㅅㅓᆼ
##ㅋㅏ⑨ㄷㅡ
ㅇㅏᆫㅊㅏᆨ
ㅇㅏᆯㄹㅔᆨㅅㅡ⑨
ㅈㅜ⑨ㄱㅏᆫㅈㅣ⑨
ㅎㅕᆫㅊㅜᆼㅇㅝᆫ
ㅌㅔ⑨ㅇㅗ⑨
ㄱㅣᆷㅇㅕᆼㅇㅜ⑨
ㅂㅕ⑨ㄹㅡ⑨
ㅈㅓᆼㅂㅕᆼㄱㅜᆨ
ㅍㅗ⑨ㅎㅚᆨ
ㅁㅐ⑨ㄴㅣ⑨ㅈㅣ⑨
##ㅅㅣ⑨ㄱㅖ⑨
##ㅅㅗᆫㅎㅐ⑨
ㅈㅣ⑨ㅈㅏ⑨ㅊㅔ⑨ㅈㅏᆼ
ㅋㅓᆯㄹㅣᆼ
ㅈㅔ⑨ㅅㅡ⑨ㅊㅓ⑨
ㄴㅐ⑨ㅇㅑ⑨
ㅇㅖ⑨ㅊㅣ⑨
ㅅㅜᆫㄱㅜᆨ
ㄱㅡᆸㅎㅐᆼ
ㅎㅚᆼㄷㅏᆫㅂㅗ⑨ㄷㅗ⑨
ㅈㅗ⑨ㅇㅝᆫㅈㅣᆫ
ㅅㅣᆫㄱㅗ
ㅂㅐ⑨ㅇㅕᆨ
ㄱㅡᆷㅅㅗᆨㄴㅗ⑨ㅈㅗ⑨
ㅇㅔᆫㅆㅣ⑨ㅅㅗ⑨ㅍㅡ⑨ㅌㅡ⑨
##yl
ㅁㅣ⑨ㄷㅣ⑨ㅇㅓ⑨ㅇㅗ⑨ㄴㅡᆯ
ㅈㅓᆼㄱㅏᆼ
ㅇㅗ⑨ㅅㅣᆸ
sur
ㄱㅛ⑨ㅇㅠᆨㅎㅏᆨ
ㄹㅣ⑨ㅇㅓᆯㄹㅣ⑨ㅈㅡᆷ
ㅁㅗ⑨ㅎㅏᆷ
##ㅈㅗ⑨ㅊㅣ⑨
ㅌㅜ⑨ㅍㅛ
ㅇㅕᆫㅅㅏ⑨
ㄷㅗᆼㅁㅐ
ㅎㅏᆼㄱㅗ⑨
850
ㅅㅗ⑨ㅅㅗ
##ㅇㅠ⑨ㄱㅜᆨ
ㅅㅠ⑨ㅌ
ㅈㅜ⑨ㅅㅗ⑨ㅈㅣ⑨
ㅊㅓ⑨ㄹㅣ
ㅈㅘ⑨ㅈㅣ⑨ㅇㅜ⑨ㅈㅣ⑨
ㅅㅏ⑨ㅇㅓᆸㅅㅗ⑨
ㄷㅐ⑨ㄱㅜ⑨ㅅㅣ⑨ㅈㅏᆼ
ㅂㅏᆼㅁㅜᆫㅈㅏ⑨
ㅈㅣᆼㅇㅕᆨㅎㅕᆼ
ㅈㅣ⑨ㅂㅜ
ㅈㅓᆫㅌㅐ⑨
ㅇㅗᆯㄹㅣᆷㅍㅣ
ㅅㅡᆼㅂㅜ⑨ㅊㅓ⑨
ㅁㅗᆼㄱㅗ⑨
ㅈㅓᆫㄹㅠ⑨
ㅈㅏᆨㄱㅏ
ㅍㅣ⑨ㅊㅣᆼ
ㄱㅡᆫㅈㅓ⑨
1944
ㅈㅓᆫㄷㅗᆼㅊㅏ⑨
this
ㅈㅗ⑨ㄷㅏᆯㅊㅓᆼ
ym
##ㅅㅞ⑨
ㄱㅕᆼㅅㅜ⑨
ㅅㅓᆫㅅㅣᆷ
ㅍㅡᆯㄹㅜ⑨ㅌㅗ⑨
ba
ㅋㅣᆷ
ㅎㅗᆸ
##ㅅㅣᆺ
ㅇㅔ⑨ㅇㅝ⑨
ㅅㅓ⑨ㄱㅡᆯ
ㅅㅐᆼㅁㅕ
ㅎㅕᆼㄱㅘᆼ
ㅈㅗᆼㅈㅜ⑨
##ㄱㅣ⑨ㄴㅡᆼ
ㅇㅣᆯㄹㅖ⑨
ㅈㅓᆫㅎㅐ⑨ㅊㅓᆯ
ㅍㅕᆼㄴㅕᆫ
ㅇㅏ⑨ㅇㅣ⑨ㅌㅣ⑨
ㅍㅡ⑨ㄹㅓᆫ
ㅊㅣᆯㅎㅏ⑨
ㅈㅓᆼㅁㅕᆼ
ㅈㅔ⑨ㅇㅓᆫ
##ㅈㅜᆫㅎㅗ⑨
ㅈㅣᆯㅎㅘ
ㅁㅗ⑨ㄴㅣᆼ
ㅅㅔ⑨ㅂㅡ⑨ㄹㅏᆫㅅㅡ⑨
ㄷㅜ⑨ㅁㅏᆯ
ㄴㅓ⑨ㄱㅡ⑨ㄹㅓᆸ
ㅂㅔ⑨ㅌㅏ⑨
ㄱㅏ⑨ㅊㅏᆼ
ㅂㅏᆼㅈㅡᆼ
ㄴㅗ⑨ㅇㅡᆯ
ㅂㅕᆼㅈㅏ⑨
ㅁㅜ⑨ㅇㅖ⑨
ㅅㅏᆷㅊㅓᆼㄷㅗᆼ
ㅊㅜᆯㅅㅏ
ㅍㅜᆼㄱㅖ⑨ㄹㅣ⑨
ㅋㅡ⑨ㄹㅏ⑨ㅇㅣ⑨
ㅈㅣ⑨ㄱㅡ⑨
ㅅㅜ⑨ㅈㅗᆨ
ㅌㅡ⑨ㄹㅔ⑨ㅋㅣᆼ
ㅎㅜ⑨ㅇㅖ⑨
ㄴㅏᆯㅇㅏ⑨ㅇㅗ⑨ㄹㅡ⑨
ㅌㅡᆨㄱㅗᆼ
ㅇㅣᆫㄷㅗ⑨ㅈㅜ⑨ㅇㅢ⑨
ㅂㅜ⑨ㄱㅏ⑨ㅅㅔ⑨
ㅂㅕᆫㅎㅏᆷㅇㅓᆹㅇㅣ⑨
ㅅㅑᆷㅍㅜ⑨
ㅋㅏᆨ
ㄱㅝᆫㄹㅣ
ㅇㅐ⑨ㄹㅣ⑨ㅈㅗ⑨
##que
##ㅍㅔ⑨ㄹㅡ⑨
ㄱㅛ⑨ㅎㅘᆼㅊㅓᆼ
ㅂㅜ⑨ㄹㅓ⑨ㅇㅝ⑨ㅎㅏ⑨
ㅂㅏᆼㅌㅗᆼ
ㅎㅐ⑨ㅅㅏᆼㄷㅗ⑨
ㅍㅡᆯㄹㅓ⑨ㅅㅡ
ㅎㅏ⑨ㅅㅜᆨ
ㅈㅓᆫㄹㅐ⑨
ㅎㅏᆫㄱㅕᆼ
ㅈㅜᆫㄱㅗᆼㅅㅣᆨ
ㅅㅓ⑨ㅌㅐ⑨
ㅁㅏᆯㅆㅓᆼ
##12
ㅇㅛᆼㅈㅓᆸ
ㅅㅓᆫㄱㅓ⑨ㅈㅓᆫ
ㅈㅓᆼㅎㅘᆨㄷㅗ⑨
ㄱㅣᆺㅌㅓᆯ
ㅂㅏᆨㅎㅗᆼㄱㅡᆫ
##ㄷㅡᆯㄹㅔ⑨
ㅅㅏ⑨ㅈㅐ⑨
ㅌㅗᆼㅇㅣ
ㅅㅏᆫㅊㅓᆫ
ㅋㅏ⑨ㅌㅡ⑨
##ㄲㅗ⑨ㄹㅣ⑨
ㄱㅘᆫㅎㅕᆫ
ㅇㅏᆯㄹㅏ⑨
ㄱㅣ⑨ㅅㅜᆯㅇㅝᆫ
ㅊㅏ⑨ㄹㅑ
ㅎㅏ⑨ㅎㅏ⑨ㅎㅏ
ㅊㅏ⑨ㄴㅏᆷ
ㄲㅓᆷ
ㅈㅓᆼㅎㅢ⑨
ㄷㅐ⑨ㅇㅜ⑨ㅈㅡᆼㄱㅝᆫ
ㅇㅣ⑨ㅅㅓᆨㄱㅣ⑨
ㅁㅣᆫㄱㅕᆼㅇㅜᆨ
ㅂㅜ⑨ㅁㅜ
ㅈㅜᆼㅎㅘᆫㅈㅏ⑨
ㄱㅓ⑨ㄹㅐ
ㅇㅏᆨㅎㅏ⑨
ㅅㅏᆼㅅㅓᆫ
ㄷㅟᆺㅈㅓᆫ
##ㅅㅏ⑨ㅈㅓᆫ
##ㅋㅡᆫ
ㅁㅕᆫㅈㅚ⑨
##ㅂㅗ⑨ㄹㅏ⑨
2050
ㅌㅗ⑨ㄹㅗᆫㅌㅗ⑨
ㄷㅡᆯㅇㅕ⑨ㄴㅗᇂ
ㅊㅔ⑨ㅈㅡᆼ
ㅁㅣᆯㅅㅣᆯ
ㅅㅣᆫㄱㅕᆼㅈㅣᆯ
##ㅂㅡ⑨ㄹㅏ⑨
ㅂㅏᆯㅍㅗ⑨
ㅌㅏᆯㅅㅏᆷㅈㅣᆫ
##ㅁㅓᇂ
ㄷㅗ⑨ㅈㅓᆨ
ㅇㅠ⑨ㅇㅣᆷ
ㄷㅓᆫㄱㅏ⑨
ㅊㅜᆯㅅㅗ⑨
ㅎㅗ⑨ㅌㅗᆼ
ㄱㅜᆫㅂㅗᆨ
##ㅁㅏᆨㅎㅣ⑨
##ㅇㅢ⑨ㄷㅗᆼ
ㄱㅣᆷㅇㅣ⑨
ㅇㅖ⑨ㅈㅓᆼㅈㅏ⑨
ㅇㅕᆫㅊㅜᆯㄱㅏ⑨
ㅂㅓᆸㅈㅔ⑨ㅊㅓ⑨
ㅇㅏ⑨ㅇㅣᆫㅅㅠ⑨ㅌㅏ⑨ㅇㅣᆫ
##ㅋㅜ
ㅁㅜᆯㄷㅡᆯㅇㅣ⑨
ㅁㅝᆺ
ㅂㅏᆼㅁㅕᆼ
ㄱㅜᆮㄱㅓᆫㅎㅣ⑨
air
ㄱㅗ⑨ㄷㅚ⑨
ㅂㅏᆼㅂㅣ⑨
##ㄱㅓ⑨ㅈㅏᆼ
ㅎㅏᆫㄱㅜᆨㅇㅑ⑨
ㄱㅏᆫㅍㅏ⑨
ㄱㅘ⑨ㅎㅏᆨㄱㅗ⑨
ㅇㅣ⑨ㅈㅜ⑨ㅇㅕᆼ
ㅅㅔ⑨ㄱㅖ⑨ㅇㅠ⑨ㅅㅏᆫ
ㅇㅏ⑨ㅁㅜ⑨ㄱㅐ
ㅅㅔ⑨ㅈㅗᆼㄹㅗ⑨
ㄲㅏ⑨ㅁㅏ⑨ㄱㅟ⑨
ㅎㅏᆫㄹㅏ⑨ㅅㅏᆫ
##ive
ㅎㅠ⑨ㅇㅑᆼㅈㅣ⑨
ㅋㅐᆯ
##yn
ㅈㅓᆼㅊㅟ⑨
ㄱㅜᆨㅂㅜ⑨
ㅈㅜᆼㅈㅗᆼ
##ㅇㅕᆫㄹㅛ⑨
ㅅㅣᆷㅅㅏ
ㄱㅓᆯㅈㅏᆨ
ㅅㅏᇀ
##ㅁㅣᆫㅈㅜ⑨ㅈㅜ⑨ㅇㅢ⑨
ㅍㅜᆯㅃㅜ⑨ㄹㅣ⑨
ㅈㅣ⑨ㄷㅐ
ㄱㅜ⑨ㄹㅕ
ㄱㅖ⑨ㅈㅏᆼ
ㅇㅜᆫㅈㅓᆫㅅㅓᆨ
ㅊㅜᆯㄷㅏᆼ
ㄱㅜᆯㄱㅗᆨ
ㅅㅣᆶㅇㅓ⑨ㅎㅏ⑨
green
ᆸㅅㅗ⑨ㅅㅓ
##ㅊㅞ⑨
ㄷㅏᆼㅍㅏ⑨
ㄷㅏ⑨ㅇㅣ⑨ㅇㅗ⑨
ㄹㅏ⑨ㅇㅜᆫㅈㅣ⑨
ㅅㅓᆫㄱㅜ⑨ㅈㅏ⑨
ㅂㅗ⑨ㅇㅜ⑨
##ㅊㅏᆷㅇㅕ⑨
##────────
ㅇㅏ⑨ㅁㅣ⑨ㄴㅗ⑨
np
ㄱㅕᆼㄹㅕᆫ
ㅎㅗ⑨ㅂㅏᆫ
ㅊㅐ⑨ㅈㅓᆷ
##lex
ㅎㅏ⑨ㅊㅡᆼ
ㅅㅓ⑨ㅊㅓᆫ
ㅇㅜ⑨ㅅㅓ
ㅂㅏᆼㅍㅕᆫ
ㄱㅡᆫㅁㅜ⑨ㅈㅏ⑨
ㅂㅏ⑨ㄱㅏ⑨ㅈㅣ⑨
##ㅅㅜ⑨ㄷㅗ⑨
##ㅍㅏ⑨ㅇㅝᆫ
ㅂㅏᆨㅁㅜᆯㄱㅘ
ㅇㅑ⑨ㅇㅠ⑨
ㅋㅓ⑨ㅍㅣ⑨ㅅㅛᆸ
ㅅㅓᆷㅅㅔ⑨ㅎㅏ⑨
ㄱㅣ⑨ㅂㅏᆯ
##ㄹㅔ⑨ㅅㅡ⑨ㅌㅡ⑨
ㄷㅐ⑨ㅎㅏᆫㅅㅏᆼㅇㅢ⑨
ㅇㅗ⑨ㄹㅣ⑨ㅇㅗᆫㅅㅡ⑨
ㄷㅏᆷㅂㅐᆨㅎㅏ⑨
ㄱㅗ⑨ㅊㅜ⑨ㅈㅏᆼ
ㅇㅜ⑨ㄹㅜ⑨ㄱㅘ⑨ㅇㅣ⑨
ㅈㅓᆫㅈㅐ⑨
ㅈㅡᆼㅈㅏ⑨
ㅁㅐᆫㅎㅐ⑨
ㅇㅏ⑨ㄴㅏᆨ
ㅇㅐᆯㄹㅓᆫ
ㅍㅣᆯㄹㅏ⑨ㄷㅔᆯㅍㅣ⑨ㅇㅏ⑨
ㄷㅡ⑨ㄹㅗ⑨
ㅈㅣ⑨ㅎㅜᆫ
ㅅㅔ⑨ㅂㅣ⑨
ㄷㅏ⑨ㄷㅏᆼ
ㅇㅖ⑨ㅁㅔᆫ
ㅊㅓᆫㅎㅖ⑨
teu
ㅇㅡᆸㄴㅐ⑨
ㅂㅡᆯㄹㅏ⑨ㄷㅣ⑨ㅂㅗ⑨
sat
ㅇㅕᆨㅅㅏᆷ
ㅅㅣᆷㄱㅡᆫ
ㅈㅣᆫㅇㅣᆸㄹㅗ⑨
ㅍㅔᆫㅅㅕᆫ
ㅁㅜ⑨ㅅㅜ⑨ㅎㅣ⑨
ㄷㅐ⑨ㅇㅑᆼ
ㅊㅚ⑨ㅎㅢ⑨
ㅎㅟ⑨ㅎㅏ⑨
mit
##ㄹㅏ⑨ㄹ
ㅅㅗ⑨ㄴㅕ
ㅊㅓᆫㅈㅣᆫ
ㅂㅏ⑨ㅇㅣ⑨ㅇㅔ⑨ㄹㅡᆫ
##ㅎㅜ⑨ㅂㅗ⑨
ㅅㅗᆫㅎㅖ⑨ㅇㅝᆫ
ㅊㅓᆫㅇㅣᆯ
ㄱㅕᆼㅇㅕᆼㅎㅏᆨㄱㅘ⑨
ㅅㅜᆨㄱㅗ⑨
ㅈㅓᆼㄷㅜ⑨ㅇㅓᆫ
ㄷㅐ⑨ㅊㅜ⑨
ㄱㅣ⑨ㅎㅕᆫ
ㅌㅗᆼㄴㅕᆷ
##ㄱㅣ⑨ㄴㅕᆷㄱㅘᆫ
ㅂㅗ⑨ㅎㅗ
ㅈㅏ⑨ㅌㅐ⑨
ㅂㅜᆫㅇㅓᆸ
ㅅㅣ⑨ㅋㅡ⑨ㄹ
ㅎㅐ⑨ㅍㅡ⑨ㄴㅣᆼ
ㅂㅏᆼㅁㅕᆼㄹㅗᆨ
##77
ㄱㅔ⑨ㄹㅣᆯㄹㅏ⑨
ㅇㅝᆯㄱㅏ⑨
ㅁㅐ⑨ㄴㅓ⑨
ㄷㅟ⑨ㅇㅓ
##ㄷㅏ⑨ㅂㅗ⑨ㅇㅣ⑨
ㅅㅜ⑨ㅁㅗ⑨
ㅅㅔ⑨ㄱㅏ⑨
##ㅌㅗᆼㅇㅜᆫ
ㅇㅣᆸㅇㅕᆼ
##ins
ㅌㅔ⑨ㅋㅡ⑨ㄴㅣᆨ
##ㄴㅏ⑨ㅁㅜ
dem
##ㅁㅏ⑨ㅇㅣᆯ
ㅇㅣ⑨ㅇㅛ⑨
ㄱㅕᆨㅌㅜ⑨
ㅅㅗᇀ
ㄱㅏᆼㄴㅏᆷㅇㅕᆨ
ㅍㅡᆯㄹㅏ⑨ㅈㅏ⑨
ㄱㅏ⑨ㄹㅏ⑨ㅇㅏᆬㅎㅣ⑨
ㅅㅣ⑨ㅎㅓ
ㅎㅏᆫㄱㅜᆨㅅㅏᆫㅇㅓᆸ
ㅎㅏᆫㄱㅜᆨㅌㅜ⑨ㅈㅏ⑨ㅈㅡᆼㄱㅝᆫ
ㅍㅡ⑨ㄹㅐᆼㅋㅡ⑨
ㅅㅣᆷㄹㅣ⑨ㅎㅏᆨㅈㅏ⑨
ㅇㅓᆮㅇㅓ⑨ㅁㅏᆽ
ㅎㅗᆺ
ㅅㅜ⑨ㅅㅓ⑨
ㅅㅣ⑨ㄱㅜ⑨
ㅁㅏᆽㅈㅏᆸ
ㅇㅡᆼㄷㅏ
ㅅㅔ⑨ㅈㅗᆼㅁㅜᆫㅎㅘ⑨ㅎㅚ⑨ㄱㅘᆫ
ㄱㅐᆨㅊㅔ⑨
ㅍㅔ⑨ㅁㅣ⑨ㄴㅣ⑨ㅅㅡ⑨ㅌㅡ⑨
ㅇㅏᆫㅈㅗᆼㅂㅓᆷ
##we
ㅂㅏᆼㅂㅓᆷ
ㅎㅏᆼㅊㅔ⑨
ㅎㅓ⑨ㄷㅏ⑨
ㅍㅓ⑨ㅈㅡᆯ
ㅈㅗ⑨ㅅㅗ⑨
##ㅇㅜ⑨ㅎㅚ⑨
ㅇㅣᆫㄱㅗᆼㅇㅟ⑨ㅅㅓᆼ
ㄱㅓᆫㅇㅢ⑨ㅇㅏᆫ
ㅋㅐᆸㅅㅠᆯ
ㅇㅏ⑨ㅈㅣ⑨
ㅎㅏᆼㅅㅏᆫ
##ㄴㅏᆯㄷㅡ⑨
best
ㅈㅔ⑨ㅁㅓᆺ
ㅂㅏᆼㅂㅜᆯ
480
ㅅㅣᆷㅎㅕᆯㄱㅘᆫ
ㅂㅜ⑨ㄹㅡᆷ
ㅇㅕᆫㅇㅑᆨ
ㅊㅓᆯㅎㅏ
##eld
ㅅㅜᇁㄱㅣᆯ
ㅈㅏ⑨ㅎㅘᆯ
ㅅㅏᆼㅅㅙ⑨
ㅌㅡᆨㅍㅏ⑨ㅇㅝᆫ
ㅈㅡᆼㅂㅣᆼ
ㄱㅏᆯㄹㅣᆷ
ㅇㅏᆷㅇㅜᆯ
ㅌㅚ⑨ㅅㅏ⑨
ㅅㅣ⑨ㅈㅗᆼㅇㅣᆯㄱㅘᆫ
ㄱㅐ⑨ㅇㅜᆯ
ㅅㅣᆫㅌㅗᆼ
ㅌㅡᆨㅅㅏᆫ
ys
ㄱㅣ⑨ㅁㅏᆨㅎㅣ⑨
ㄹㅜ⑨ㅅㅣ⑨
ㅊㅓᆼㄹㅕᆷㄷㅗ⑨
##ㄲㅘᆼ
ㅇㅠ⑨ㄱㅡᆸ
ㅎㅕᆸㅊㅏᆫ
ㅅㅡ⑨ㅍㅗ⑨ㅊㅡ
ㄱㅣᆷㅌㅐ⑨ㄱㅠᆫ
ㅈㅏᆼㅅㅓᆼㅌㅐᆨ
ㅇㅣ⑨ㅈㅓ
ㅇㅟ⑨ㄱㅡᆸ
ㄴㅗ⑨ㄹㅗᆫ
ㅊㅜ⑨ㅈㅣᆼ
ㅅㅓᆯㅇㅏᆨㅅㅏᆫ
ㅈㅏ⑨ㅇㅕᆫㅎㅘᆫㄱㅕᆼ
ㅈㅜ⑨ㄹㅖ⑨
ㄴㅐ⑨ㄱㅗᆨㄷㅗᆼ
ㄷㅏᆼㅎㅓ
ㅅㅗᆼㅈㅓᆼ
ㅎㅐ⑨ㅅㅓᆨㅎㅏᆨ
ㅌㅡ⑨ㄹㅓᆼㅋㅡ⑨
ㅇㅠ⑨ㅅㅡ⑨
ㅇㅜ⑨ㅇㅔ⑨
##ㅈㅗ⑨ㄱㅏᆨ
ㅊㅡᆨㄹㅑᆼ
skt
ㄲㅏ⑨ㅊㅣ⑨
ㅇㅕᆫㅅㅡᆸㅈㅏᆼ
cult
ㄱㅗ⑨ㅅㅗ
ㅊㅐ⑨ㅂㅣ⑨
ㅈㅣ⑨ㅈㅓ⑨ㅂㅜᆫ
##ㄷㅗᆼㄴㅔ⑨
ㅅㅣᆫㅁㅣᆫ
5500
ㅋㅙ⑨ㄱㅓ⑨
cal
ㄱㅘᆫㅁㅏᆼ
ㅅㅓᆼㅅㅣᆷ
ㅊㅓᆼㅇㅢ⑨
ㅂㅓ⑨ㅌㅣᆷ
ㅍㅏᆫㄷㅏᆫㄹㅕᆨ
ㄷㅐ⑨ㅈㅏ⑨
ㅂㅏᆼㅌㅏᆫㅅㅗ⑨
ㄴㅜᆫㅅㅣ⑨
ㄱㅡᆸㅂㅏᆨ
ㅎㅐ⑨ㅇㅜᆫㅇㅓᆸ
ㅎㅏ⑨ㄴㅏᆷㅅㅣ⑨
##ㄷㅏ⑨ㅅㅓᆺ
##ㅅㅓ⑨ㅉㅗᆨ
ㅅㅓᆼㅇㅛᆨ
ㅎㅗᆼㅂㅗ⑨ㅁㅜᆯ
ㅁㅜ⑨ㅅㅣᆷㅋㅗ⑨
ㄱㅏᆫㄱㅗᆨㅎㅣ⑨
ㅅㅓᆼㄱㅏ⑨
ㅁㅏ⑨ㄹㅣ⑨ㄴㅏ⑨
ㅈㅏᆨㅅㅣᆷ
ㅎㅕᆫㄷㅐ⑨ㅈㅡᆼㄱㅝᆫ
ㅌㅗᆼㄱㅘᆫ
ㅈㅡᆼㅂㅏᆯ
##ㅎㅕᆫㄷㅐ⑨
1938
william
eff
ㅁㅏ⑨ㄴㅏ⑨
ㄱㅣᆷㅇㅗᆨ
##ㄱㅓ⑨ㅍㅜᆷ
ㄱㅡᆫㄹㅕᆨ
ㄱㅣᆷㅅㅓᆼㄱㅡᆫ
ㅁㅣ⑨ㅇㅕᆨ
ㅅㅣᆫㅎㅕᆸ
1932
ㅍㅐᆨㅅㅡ⑨
ㅂㅡᆯㄹㅏ⑨ㄷㅣ⑨ㅁㅣ⑨ㄹㅡ⑨
ㅇㅣᆯㄷㅡᆼ
ㅂㅐᆨㅇㅜᆫ
ㅅㅓᆫㅅㅜ⑨ㄱㅝᆫ
ㄷㅐ⑨ㄱㅜ⑨ㅇㅡᆫㅎㅐᆼ
ㄱㅏ⑨ㅊㅣ⑨ㅅㅔ⑨
##ㄷㅔ⑨ㅅㅣ⑨
ㅈㅗ⑨ㅎㅐ⑨
ㅈㅔ⑨ㅅㅜ⑨
ㅇㅚ⑨ㅅㅔ⑨
ㅎㅜ⑨ㅂㅏᆫㅂㅜ⑨
ㅋㅡ⑨ㄹㅗ⑨ㅇㅏ⑨ㅌㅣ⑨ㅇㅏ⑨
sdi
ㅇㅣᆫㅅㅐᆨ
ㅅㅏ⑨ㄹㅣᆷ
ㅎㅐ⑨ㅊㅜᆼ
ㄴㅜᆫㅅㅣ⑨ㅇㅜᆯ
ㅁㅏ⑨ㅋㅡ⑨ㄹ
ㅇㅘᆼㄱㅜᆼ
ㄱㅓᆮㅇㅓ⑨
##ㅃㅏ⑨ㄹㅡ⑨
ㅂㅏᆨㅅㅣ⑨
ㅎㅣᆷㄴㅐ⑨
ㅈㅓᆼㅇㅢ⑨ㅎㅘ⑨
ㄷㅏᆰㄱㅗ⑨ㄱㅣ⑨
##ㄷㅝ⑨
ㅎㅐ⑨ㅅㅗ
ㄹㅣ⑨ㅂㅠ⑨
##ㅋㅗ⑨ㄴㅣ⑨
ㄱㅘᆼㅇㅑᆼㅅㅣ⑨
ㅇㅗᆱㄱㅣᆫㅇㅣ⑨
ㄱㅜ⑨ㄴㅐ⑨
ㅅㅗᆼㅅㅣᆫ
ㅇㅣ⑨ㅂㅔᆫㅌㅡ
ㄷㅐ⑨ㅂㅜ⑨ㅇㅓᆸㅊㅔ⑨
je
ㅇㅑᆼㅈㅜ⑨ㅅㅣ⑨
ㅍㅏ⑨ㅇㅣ⑨ㅇㅓ⑨
##ㅌㅏ⑨ㅇㅣᆷㅅㅡ
ㅅㅡ⑨ㅌㅡ⑨ㄹㅏ⑨ㅇㅣ⑨ㅋㅡ⑨
ㅁㅜ⑨ㄱㅗ⑨ㅎㅏ⑨
ㅎㅏ⑨ㅁㅜᆯ
ㅂㅏᆯㄹㅔᆫ
ㄱㅝᆫㅅㅔ⑨
ㅊㅣ⑨ㄹㅜ⑨
ㅅㅓ⑨ㅅㅣᆨㅈㅣ⑨
ㅎㅏ⑨ㄱㅜ⑨
ㄱㅏ⑨ㅇㅕᆨ
##ㅌㅗ⑨ㄹㅡ⑨
ㅂㅏᆼㅎㅗ⑨
ㅍㅗ⑨ㄱㅡᆫ
ㄱㅓᆷㅁㅜᆫ
ㅈㅓᆫㄱㅣ⑨ㄹㅛ⑨
ㅂㅗ⑨ㄹㅡ⑨
ㅎㅜ⑨ㅇㅏᆫ
ㅅㅓᆯㄹㅣᆸㅈㅏ⑨
ㅇㅡᆫㅎㅢ⑨
ㅅㅔ⑨ㅈㅗ
ㅂㅏᆯㄲㅡᆫ
ㅇㅣᆸㅊㅜᆯ
ㅈㅗᆼㅁㅛ⑨
ㅅㅡ⑨ㅋㅞ⑨ㅇㅓ⑨
ㅇㅝᆯㄷㅡᆼㅎㅣ⑨
ㅁㅜ⑨ㅈㅜ⑨
##ㅁㅐᆨㅅㅡ⑨
##ㅂㅐᆼㅇㅣ⑨
ㄱㅗᆼㄱㅡᆸㄹㅑᆼ
ㅈㅜᆯㅈㅣᆺ
ㅇㅕᆫㄱㅣ⑨ㄱㅡᆷ
ㄴㅡᆽㅊ
ㅂㅔᆨㅅㅡ⑨
ㄴㅏᆫㅅㅐᆨ
ㄷㅟᆼㄱㅜᆯ
ㅈㅏᆼㅌㅏ⑨
ㄴㅡᆽㅊㅝ⑨ㅈㅣ⑨
ㅌㅏ⑨ㅇㅣᆯ
ㅇㅣ⑨ㅋㅔ⑨
ㅇㅐ⑨ㅇㅝᆫ
##ㅇㅓ⑨ㄹㅣᆼ
ㅇㅣ⑨ㅂㅜᆨ
##ㄷㅐ⑨ㅅㅓᆼ
ㅁㅏ⑨ㅋㅏ⑨ㅇㅗ⑨
ㄷㅟ⑨ㅉㅗᆾ
ㅈㅓᆫㅎㅏᆨ
ㅁㅕᆼㄱㅣ⑨
ㅇㅣ⑨ㅇㅣ⑨
ㄱㅗ⑨ㅈㅗ⑨ㅅㅓᆫ
ㄱㅜᆨㅁㅣᆫㅇㅢ⑨
ㅎㅏᆼㅁㅗ⑨
ㅈㅣᆽ
ㅊㅏᆷㅅㅓᆨㅊㅏ⑨
ㄱㅕᆨㄹㅕᆯㅎㅏ⑨
ㅃㅕ⑨ㄷㅐ⑨
##ㅅㅑᆸ
ㅇㅡᆫㅎㅐᆼㄴㅏ⑨ㅁㅜ⑨
##ㄷㅏ⑨ㄱ
ㄷㅗᆼㅈㅗᆼ
ㅍㅜᆼㅁㅜᆯ
ㅅㅓᆼㅍㅕᆼㄷㅡᆼ
ㅎㅏᆨㄱㅘ
ㅈㅏᆨㅇㅡᆫ
ㅁㅣᆫㅈㅜ⑨ㅈㅜ⑨ㅇㅢ
ㄱㅡᆯㄹㅐ⑨
ㅇㅐᆨㅈㅏ⑨
ㄱㅏᆼㅇㅝ
ㅈㅣ⑨ㅇㅝᆫㅅㅓ⑨
ㄹㅜ⑨ㅅㅜ⑨
ㅊㅏᆼㅇㅓᆸㅈㅜ⑨
ㅂㅗ⑨ㅈㅏ⑨
ㅌㅡᆨㅂㅕᆯㅈㅓᆫ
ㅎㅗᆨㅍㅕᆼ
ㅇㅖ⑨ㄷㅏᆫ
ㄱㅏᆷㅊㅓᆼ
ㅂㅔ⑨ㄹㅏᆫㄷㅏ⑨
ㅊㅘᆯㅇㅕᆼㅈㅏᆼ
ㅇㅓ⑨ㅊㅓ⑨ㄱㅜ⑨ㄴㅣ⑨ㅇㅓᆹ
ㅎㅏ⑨ㅁㅜᆯㅁㅕ⑨
ㄴㅜ⑨ㄷㅡ⑨
ㅅㅓᆷㄸㅡᆨ
ㅊㅗ⑨ㅂㅗ⑨ㅈㅏ⑨
##ㄴㅜᆯㄹㅣ⑨
ㄱㅘ⑨ㅅㅗ⑨
##ㅂㅏᆼㅈㅣ⑨
ㅅㅗᆫㄲㅡᇀ
##14
##66
ㅎㅏ⑨ㄱㅏᆼ
ㅅㅡ⑨ㄱㅏ⑨
ㅁㅏᆽㅂㅜᆯ
ㄸㅓᆯㄱㅜ⑨
ㅅㅜᆨㅈㅣ⑨
ㅇㅜ⑨ㅅㅜ⑨ㅈㅏ⑨
ㅌㅐ
ㅂㅏᆯㅇㅏᆷ
ㅅㅏᆯㅊㅓ⑨ㅂㅜᆫ
ㄷㅐ⑨ㅈㅓᆫㅅㅣ⑨ㅈㅏᆼ
ㅌㅏ⑨ㅇㅜ
ㅅㅣ⑨ㅇㅚ⑨
ㅁㅣᆯㅊㅣ⑨
ㅌㅡ⑨ㄹㅔᆫㄷㅣ⑨
ㅁㅗᆨㄱㅕᆨㅈㅏ⑨
ㅃㅓᆼ
ㅂㅜᆫㅌㅗᆼ
##ㄱㅗᆼㄱㅕᆨ
##ㅋㅡᆯㄹㅔ⑨ㅅㅡ⑨
ㅇㅏ⑨ㅌㅡ⑨ㅅㅔᆫㅌㅓ⑨
ㄱㅕᆼㅎㅗ⑨ㅇㅝᆫ
ㄷㅏᆫㅈㅓᆼㅎㅏ⑨
ㅁㅐᆫㅎㅐ⑨ㅌㅡᆫ
ㅅㅣ⑨ㄱㅡᆷ
ㅅㅣ⑨ㄴㅔ⑨ㅁㅏ⑨
ㅁㅗ⑨ㄱㅓᆫ
ㅎㅏᆫㄱㅜᆨㅂㅏᆼㅅㅗᆼ
ㄸㅏᆯㅇㅏ⑨ㅇㅣ⑨
##ㄱㅣᆼ
##ㆍㆍ
ㄷㅡᆼㅂㅜᆯ
ㄴㅔ⑨ㅌㅡ⑨ㅇㅝ⑨ㅋㅡ
ㄷㅗᆼㅎㅗ⑨ㅇㅣᆫ
ㅇㅐ⑨ㄹㅣ⑨ㅈㅗ⑨ㄴㅏ⑨
##ㄱㅏ⑨ㅈㅣ
power
ㄱㅗ⑨ㅅㅡᆼ
ㄷㅐ⑨ㅇㅕᆫ
##ㅎㅖ⑨ㅈㅣᆫ
##ㄹㅐᆸ
ㅈㅔ⑨ㅌㅡ⑨
ㅁㅣ⑨ㅇㅗᆫ
ㅇㅏ⑨ㅋㅡ⑨
ㄷㅐ⑨ㅍㅛ⑨ㅈㅣᆨ
ㅅㅓᆨㅇㅣ⑨
ㄱㅗ⑨ㅅㅓᆼㄱㅜᆫ
430
ㅎㅏᆫㄱㅜᆨㄴㅗᆼ
ㅇㅛ⑨ㄹㅡ⑨ㄷㅏᆫ
ㅁㅏᆫㅁㅏᆫㅊㅏᆭ
ㄴㅏ⑨ㄴㅏᆯㅇㅣ⑨
ㅎㅏ⑨ㅇㅜ⑨ㅅㅡ
ㅈㅏᆼㅈㅣᆫ
##ㅊㅓᆯㅎㅏᆨ
ㄱㅕᆼㄴㅏᆷㅇㅡᆫㅎㅐᆼ
ㅇㅣᆨㅅㅡ⑨
ㅂㅜᆫㅇㅠ⑨
ㅁㅕᆼㄹㅏᆼ
ㅋㅗ⑨ㅅㅡ⑨ㅌㅡ⑨
ㅇㅣᆺㅁㅗᆷ
ㄹㅣ⑨ㅂㅓ⑨ㅍㅜᆯ
ㅇㅏᆫㅆ
##ㅎㅗ⑨ㅎㅡᆸ
ㄱㅘᆼㅈㅏ
ㄱㅓᆮㅎㅣ⑨
ㅅㅣᆫㄱㅘᆫ
ㅊㅣᆫㅁㅗᆨ
ㅎㅓ⑨ㅅㅣᆷ
ㅇㅐ⑨ㅌㅡᆯㄹ
ㅇㅓᆷㅁㅣᆯ
##ㅂㅏᆨㅎㅣ⑨
ㅅㅜ⑨ㅎㅏᆨㅈㅏ⑨
ㅅㅣᆨㄹㅛ⑨ㅍㅜᆷ
##ㄱㅏ⑨ㅅㅡᆷ
ㄱㅏ⑨ㅇㅣᆫ
ㄱㅛ⑨ㅎㅚ
ㅎㅘ⑨ㅇㅞ⑨ㅇㅣ⑨
##ㅈㅓᆯㄱㅣ⑨
ㅈㅜ⑨ㅎㅐᆼㅊㅏ⑨
ㅌㅡ⑨ㄹㅏ⑨ㅇㅜ⑨ㅁㅏ⑨
ㄹㅗ⑨ㅂㅗ⑨
ㅇㅗ⑨ㅅㅗᆼ
ㅁㅣᆫㅊㅓᆸ
##ㅁㅗ⑨ㅅㅡ⑨
ㅋㅗᆯㄹㅓᆷ
ㄱㅡ⑨ㄹㅣ⑨ㅅㅡ⑨ㄷㅗ⑨ㅇㅣᆫ
ㅇㅜ⑨ㅍㅛ⑨
ㅂㅏᆫㅁㅣ⑨
ㅂㅗᆫㅇㅢ⑨
ㅁㅔ⑨ㅁㅣᆯ
ㅎㅘᆨㅇㅣᆫㅅㅓ⑨
ㅇㅏᆸㄹㅗᆨ
##ㅍㅡᆯㄹㅏ⑨
ㅅㅗᆯㅅㅓᆫㅅㅜ⑨
ㅇㅔᆯㅍㅡ⑨
##ㅌㅐ⑨ㅇㅛᆼ
ㅅㅗᆨㅁㅏ⑨ㅇㅡᆷ
ㅇㅑ⑨ㅁㅏᆼ
ㅅㅡᆼㄱㅣ⑨
ㄹㅏ⑨ㅇㅣ⑨ㅅㅓᆫ
##55
ㅈㅣ⑨ㅊㅣ
ㅁㅕᆼㅈㅣ⑨ㄷㅐ⑨
ㄱㅘᆼㅈㅣᆫㄱㅜ⑨
##ㅣᆯㄹㅣ⑨ㅋㅔ⑨
ㅈㅣᆨㄱㅝᆫㅅㅏᆼㅈㅓᆼ
ㅅㅣᆨㅅㅡᆸㄱㅘᆫ
ㅇㅕᇁㅈㅣᆸ
ㅋㅜ⑨ㄹㅡ⑨
ㅈㅗᆯㄹㅣ⑨
ㅇㅗ⑨ㅂㅗ⑨
ㅈㅐ⑨ㄱㅕᆼ
ㅇㅣᆫㅅㅣ
ㅈㅜᆼㅎㅏ⑨
ㅇㅡᆷㅁㅣ⑨
ㅇㅗ⑨ㄹㅏᆼ
art
ㅇㅝ⑨ㅅㅣᆼㅌㅓᆫㅍㅗ⑨
ㅍㅡᆯㄹㅏ⑨ㅇㅝ⑨
ㅋㅣᆯㄹㅓ⑨
ㅁㅜ⑨ㅇㅣᆫㄱㅣ⑨
##ㅇㅕ⑨ㅅㅓᆼ
##ᆻㄷㅏ⑨
ㅇㅢ⑨ㅅㅏ
ㄷㅐ⑨ㅈㅏᆨ
ㅅㅜ⑨ㅎㅕᆯ
ㅅㅓᆼㄴㅏ
ㅈㅏᆨㅇㅓᆸㅅㅣᆯ
ㄹㅔ⑨ㅇㅣ⑨ㅅㅣᆼ
ㄸㅓ⑨ㄷㅡᆯㅆㅓᆨ
ㅎㅐᆼㅈㅓᆼㅈㅓᆯㅊㅏ⑨
ㄱㅣ⑨ㅇㅘᆼ
ㅅㅜ⑨ㅇㅡᆫ
ㄱㅓ⑨ㄷㅝ⑨
ㄴㅗ⑨ㅈㅏ⑨
ㅅㅣᆷㅍㅖ⑨
ㅅㅣᆨㅈㅜᆼ
ㄴㅚ⑨ㄹㅣ⑨
##ㅋㅣᆫㅅㅡ⑨
ㅋㅞ⑨
##ㅁㅗ⑨ㄹㅗ⑨
ㄴㅏ⑨ㅇㅑᆨ
ㅅㅓᆼㄷㅗᆼㄱㅜ⑨
##ㅅㅓ⑨ㄴㅣ⑨
ㅊㅗᆼㅅㅏᆼ
ㅎㅕᆼㅅㅜ⑨
ㅍㅏ⑨ㅋㅡ
ㄱㅏ⑨ㄹㅕ⑨ㅈㅣ⑨
ㄱㅣ⑨ㅇㅏᆸ
ㅇㅗᆨㅅㅡ⑨
ㅈㅗᆸㅇㅏ⑨ㅈㅣ⑨
ㅅㅏᆼㅇㅓᆸㅅㅣ⑨ㅅㅓᆯ
ㄱㅗᆯㄷㅡ⑨ㅁㅏᆫㅅㅏᆨㅅㅡ⑨
ㅆㅏᆨㅆㅡᆯㅇㅣ⑨
ost
ㄹㅏ⑨ㄱㅗ⑨ㅇㅛ
ㄴㅗ⑨ㄹㅏ
ㅁㅜᆯㅆㅣᆫ
ㅇㅗᆨㅇㅚ⑨
ㄴㅏᆷㅇㅏ⑨ㅍㅡ⑨ㄹㅣ⑨
dvd
ㅅㅡᆸㄴㅣ⑨ㄷㅏ⑨ㅁ
ㅂㅓᆸㅅㅏ⑨
ㅊㅏ⑨ㅈㅏ
ㅈㅗᆼㄷㅏᆫ
##ㅎㅗᆼㅊㅓᆯ
##ㅅㅏ⑨ㄱㅏᆨ
ㅂㅜ⑨ㅍㅕᆼㄱㅜ⑨
##ㄷㅐ⑨ㄱㅜᆫ
ㅂㅣᆼㄱㅡ⑨ㄹㅔ⑨
ㄷㅜᆫㄱㅏᆸ
ㅆㅢ⑨ㅇㅓ⑨ㅈㅣ⑨
ㅋㅓ⑨ㄹㅣ⑨ㅋㅠᆯ
ㅂㅡ⑨ㄹㅐᆫㄷㅡ
ㄱㅗ⑨ㄹㅕ⑨ㅇㅣᆫ
ㄷㅓᆨㄷㅏᆷ
##ㅇㅢ⑨ㅎㅏᆨ
##ㅈㅗ⑨ㅁㅗᆨ
ㅍㅣ⑨ㄹㅔᆫ
ㅊㅜ⑨ㅊㅜᆯㅁㅜᆯ
ㅅㅜ⑨ㅇㅝᆯㅎㅏ⑨
##ㄴㅔᆨㅅㅡ⑨
ㄴㅐ⑨ㅋㅣ⑨
##ㅇㅜ⑨ㅈㅜ⑨
ㄱㅜ⑨ㅇㅣᆫ
##min
##27
ㅅㅏᆼㅅㅡ
ㅁㅗ⑨ㅎㅏ⑨
ㅈㅗ⑨ㅅㅓᆫㄷㅐ⑨
ㅂㅓᆫㄱㅓ⑨ㄹㅗᆸ
ta
ㄱㅐ⑨ㅍㅗ⑨
ㅇㅒ⑨ㄱㅣ
ㅋㅏ⑨ㄹㅔ⑨
yg
ㅇㅜ⑨ㄱㅓ⑨ㅈㅣ⑨
ㅈㅣᆨㄴㅡᆼ
ㅇㅣ⑨ㅅㅏᆼㅇㅣᆯ
ㅎㅣᆷㅇㅓᆹㅇㅣ⑨
##ㅂㅓ⑨ㄴㅓᆫ
ㄱㅐ⑨ㅊㅚ⑨ㅈㅣ⑨
ㅍㅡ⑨ㄹㅣᆫㅌㅣᆼ
ㅅㅗ⑨ㅇㅜᆫ
ㅇㅑᆼㅇㅏᆨ
##ㅂㅜ⑨ㅌㅓ
ㅍㅡ⑨ㄹㅗ⑨ㅍㅣᆯ
ㄱㅗᆯㅅㅜ⑨
ㄱㅗᆮㅈㅏᆯ
ㄷㅗᆨㅊㅗᆨ
ㅃㅗᆸㄱㅣ⑨
ㄱㅓ⑨ㄷㅝ⑨ㄷㅡᆯㅇㅣ⑨
##ㅂㅏ⑨ㄱㅜ⑨ㄴㅣ⑨
ㅅㅏᆫㄸㅡᆺ
ㅅㅏ⑨ㅇㅓᆸㅊㅓᆼ
ㄴㅏᆫㄹㅣᆸ
ㄱㅗᆼㄱㅗᆼㅅㅣ⑨ㅅㅓᆯ
ㄱㅏ⑨ㅂㅕ⑨
ㅇㅕᆼㅈㅓᆼ
ㄷㅏᆫㅂㅏᆯ
##ㅈㅗᆼㅇㅣᆯ
ㄱㅘᆼㅈㅜ⑨ㄱㅘᆼㅇㅕᆨㅅㅣ⑨
ㅁㅔᆯㄹㅗᆫ
##atic
ㅈㅔ⑨ㅁㅓᆺㄷㅐ⑨ㄹㅗ⑨
##ㅈㅏ⑨ㅋㅣ⑨
ㅈㅣᆯㄱㅏᆷ
ㄲㅗᆾㄷㅏ⑨ㅂㅏᆯ
ㅇㅣᆷㄷㅐ⑨ㅇㅣᆫ
2023
ㅇㅏᆫㅊㅣ⑨
ㄱㅏᆼㅇㅜ⑨
ㄷㅗᆨㅅㅣᆫ
ㄱㅡᆷㅇㅠᆼㅇㅓᆸ
ㅎㅐᆫㄷㅡ⑨ㅂㅐᆨ
ㅅㅣ⑨ㄴㅠᆼ
ㅎㅗᆼㅁㅕᆼㅂㅗ⑨
##ㅌㅜᆨ
ㄲㅜᆷㄴㅏ⑨ㅁㅜ⑨
##ㅇㅞ⑨ㅇㅣ
ㅎㅓ⑨ㅁㅜᆯㅇㅓ⑨ㅈㅣ⑨
ㅇㅑᆼㅎㅐ⑨ㄱㅏᆨㅅㅓ
ㅅㅜᆫㄱㅕᆯ
ㄱㅜᆨㅅㅔ⑨ㅊㅓᆼㅈㅏᆼ
ㅎㅘ⑨ㅎㅏᆸㅁㅜᆯ
##ㅔᆼㅇㅣ⑨
ㅁㅏ⑨ㄹㅡ⑨ㅋㅡ⑨ㅅㅡ⑨ㅈㅜ⑨ㅇㅢ⑨
##ㄲㅡ⑨ㄹㅓ⑨ㅁㅣ⑨
ㅁㅐ⑨ㄷㅡᆸㅈㅣᆺ
##ㅍㅔ⑨ㅇㅣ⑨ㅅㅡ⑨
ㅎㅐᆼㅈㅓᆼㄹㅕᆨ
ㅌㅣᆯㄹㅓ⑨
##ors
ㅇㅏ⑨ㅅㅏᆫㅅㅣ⑨
ㅅㅗᆯㄹㅗ⑨ㅁㅗᆫ
ㅎㅏᆫㅎㅘ
ㄱㅐ⑨ㅅㅗ
ㄹㅏ⑨ㄷㅣᆫ
ㅎㅘᆫㅎㅢ⑨
ㅋㅔ⑨ㅇㅣᆫ
ㅍㅣ⑨ㅇㅓ⑨ㅇㅗ⑨ㄹㅡ⑨
ㅇㅠᆨㅅㅜ⑨
wt
ㅎㅗᆼㅇㅣᆨㄷㅐ⑨
ㄷㅏ⑨ㅂㅏᆼㅁㅕᆫ
ㅎㅏᆫㄱㅜᆨㄱㅘᆫㄱㅘᆼㄱㅗᆼㅅㅏ⑨
ㅍㅔ⑨ㅇㅣ⑨ㅍㅓ⑨
ㅎㅣ⑨ㅇㅓ⑨ㄹㅗ⑨ㅈㅡ⑨
ㄹㅕ⑨ㄱㅗ
ㅈㅏ⑨ㅇㅕᆫㅈㅐ⑨ㅎㅐ⑨
ㅌㅡ⑨ㄹㅗ⑨ㅇㅣ⑨
ㅍㅣ⑨ㅌㅡ⑨ㄴㅣ⑨ㅅㅡ⑨
ㄱㅡᆨㅈㅏ
ㅊㅏ⑨ㄱㅘ
ㅂㅣ⑨ㅅㅜ⑨ㄱㅣ⑨
ㅃㅐ⑨ㄱㅗᆨ
ㅎㅡ⑨ㄴㅡ⑨ㄲㅣ⑨
ㄱㅗᆷㄱㅗᆷㅇㅣ⑨
ㅂㅜ⑨ㅊㅡ⑨
ㅇㅑᆨㅅㅜ⑨
ㅂㅡ⑨ㄹㅜᆨ
ㄱㅜᆼㅈㅣ⑨
ㅈㅐᆼㅇㅢ⑨
##ㅁㅏ⑨ㄴㅣ⑨ㅇㅏ⑨
##ㄲㅗᆯ
ㅈㅏ⑨ㄱㅡᆷㄴㅏᆫ
##ㄷㅐ⑨ㅎㅏᆨㅇㅝᆫ
big
ㅈㅣᆸㅅㅏ⑨
ㅊㅗᆼㅊㅜᆯ
ㅁㅏ⑨ㅋㅡ⑨ㄹㅗᆼ
ㅁㅜᆯㅅㅏᆯ
ㅁㅜ⑨ㅇㅛᆼㅅㅜ⑨
human
ㅎㅏ⑨ㅇㅗ⑨
1914
ㅊㅣ⑨ㅋㅕ⑨ㅅㅔ⑨ㅇㅜ⑨
av
ㅊㅓᆫㄹㅣ⑨
##ley
ㄹㅔ⑨ㅇㅗ⑨ㄴㅏ⑨ㄹㅡ⑨
ㅈㅓᆫㅅㅓᆼ
ㅇㅓ⑨ㄹㅣᆷ
under
wal
ㅅㅣ⑨ㅍㅏᆫ
ㄷㅏᆼㅅㅣ
ㅎㅐᆼㄱㅏᆨ
ㅅㅡ⑨ㅌㅔ⑨ㅇㅣ⑨ㅋㅡ⑨
##ㅂㅡ⑨ㅅㅡ⑨
ㅁㅏ⑨ㅈㅣ⑨ㅁㅗᆺㅎㅏ⑨
##ㅋㅡ⑨ㄹㅗᆫ
ㅇㅏ⑨ㄹㅡᆷㄷㅏ⑨ㅇㅜᆷ
ㅌㅗᆼㅅㅏ⑨
ㅇㅕᆼㅅㅏ
ㅎㅓ⑨ㅁㅏᆼ
ㄴㅐ⑨ㄹㅣ⑨ㅊㅣ⑨
ㄷㅏ⑨ㅂㅜᆫㅎㅣ⑨
##ㅏ⑨ㄱㅏᆫ
ㅈㅏᆸㅇㅏ⑨ㄱㅏ⑨
ㄱㅜᆨㅁㅣᆫㄷㅏᆼ
ㄴㅠ⑨ㅌㅓᆫ
ㅂㅣᆫㅈㅣᆸ
ㅋㅙ⑨ㄱㅏᆷ
##aph
ㄷㅡᆯㅆㅓᆨㅇㅣ⑨
ㅍㅏᆺ
ㄷㅡᆯㅇㅓ⑨ㅁㅏᆽ
red
ㅂㅗ⑨ㅇㅣ⑨ㅅㅡ⑨ㅍㅣ⑨
ㅁㅔ⑨ㄹㅣᆯ
ㄱㅟ⑨ㅎㅑᆼ
##ection
ㄱㅣᆷㅇㅛᆼㅌㅐ⑨
bs
ㅁㅜᆯㄱㅓ⑨ㅍㅜᆷ
ㅈㅣᆫㄷㅜ⑨ㅈㅣ⑨ㅎㅟ⑨
dti
ㄱㅗ⑨ㄷㅏᆫ
ㅇㅣᆯㅈㅓᆫ
ㅅㅡ⑨ㅍㅗ⑨ㅊㅡ⑨ㅌㅗ⑨ㅌㅗ⑨
ㄱㅕᆼㅈㅐ
ㅈㅏᆼㄷㅗ⑨
ㅍㅗ⑨ㅁㅜᆫ
ㅇㅓᆫㄹㅗ
ㅁㅏ⑨ㄹㅣᆫ
253
##ㅍㅡᆯㄹㅏᆫㅌㅡ⑨
ㅁㅜᆨㅅㅏᆯ
ㅁㅜ⑨ㅈㅓᆫ
ㅅㅜ⑨ㅅㅏᆼㅎㅏ⑨
ㅅㅑ⑨ㄹㅡᆯ
ㅇㅏ⑨ㅋㅜ⑨ㅇㅏ⑨
ㅂㅟ⑨ㅍㅔ⑨
ㅈㅗ⑨ㅁㅗᆨㅈㅗ⑨ㅁㅗᆨ
ur
##ㅇㅣᆯㅂㅣ⑨
ㅈㅡᆼㄱㅏ
ㅂㅓᆯㄱㅓᇂ
##ㅂㅏ⑨ㅂㅏ⑨
ㅁㅗ⑨ㄱㅡᆷㅎㅚ⑨
ㄲㅓᆸㄷㅔ⑨ㄱㅣ⑨
ㅉㅣᆼㄱㅡ⑨ㄹㅣ⑨
ㅅㅜ⑨ㅅㅔ⑨
##ㄱㅛ⑨ㅅㅓᆸ
ㅍㅣ⑨ㅂㅜ⑨ㄱㅘ⑨
ㄱㅣ⑨ㅂㅕᆼ
ㅎㅏᆫㅅㅡᆼ
ㅌㅣᆯㄹㅓ⑨ㅅㅡᆫ
ㅇㅣᆯㅊㅣᆷ
ㅇㅕᆼㄱㅗᆼ
ㅂㅓᆫㅅㅓᆼ
ㅅㅣᆫㄱㅗ⑨ㅅㅓ⑨
ㅅㅔᆯㅌㅡ⑨ㄹㅣ⑨
ㅈㅜ⑨ㅎㅛ⑨
##ㅂㅗ⑨ㅅㅡ⑨
ㅍㅏᆫㅅㅣ⑨
ㅇㅜᆫㅈㅓᆫㄱㅣ⑨ㅅㅏ⑨
ㅎㅗ⑨ㄷㅜ⑨
ㅅㅜᆫㅅㅜᆫ
ㅁㅏᆨㅁㅜ⑨
ㅇㅡ⑨ㄹㅣ⑨ㄹㅏ⑨ㄴㅡᆫ
●●
ㄹㅗ⑨ㅇㅜ⑨
ㄱㅡᆷㅊㅣ⑨
ㅊㅏᆯㄴㅏ⑨
ㅇㅣ⑨ㅊㅓᆫㅅㅣ⑨
ㅇㅓᆫㅇㅓ
ㅈㅓᆼㅊㅣ⑨ㄱㅝᆫㄹㅕᆨ
ㅇㅠ⑨ㅁㅕᆼㅅㅔ⑨
##ㄷㅗ⑨ㅅㅣ⑨ㄱㅗᆼㅅㅏ⑨
ㄱㅗᆼㄱㅕᆼ
ㅎㅗ⑨ㅈㅜ
ㅅㅣ⑨ㅅㅓᆫㅈㅣᆸ
ㄱㅓᆫㄴㅔ⑨ㅈㅜ⑨
ㅍㅏᆫㅁㅐ⑨ㅈㅏ⑨
ㄴㅐ⑨ㄹㅕ⑨ㅂㅏᆮ
ㄱㅜ⑨ㅅㅗᆨㄹㅕᆨ
ㄴㅣᆼ
ㅅㅣ⑨ㄹㅡᆷ
ㅅㅣᆫㅎㅘ
ㅇㅏ⑨ㅂㅏᆫ
ㄱㅡᆷㅂㅣᆾ
ㄴㅏᆫㅈㅏᆼ
paul
ㄷㅐ⑨ㅌㅗᆼㄹㅕᆼㅈㅔ⑨
##ㄴㅏᇀ
ㄷㅔ⑨ㅇㅣ⑨ㅂㅣ⑨ㅅㅡ⑨
ㅊㅣᆼㄱㅣ⑨
ㅈㅣᆯㅎㅘᆫㅈㅏ⑨
ㅅㅡ⑨ㅌㅔᆯㅅㅡ⑨
ㅍㅗᆨㄹㅕ
ㅅㅓᆼㅈㅏᆼㄱㅣ⑨
ㄱㅕ⑨ㄹㅔ⑨
##ings
ㄹㅔ⑨ㅇㅣ⑨ㄷㅣ⑨
ㄲㅡᆫㄱㅣ⑨
ㅅㅣ⑨ㅎㅡᆼㅅㅣ⑨
##ㅇㅓ⑨ㄷㅓᆫㅈㅣ⑨
##ㄴㅕᆨ
ㅁㅏᆯㅅㅗ⑨
##che
ㅅㅜᆫㅅㅜᆫㅎㅣ⑨
ㄱㅏᆫㄱㅡᆨ
ᆫㄷㅏ⑨ㄴㅡᆫㄷㅔ⑨
##ㅇㅝ⑨ㅅㅡ⑨
##ited
##ㄱㅣᆺㅎㅏ⑨
ㄱㅏᆫㄷㅏᆷㅎㅚ
ㄲㅡ⑨ㅈㅣᆸㅇㅓ⑨ㄴㅐ⑨
au
ㅂㅕᆯㅂㅏᆫ
ㅂㅡ⑨ㄹㅏ⑨ㅇㅜ⑨
ㄱㅏ⑨ㄱㅕᆨㄷㅐ⑨
ㄷㅡᆨㅅㅣᆯ
ㄱㅓ⑨ㅂㅜᆨㅇㅣ⑨
ㅌㅏ⑨ㅇㅣ⑨ㄱㅓ⑨ㅈㅡ⑨
ㄴㅣ⑨ㅋㅔᆯ
ㅈㅜ⑨ㅅㅡᆼㅇㅛᆼ
ㅁㅏᆫㄹㅣ⑨
ㅇㅕ⑨ㄱㅜᆫ
##ㅈㅣᆫㅇㅣ⑨
ㅎㅓᆫㅎㅘ⑨
ㅇㅏᆫㅊㅓᆯㅅㅜ
ㄱㅣ⑨ㅈㅏᆼㄱㅜᆫ
ㅊㅣ⑨ㄱㅗ⑨
1935
ㅇㅏ⑨ㅇㅜ⑨ㄱㅜ⑨
##ㅎㅏ⑨ㅁㅏ⑨
##ㅂㅓᆼ
ㅂㅜᆯㅁㅕᆫ
##ㅅㅔ⑨ㅇㅜ⑨ㅅㅡ⑨
ㅎㅏ⑨ㄱㅣ⑨ㄴㅡᆫ
##ㅁㅏ⑨ㄹ
ㄱㅗᆼㅁㅐ⑨
ㄹㅣ⑨ㄴㅠ⑨ㅇㅓᆯ
ㄴㅜ⑨ㅅㅜ⑨
ㄹㅔ⑨ㄱㅗ⑨
ㄴㅏᆨㅇㅝᆫ
##ash
ㅅㅏ⑨ㅇㅜ⑨ㄴㅏ⑨
ㅅㅗᆼㅇㅝᆫㅇㅕᆼ
ㄹㅗ⑨ㄸㅗ⑨
ㅂㅗ⑨ㄹㅜ⑨
ㅅㅓᆼㄱㅗᆼㅎㅚ⑨
310
ㅇㅣᆯㅈㅣᆫ
ㅅㅜ⑨ㅅㅏ⑨ㅎㅏᆨ
ㅅㅣᆸㅈㅏ⑨ㄱ
ㄱㅏᆼㅅㅜ⑨ㄹㅑᆼ
ㅅㅡ⑨ㅌㅡ⑨ㄹㅔ⑨ㅊㅣᆼ
ㄷㅏ⑨ㄴㅡᆫㄷㅔ
ㄱㅜ⑨ㅅㅣᆷㅈㅓᆷ
##ㄷㅏ⑨ㅅㅡ⑨
##45
ㅈㅓᆼㅅㅏ
ㅅㅏ⑨ㅎㅐᆼ
ㅎㅑᆼㅂㅏᆼ
ㄷㅡ⑨ㄹㅔ⑨
##ㅏ⑨ㅇㅜᆫㄷㅡ
##ㅍㅡᆯㄹㅔ⑨
ㅋㅓᆯㄹㅓᆷ
ㅁㅣ⑨ㄲㅣ⑨
ㅍㅗ⑨ㅌㅏᆫ
ㅅㅗᆼㄴㅕᆫ
ㅅㅓᆫㅅㅜ⑨ㅊㅗᆫ
ㅂㅏ⑨ㅇㅑ⑨
ㄱㅜ⑨ㄱㅡᆸㅊㅏ⑨
ㅇㅣᆯㅈㅏ⑨ㄹㅣ
ㅈㅓᆫㅇㅓᆫ
##ㅋㅜ⑨ㄹㅡ⑨ㅌㅡ⑨
##uction
ㅌㅏᆯㄹㅔ⑨ㅂㅏᆫ
ㅅㅓᆼㄱㅘᆨ
ㅅㅜ⑨ㅅㅏ⑨ㅂㅗᆫㅂㅜ⑨
ㅇㅕᆨㅅㅏ⑨ㅎㅏᆨㅈㅏ⑨
ㅇㅢ⑨ㄱㅕᆫㅅㅓ⑨
ㅎㅓᆫㄱㅡᆷ
ㅇㅣᆯㄹㅠᆯ
##ㅅㅗᆼㅇㅣ⑨
cla
ㅅㅔ⑨ㄹㅡ⑨ㅂㅣ⑨ㅇㅏ⑨
ㅇㅏᆯㅍㅏ⑨ㄱㅗ⑨
256
ㅁㅗᆨㅈㅓᆨㅁㅜᆯ
korean
ㅈㅓᆫㄱㅘᆼㅍㅏᆫ
sr
##ㅎㅚ⑨ㅈㅏ
ㅂㅐ⑨ㅎㅏᆸ
ㄱㅏᆷㅊㅏᆯㄱㅘᆫ
ㅁㅔ⑨ㄷㅣ⑨ㅋㅓᆯ
ㅂㅣ⑨ㅂㅣᆷㅂㅏᆸ
ㅅㅣ⑨ㅁㅜᆫ
##ㅎㅐᆼㅈㅏᆼ
ㅂㅐᆨㅇㅣᆯ
ㅂㅓᆷㄹㅏᆷ
ㄷㅠ⑨ㅇㅗ⑨
##ㅈㅏ⑨ㄷㅡ⑨
ㅈㅣᆫㄷㅏᆯ
ㅍㅐᆫㅌㅣ⑨
ㅇㅛᆼㅁㅐᆼ
##ㅈㅡᆼㄱㅝ
ㅇㅣᆫㅌㅓᆫㅅㅣᆸ
##ㄷㅗ⑨ㄴㅏ⑨
ㄱㅡᆯㄹㅣ⑨
##ㅊㅓᆯㅎㅗ⑨
ㄱㅓ⑨ㅊㅣᆷㅇㅓᆹ
ㅎㅓ⑨ㅅㅣᆷㅌㅏᆫ
##ok
ㄱㅜ⑨ㅊㅜ
ㅈㅣᆨㅎㅏᆷ
ㅇㅢ⑨ㅁㅣ⑨ㅅㅣᆷㅈㅏᆼ
ㅅㅗᆯㅅㅓᆫㅅㅜ⑨ㅂㅓᆷ
tip
ㅈㅣᆫㅂㅜ⑨
ㅂㅏ⑨ㅅㅡ⑨
ㅂㅗᆯㅇㅣᆯ
ㅂㅏᆯㄱㅣ⑨ㅇㅣᆫ
ㅅㅣᆯㅎㅏᆨ
ㅎㅏᆫㄱㅜᆨㅇㅣᆯㅂㅗ⑨
ㅆㅓᆷ
ㅎㅏ⑨ㄴㅕ⑨
ㅊㅗᆼㅅㅏ⑨
##ㅇㅑᆼㅎㅗ⑨
ㄴㅜ⑨ㄹㅓᇂ
ㄴㅓᆷㄱㅕ⑨ㅈㅜ⑨
ㅃㅓ⑨
ㄷㅐ⑨ㅅㅗ⑨
ㄱㅘ⑨ㅅㅗᆨ
ㅈㅔ⑨ㄱㅗ
ㅅㅓᆫㅊㅟ⑨
ㅇㅡᆷㅇㅑᆼ
ㄱㅡᆫㅅㅗᆨ
ㅅㅑᆯ
ㄴㅗᆼㅎㅕᆸㅈㅜᆼㅇㅏᆼㅎㅚ⑨
ㅍㅛ⑨ㅊㅏᆼㅇㅝᆫ
ㄷㅓ⑨ㄴㅑ
ㅋㅜ⑨ㅋㅣ⑨
##ㅆㅢ⑨ㅇㅜ⑨
##ㄱㅏ⑨ㄴㅐ⑨
ㅇㅜ⑨ㄷㅜ⑨ㅁㅓ⑨ㄹㅣ⑨
ㅋㅓ⑨ㄹㅣ⑨ㅋㅠᆯㄹㅓᆷ
##ㄱㅜ⑨ㄴㅏ
ㅇㅜ⑨ㄷㅗᆼ
ㄱㅜ⑨ㅁㅐ⑨ㄹㅕᆨ
##vern
##ㅈㅔ⑨ㅇㅣ⑨
##ㅇㅗᆯㄹㅣᆷㅍㅣᆨ
ㅅㅔᆨㅅㅕᆫ
##ㅅㅗ⑨ㅂㅏᆼㅅㅓ⑨
ㅎㅓ⑨ㅅㅣᆷㅌㅏᆫㅎㅚ⑨
ㅅㅗᆼㄱㅣ⑨
##ott
##ㅅㅏ⑨ㅅㅏᆼ
##17
##ст
ㄱㅣ⑨ㅇㅜ⑨
ㅈㅏᆼㄱㅘᆫㄱㅡᆸ
ㅈㅗᆯㅇㅡᆷ
ㄷㅗ⑨ㅅㅏ⑨
ㄱㅘᆫㅇㅡᆷ
ㅅㅗ⑨ㅈㅣᆯ
ㅇㅣᆯㅁㅜᆫㅇㅣᆯ
ㅈㅏᆼㅈㅏᆨ
ㄷㅏᆸㅈㅏᆼ
ㅇㅢ⑨ㅅㅏ⑨ㅍㅛ⑨ㅅㅣ⑨
ㅁㅔ⑨ㅇㅣ⑨ㅈㅣ⑨
ㅁㅏᆨㅁㅜ⑨ㄱㅏ⑨ㄴㅐ⑨
ㅂㅏᆯㅋㅗ⑨ㄴㅣ⑨
ㅊㅜ⑨ㅅㅡ⑨ㄹㅡ⑨
ㅁㅜᆯㄲㅡ⑨ㄹㅓ⑨ㅁㅣ⑨
ㅌㅐ⑨ㄱㅕᆼ
ㅌㅗ⑨ㅅㅏ⑨
ㅈㅘ⑨ㅈㅏᆼ
ㄱㅜᆨㅈㅔ⑨ㅌㅗᆼㅎㅘ⑨ㄱㅣ⑨ㄱㅡ
ㅇㅣᆯㅊㅜᆯ
ㅇㅣᆫㅂㅜ⑨
ㅁㅗᆨㅊㅓᆼ
ㅍㅗ⑨ㄹㅡ⑨ㄴㅗ⑨
ㅈㅓᆺㄱㅏ⑨ㄹㅏᆨ
ㅁㅣᆨ
ㅅㅜ⑨ㅇㅏ⑨
ㄷㅏᆼㄹㅏᆨ
ㅂㅏᆼㄱㅡᆯㄹㅏ⑨
ㅎㅗᆼㅈㅣᆫ
ㅇㅐ⑨ㅍㅡ⑨ㅌㅓ⑨
ㅂㅡ⑨ㄹㅟ⑨
##ㅇㅔᆫㅈㅣ⑨ㄴㅣ⑨ㅇㅓ⑨
ㅇㅣ⑨ㅊㅓᆯㅇㅜ⑨
##ㅂㅏᆨㅈㅣᆯ
ㅇㅙ⑨ㄱㅜ⑨
##onal
ㄲㅡᆫㄲㅡᆫㅎㅏ⑨
ㅇㅣᆯㅊㅏ⑨
ㅅㅓᆼㄴㅏ⑨
##ㅇㅣᆷㅅㅜ⑨
ㅇㅣᆯㅂㅗᆫㅅㅣᆨ
ㅇㅓ⑨ㄸㅓ⑨ㅎㅏ⑨
ㅇㅡᆼㅅㅣ⑨ㅈㅏ⑨
ㅅㅓ⑨ㄱㅡᆯㅍㅡ⑨
ㅁㅕᆫㅈㅚ⑨ㅂㅜ⑨
##ㅇㅔ⑨ㅇㅓ⑨
##ix
ㄱㅜ⑨ㄷㅓᆼㅇㅣ⑨
ㅈㅏ⑨ㅁㅐ⑨ㄱㅕᆯ
ㅅㅔ⑨ㅇㅣᆯㅈㅡ⑨ㅁㅐᆫ
ㅎㅜ⑨ㅎㅏᆫ
ㅊㅗ⑨ㅇㅣᆫ
ㅊㅓᆺㅅㅏ⑨ㄹㅏᆼ
ㄱㅗ⑨ㄱㅐᆨㅅㅏ⑨
ㅈㅘ⑨ㅇㅘᆫ
ㄱㅚ⑨ㅅㅏᆫ
1942
##13
mac
ㅊㅏ⑨ㅊㅏ⑨
ㅎㅏᆼㅁㅜᆫ
##ㅔᆨㅅㅡ
ㅈㅘ⑨ㅍㅛ⑨
ㅅㅣᆫㅎㅗ⑨ㄷㅡᆼ
ㅊㅗᆼㅊㅜᆯㄷㅗᆼ
##ㄹㅗᆫㅈㅏ⑨
ㅇㅣᆫㅎㅘ⑨
ㅇㅠ⑨ㅇㅡᆫㅎㅖ⑨
ㅁㅜ⑨ㄷㅡ⑨
ㄸㅏᆼㅋㅗᆼ
ㅃㅗᆼ
ㅇㅡ⑨ㄹㅔ⑨
ㅇㅣᆯㅍㅜᆷ
ㅂㅕᆫㅂㅣ⑨
ㄱㅕᆼㅇㅕᆼㄴㅏᆫ
ㅇㅏᆫㄷㅗᆼㅅㅣ⑨
ㅂㅓ⑨ㄱㅓᆸ
ㅅㅣᆫㅊㅓᆫㅈㅣ⑨
ㅂㅕᆫㅇㅣ⑨
ㅅㅡᆼㅅㅏᆫ
ㅅㅣᆯㅁㅜ⑨ㅈㅣᆫ
ㄷㅣ⑨ㄷㅣᆷㄷㅗᆯ
ㄱㅏᆯㄹㅣᆷㄱㅣᆯ
##ㅈㅗ⑨ㅎㅏ
ㅌㅣᆷㅈㅏ
ㄱㅓ⑨ㅈㅔ⑨ㅅㅣ⑨
ㄴㅏ⑨ㅌㅡ⑨ㄹㅠᆷ
ㅇㅔ⑨ㅇㅝ⑨ㅆㅏ⑨
ㅎㅓ⑨ㅂㅣ⑨
ㅂㅣ⑨ㅌㅡᆯㄱㅓ⑨ㄹㅣ⑨
uefa
ㅇㅣ⑨ㅌㅗ⑨
ㅅㅗ⑨ㄱㅗ⑨ㄱㅣ⑨
ㅅㅣᆨㄷㅏ
ㅊㅣᆫㅈㅗᆨ
##ㅎㅖ⑨ㅇㅕᆼ
ㅂㅗᆯㅂㅗ⑨
ㅌㅣ⑨ㅌㅗ⑨
ㅋㅡ⑨ㄹㅣ⑨ㅅㅡ⑨ㅌㅗ⑨
##ㄷㅏᆯㅍㅡ⑨
ㅈㅓᆫㅂㅓᆷ
ㅅㅣᆯㄱㅓ⑨ㄹㅐ⑨
ㄴㅗ⑨ㄹㅏ⑨
ㅂㅐ⑨ㄲㅗᆸ
ㄷㅔ⑨ㄴㅣᆷ
ㅌㅡᆨㄱㅓᆷㅂㅓᆸ
ㅃㅓᆮㅊㅣ⑨
ㅎㅏᆫㅈㅜᆼㅇㅣᆯ
ㅆㅜ⑨ㅅㅣ⑨
ㅇㅏᆫㅆㅡ⑨ㄹㅓᆸ
ㅂㅣᆷ
ㅅㅔᆫㅌㅡ⑨
ㅇㅡᆼㅇㅝᆫㄷㅏᆫ
##ㅎㅟ
ㅈㅔ⑨ㄷㅏᆫ
ㅂㅜᆫㅂㅜᆫ
##ㅇㅏ⑨ㄷㅡᆯㅇㅣ⑨
##ㅁㅐ⑨ㄱㅣ⑨
##ㄱㅕᆼㅈㅔ⑨ㅇㅣᆫ
ㅈㅜ⑨ㄹㅣ⑨
ㅇㅏᆫㅂㅕᆼ
ㅇㅘᆫㅅㅡᆼ
ㄷㅗᆫㄷㅗᆨ
ㅇㅣ⑨ㄱㅗᆺㅈㅓ⑨
ㅁㅣ⑨ㅇㅛᆼㅅㅣᆯ
ㅎㅔ⑨ㅇㅓᆷㅊㅣ⑨
ㄷㅗ⑨ㅎㅕᆼ
ㅈㅓᆼㅅㅜᆨ
ㅂㅓ⑨ㄹㅣᆷ
ㅇㅠ⑨ㅅㅏᆫㄱㅠᆫ
ㅇㅡᆸㄴㅣ⑨ㄷㅏ
ㅎㅐᆨㅌㅏᆫ
ㄴㅡᆰㅇㅡᆫㅇㅣ⑨
ㅈㅓᆫㅇㅝᆯㅅㅔ⑨
##ㅙᆼ
ㅂㅜᆨㄴㅏᆷ
##ㅋㅗ⑨ㄹㅡ⑨
ㅊㅣᆷㄱㅜ⑨
ㅇㅣ⑨ㄱㅗᆺㅈㅓ⑨ㄱㅗᆺ
##ㅋㅏᆨ
##ool
ㅌㅜ⑨ㅈㅐ
ㄱㅜᆨㅁㅣᆫㅊㅏᆷㅇㅕ⑨
ㅇㅐᆨㅌㅣ⑨ㅂㅡ⑨
ㅌㅗ⑨ㅌㅡ⑨ㄴㅓᆷ
##ㄴㅏ⑨ㅈㅓᆯ
##ㅁㅔᆺ
ㄷㅡᆯㅊㅜ⑨
ㄴㅗ⑨ㅋㅣ⑨ㅇㅏ⑨
ㅇㅏᆯㅁㅗᆷ
ㅌㅏᆯㄹㅜ⑨
ㅂㅏᆮㅇㅏ⑨ㅊㅣ⑨
ㅈㅜᆯㄷㅏ⑨ㄹㅣ⑨
ㅇㅜᆯㅌㅡ⑨ㄹㅏ⑨
real
free
ㅎㅏ⑨ㅊㅔ⑨
ㅈㅓᆫㅈㅏ⑨ㅍㅏ⑨
ㅁㅗᆯㅇㅏ⑨ㅈㅜ⑨ㄱㅣ⑨
##ization
ㅁㅔ⑨ㅋㅗᆼ
ㅋㅐ⑨ㅊㅣ⑨
##ㅅㅏᆫㅇㅓᆸㄱㅐ⑨ㅂㅏᆯ
##ㅏ⑨ㅁㅗ⑨ㅌㅗ⑨
ㅇㅢ⑨ㅇㅣᆫ
ㅈㅗ⑨ㅅㅓᆫㅅㅏ⑨
ㅎㅏᆫㅁㅣᆫㅈㅗᆨ
##ple
ㅁㅐ⑨ㄱㅓ⑨
ㄱㅜ⑨ㅊㅜᆨㅎㅏᆷ
over
ㅇㅠ⑨ㅇㅠ⑨
ㄱㅛ⑨ㅅㅡᆸ
##ㄴㅣ⑨ㅊㅣ⑨
high
ㅎㅔᆨ
##ㅇㅔ⑨ㅇㅣ⑨ㅅㅕᆫ
ㅇㅡᆫㅂㅣᆾ
ㅂㅏᆸㄱㅡ⑨ㄹㅡᆺ
ㅁㅏᆯㄴㅕᆫ
##ㅇㅛ⑨ㄱㅡᆷ
ㅌㅣᆷㅇㅝ⑨ㅋㅡ⑨
2300
ㅎㅡᆼㅁㅣ⑨ㅈㅣᆫ
ㅂㅏᆼㅌㅏᆫㅅㅗ⑨ㄴㅕᆫㄷㅏᆫ
ㄹㅗ⑨ㅍㅡ⑨
ㅇㅣᆯㅇㅣᆷ
ㅇㅏ⑨ㅍㅗᆯ
ㅊㅗ⑨ㄱㅏ⑨
ㅇㅘᆼㅅㅜ⑨
ㄱㅗᆼㄱㅗᆼㅇㅕᆫㅎㅏ⑨
##ㅂㅡ⑨ㄹㅡ⑨
ㅅㅐᆼㄷㅗᆼㄱㅏᆷ
ㄷㅣᆫ
##ㄱㅠᆯ
ㄱㅏᆼㅂㅕᆼ
ㅇㅝ⑨ㄴㅓ⑨
ㅇㅕᆷㄱㅣ⑨
management
##ㅇㅛᆼㅅㅓᆨ
ㅈㅣ⑨ㅂㅏᆫ
##ㅂㅗ⑨ㅅㅜ⑨
##ㄱㅓ⑨ㄹㅣ
ㄴㅗ⑨ㅇㅣ⑨
ㅅㅏᆫㅅㅏ⑨ㅌㅐ⑨
##ㅇㅚ⑨ㅅㅓᆫ
ㄷㅏ⑨ㅇㅟᆫ
ㅍㅐ⑨ㅈㅏ⑨
ㄷㅐ⑨ㄹㅣ⑨ㅅㅓᆨ
gn
ㄹㅏ⑨ㅇㅣᆷ
##ㅇㅏ⑨ㅅㅓ⑨
ㄷㅏᆷㄷㅏᆷㅎㅏ⑨
ㅇㅣᆯㅁㅜᆫㅇㅣᆯㄷㅏᆸ
##ㄹㅡᆸ
ㅎㅚ⑨ㄱㅐ⑨
ㅇㅕᆨㅅㅏ⑨ㅎㅏᆨ
ㅁㅏ⑨ㄱㅗᆨ
ㄷㅐ⑨ㅎㅐᆼㅅㅏ⑨
ㅎㅣ⑨ㄹㅗ⑨ㅅㅣ⑨ㅁㅏ⑨
robert
ㅇㅢ⑨ㅂㅗᆨ
ㅁㅔ⑨ㅁㅏ⑨ㄹㅡ⑨
ㅈㅡᆼㄱㅝᆫㅇㅓᆸ
ㅂㅏᆼㅅㅏ⑨ㅍㅗ⑨
ㅎㅏᆫㅇㅢ⑨ㅎㅏᆨ
ㅈㅗ⑨ㄱㅏᆼ
206
ㅂㅜ⑨ㅅㅏᆫㅈㅓ⑨ㅊㅜᆨㅇㅡᆫㅎㅐᆼ
ㅇㅝᆫㅇㅓ⑨ㅁㅣᆫ
ㄷㅗ⑨ㄹㅣᆸ
ㅈㅔ⑨ㅇㅣᆫ
ㄷㅜ⑨ㅅㅏ
ㅊㅓᆫㄷㅜᆼ
ㄷㅡᆫㄱㅏ⑨
ㅈㅓᆼㅅㅣᆫㅂㅕᆼ
##ble
ㅈㅓᆫㅈㅣᆸ
ㅂㅣ⑨ㅈㅜ⑨ㅇㅓᆯ
ㅊㅓ⑨ㅇㅡ
##ㅌㅜ⑨ㄹㅡ⑨
ㅅㅣ⑨ㄱㅡᆸㅎㅣ⑨
ㅎㅏ⑨ㅈㅣ⑨ㅁㅏ
ㅍㅗ⑨ㅁㅐᆺ
ㅇㅏᆸㄹㅗᆨㄱㅏᆼ
bank
ㄷㅐ⑨ㄷㅐ⑨ㄹㅗ⑨
ㄷㅐ⑨ㄱㅏᆼ
208
ㅇㅘᆼㅈㅗᆨ
mer
##44
ㄹㅔ⑨ㅅㅡᆯㄹㅣᆼ
ssm
ㅊㅓᆯㄱㅘᆼㅅㅓᆨ
ㅇㅣ⑨ㅎㅗᆼ
ㅎㅏᆫㄱㅜᆨㅌㅗ⑨ㅈㅣ⑨ㅈㅜ⑨ㅌㅐᆨㄱㅗᆼㅅㅏ
ㅎㅏ⑨ㅎㅚ⑨
ㅈㅣᆼㅂㅕᆼ
ㅂㅜ⑨ㅍㅜᆷㅇㅓᆸㅊㅔ⑨
ㅈㅏ⑨ㅁㅐ⑨ㄱㅕᆯㅇㅕᆫ
ㅇㅔ⑨ㅂㅗᆯ
ㅅㅜᆫㅎㅏ⑨
ㄷㅏᆯㅋㅗᆷㅎㅏ⑨
##ㅋㅜᆼ
ㅇㅣᆫㅍㅣ⑨ㄴㅣ⑨
ㅇㅗ⑨ㄱㅏᆷ
ㅎㅜ⑨ㅁㅣ⑨
ㅂㅜᆯㅁㅕᆯ
ㄱㅗ⑨ㄷㅡᆼㅇㅓ⑨
hp
ㄱㅏ⑨ㄴㅏ⑨
ㅂㅜ⑨ㅊㅜᆨ
ㄴㅗ⑨ㅍㅖ⑨
ㅂㅕᆫㅊㅓᆫ
ㄴㅏ⑨ㅇㅣ⑨ㅋㅣ⑨
ㅈㅏ⑨ㅅㅏᆫㄱㅏ⑨
ㅇㅔᆯㅈㅣ⑨
ㅊㅜᆼㄴㅏᆷㄷㅐ⑨
##ㅉㅣ⑨ㄱㅐ⑨
ㅇㅝᆫㅎㅘᆯㅎㅣ⑨
ㅎㅕᆼㅍㅕᆫㅇㅓᆹ
ㅂㅓ⑨ㅌㅣᆷㅁㅗᆨ
##ㅈㅐ⑨ㄴㅏᆫ
ㄱㅡᆷㅎㅕᆼ
ㅈㅓᆯㅅㅔ⑨
ㄱㅖ⑨ㅂㅗ⑨
ㅁㅣᆫㅅㅜ⑨
ㄷㅟ⑨ㄸㅓᆯㅇㅓ⑨ㅈㅣ⑨
ㅇㅘᆫㅂㅕᆨㅎㅣ⑨
ㅇㅕᆼㅇㅑᆼㅂㅜᆫ
ㅂㅏᆫㄹㅕ⑨ㄱㅕᆫ
ㄷㅡᆫㄷㅡᆫㅎㅏ⑨
##19
ㅅㅣᆨㅍㅜ
ㅂㅓ⑨ㅈㅓᆺ
ㅊㅣᆺ
ㄱㅏ⑨ㄱㅛ⑨
ㅅㅓᆼㄴㅕᆫ
ㅁㅕᆼㅂㅗᆨ
ㅈㅐ⑨ㅇㅑ⑨
ㄱㅡᆸㅁㅜᆯ
ㄴㅏᆨㅈㅣ⑨
ㄱㅏ⑨ㅂㅡ⑨ㄹㅣ⑨
##ㅁㅐᆨㅅㅏᆼ
ㅂㅡ⑨ㄹㅗ⑨ㄷㅡ⑨
ㅈㅣ⑨ㅁㅣ⑨
ㅇㅠ⑨ㅋㅣ⑨
ㅂㅏᆨㅅㅏ
##ㅂㅜᆯㅁㅕᆼ
ㅅㅡ⑨ㅌㅣᆨ
ㅎㅙᆺ
ㅇㅑ⑨ㅅㅏᆫ
ㅇㅐ⑨ㅎㅗ⑨ㄱㅏ⑨
ㄷㅚ⑨ㅈㅣᇁ
ㅎㅐ⑨ㅅㅏᆫㅁㅜᆯ
ㅍㅕᆼㅁㅣᆫ
ㅁㅜᆫㅎㅏᆨㄱㅘᆫ
ㅇㅖᆫ
##ole
ㅅㅡ⑨ㅍㅡ⑨ㄹㅣᆼㅋㅐᆷㅍㅡ⑨
ㅈㅜᆼㄱㅗᆼ
ㅅㅓᆯㄱㅓ⑨ㅈㅣ⑨
ㅅㅣᆷㅎㅣ⑨
ㅂㅕᆫㅂㅕᆯ
ㅇㅠᆨㄹㅠ⑨
ㅎㅡᆼㄱㅜᆨ
ㅎㅓᆫㅂㅓᆸㅈㅐ⑨ㅍㅏᆫㅅㅗ⑨ㅈㅏᆼ
ㅅㅣ⑨ㅈㅔ⑨ㅍㅜᆷ
ㅉㅣ⑨ㄲㅓ⑨
ㅆㅏᆼㅇㅛᆼㅈㅏ⑨ㄷㅗᆼㅊㅏ⑨
ㄱㅘ⑨ㄹㅗ⑨
ㄱㅜ⑨ㄱㅓᆯ
ㅂㅐ⑨ㅌㅡᆯ
ㅂㅏᆰㄱㅣ⑨
ㄷㅐ⑨ㄴㅏᆽ
ㅇㅣᆯㄹㅗ⑨
ㅁㅣ⑨ㄹㅗ⑨
ㅇㅏᆯㅍㅡ⑨ㅅㅡ⑨
ㅇㅐ⑨ㄷㅓᆷ
##ㅊㅏᆼㅅㅜ⑨
ㅁㅜ⑨ㄹㅡ⑨ㅇㅣᆨ
ㅁㅐ⑨ㄴㅣ⑨ㅈㅣ⑨ㅁㅓᆫㅌㅡ⑨
ㅎㅐᆨㅌㅏᆫㄷㅜ⑨
ris
ㄱㅓ⑨ㅂㅓ⑨ㄴㅓᆫ
ㅈㅣ⑨ㅈㅓᆼㅎㅏᆨ
ㅌㅏ⑨ㄱㅜᆨ
1943
ㅇㅞ⑨ㅇㅣᆯ
ㅅㅏᆼㅌㅜ⑨
ㅁㅣ⑨ㅋㅔᆯ
ㅎㅚ⑨ㄹㅗ
ㅅㅣᆨㅈㅜᆼㄷㅗᆨ
ㅇㅣ⑨ㅁㅗ
ㅊㅔ⑨ㅂㅓᆯ
ㄷㅗ⑨ㅅㅣ⑨ㅇㅣᆫ
ㄱㅣᆷㅇㅕᆼㅎㅘᆫ
ㅇㅓᆷㅈㅜᆼㅎㅣ⑨
##ㅈㅏ⑨ㅊㅣ⑨ㄷㅗ⑨
ㅎㅘ⑨ㅅㅗ⑨
##ㄷㅔᆫㅌㅣ⑨
ㅈㅓᆼㅇㅢ
ㅇㅕᇀ
ㅅㅏ⑨ㄱㅘ⑨ㅁㅜᆫ
##ㅅㅡ⑨ㅌㅗ⑨ㅇㅓ⑨
smart
##ㅊㅔ⑨ㅇㅠᆨㅎㅚ⑨
ㅇㅏ⑨ㄹㅔ⑨ㄴㅏ⑨
##ㄷㅐ⑨ㄱㅏᆫ
ㄴㅏ⑨ㅍㅏᆯ
ㅅㅏᆼㅋㅙ⑨ㅎㅏ⑨
209
ㅇㅜᆯㅊㅏᆼ
ㅁㅛ⑨ㅎㅏ⑨
ㅇㅠ⑨ㄱㅝᆫ
ㅈㅓ⑨ㅇㅗᆫ
ㅅㅣᆯㅋㅓᆺ
ㄴㅏᆫㅊㅣ⑨
ㅇㅏ⑨ㅁㅣ⑨ㄴㅗ⑨ㅅㅏᆫ
ㄱㅗ⑨ㄷㅓᆨ
ㄱㅗ⑨ㅊㅏᆷ
ㅇㅓᆷㅇㅕᆫㅎㅣ⑨
ㄴㅓ⑨ㅂㅣ⑨
ㅎㅏᆼㅅㅏᆫㅎㅘ⑨
##be
ㅇㅏ⑨ㅅㅡ⑨ㅍㅏᆯ
contr
##ㅈㅐ⑨ㅅㅏᆫ
##ㄷㅡ⑨ㄹㅣ⑨ㅇㅏ⑨
ㅂㅜᆯㅇㅡᆼ
ㅂㅏᆫㅎㅑᆼ
##ㄷㅓᆨㅇㅕ⑨
ㄹㅜ⑨ㅍㅡ⑨
ㅅㅜ⑨ㅇㅘᆫ
ㅂㅡᆯㄹㅐᆨㅂㅏᆨㅅㅡ⑨
ㅇㅗ⑨ㅁㅏ⑨ㅇㅣ⑨ㄴㅠ⑨ㅅㅡ
mg
ㅊㅏ⑨ㄷㅗ⑨
ㄷㅓ⑨ㅂㅜᆯㅇㅓ⑨ㅁㅣᆫㅈㅜ⑨ㄷㅏ
ㅎㅐᆫㄷㅡ⑨ㅂㅗᆯ
ㅈㅓᆫㄱㅜ⑨
ㅁㅜᆫㅇㅓ⑨
ㄱㅡᆷㅁㅜᆯ
ㅇㅓᆸㅎㅘᆼ
ㅈㅔ⑨ㅈㅜ⑨ㅎㅏᆼㄱㅗᆼ
ㅂㅜ⑨ㄷㅐ⑨ㅇㅝᆫ
dl
ㅁㅗ⑨ㄹㅏᆫ
ㄹㅔ⑨ㅈㅓᆫ
ㅎㅗᆯㄷㅐ⑨
##ility
ㅇㅠ⑨ㄱㅣ⑨ㅊㅔ⑨
##ㅇㅝᆯㄷㅡ⑨ㅋㅓᆸ
instit
ㄷㅏ⑨ㅅㅔ⑨ㄷㅐ⑨
##ㅅㅡ⑨ㅋㅗᆫ
ㄴㅗ⑨ㅍㅖ⑨ㅁㅜᆯ
ㅇㅣᆯㅂㅗ⑨
ㅂㅏᆯㅂㅏ⑨ㄷㅏᆨ
##ㅌㅗ⑨ㅍㅣ⑨ㅇㅏ⑨
ㅇㅕᆼㅎㅘ⑨ㅂㅐ⑨ㅇㅜ⑨
ㅈㅓᆼㅁㅗᆼㄱㅜ⑨
ㅇㅔᆨㅅㅗ⑨
ㄱㅡᆨㅅㅗ⑨ㅅㅜ⑨
wbc
##ㄹㅜᆯ
ㅇㅝᆫㅁㅜᆫ
ㅈㅣᆫㅊㅏᆯ
ㅇㅏ⑨ㅇㅣ⑨ㄷㅔᆫㅌㅣ⑨
ㅂㅕᆼㄷㅗᆼ
ㅂㅜᆼㅇㅓ⑨
##ㅅㅜ⑨ㅁㅜ⑨
ㅈㅓᆼㅎㅗᆼ
ㅁㅕᆫㅈㅣᆨ
ㅅㅏᆼㅇㅓ⑨
ㅇㅗ⑨ㅁㅔ⑨
ㅊㅣ⑨ㅈㅏᆼ
ㄱㅣ⑨ㄴㅕᆷㅅㅏ⑨
ㅁㅗ⑨ㅌㅓ⑨ㅅㅡ⑨
ㅈㅓᆼㅇㅠ⑨ㅅㅏ⑨
ㅎㅕᆸㅈㅜ⑨ㄱㅗᆨ
ㅊㅔ
ㅎㅏᆫㄱㅣᆯ
ㅇㅕ⑨ㅅㅜᆫ
ㅅㅣᆨㄱㅣ⑨
ㅁㅔ⑨ㅇㅏ⑨ㄹㅣ⑨
ㅅㅑ⑨ㅇㅗ⑨
ㅂㅣᆼㅎㅏ⑨
ㅅㅐᆷㅁㅜᆯ
ㄴㅏᆷㄷㅗᆼㄱㅜ⑨
ㅅㅏ⑨ㅈㅣᆫㅈㅏᆨㄱㅏ⑨
ㅎㅔ⑨ㄷㅣᆼ
ㅎㅢ⑨ㅅㅐᆼㅇㅑᆼ
ㅇㅠ⑨ㄹㅓ
ㄹㅏ⑨ㅁㅣ⑨
ㅂㅣᆫㅅㅔᆫㅌㅡ⑨
ㄴㅏ⑨ㄷㅡᆯㅁㅗᆨ
tel
##ㅌㅡ⑨ㄴㅣ⑨
ㅇㅣ⑨ㅅㅏᆼㅎㅘ⑨
ㅈㅓᆯㅅㅏᆼ
228
ㅈㅚ
##ㄷㅐᆨ
ㄱㅏ⑨ㄹㅕ⑨ㄴㅐ⑨
ㄱㅗ⑨ㅅㅓ
ㄱㅗ⑨ㅁㅜ
ㅅㅓᆫㅂㅏ
ㄱㅓ⑨ㅅㅡᆯㄹㅣ⑨
ㅇㅕᆫㄷㅏᆫ
ㅇㅕ⑨ㅈㅏ⑨ㅂㅜ⑨
1925
ㅂㅣ⑨ㅌㅡ⑨ㅋㅗ⑨
##ㅇㅣ⑨ㄴㅗ⑨
ㅅㅗ⑨ㄹㅏ⑨
ㅋㅔ⑨ㅁㅣ⑨
##23
##16
##ㄷㅣ⑨ㅇㅔ⑨ㅇㅣ⑨
ㅂㅕᆯㅈㅏ⑨ㄹㅣ⑨
ㅂㅕᆼㅍㅜᆼ
ㅎㅏᆼㄱㅓ⑨
ㅅㅓᆨㅈㅘ⑨
ㅅㅏ⑨ㅂㅣ⑨
ㅅㅓᆼㅎㅐᆼ
ㅁㅐ⑨ㅊㅜᆫ
ㅍㅖ⑨ㅎㅚ⑨
ㅇㅡᆯㅈㅣ⑨ㄹㅗ⑨
star
ㅇㅏ⑨ㅅㅟ⑨ㅇㅝ⑨ㅎㅏ⑨
##ㅅㅏ⑨ㅁㅜ⑨ㅅㅗ⑨
ㅎㅏᆫㅇㅜᆯ
##ㅇㅐ⑨ㅇㅐ⑨
ㅈㅜᆼㅇㅏᆼㅇㅟ⑨
ㅂㅕᆨㅈㅣ⑨
ㅇㅕᆼㅎㅐ⑨
ㄴㅜᆫㅅㅏᆯ
ㅇㅘᆫㅊㅜᆼ
ㅈㅣᆫㅅㅣ
ㅂㅕᆫㅈㅗ⑨
ㅌㅡ⑨ㅇㅟᆺ
ㄱㅕᆼㅂㅜ⑨ㄱㅗ⑨ㅅㅗᆨㄷㅗ⑨ㄹㅗ⑨
ㅇㅡᆫㅍㅕᆼㄱㅜ⑨
##ㅈㅔ⑨ㄷㅗ⑨
ㄴㅐ⑨ㅁㅣᆫ
ㅇㅏ⑨ㅊㅣ⑨
207
ㅎㅘᆼㅎㅐ⑨ㄷㅗ⑨
##ㄹㅕ⑨ㅊㅣ⑨
ㄴㅏ⑨ㅅㅡ⑨
ㅂㅜᆯㄱㅗ⑨ㄱㅣ⑨
ㅇㅏᆯㄹㅕ⑨ㅈㅜ⑨
ㅎㅐᆨㅇㅕᆫㄹㅛ⑨
ㅍㅗᆯㄹㅏ⑨
ㅊㅗ⑨ㄹㅗᆨㅅㅐᆨ
ㄴㅏᆷㅇㅏ⑨ㅍㅡ⑨ㄹㅣ⑨ㅋㅏ⑨ㄱㅗᆼㅎㅘ⑨ㄱㅜᆨ
ㅈㅓᆼㅅㅓ
ㅇㅑᆼㅋㅣ⑨ㅅㅡ⑨
ㅈㅏᆫㅈㅐ⑨
ㅅㅡ⑨ㅋㅣᆯ
ㅅㅗᆼㄷㅗ⑨ㄱㅜᆨㅈㅔ⑨
ㅎㅘᆫㅎㅗ⑨ㅅㅓᆼ
##ㅅㅣ⑨ㅇㅏᆫ
mich
ㄱㅣ⑨ㄱㅣ
ㅎㅏᆷㅇㅢ⑨
ㄴㅓᆷㅂㅓ⑨
##ㅈㅔᆫㄷㅏ⑨
##ㄹㅜᆫ
ㅁㅜᆫㅂㅕᆼ
ㅂㅜᆯㅇㅜᆫ
ㅍㅣ⑨ㄹㅔᆫㅊㅔ⑨
ㄹㅔ⑨ㅇㅗ⑨ㄴㅏ⑨ㄹㅡ⑨ㄷㅗ⑨
ㄱㅕᆯㅅㅗᆫ
ㅍㅏᆯㅉㅏᆼ
##ㄷㅏᆺㅋㅓᆷ
##ㄴㅜᆸ
ㅊㅚ⑨ㄷㅗᆼ
##ㅋㅏ⑨ㅅㅡ⑨
ㅅㅗᆼㄱㅏᆼ
ㄸㅓᆨㅂㅗ
##ㅊㅜᆺㄱㅏ⑨ㄹㅜ⑨
##ㅈㅐ⑨ㄴㅏᆫㅇㅏᆫㅈㅓᆫ
ㅌㅜ⑨ㅍㅛ⑨ㅎㅏᆷ
ㅇㅣ⑨ㄹㅣ⑨ㅎㅏ⑨ㅇㅕ⑨
ㄱㅏ⑨ㄹㅐ⑨
ㅈㅏ⑨ㅁㅏᆨ
ㄴㅏᆷㄷㅗ⑨
ㅇㅑᆼㅈㅗ⑨
##ㅍㅣ⑨ㅋㅡ⑨
ㅂㅐᆨㅁㅣ⑨
ㅎㅢ⑨ㅁㅏ
ㅈㅓᆼㅅㅣᆫㄹㅕᆨ
ㄷㅐ⑨ㅅㅣᆫㅈㅡᆼㄱㅝᆫ
polic
##ㅉㅐ
##ㄹㅣ⑨ㄱㅏ⑨
ㄱㅣ⑨ㅎㅐᆼ
ㅇㅏ⑨ㅅㅜ⑨
ㄴㅜᆫㅁㅐ⑨
##ㅂㅜᆯㅇㅣ⑨
ㅋㅔ⑨ㅂㅣᆫ
ㅇㅕ⑨ㅈㅣ⑨ㅇㅓᆹㅇㅣ⑨
ㅊㅓᆼㄷㅏᆷㄷㅗᆼ
ㅈㅓᆼㅈㅗᆨ
##ㅎㅕᆨㅁㅕᆼ
ㅇㅣ⑨ㅂㅕᆼㅎㅓᆫ
##ㅂㅜ⑨ㄷㅗᆼㅅㅏᆫ
ㅇㅣ⑨ㅈㅡ⑨
ㅎㅏ⑨ㅈㅜᆼ
ㅇㅕᆫㅎㅘ⑨
ㄱㅜ⑨ㄹㅛᆼ
ㅅㅗᆨㅅㅜ⑨ㅁㅜ⑨
ㅌㅜ⑨ㅈㅏ⑨ㅊㅓ⑨
ㅁㅐᆺ
ㅅㅗ⑨ㅅㅏ⑨
ㄷㅏᆫㅇㅟ
##ㄱㅡᆫㅁㅜ⑨
##ㅂㅓ⑨ㅌㅓ⑨
ㅋㅏᆫㅁㅏᆨㅇㅣ⑨
block
ㄱㅏᆫㅈㅣᆯ
ㅎㅓ⑨ㄷㅜᆼ
ㄷㅏ⑨ㅅㅜ⑨ㄷㅏᆼ
ㅊㅚ⑨ㄱㅗ
ㅍㅐ⑨ㄱㅣ⑨
ㅃㅏᆯㄱㅐᆼㅇㅣ⑨
ㅁㅓᆺㄷㅐ⑨ㄹㅗ⑨
ㅍㅣᆸ
ㅇㅜᆯㅁㅓᆨㅇㅣ⑨
##ㅁㅏᆫㅈㅏᆼ
ㅇㅕᆫㅇㅜ⑨
ㄹㅜ⑨ㅁㅏ⑨ㄴㅣ⑨ㅇㅏ⑨
ㅇㅣ⑨ㅈㅜ⑨ㅁㅣᆫ
ㅇㅑᆼㅅㅡᆼㅌㅐ⑨
ㅁㅗ⑨ㅌㅜᆼㅇㅣ⑨
ㅂㅡ⑨ㄹㅐᆫ
kgc
ㅊㅗᆼㄷㅗᆨㅂㅜ⑨
ymca
##35
ㅈㅓᆼㅇㅡᆸ
ㅇㅠ⑨ㅌㅗ
ㅊㅚ⑨ㅇㅠᆫ
ㅂㅏᆨㄴㅏᆷ
ㅁㅗᆨㅈㅗ⑨
ㅎㅘᆼㅅㅏᆫ
ㅅㅏᆯㄹㅣᆷㅅㅏᆯㅇㅣ⑨
but
ㅍㅖ⑨ㄱㅛ⑨
ㅇㅏᆨㅂㅓᆸ
ㄹㅏ⑨ㄴㅡ
ㅇㅑᆨㅈㅐ⑨
ㄷㅣ⑨ㅌㅡ⑨ㄹㅗ⑨
ㅁㅣᆯㅅㅜ⑨
ㄷㅡᆯㅇㅣ⑨ㄷㅏᆨㅊㅣ⑨
##ㄷㅏ⑨ㅇㅜᆫ
ㅅㅐ⑨ㄴㅐ⑨ㄱㅣ⑨
ㄱㅗᆼㄱㅕᆨㄹㅕᆨ
ㅎㅟ⑨ㅇㅓ⑨ㅈㅣ⑨
##ㅁㅗᆯㅇㅣ⑨
ㅋㅔ⑨ㅇㅣ⑨ㅌㅣ⑨
ㅎㅏ⑨ㅇㅜ⑨
ㅁㅕᆼㅅㅔ⑨
ㄹㅏ⑨ㅂㅔᆯ
ㅍㅣ⑨ㄹㅣ⑨
ㄱㅐ⑨ㅂㅏᆯㅇㅝᆫ
ㅇㅣ⑨ㅇㅛᆼㄹㅛ⑨
ㅌㅚ⑨ㅅㅐᆨ
ㅋㅡ⑨ㄹㅣ⑨ㅅㅡ⑨ㅊㅓᆫ
ㅎㅏ⑨ㅇㅕ⑨ㅌㅡᆫ
ㅇㅕᆫㅁㅏ⑨
ㅌㅟ⑨ㄱㅣᆷ
ㄹㅓ⑨ㅂㅡ⑨ㅋㅗᆯ
ㅇㅐ⑨ㅌㅡᆯㄹㅐᆫ
ㅅㅣ⑨ㅁㅗᆫ
ㅌㅏᆫㄷㅜ⑨
226
ㅇㅕᆫㅎㅏᆸㅎㅚ
##ㅋㅓ⑨ㄹㅣ⑨
ㅅㅣ⑨ㅁㅗ⑨
ㅈㅓᆫㅇㅟ⑨
##ㄱㅓ⑨ㅅㅡᆫ
ㄷㅏᆫㅊㅗ⑨
ㅇㅣ⑨ㅈㅐ⑨ㅁㅣᆫ
##ㅅㅣᆫㅎㅗ⑨
ㅅㅐᆼㅇㅓᆸ
ㄱㅡᆷㅂㅏᆯ
ㅇㅠᆫㅈㅣ⑨
ㄱㅏᆷㄷㅗᆨㄱㅘᆫ
##oup
ㄱㅕᆼㅇㅢ⑨ㅅㅓᆫ
ㅋㅡᆯㄹㅔᆫㅈㅣᆼ
ㅂㅜ⑨ㅇㅕᆨ
ㅇㅟ⑨ㅎㅐ⑨
ㅈㅣᆨㅅㅓᆯ
ㄴㅏᆫㅈㅔ⑨
ㅁㅏ⑨ㄹㅡ⑨ㅋㅡ⑨
##ㅝ⑨ㅎㅏ⑨
##ㄱㅠ⑨ㅇㅓ⑨
ㅈㅗ⑨ㅅㅣᆷㅅㅡ⑨ㄹㅔ⑨
ㅁㅗ⑨ㄹㅣ⑨ㅅㅡ⑨
ㅎㅕᆸㅅㅗ⑨
ㅇㅣᆫㅌㅓ⑨ㅍㅏ⑨ㅋㅡ⑨
ㅇㅐᆫㄷㅣ⑨
##ㄷㅓ⑨ㅅㅡᆫ
ㅁㅏ⑨ㄷㅏᆷ
ㄱㅡᆫㄱㅛ⑨
ㅊㅜᆨㅈㅗ⑨
##tics
ㅇㅑᆼㅍㅕᆼㄱㅜᆫ
##ㅅㅣ⑨ㅌㅣ
##ㅌㅏ⑨ㅇㅣ
ㅇㅢ⑨ㅅㅏ⑨ㅇㅣᆯ
ㅇㅏ⑨ㅊㅣ
ㅎㅚ⑨ㅇㅝᆫㄱㅝᆫ
ㅈㅜᆯㄱㅣ⑨ㅊㅏ⑨
ㄱㅡᆸㅁㅜᆯㅅㅏᆯ
##ㄱㅏᆫㅈㅓᆸ
del
ㅇㅣ⑨ㄱㅘ⑨
ㅁㅣ⑨ㄹㅓ⑨
ㅇㅛ⑨ㅊㅜᆼ
ㅅㅗ⑨ㅍㅜᆼ
ㅁㅜᆫㄷㅏᆸ
ㅈㅏᆼㅇㅓᆷ
ㅁㅣᆫㅂㅕᆫ
ㅎㅓ⑨ㄴㅣ⑨
ㅈㅓᆫㅊㅔ⑨ㅈㅜ⑨ㅇㅢ⑨
1908
ㄱㅗᆸㅎㅏ⑨
ㅎㅣ⑨ㅌㅡ⑨ㄱㅗᆨ
ㅇㅕᆨㅅㅡᆸ
ㅅㅏ⑨ㄹㅣᆸㄷㅐ⑨
ㄱㅣᆷㄱㅘᆫㅇㅛᆼ
ㅇㅕᆼㅂㅣᆫ
ㅈㅣᆨㄱㅏᆫㅈㅓᆸ
ㅅㅜᆫㅁㅐ⑨ㄷㅗ⑨
ㄴㅔ⑨ㄴㅗᆷ
ㅇㅏᆷㅁㅜᆨ
ㅅㅏᆼㄷㅏᆷㅅㅏ⑨
##ㅅㅣ⑨ㅇㅗ⑨
sim
ㅎㅏ⑨ㅁㅗ⑨ㄴㅣ⑨
ㅈㅣ⑨ㅇㅗ⑨
ㄷㅐ⑨ㅇㅡ
ㅂㅣ⑨ㅇㅕᆯ
ㅇㅓ⑨ㄹㅕᆷ
ㅂㅏ⑨ㅌㅣ⑨ㅋㅏᆫ
##ㄹㅣ⑨ㅈㅡ
ㄱㅕᆼㅎㅓ
ㅁㅣᆫㅈㅜᆼㄷㅏᆼ
ㅂㅗᆩㅇㅡᆷ
ㅇㅑ⑨ㅅㅡ⑨ㅋㅜ⑨ㄴㅣ⑨
ㅇㅓ⑨ㅅㅣ⑨ㅅㅡ⑨ㅌㅡ⑨
ㅅㅏᆼㅎㅏᆫㅅㅓᆫ
ㅂㅐᆨㄷㅜ⑨ㄷㅐ⑨ㄱㅏᆫ
ㄱㅜᆨㄱㅏ⑨ㅇㅣᆫㄱㅝᆫㅇㅟ⑨ㅇㅝᆫㅎㅚ⑨
ㅂㅏᆼㄱㅡᆯㄹㅏ⑨ㄷㅔ⑨ㅅㅣ⑨
ㅇㅢ⑨ㅅㅏ⑨ㅇㅣᆯㅈㅓᆼ
##ㅅㅓ⑨ㅇㅑ⑨
ㅈㅏ⑨ㅇㅣ⑨
ㄷㅗ⑨ㅊㅓ⑨
ㅍㅕᆼㅈㅣ⑨
ㅈㅏ⑨ㅁㅜᆫㄷㅏᆫ
ㅍㅏ⑨ㅇㅣ⑨ㄴㅓᆯ
ㅂㅜᆯㅁㅐ⑨
ㅍㅕᆼㄱㅏ⑨ㅇㅝᆫ
ㄷㅓᆾ
ㄹㅏ⑨ㅅㅡ⑨ㅂㅔ⑨ㅇㅣ⑨
cb
ㅂㅐ⑨ㅈㅣ⑨
ㅂㅏ⑨ㄷㅏ
ㄱㅡᆷㅈㅜ⑨
ㅅㅔ⑨ㄱㅖ⑨ㅂㅗ⑨ㄱㅓᆫ
ㅇㅐ⑨ㄱㅛ⑨
ㅈㅏᆼㅎㅏ⑨ㅅㅓᆼ
ㅁㅏᆯㄲㅡᆷㅎㅣ⑨
ㅈㅗ⑨ㅇㅜ⑨
ㅇㅣ⑨ㅌㅐ⑨ㅇㅝᆫ
ㅇㅜ⑨ㅅㅡ⑨ㄲㅘᆼ
ㅁㅜᆫㅁㅐᆨ
ㅁㅕᆼㅊㅏᆼ
ㅍㅣ⑨ㅅㅣᆫ
ㅊㅜᆼㅊㅓᆼㄴㅏᆷㄷㅗ⑨
gps
ㅇㅣ⑨ㅎㅘᆼ
ㄱㅓᆷㅌㅗ
ㅈㅣ⑨ㅈㅣ⑨ㅅㅔ⑨
235
ㅇㅐᆨㅈㅓᆼ
ㄱㅜᆫㅍㅗ⑨ㅅㅣ⑨
ㅈㅓᆫㄹㅏ⑨ㅂㅜᆨㄷㅗ⑨
ㅅㅓ⑨ㄴㅡᆯㅎㅏ⑨
ㅅㅔᆯㅌㅡ⑨ㄹㅣ⑨ㅇㅗᆫ
ㅇㅠ⑨ㄴㅕᆷ
ㄱㅡᆨㅅㅓᆼ
1918
ㅌㅐ⑨ㅅㅡ⑨ㅋㅡ⑨ㅍㅗ⑨ㅅㅡ
ㅇㅏ⑨ㅅㅡ⑨ㅍㅏᆯㅌㅡ⑨
##ㅌㅏ⑨ㄹㅣ⑨ㅇㅏ⑨
ㅇㅜᆯㅂㅜᆫ
ㅇㅗ⑨ㄹㅗᆺㅇㅣ⑨
ㅅㅓᆯㄱㅖ⑨ㄷㅗ⑨
ㄷㅗ⑨ㅅㅓ⑨ㄱㅘ
ㅊㅓᆼㅊㅟ⑨ㅈㅏ⑨
ㄹㅣᆸㅅㅡ⑨ㅌㅣᆨ
ㄷㅡᆼㄹㅏᆨ
ㅈㅏᆼㅈㅣ⑨
ㄷㅣ⑨ㅍㅔᆫ
##ㅍㅡᆯㄹㅣᆺ
ㅎㅑ
ㅇㅣᆯㅅㅣᆫ
ㅈㅗᆼㅎㅏᆸㅂㅜ⑨ㄷㅗᆼㅅㅏᆫ
ㅍㅐ⑨ㅅㅕᆫㅅㅛ⑨
ㅋㅗᆼㄴㅏ⑨ㅁㅜᆯ
##ㄴㅔ⑨ㅌㅡ⑨ㅇㅝᆨㅅㅡ⑨
ㅇㅓ⑨ㄹㅕᆷㅍㅜᆺ
ㅇㅜ⑨ㅅㅡ⑨ㄲㅘᆼㅅㅡ⑨ㄹㅓᆸ
ㅇㅟ⑨ㅋㅣ⑨
ㅈㅣᆫㅇㅜ⑨
ㅋㅏ⑨ㄷㅏ⑨
ㅂㅡ⑨ㄹㅔ⑨ㅇㅣ⑨
ㄷㅗᆼㅅㅓᆼㅇㅐ⑨ㅈㅏ⑨
##ㄹㅓ⑨ㅂㅡ⑨
kot
ㄸㅐ⑨ㅉㅡᆷ
ㅈㅣᆫㅅㅣ⑨
ㅌㅡᆨㅅㅜ
ㅅㅣᆷㅁㅣ⑨
ㅅㅗᆼㄷㅏᆯ
ㄹㅠ⑨ㅅㅓᆼ
ㅊㅚ⑨ㅈㅐ⑨ㅅㅓᆼ
##ㅈㅔ⑨ㅎㅏᆫ
##ㅂㅜ⑨ㅊㅐ⑨
##43
ㅅㅔ⑨ㅋㅓᆫ
ㅇㅣᆫㅊㅓᆫㄷㅐ⑨
ㅂㅗᆨㅈㅣ⑨ㅅㅏ⑨
ㄱㅝᆫㅇㅕᆼㅈㅣᆫ
ㅅㅗᆼㄷㅗ⑨ㄱㅜᆨㅈㅔ⑨ㄷㅗ⑨ㅅㅣ⑨
##ㄱㅏ⑨ㅅㅡ
ra
ㅂㅕᆯㅊㅣᆼ
ㄷㅏ⑨ㄴㅡ
ㅂㅜᆯㄹㅓ⑨ㅇㅗ⑨
ㅇㅕ⑨ㄹㅣ⑨
ㅇㅏᆫㅅㅐᆨ
ㅈㅏᆼㅊㅜᆼ
##ㄴㅐ⑨ㅈㅏᆼ
ㅂㅗᆨㅇㅕᆨ
ㅅㅏᆷㄱㅓ⑨ㄹㅣ⑨
ㅂㅓᆯㄱㅓ⑨
spec
##ㅂㅗ⑨ㅎㅓᆷㄱㅗᆼㄷㅏᆫ
ㅂㅏᆨㄱㅘᆼㅇㅗᆫ
du
ㅋㅏ⑨ㄴㅣ⑨
ㄱㅗᆯㅂㅏᆫ
##ㅅㅡ⑨ㅌㅗ⑨ㅋㅡ⑨
##ㄱㅣ⑨ㅇㅕᆼ
ㅈㅡᆸ
ㅁㅣᆫㅈㅣ⑨
ㅅㅓᆼㅂㅜᆨㄱㅜ⑨
ㅎㅘ⑨ㄱㅣ⑨ㅇㅐ⑨ㅇㅐ⑨
ㄴㅏ⑨ㅌㅗ⑨
ㄴㅐ⑨ㄷㅏᆯㄹㅣ⑨
ㅇㅣᆷㅍㅡᆯㄹㅏᆫㅌㅡ⑨
ㅂㅐᆨㅈㅗ⑨
ㅂㅗ⑨ㅅㅜ⑨ㅈㅜ⑨ㅇㅢ⑨
ㄴㅏᆫㅍㅗᆨ
ber
ㅇㅔ⑨ㅅㅔᆫㅅㅡ⑨
ㅍㅡ⑨ㄹㅐᆼ
ㅂㅗ⑨ㅈㅏ
ㅇㅠ⑨ㅊㅔ⑨
ㅁㅜᆯㅂㅏᆼㅇㅜᆯ
ㄴㅏᆯㅆㅣᆫ
ㅅㅏᆷㅅㅓᆼㅈㅓᆫㅈㅏ
ㅅㅣ⑨ㅋㅡ⑨ㄹㅣᆺ
ㅂㅓ⑨ㄹㅣᆷㅂㅏᆮ
met
ㅇㅑᆼㄱㅏᆼ
ㅇㅏ⑨ㅇㅏ⑨
ㅊㅓᆼㄹㅛᆼ
ㄴㅏᆯㄸㅟ⑨
##ㅏ⑨ㅁㅜ⑨
ㅇㅝᆫㅈㅓ
ㅌㅗ⑨ㅇㅣᆨ
ㅈㅜᆯㄷㅏ⑨ㄹㅣ⑨ㄱㅣ⑨
##ㄱㅖ⑨ㅇㅑᆨ
##ark
ㅋㅓ⑨ㄴㅕᆼ
david
ㅈㅏ⑨ㅊㅓᆼ
##ㅇㅏᆫㅂㅗ⑨
ㅁㅏ⑨ㅌㅡ
ㅅㅣᆷㄹㅕ⑨
ㅅㅡ⑨ㄹㅣ⑨ㄹㅏᆼ
ㅂㅔᆨㅅㅡ⑨ㅋㅗ⑨
ㅇㅘᆼㅅㅜ⑨ㅇㅣᆫ
ㅈㅜ⑨ㅇㅝᆫ
ㅅㅐᆼㅎㅜ⑨
ㅂㅐᆨㄱㅘ⑨
ㅁㅏ⑨ㄱㅡ⑨ㄴㅔ⑨
ㄷㅡᆼㄱㅣ⑨ㅂㅜ⑨
##ㅂㅣ⑨ㅇㅏ
ㅁㅕᆨ
##ㄴㅗᆨ
ㅅㅡ⑨ㅍㅔᆨㅌㅡ⑨ㄹ
ㅈㅓᆫㅁㅜ
ㅈㅏ⑨ㅋㅏ⑨ㄹㅡ⑨
ㅂㅣ⑨ㅈ
ㅅㅓ⑨ㄷㅗᆼ
ㅈㅣ⑨ㅁㅏᆫㅇㅡᆫ
ㄱㅘᆼㄱㅗ
ㅈㅗᆷㅂㅣ⑨
ㄱㅐ⑨ㅅㅓᆫㅇㅏᆫ
ㅋㅡ⑨ㄹㅗᆷ
##ㄱㅏ⑨ㅇㅘ⑨
ㄱㅗᆼㅁㅜ⑨ㅇㅝ
ㅇㅕᆼㅂㅣᆫㄱㅘᆫ
ㅂㅜ⑨ㅊㅓ
ㅍㅕᆫㄱㅗᆨ
prod
ㅅㅓᆮㅂㅜ⑨ㄹㅡ⑨
ㅅㅡ⑨ㅁㅏ⑨ㅌㅡ
##ㄷㅗᆨㅂㅜ⑨
ㄷㅣ⑨ㅇㅏ⑨
ㅍㅡ⑨ㄹㅗᆯㄹㅔ⑨
1931
ㅇㅠ⑨ㅇㅕᆫㅅㅓᆼ
##ㄲㅜᆺ
ㅇㅗ⑨ㄷㅜ⑨
ㅎㅐᆼㅇㅕ⑨
ㅈㅓᆼㅂㅜ⑨ㄱㅜᆫ
##ㅍㅣᆯㄷㅡ⑨
ㅈㅓᆫㄷㅗ⑨ㅅㅏ⑨
ㅁㅗ⑨ㅎㅗ⑨ㅎㅏ⑨
ㄱㅜᆨㅁㅣᆫㅊㅏᆷㅇㅕ⑨ㄷㅏᆼ
##ㅆㅗ⑨
ㅇㅣᆯㄱㅐ⑨
ㅇㅗ⑨ㅈㅓᆼ
ㅅㅗ⑨ㅁㅏᆯ
##ㄱㅗᆼㅈㅜ⑨
ㅇㅑ⑨ㄱㅡᆫ
ㅅㅏ⑨ㅇㅣ⑨ㅌㅡ
ㅇㅕᆻ
ㅌㅚ⑨ㅈㅣᆨㅈㅏ⑨
ㅅㅐᆯㄹㅓ⑨ㄹㅣ⑨
ㄱㅏ⑨ㅇㅕ
ㄷㅐ⑨ㅇㅛ
ㄴㅗ⑨ㅈㅏᆼ
ㅅㅏᆷㅅㅓᆼㅂㅏ⑨ㅇㅣ⑨ㅇㅗ⑨
progr
ㅁㅏ⑨ㅅㅡ⑨ㅌㅓ⑨ㅅㅡ⑨
ㅊㅓᆼㅎㅐ⑨ㅂㅜ⑨ㄷㅐ⑨
ㅊㅗ⑨ㅈㅜᆼㄱㅗ⑨
ㅇㅣᆯㅅㅣᆨ
ㅁㅣᆫㄴㅗ⑨ㅊㅗᆼ
ㅅㅣᆨㅊㅗ⑨
ㅌㅡ⑨ㄹㅏ⑨ㅇㅣ⑨
ㅅㅣ⑨ㅎㅓᆷㄷㅐ⑨
ㅁㅜᆯㄹㅣ⑨ㅎㅏᆨㅈㅏ⑨
ㄱㅏ⑨ㅂㅡ⑨ㄹㅣ⑨ㅇㅔᆯ
ㅉㅣ⑨ㄲㅓ⑨ㄱㅣ⑨
##ㄹㅗ⑨ㄴㅣ⑨
ㄷㅗ⑨ㅁㅕᆫ
ㅈㅣ⑨ㅂㅏᆼㅅㅏᆫ
ㅎㅕᆯㅇㅏ
ㅂㅗ⑨ㅇㅠ⑨ㅇㅐᆨ
ㄱㅜᆫㅅㅗ⑨
ㄴㅜᆸㅎㅣ⑨
ㄱㅣᆷㅇㅛᆼㅁㅣᆫ
ㅈㅜᆼㅊㅓᆸ
ㅇㅕ⑨ㄴㅕᆷ
development
ㄱㅕᆼㅈㅜ
##ㄱㅘᆫㅈㅓᆯ
ㅈㅐ⑨ㅎㅚ⑨
ㄴㅓᆷㅂㅗ⑨
ㅎㅢ⑨ㅂㅣ⑨
6500
##ㅂㅣ⑨ㅆㅏ⑨
ㅁㅏᆫㅎㅐ⑨
ㅅㅏᆯㅅㅏᆼ
215
ㄱㅞ⑨ㅈㅓᆨ
ㅇㅑᆼㅎㅕᆫㅈㅗᆼ
##ㅔ⑨ㄷㅏ⑨
ㅅㅏᆼㅊㅡᆼ
ㅂㅜᆫㄴㅛ⑨
ㅇㅑᆼㄱㅣ⑨
##ㅇㅔᆫㅈㅣ⑨ㄴㅣ⑨ㅇㅓ⑨ㄹㅣᆼ
ㅈㅓᆼㅂㅗ⑨ㅇㅟ⑨
ㄱㅡ⑨ㅈㅔ⑨ㅅㅓ⑨ㅇㅑ⑨
ㅇㅠ⑨ㅈㅏ⑨
ㅌㅗᆼㅎㅏᆯ
ㅇㅏᆨㄷㅏᆼ
adv
ㄱㅓᆮㅇㅓ⑨ㅊㅏ⑨
ㄷㅗᆯㅁ
ㅎㅕᆯㅇㅕᆫ
ㅋㅜ⑨ㅅㅕᆫ
ㅇㅟᆯㄹㅣ⑨ㅇㅓᆷㅅㅡ⑨
ㅇㅗ⑨ㅁㅏ⑨ㅇㅣ⑨ㄴㅠ⑨ㅅㅡ⑨
ㅁㅜᆫㅈㅓᆫ
ㄷㅐ⑨ㅎㅏᆨㄱㅏ⑨
ㅅㅏᆷㅅㅓᆼㅅㅓ⑨ㅇㅜᆯ
ㅅㅡᆯㅅㅡᆯ
ㅅㅑ⑨ㅍㅡ⑨
ㅇㅝᆫㅈㅜ⑨ㅅㅣ⑨
ㄱㅏᆷㅎㅚ⑨
520
ㅈㅓᆨㅁㅏᆨ
ㅂㅜ⑨ㅇㅣ
ㅈㅣᆫㅊㅓᆫ
ㅇㅕᆯㅈㅓᆫ
ㄱㅓᆮㅈㅏᆸ
ㄱㅗ⑨ㅇㅛᆼㅂㅜ⑨
ㄷㅜ⑨ㅅㅏᆫㅈㅜᆼㄱㅗᆼㅇㅓᆸ
ㅈㅜᆼㄱㅣ⑨ㅊㅓᆼ
ㅅㅗ⑨ㅁㅏᆯㄹㅣ⑨ㅇㅏ⑨
ㄴㅏ⑨ㄱㅗ⑨
ㄱㅖ⑨ㅊㅐᆨ
ㄱㅏᆨㅊㅜᆨ
ㅎㅘᆼㅅㅣᆯ
ㅈㅗ⑨ㅅㅓᆫㅊㅗᆼ
ㅌㅜ⑨ㅍㅛ⑨ㅈㅏᆼ
skㄱㅡ⑨ㄹㅜᆸ
ㅅㅐᆨㄱㅏᆷ
ㅍㅡ⑨ㄹㅗ⑨ㅅㅔ⑨ㅅㅓ⑨
rich
ㄱㅏ⑨ㅇㅘ⑨
ㅇㅣᆯㅅㅐᆨ
ㅈㅓᆫㄷㅡᆼ
ㅈㅗ⑨ㅇㅡᆼ
ㅁㅣ⑨ㅅㅣᆨ
ㅈㅏᆼㄱㅜ⑨
ㅎㅐ⑨ㅂㅕᆼ
ㅅㅔ⑨ㄹㅏ⑨ㅁ
ㅎㅐᆼㅇㅣᆫ
##ㅎㅖ⑨ㄹㅕᆫ
##ㅍㅗᆨㅌㅏᆫ
ㄱㅏᆹㅂㅣ⑨ㅆㅏ⑨
##ㅅㅡ⑨ㅌㅓᆫㅌㅡ⑨
ㅇㅘᆫㅁㅏᆫ
ㅎㅠ⑨ㅁㅓ⑨ㄴㅣ⑨
ㄱㅣ⑨ㅈㅓ⑨ㄱㅟ⑨
ㅈㅓᆼㅊㅏᆫ
ㅇㅕᆼㅇㅏ⑨
ㄴㅏᆷㄷㅗᆼㅅㅐᆼ
217
ㅇㅏᆫㅅㅓᆼㅁㅏᆽㅊㅜᆷ
ㅅㅡᆯㄹㅣ⑨
ㅂㅡᆯㄹㅏ⑨ㅇㅜ⑨ㅅㅡ⑨
ㄲㅜᆺ
ㄷㅡᆼㅂㅗᆫ
ㅅㅏ⑨ㅅㅐᆼ
ㅊㅓᆯㅈㅔ⑨
ㅂㅡ⑨ㄹㅣᆺ
ㅂㅜᆫㅅㅓᆨㄱㅏ⑨
ㅅㅓᆼㄱㅡᆸㅎㅏ⑨
ㄲㅓᆼ
ㄱㅏ⑨ㄹㅏᆷ
ㄱㅣ⑨ㅁㅏᆯ
ㅅㅓ⑨ㅈㅣᆫ
ㅎㅓ⑨ㄴㅏ⑨
ㅇㅏᆫㄴㅐ⑨ㅁㅜᆫ
ㄱㅏᆼㅈㅓᆼㅁㅏ⑨ㅇㅡᆯ
ㅇㅝ⑨ㅌㅓ⑨ㅍㅏ⑨ㅋㅡ⑨
##28
##ㅓ⑨ㄴㅏ
ㅎㅚ⑨ㅂㅗ
ㄷㅣ⑨ㅇㅗ⑨
ㅎㅐᆼㅈㅓᆼㅎㅏᆨ
ㅅㅐ⑨ㅁㅏ⑨ㅇㅡᆯㄱㅡᆷ
ㅋㅗ⑨ㅋㅏ⑨ㅋㅗᆯㄹㅏ⑨
ㄷㅏ⑨ㄹㅏᆷ
ㅎㅏᆫㅅㅡ⑨
ㅎㅘ⑨ㅇㅓᆷ
ㅊㅜ⑨ㅈㅣ
ㅍㅐᆯ
##ㅍㅜᆨ
ㅅㅜ⑨ㄱㅗᆼ
ㅁㅗ⑨ㅁㅕᆫ
ㅂㅣ⑨ㅈㅓ
ㅅㅓᆫㅍㅜᆼㄱㅣ⑨
ㄹㅏ⑨ㅅㅡ⑨ㅂㅔ⑨ㅇㅣ⑨ㄱㅓ⑨ㅅㅡ⑨
ㄱㅗᆼㅎㅏᆨㄱㅘ⑨
ㅅㅗᆨㅂㅗ⑨
ㅅㅗᆨㅇㅣᆷㅅㅜ⑨
ㅍㅡ⑨ㄹㅏ⑨ㅇㅣᆷ
ㅎㅏᆯㅈㅡᆼ
ㄷㅗᆼㅇㅏ⑨ㅇㅣᆯㅂㅗ
ㅎㅕᆫㄱㅘᆫㅁㅜᆫ
ㄷㅏ⑨ㅇㅣ⑨ㅇㅗ⑨ㄷㅡ
##47
##ㅔ⑨ㅌㅣ⑨
1917
ㅈㅗ⑨ㄱㅕᆼㅌㅐ⑨
##ㅎㅏ⑨ㄴㅏ⑨ㅇ
ㅊㅏᆼㅊㅜ
ㅇㅜ⑨ㅅㅜ⑨ㅅㅏᆼ
ㅎㅝᆫㅎㅣ⑨
ㄷㅜ⑨ㄱㅡᆫㄱㅓ⑨ㄹㅣ⑨
ㅂㅗ⑨ㅇㅣ⑨ㅅㅡ⑨ㅍㅣ⑨ㅅㅣᆼ
ㅎㅏᆫㅈㅓᆨㅎㅏ⑨
ㅎㅏᆫㄱㅜᆨㄷㅗ⑨ㄹㅗ⑨
ㄱㅣᆷㅅㅓᆼㅅㅜ⑨
ㅅㅣᆫㅎㅏᆫㄱㅡᆷㅇㅠᆼㅌㅜ⑨ㅈㅏ⑨
ㅇㅘᆺㅅㅡᆫ
ㄱㅏ⑨ㅈㅓᆷ
ㅎㅏᆫㄷㅓᆨㅅㅜ⑨
ㄱㅜ⑨ㅈㅓᆼ
ㄱㅓᆨㅈㅓ
ㅂㅐ⑨ㅅㅏᆼㄱㅡᆷ
ㅁㅣ⑨ㅆㅡ⑨ㅂㅣ⑨ㅅㅣ⑨
ㄱㅗᆼㄱㅐ
ㅇㅣ⑨ㄹㅝ⑨ㅈㅣ⑨
ㅊㅓᆼㅅㅜᆫ
ㅁㅓᆽ
ㅇㅏᆫㄱㅜ⑨
ㅌㅗᆼㅈㅣᆫㄷㅏᆼ
ㅅㅓᆨㅎㅚ⑨
what
##ency
ㅎㅕᆫㅁㅣ⑨ㄱㅕᆼ
##oy
ㅎㅕᆫㄷㅐ⑨ㅅㅏᆫㅇㅓᆸㄱㅐ⑨ㅂㅏᆯ
ㅂㅣᆯㅂㅗ⑨ㄷㅡ⑨
##ㅁㅔ⑨ㄴㅣ⑨
ㅃㅏᆯㅇㅏ⑨ㄷㅡᆯㅇㅣ⑨
##ㄴㅜ⑨ㅇㅣ⑨
ㅂㅕᆫㅎㅗ⑨ㅇㅣᆫㄷㅏᆫ
##ㅇㅗᆸ
ㅅㅣᆯㅅㅗᆫ
ㅁㅣᆺ
ㅅㅏᆷㄱㅖ⑨
ㅈㅔ⑨ㅍㅜᆷㄱㅜᆫ
ㄱㅕᆯㅇㅢ⑨ㅁㅜᆫ
ㅎㅏᆫㄱㅕᆯㄱㅏᇀ
##114
##ㅇㅝᆯㄷㅡ⑨ㅋㅓᆸㄱㅕᆼㄱㅣ⑨ㅈㅏᆼ
dre
your
##26
ㅇㅏᆫㅁㅏ⑨
##ㅅㅜᆫㅇㅣ⑨
ㅅㅜ⑨ㅊㅜᆯㄱㅜᆨ
##ste
ㄴㅔ⑨ㅌㅡ⑨ㅇㅝ⑨ㅋㅣᆼ
ㅅㅗᆨㅅㅜ⑨ㅁㅜ⑨ㅊㅐᆨ
ㅅㅏ⑨ㅊㅣᆼ
ㅁㅣ⑨ㅅㅣᆫ
ㅅㅣᆫㅇㅐ⑨
ㅇㅕᆼㄹㅏᆨ
ㄱㅘᆼㅅㅓᆫ
ㅇㅠ⑨ㅌㅗᆼㅁㅏᆼ
##ㅅㅏ⑨ㄱㅏᆨㅎㅕᆼ
ㄷㅗᆾ
ㅋㅔᆯㄹㅣ⑨
ㅇㅠ⑨ㅈㅗᆼ
ㅅㅔ⑨ㄹㅔ⑨
ㄷㅏ⑨ㄷㅏ⑨ㄹㅡ⑨
ㅍㅗ⑨ㅋㅓ⑨ㅅㅡ⑨
ㅊㅔ⑨ㄴㅕᆷ
ㅅㅡ⑨ㅌㅐᆫㄷㅓ⑨
ㅋㅏᆨㅌㅔ⑨ㅇㅣᆯ
ㄲㅜᆺㄲㅜᆺ
##po
ㄱㅠ⑨ㅊㅣ
ㅇㅗᆫㅈㅗᆼㅇㅣᆯ
213
##ㅇㅜᆫㄷㅗᆼㅈㅏᆼ
ㅌㅏ⑨ㅇㅣᆷㅅㅡ⑨
ㅅㅏᆷㄱㅜᆨㅇㅠ⑨
ㄷㅟ⑨ㅇㅓᇁ
ㅆㅏ
ㅇㅝᆫㅅㅓᆼ
##ㅅㅡ⑨ㅌㅔ⑨ㅇㅣ⑨ㅌㅡ⑨
ㅁㅏᆨㅈㅏᆼ
ㅍㅏ⑨ㄱㅚ⑨ㄹㅕᆨ
1926
##ㅅㅓᆨㅎㅢ⑨
ㅅㅓᆨㅎㅏᆨ
ㅂㅗᆼㅇㅣᆫ
ㅈㅜᆼㅇㅏᆼㅈㅐ⑨ㄴㅏᆫㅇㅏᆫㅈㅓᆫ
ㅅㅜ⑨ㅇㅕ⑨ㅅㅣᆨ
ㅎㅡᆼㅁㅣ⑨ㅈㅣᆫㅈㅣᆫㅎㅏ⑨
ㅈㅜᆼㅇㅏᆼㅈㅐ⑨ㄴㅏᆫㅇㅏᆫㅈㅓᆫㄷㅐ⑨ㅊㅐᆨ
ㅇㅣᆫㅈㅜ⑨
ㅊㅓᆫㅂㅏᆨ
ㅍㅡ⑨ㄹㅗ⑨ㄷㅓᆨ
ㅁㅏ⑨ㅇㅣ⑨ㅅㅡ⑨ㅌㅓ⑨
ㅈㅟ⑨ㅇㅓ⑨
ㅈㅗ⑨ㅅㅓᆫㅊㅗᆼㄷㅗᆨㅂㅜ⑨
##18
ㅇㅢ⑨ㅈㅣ
ㅇㅝᆫㅎㅛ⑨
2700
##ㅈㅏ⑨ㅇㅝᆫㄱㅗᆼㅅㅏ⑨
ㄱㅣᆷㄱㅘᆫㅈㅣᆫ
##ㅈㅔ⑨ㄱㅘ⑨
##ㅎㅡ⑨ㄹㅗ⑨
##ㄲㅓᆨ
##ㅃㅗ⑨
ㅇㅣ⑨ㅈㅗ⑨
##ㅇㅑᆯ
ㅇㅏᆫㅁㅣᆫㅅㅓᆨ
ㅁㅣᆫㄴㅏ
ㅍㅖ⑨ㅅㅏ⑨
ㅎㅚ⑨ㄱㅕᆫㅈㅏᆼ
ㅅㅔ⑨ㅇㅣ⑨ㅍㅡ⑨
ㅈㅓᆼㅈㅗᆨㅅㅜ⑨
ㅇㅣ⑨ㅊㅏᆫ
ㅅㅜ⑨ㅎㅕᆼ
ㄱㅕᆼㄷㅗ⑨
ㅂㅏᆯㄱㅜ
ㄱㅣᆷㄷㅓᆨ
ㅅㅣᆯㅇㅚ⑨
ㅎㅘᆫㄴㅗ⑨ㅇㅟ⑨
##ating
##ㅈㅜᆨㅇㅣ⑨
ㅂㅔᆨ
##ㅍㅗ⑨ㅇㅣᆫㅌㅡ⑨
ㄷㅗᆯㄱㅕᆨ
1923
usb
xx
##ire
ㅈㅔ⑨ㅅㅓᆯ
ㅎㅕᆫㅈㅓᆼ
ㅂㅐ⑨ㅇㅜᆼ
ㄱㅜᆫㅇㅟ⑨
ㅍㅐ⑨ㄷㅡ⑨
ㅎㅓᆫㅂㅕᆼ
ㅅㅗ⑨ㅎㅕᆼㅊㅏ⑨
ㄱㅣ⑨ㅈㅓᆯ
ㅇㅕᆫㅈㅏᆨ
ㄱㅛ⑨ㅁㅏᆫ
2800
thom
ㅎㅔ⑨ㄱㅔ⑨
ㄷㅟᆺㄱㅓᆯㅇㅡᆷ
ㅇㅣ⑨ㄷㅔ⑨ㅇㅣᆯㄹㅣ⑨
ㅋㅗ⑨ㅊㅣᆼㅅㅡ⑨
ㅇㅜ⑨ㄹㅣ⑨ㅌㅜ⑨ㅈㅏ⑨ㅈㅡᆼㄱㅝᆫ
ㅇㅣ⑨ㄹㅓ⑨ㅎㅏ⑨
ㅎㅗᆫㅈㅏᆺ
1924
ㄱㅏᆼㅇㅕᆫㅎㅚ⑨
sup
ㄱㅏ⑨ㅅㅗᆨㄷㅗ⑨
ㄷㅗᆼㅂㅜᆨㅇㅏ⑨ㅅㅣ⑨ㅇㅏ⑨
ㅂㅓ⑨ㅈㅓᆺㅇㅣ⑨
ㅇㅓ⑨ㅇㅝ⑨ㄷㅡ⑨
ㄱㅗ⑨ㅂㅐ⑨
ㅁㅜᆫㅁㅜᆯ
##ㅁㅕᆫㅅㅔ⑨ㅈㅓᆷ
nie
ㅉㅏ⑨ㄴㅐ⑨
ㅇㅔ⑨ㅁㅓ⑨
ㄷㅗᆫㅂㅓᆯㅇㅣ⑨
##ㅅㅏ⑨ㄱㅘ⑨
ㅅㅜ⑨ㅊㅓᆫㅇㅓᆨ
##ㅇㅏ⑨ㅇㅣᆯㄹㅐᆫㄷㅡ⑨
ㅇㅣ⑨ㅎㅏᆫㄱㅜ⑨
ㅌㅐ⑨ㅎㅘ⑨ㄱㅏᆼ
ㄷㅗᆺ
ㅈㅗᆼㅈㅣ⑨
##ㅈㅘ⑨ㅅㅓᆨ
proc
ㅇㅠ⑨ㅇㅔᆫㅅㅏ⑨
ㅎㅣᆯㅅㅡ⑨ㅌㅔ⑨ㅇㅣ⑨ㅌㅡ⑨
lib
ㅅㅓ⑨ㅍㅕᆼ
ㅂㅓᆷㅈㅚ
ㅈㅣᆸㅈㅜᆼㄹㅕᆨ
ㄴㅗᆨㄹㅗᆨ
ㅎㅡ⑨ㄹㅣᆺ
ㅊㅟ⑨ㅇㅣᆷㅅㅏ⑨
ㅊㅓᆫㅇㅕᆫㄱㅣ⑨ㄴㅕᆷ
ㅈㅣᆫㄷㅏᆯㄹㅐ⑨
##ior
ㄱㅗ⑨ㄱㅜᆫ
ㅈㅓᆼㄷㅏᆼㅇㅣᆫ
ㅊㅗᆫㄹㅏᆨ
ㅎㅡᆸㅇㅕᆫㅈㅏ⑨
##ㄱㅜ⑨ㄷㅗᆼ
ㅅㅣ⑨ㅋㅓ⑨
ㅌㅐ⑨ㅇㅕᆼ
ㅈㅗ⑨ㅈㅓᆼㅅㅣᆨ
ㄱㅗᆫㄱㅕᆼ
ㅎㅗᆼㅁㅜᆫㅈㅗᆼ
ㅈㅏᆼㄷㅏᆫㅈㅓᆷ
ㅇㅣᆯㅈㅏ
ㅂㅣ⑨ㅈㅣ⑨
ㅂㅏᆨㅁㅗ⑨
ㄱㅠ⑨ㅈㅔ
ㅊㅏ⑨ㅇㅝ
ㅇㅠ⑨ㅅㅓᆼㄱㅜ⑨
##46
ㅇㅜ⑨ㄹㅗᆼ
ㅌㅗᆼㅌㅗᆼ
ㅈㅏᆨㅅㅏ⑨
ㅈㅓᆼㅇㅑᆨㅇㅛᆼ
ㅇㅟ⑨ㅅㅔ⑨
ㅁㅣ⑨ㅈㅣᆫ
ㄱㅜ⑨ㅅㅔ⑨
ㅂㅗᆫㄱㅗ⑨
ㅁㅣᆯㅍㅖ⑨
ㅂㅏᆼㅈㅣ⑨ㅂㅓᆸ
ㅇㅔᆯㄹㅣ⑨ㅇㅓᆺ
ㅊㅚ⑨ㄱㅏᆼㅎㅢ⑨
##ㄷㅏ⑨ㅇㅣᆫ
##95
ㅇㅓ⑨ㅎㅚᆨ
ㅅㅏ⑨ㅅㅓ⑨
ㄱㅏᆨㅅㅐᆨ
ㅊㅜᆯㅍㅏᆫㅅㅏ
ㅎㅕᆫㄷㅐ⑨ㅇㅗ⑨ㅇㅣᆯ
ㄱㅜᆯㄹㅔ⑨
economic
ㅋㅗ⑨ㅊㅣᆼㅅㅡ⑨ㅌㅐ⑨ㅍㅡ⑨
ㄱㅗᆼㄷㅓᆨ
ㄱㅜ⑨ㅇㅛ
ㅈㅏᆼㅅㅡᆼ
ㅎㅏᆫㄱㅜᆨㅌㅏ⑨ㅇㅣ⑨ㅇㅓ⑨
ㅆㅡ⑨ㄴㅏ⑨ㅁㅣ⑨
11ㅂㅓᆫ
ㅂㅣᆺㅂㅏᆯㅊㅣ⑨
tre
##ㄹㅣ⑨ㄴㅏ⑨
ㅂㅏᆫㅅㅣᆫ
ㄷㅗᆯㄱㅗ⑨ㄹㅐ⑨
ㅇㅑ⑨ㄱㅜ
ㅇㅐ⑨ㄱㅣ⑨
ㄱㅕ⑨ㄹㅡᆯ
ㅂㅐᆯㅂㅡ⑨
ㄷㅗᆨㄹㅣᆸㅇㅜᆫㄷㅗᆼㄱㅏ⑨
ㅅㅚᆺ
ㅈㅔᆯㄹㅣ⑨
ㅍㅣ⑨ㅅㅣᆨ
ㅂㅓᆫㅎㅗ
ㄱㅡᆨㄹㅏᆨ
##ㄹㅓ⑨ㅁㅣ⑨
ㅍㅐᆺㅁㅏᆯ
ㅅㅜ⑨ㅈㅐ⑨
ㅈㅗ⑨ㅅㅏ⑨ㅇㅟ⑨
ㅎㅏᆸㅅㅜᆨ
##ㅇㅏᆼㅅㅡ⑨
ㅅㅜᆷㅅㅗ⑨ㄹㅣ⑨
ㅂㅣ⑨ㅌㅡ⑨ㅋㅗ⑨ㅇㅣᆫ
ㅇㅟ⑨ㅅㅣ⑨
##ㄱㅓᆫㅅㅓ
ㅇㅡ⑨ㄹㅣ⑨ㄹㅏ⑨ㄱㅗ⑨
ㅅㅏ⑨ㅇㅡᆫㅍㅜᆷ
ㅎㅏ⑨ㅇㅕᆨ
ㄷㅗ⑨ㄷㅗ⑨
ㅈㅓᆯㄱㅣ⑨
ㅇㅚ⑨ㅇㅑ⑨ㅅㅜ⑨
ㅂㅜᆫㄷㅔ⑨ㅅㅡ⑨
2100
##ould
##ㅍㅗᆯㄹㅣ⑨ㅅㅡ⑨
ㄱㅗ⑨ㄱㅗ⑨ㅎㅏᆨ
kebㅎㅏ⑨ㄴㅏ⑨ㅇ
ㄷㅗ⑨ㅅㅏ⑨ㄹㅣ⑨
ㅂㅏᆼㄷㅗ⑨
ㅇㅑ⑨ㅎㅏᆸ
ㅅㅜ⑨ㅅㅏ⑨ㄷㅏᆫ
ㅍㅡ⑨ㄹㅗ⑨ㄱㅡ⑨ㄹㅐ⑨ㅁㅣᆼ
ㅍㅏ⑨ㅁㅜᆮㅎㅣ⑨
mn
ㅇㅣᆯㅂㅕᆫ
ㅈㅜᆼㅅㅣᆷㅈㅜ⑨ㅇㅢ⑨
ㅍㅏᆫㅁㅐ⑨ㅈㅓᆷ
ㄱㅓᆫㅁㅜᆯㅈㅜ⑨
ㅇㅠ⑨ㄷㅐ⑨ㄱㅛ⑨
##ㅋㅐ⑨ㅅㅡᆯ
ㄹㅏ⑨ㅇㅣ⑨ㅇㅗᆫㅈㅡ⑨
ㄹㅓᆷ
##92
ㅂㅏᆫㅈㅜ⑨
ㅊㅜ⑨ㅅㅜ⑨
ㅈㅣᆸㄷㅏ
ㅊㅜᆼㅊㅣᆼ
ㅌㅡ⑨ㄹㅓᆷ
##ㅇㅜ⑨ㅊㅣ⑨
ㅇㅠ⑨ㄹㅓᆸㅇㅣᆫ
##ㅈㅏᆯㄱㅓᆺ
ㅅㅠ⑨ㅌㅣᆯㄹㅣ⑨ㅋㅔ⑨
ㅅㅏ⑨ㅂㅕᆫ
ㅈㅗ⑨ㅈㅜᆼ
ㅅㅡᆸㅅㅓᆼ
##ㅁㅏ⑨ㅊㅏ⑨
2600
ㄸㅜᆶㅇㅓ⑨ㅈㅣ⑨
ㅅㅡᆼㄱㅏᆼㄱㅣ⑨
ㄹㅏ⑨ㅇㅣ⑨ㅅㅓᆫㅅㅡ⑨
ㄴㅣᆫ
##ㅇㅐᆼ
ㄱㅣ⑨ㅊㅜᆯ
ㅊㅗᆼㄹㅣ
ㅇㅘᆼㄱㅓᆫ
ㅅㅏ⑨ㅈㅣᆫㅈㅓᆫ
ㅁㅜ⑨ㅇㅛᆼㅈㅣ⑨
ㅈㅣᆸㅅㅣ⑨
ㅇㅣᆷㅇㅑ⑨
ㅍㅓ⑨ㄱㅓ⑨ㅅㅡᆫ
1934
##ㄷㅓᆯㅁㅣ⑨
ㅅㅣᆷㅈㅏᆼㅂㅕᆼ
kdi
ㅅㅡ⑨ㅁㅗ⑨
ㅍㅗᆨㅊㅣᆷ
ㅂㅡᆯㄹㅔ⑨
ㄱㅗᆼㅌㅓ⑨
ㄹㅔ⑨ㅇㅣ⑨ㅋㅡ⑨
ㅍㅡ⑨ㄹㅗᆯㄹㅔ⑨ㅌㅏ⑨ㄹㅣ⑨ㅇㅏ⑨
ㅅㅏᆷㅅㅓᆼㅅㅓ⑨ㅇㅜᆯㅂㅕᆼㅇㅝᆫ
ㅇㅠ⑨ㅌㅗ⑨ㅍㅣ⑨ㅇㅏ⑨
ㅁㅐ⑨ㅅㅣᆯ
##ㅁㅗ⑨ㅎㅏᆷ
##ㅊㅗᆫㄷㅗᆼ
##ㄱㅟ
ㅇㅐ⑨ㅇㅛᆼ
216
ㅂㅣᆯㅇㅓ⑨ㅁㅓᆨ
ㄷㅣ⑨ㅌㅡ⑨ㄹㅗ⑨ㅇㅣ⑨ㅌㅡ⑨
ㅌㅡ
ㅈㅔ⑨ㄱㅗᆸ
ㅅㅓᆫㅇㅜ⑨
ㅍㅏᆫㄱㅏ⑨ㄹ
ㅍㅏ⑨ㅇㅣ
ㄱㅡᆼㅈㅣ⑨
##ㅅㅡ⑨ㅋㅓᆷ
ㄱㅕᆼㄴㅐ⑨
ㄱㅡᆷㅎㅗ⑨ㅇㅏ⑨ㅅㅣ⑨
ㅁㅔ⑨ㄹㅣ⑨ㅊㅡ⑨
ㅇㅐᆫㄷㅡ⑨ㄹㅜ⑨
ㅇㅏᆨㅁㅜᆯ
ㅈㅗ⑨ㅁㅕᆼㄱㅠᆫ
ㄱㅏ⑨ㅍㅕᆼㄱㅜᆫ
ㄷㅗᆯㅁㅔᆼㅇㅣ⑨
ㅇㅝᆫㅅㅏᆼ
ㅂㅜᆯㅁㅗ⑨
ㅁㅣᆫㅅㅓ
ㅅㅗᆨㅅㅔᆷ
ᆯㅈㅣ⑨ㄹㅏ⑨ㄷㅗ
ㅇㅗᆨㅈㅜᆼ
ㅁㅜᆨㅅㅣ⑨
ㅈㅓᆼㅇㅠᆫㅎㅚ⑨
ㅇㅏᆸㄱㅜ⑨ㅈㅓᆼ
ㅌㅠ⑨ㅂㅡ⑨
##ㄸㅏ
ㅇㅗ⑨ㅋㅏ⑨
ㅈㅏᆼㅁㅣᆺ
ㄱㅡᆫㅅㅗ⑨ㅎㅏ⑨
ㅈㅓᆼㅊㅐᆨㅅㅣᆯㅈㅏᆼ
ㄹㅔ⑨ㅍㅗ⑨ㅊㅡ⑨
ㄱㅜᆯㅊㅏᆨ
ㄷㅡ⑨ㄹㅜ⑨ㅋㅣᆼ
##ㅃㅐᆨ
ㅇㅣ⑨ㅇㅕᆫ
ㅎㅏᆫㄱ
ㅂㅜ⑨ㅈㅗ⑨
ㅅㅐᆼㄱㅏᆼ
ㅌㅚ⑨ㅈㅓᆨ
ㅇㅣ⑨ㅅㅡ⑨ㅌㅏᆫ
##ㅅㅗ⑨ㅂㅣ⑨
ㄱㅓᆻ
ㄱㅛ⑨ㅈㅣᆨ
ㄱㅡᆫㅅㅓᆼ
ㅅㅏ⑨ㅈㅏᆼㄷㅏᆫ
ㄹㅔᆫㅌㅏᆯ
ㅂㅏ⑨ㅇㅑ⑨ㅎㅡ⑨ㄹㅗ⑨
##ㅁㅏ⑨ㄱ
ㅂㅜ⑨ㅎㅚ⑨ㅈㅏ
ㅌㅗᆼㅇㅢ⑨ㄷㅗᆼ
ㅇㅑᆨㅅㅣᆨ
ㅇㅕ⑨ㄹㅓ⑨ㅁㅗ⑨ㄹㅗ⑨
ㅎㅏᆸㅇㅢ⑨ㅈㅓᆷ
ㅅㅣᆫㅈㅗ⑨ㅇㅓ⑨
ㅁㅐᆨㄷㅗ⑨ㄴㅏᆯㄷㅡ⑨
ㄱㅏᆫㄱㅏᆫㅇㅣ⑨
ㅈㅏ⑨ㅅㅓᆨ
ㄱㅐ⑨ㅁㅕᆼ
ㅇㅣᆸㅎㅜ⑨ㅂㅗ⑨
##ther
ㅃㅐᆨㅃㅐᆨ
##ㅇㅣᆫㄱㅜ⑨
##ㄷㅔ⑨ㅅㅡ
mus
ㅇㅔ⑨ㅆㅡ⑨
ㄱㅏ⑨ㅊㅣᆼ
ㄴㅏ⑨ㅈㅣᆨ
ㄸㅐ⑨ㅇㅜ⑨
ㅂㅜᆨㅎㅏ
ㄱㅏᆯㄷㅡ
ㅎㅕᆫㄷㅐ⑨ㅋㅏ⑨ㄷㅡ⑨
spc
ㅊㅏ⑨ㅂㅜᆫㅎㅣ⑨
ㅇㅣ⑨ㅊㅓᆯㅎㅢ⑨
ㅇㅚ⑨ㅎㅏᆯㅁㅓ⑨ㄴㅣ⑨
ㄱㅣ⑨ㅎㅡᆼ
ㅎㅜ⑨ㄷㅡ⑨
ㅁㅜᆯㄱㅏᆷ
ㅎㅗ⑨ㄷㅗ⑨
ㅍㅐ⑨ㄷㅣᆼ
ㄱㅟ⑨ㅊㅜ⑨
ㅇㅏᆨㅁㅕᆼ
ㄷㅗ⑨ㅁㅣ⑨ㄴㅣ⑨
ㅇㅞ⑨ㅇㅓ⑨ㄹㅓ⑨
organ
##ㅌㅠ⑨
##ㅂㅏ⑨ㅇ
ㄱㅗ⑨ㅇㅑᆨ
ㅅㅏ⑨ㅁㅜᆫ
ㄴㅗ⑨ㅇㅕᆨ
ㅇㅑᆨㅈㅔ⑨
ㄴㅗᆼㄱㅣ⑨ㄱㅖ⑨
##ㅋㅜ⑨ㄹㅏ⑨
##ㅈㅔ⑨ㄹㅡ⑨
##ject
ㄷㅗᆨㄱㅘ⑨ㅈㅓᆷ
##ㅋㅡᆯㄹㅗ⑨
ㅇㅣ⑨ㄱㅡᆯㅅㅡ⑨
ㅅㅡ⑨ㄹㅣ⑨ㄹㅏᆼㅋㅏ⑨
ㅊㅏ⑨ㅇㅣ
ㄷㅗ⑨ㅇㅣ⑨ㅊㅣ⑨
ㅅㅏᆼㅅㅣ
ㅈㅣᆫㅅㅏ⑨
ㅅㅗᆼㅊㅜᆯ
education
ㅍㅏᆫㄱㅏ⑨ㄹㅡᆷ
ㄱㅗᆯㅁㅗᆯ
##ㅅㅏ⑨ㅇㅓᆸㅈㅏ⑨
ㅇㅕ⑨ㅅㅗ⑨ㅇㅑ⑨
ㅅㅡ⑨ㅍㅔᆨㅌㅡ⑨ㄹㅓᆷ
ㄱㅘᆫㄹㅕᆫㅅㅓᆼ
ㅍㅐ⑨ㄱㅓ⑨ㄹㅣ⑨
ㅁㅏ⑨ㅊㅏᆫㄱㅏ⑨ㅈㅣ
ㅍㅐᆫㅌㅐᆨ
service
bt
ㅇㅢ⑨ㄹㅕᆼ
ㅇㅕᆫㅈㅏᆼㅈㅓᆫ
ㅍㅔᆫㅅㅣᆯ
ㅅㅛᆺ
ㄷㅏᆫㅇㅕᆯ
ㅂㅐ⑨ㅌㅡ⑨
ㅎㅖ⑨ㅇㅏᆫ
##ouse
ㄱㅘᆫㅇㅏᆨㄱㅜ⑨
ㅋㅏ⑨ㄷㅏ⑨ㅍㅣ⑨
##29
ㅈㅓᆫㅊㅗ⑨
##ㄴㅗᆯㄹㅣᆷ
ㅇㅔ⑨ㄹㅗ⑨
ㄷㅐ⑨ㅈㅜ⑨
ㅈㅗᆼㅊㅏᆨ
ㅂㅗ⑨ㄱㅗ⑨ㅈㅏ⑨
ㄱㅣ⑨ㅅㅣ⑨
ㄱㅗᆼㅎㅣ⑨
ㅇㅠ⑨ㅎㅠ⑨
##ㅍㅗ⑨ㅅㅡ⑨
cy
ㄷㅗ⑨ㄷㅏ
ㅅㅜ⑨ㄷㅜ⑨
ㄱㅗᆼㄹㅣ⑨
ㅇㅕᆯㄱㅏᆼ
ㅇㅘᆫㅈㅔ⑨ㅍㅜᆷ
1927
ㅍㅏ⑨ㄹㅏᆼ
ㅇㅏᇁㄱㅣᆯ
govern
ㅅㅡ⑨ㅋㅏ⑨ㅍㅡ⑨
ㅈㅣ⑨ㄲㅓᆯ
ㅅㅓᆼㅈㅏ⑨
ㄴㅐ⑨ㄹㅕᆨ
ㅅㅣᆫㄱㅏᆫ
ㅇㅛ⑨ㄱㅜ
ㅇㅚ⑨ㅇㅑᆼ
##ㅂㅜᆨㅁㅕᆫ
ㅈㅓᆫㄱㅜᆨㄱㅕᆼㅈㅔ⑨ㅇㅣᆫ
ㅂㅗᆺㅁㅜᆯ
ㅎㅚ⑨ㅂㅣ⑨
ㅎㅏᆨㅅㅡ
##ㅅㅡ⑨ㅌㅡ⑨ㄹㅣ⑨
ㅇㅐᆨㅎㅘ⑨
ㅈㅗᆼㅎㅏᆸㅂㅜ⑨ㄷㅗᆼㅅㅏᆫㅅㅔ⑨
james
ㅇㅔ⑨ㄴㅓ⑨ㅈㅣ⑨ㅇㅝᆫ
##ict
##ㅏ⑨ㄱㅘ⑨
ㅈㅐ⑨ㅃㅏ⑨ㄹㅡ⑨
ㅇㅕᆸㅅㅓ⑨
##ㅅㅓᆼㄱㅓ⑨ㄹㅣ⑨
##ㅌㅜ⑨ㅅㅏ⑨
ㄱㅐᆼㄷㅗ⑨
ㅂㅏᆨㅈㅐ⑨ㅎㅗᆼ
ㅅㅣ⑨ㅋㅓ⑨ㅁㅓᇂ
ㅎㅜ⑨ㅅㅜᆫㅇㅟ⑨
##ㅏ⑨ㅇㅣ⑨ㄷㅡ⑨
ㅅㅣᆯㅅㅗ⑨
ㅁㅐ⑨ㅅㅡ⑨
ㅎㅓ⑨ㄹㅡᆷ
ㄱㅜ⑨ㅈㅗ⑨ㄷㅐ⑨
ㅈㅗ⑨ㅈㅓᆼㅇㅏᆫ
inform
ㅋㅓᆷㅍㅠ⑨ㅌㅣᆼ
ㅆㅜᆨㅅㅡ⑨ㄹㅓᆸ
ㅂㅣ⑨ㅇㅕᆷ
ㅍㅡ⑨ㄹㅏᆼㅅㅡ⑨ㅇㅣᆫ
ㅈㅜ⑨ㅈㅣᆫㅇㅜ
ㅅㅣᆸㅈㅏ⑨ㄱㅜᆫ
ㅍㅕᆼㅅㅣᆫㄷㅗ⑨
ㄴㅔ⑨ㄱㅓ⑨ㄹㅣ⑨
##ㅂㅓᆯㄹㅣ⑨
ㄴㅗᆯㅇㅣ
ㅋㅐ⑨ㄹㅓᆯ
ㅈㅜᆼㅇㅏᆼㅈㅐ⑨ㄴㅏᆫㅇㅏᆫㅈㅓᆫㄷㅐ⑨ㅊㅐᆨㅂㅗᆫㅂㅜ⑨
ㅇㅔ⑨ㄷㅠ⑨
ㄷㅐ⑨ㅁㅜᆯ
##ㅅㅡ⑨ㅌㅣ
ㄴㅏᆨㅌㅏ⑨
ㅈㅓᆫㅁㅕᆫㅈㅓᆫ
ㅇㅏ⑨ㅈㅓ⑨ㅆㅣ
ㅂㅡᆯㄹㅏ⑨ㄷㅣ⑨ㅂㅗ⑨ㅅㅡ⑨ㅌㅗ⑨ㅋㅡ⑨
cv
ㄷㅐ⑨ㄱㅏᆷ
ㅈㅓᆼㄱㅓ⑨ㅈㅏᆼ
ㅂㅜ⑨ㅇㅏᆫ
ㄷㅏᆼㄴ
ㄴㅗᆫㅁㅜ
ㅇㅛ⑨ㄱㅜ⑨ㅅㅓ⑨
ㅈㅣ⑨ㅊㅓᆫ
ㅉㅏᆲㅇㅏ⑨ㅈㅣ⑨
ㅈㅣ⑨ㄲㅓᆯㅇㅣ⑨
##ㅎㅕᆫㅅㅣᆯ
ㅎㅠ⑨ㅅㅡ⑨ㅌㅓᆫ
ㄱㅜᆼㅈㅓᆼ
##ates
ㅇㅗ⑨ㅍㅡ
ㅋㅔ⑨ㄹㅣ⑨
ㅊㅗᆼㅇㅕᆼㅅㅏ⑨
ㅍㅕᆼㅈㅓᆷ
ㅎㅘᆫㄷㅐ⑨
ㅅㅜ⑨ㅇㅗᆫ
ㅅㅓᆼㅅㅣᆫ
ㄲㅗᆾㄱㅔ⑨
##ㅅㅏ⑨ㄱㅣ
ㅎㅏᆫㄱㅜᆨㅅㅜ⑨ㄹㅕᆨ
ㄷㅐ⑨ㄷㅡᆯ
ㅇㅠ⑨ㅅㅐᆼ
##ㅎㅐᆼㄷㅗᆼ
ㅂㅜᆯㄹㅗ⑨
ㅂㅏᆫㅇㅝᆫ
ㄴㅗ⑨ㅂㅜ⑨
ㅌㅡᆨㅈㅣ
ㄹㅗᆺㄷㅔ⑨ㄱㅓᆫㅅㅓᆯ
ㄷㅐ⑨ㅎㅕᆼㅈㅜ⑨
ㄱㅣᆷㄷㅗ⑨ㅇㅡᆸ
ㅋㅜᆫ
##ㄷㅡ⑨ㄱㅣ⑨
ㄴㅗᆫㄱㅓ⑨
ㅈㅓᆼㅊㅐᆨㄱㅘ⑨
##ㅅㅏᆼㅅㅡᆼ
##ㅂㅜᆫㅁㅕᆼㅎㅏ⑨
ㅅㅓᆫㅎㅕᆼ
ㅈㅏᆼㅇㅣ⑨
ㅂㅜᆯㅂㅜᆫㅁㅕᆼㅎㅏ⑨
ㅊㅜ⑨ㅎㅏ⑨
ㅈㅓᆷㅁㅏᆨ
ㅍㅏ⑨ㅅㅣ⑨ㅈㅡᆷ
ㅍㅕᆼㄱㅏ⑨ㅅㅏ⑨
ㅋㅏ⑨ㅅㅡ⑨
ㅁㅣᆫㄱㅏᆫㅅㅏ⑨ㅇㅓᆸㅈㅏ⑨
ㅇㅗ⑨ㅂㅡᆫ
ㄴㅡ⑨ㄴㅣ⑨ㄹㅏ
ㅊㅜ⑨ㄴㅕᆷ
ㅇㅕᆯㅇㅢ⑨
ㅎㅏᆫㄱㅜᆨㅁㅜ⑨ㅇㅕᆨ
ㅊㅔ⑨ㄷㅡᆨ
ㅂㅓ⑨ㄱㅓ⑨
ㅇㅐᆸㅅㅡ⑨ㅌㅗ⑨ㅇㅓ⑨
bnk
ㅎㅙᆺㅂㅜᆯ
##84
ㄱㅘᆫㄷㅗᆼ
ㄱㅕᆼㄱㅣ⑨ㄷㅗ⑨ㅊㅓᆼ
geor
ㅈㅜᆼㅅㅗ⑨ㅎㅕᆼㅈㅜ⑨
ㅊㅓᆫㅇㅕᆫㄱㅣ⑨ㄴㅕᆷㅁㅜᆯ
##71
ㄱㅣ⑨ㅈㅓ
ㄱㅏᆼㅌㅣᆷ
ㅅㅏᆫㅇㅡᆫ
ㅊㅜᆨㅊㅜᆯ
ㅎㅠ⑨ㅁㅜ⑨
##ㄱㅕᆼㅈㅔ⑨ㅈㅏ⑨ㅇㅠ⑨ㄱㅜ⑨ㅇㅕᆨ
ㄷㅗ⑨ㅈㅏ⑨
ㅈㅓᆼㅇㅝ
ㅍㅣ⑨ㅈㅗ⑨
ㅇㅕᆲ
ㅇㅏ⑨ㅈㅜ⑨ㄷㅐ⑨
ㅎㅘ⑨ㄱㅣ⑨ㅇㅐ⑨ㅇㅐ⑨ㅎㅏ⑨
ㅇㅣᆫㅍㅜᆷ
ㅈㅗ⑨ㅂㅜ⑨
ㅎㅘ⑨ㅎㅞ⑨
ㅎㅏᆫㄱㅜᆨㄱㅐ⑨ㅂㅏᆯ
ㄱㅡᆷㅁㅔ⑨
ㅈㅣ⑨ㅎㅏ⑨ㅊㅓᆯㅇㅕᆨ
ㄱㅜᆯㄹㅓ⑨ㄱㅏ⑨
ㅂㅏᆯㅈㅏ⑨ㅊㅟ⑨
##ㄷㅏᆼㅊㅗ⑨
ㅈㅔ⑨ㅎㅏ
##ㅡ⑨ㄹㅡᆷ
ㅂㅏᆯㅌㅗᆸ
ㅅㅏ⑨ㅇㅛ
ㅊㅏ⑨ㅎㅜ⑨
ㅇㅏ⑨ㅅㅡ⑨ㄴㅓᆯ
ㅅㅡ⑨ㅌㅐᆫㅍㅓ⑨ㄷㅡ⑨
have
ㅅㅡᆯㄹㅏ⑨ㅇㅣ⑨ㄷㅡ⑨
ㅈㅓᆼㄱㅡᆫ
ㅈㅓᆼㄱㅕᆸ
ㅈㅜ⑨ㅅㅜᆯ
ㅅㅏ⑨ㅅㅏ⑨ㄱㅓᆫ
ㅂㅏᆨㅎㅏᆫ
ㅊㅓᆨㅅㅜ⑨
ㅆㅏ⑨ㅇㅜ
ㄱㅣ⑨ㅈㅔ⑨
ㄱㅗᆼㄱㅡᆸㅁㅏᆼ
ㅍㅡᆯㄹㅐ
##ml
##ре
ㄷㅐ⑨ㄱㅕᆼ
ㅁㅏᆯㅅㅏᆯ
##ㅁㅜ⑨ㄷㅐ⑨
ㅈㅏ⑨ㅇㅕ
1928
ㄱㅏ⑨ㄴㅡ⑨
ㄱㅣ⑨ㅎㅚᆨㅈㅏ⑨
ㅎㅡᆼㅈㅓᆼ
ㅊㅜᆯㅇㅕᆫㄱㅡᆷ
ㄸㅗᆨㄸㅗᆨㅎㅣ⑨
##ㄷㅐ⑨ㅇㅜ⑨
ㄴㅔᆯ
ㅅㅣᆫㄱㅕᆨ
ㅎㅕᆫㅈㅗᆼ
ㅅㅡ⑨ㅌㅡ⑨ㄹㅗ⑨
ㅌㅏᆫㅅㅜ⑨
245
ㅇㅑ⑨ㅅㅐᆼㅎㅘ⑨
ㅅㅞ⑨ㅂㅗ⑨ㄹㅔ⑨
ㄹㅗᆫㅅㅡ⑨ㅌㅏ⑨
460
##ㅐ⑨ㅍㅡ⑨ㅌㅡ⑨
##ㅊㅓᆫㄷㅗᆼ
ㅂㅐᆨㅇㅢ⑨
ㅇㅝ⑨ㄷㅡ⑨
ㅉㅣᆷㅈㅣᆯ
##ㄱㅡᆯㄹ
##ㄲㅏ⑨ㅁ
ㄱㅜ⑨ㅂㅜ⑨
ㅌㅜ⑨ㅅㅜᆨ
ㅈㅏᆨㅇㅓ
ㅅㅓᆨㅇㅕᆫ
ㅊㅏᆫㅊㅏᆫ
ㅋㅗᆷㅂㅣ⑨
##ㅎㅏ⑨ㄹㅏ⑨
ㄱㅏ⑨ㄷㅗ⑨
ㅅㅣ⑨ㄹㅛ⑨
ㅊㅚ⑨ㅈㅣ⑨
ㄹㅔ⑨ㅅㅣ⑨ㅍㅣ⑨
ㅇㅑ⑨ㄱㅜ⑨ㄷㅏᆫ
ㅈㅗᆼㅍㅏ⑨
##ica
ㅊㅓᆼㄱㅜ⑨ㅇㅣᆫ
ㅁㅏ⑨ㄹㅣ⑨ㅇㅗ⑨
##ㅅㅡ⑨ㅌㅔ⑨ㄹㅡ⑨
##ㄴㅣ⑨ㅇㅓᆷ
ㄱㅛ⑨ㅈㅜ⑨
ㅇㅠᆨㄹㅗ⑨
##ata
##ㄷㅡ⑨ㄹㅡ⑨
##app
ㅅㅖ⑨ㅇㅣᆯ
ㄱㅏ⑨ㅁㅐᆼㅈㅓᆷㅈㅜ⑨
ㅇㅣ⑨ㅅㅏ⑨ㄱㅜᆨ
ㄷㅏ⑨ㄷㅏᆫ
ㅅㅐ⑨ㄴㅜ⑨ㄹㅣ⑨ㄷㅏ
ㅅㅡ⑨ㅌㅓ⑨ㄷㅣ⑨
##ㅂㅜᆫㅌㅜ⑨
ㅂㅗ⑨ㅇㅑᆼ
ㅂㅗ⑨ㄱㅗ
ㅈㅓᆯㅊㅏ
ㄴㅏᆯㅇㅏ⑨ㄷㅏ⑨ㄴㅣ⑨
ㅇㅓᆫㅇㅓ⑨ㅎㅏᆨ
ㅎㅘᆼㅌㅐ⑨ㅈㅏ⑨
ㅁㅕᆼㅁㅜᆯ
ㄴㅗ⑨ㄹㅏᆼ
ㅅㅏ⑨ㅎㅚ⑨ㅅㅐᆼㅎㅘᆯ
ㄷㅟ⑨ㅌㅡᆯㄹㅣ⑨
ㅈㅣ⑨ㅇㅝᆫㄱㅘᆫ
ㅂㅐᆨㅇㅓᆸ
ㄹㅣ⑨ㅇㅓᆯㄹㅣ⑨ㅌㅣ⑨
ㄱㅣᆷㅅㅜ⑨ㅁㅣ⑨
ㄹㅔ⑨ㅈㅣ⑨ㄷㅓᆫ
ㄴㅐᆫㄷㅡ⑨
ㄹㅣ⑨ㅎㅓ⑨
##ㅂㅏᆨㅈㅏ⑨
ㅅㅏ⑨ㅇㅛᆼㅂㅓᆸ
ㄷㅏ⑨ㄱㅜ
ㄴㅐᆼㅎㅗᆨ
ㅈㅡᆼㄱㅝᆫㄱㅏ⑨
ㄹㅗ⑨ㅈㅓ⑨
ㅈㅜᆼㅇㅣᆷ
ㅅㅗ⑨ㅅㅗ⑨
ㅎㅏᆨㅇㅝ
ㅊㅗᆼㅎㅏᆨㅅㅐᆼ
ㅋㅗ⑨ㅇㅞ⑨ㅇㅣ⑨
ㅌㅡ⑨ㄹㅣᆷ
##ㅁㅣᆫㄱㅜ
ㅍㅏᆯㄷㅗ⑨
ㅇㅏᆷㅅㅓᆨ
ㅈㅐ⑨ㅁㅣ⑨ㅇㅓᆹ
ㅋㅗᆯㄹㅓᆷㅂㅓ⑨ㅅㅡ⑨
ㅇㅣ⑨ㅁㅏᆷ
ㅊㅏᆽㅇㅏ⑨ㅂ
ㄴㅣ⑨ㅋㅗ⑨
ㅅㅣᆸㅈㅏ⑨
ㅍㅏ⑨ㅇㅜᆫㄷㅡ
ㅎㅔ⑨ㄱㅔ⑨ㅁㅗ⑨ㄴㅣ⑨
ㅎㅏ⑨ㅎㅏ
ㅇㅓ⑨ㅇㅕᆼ
ㄱㅗᆼㅇㅑᆼ
ㅇㅕᆼㅈㅓᆸ
ㄷㅗᆨㄷㅐ⑨
ㅈㅜᆯㄹㅣ⑨ㅇㅏ⑨
ㅎㅑᆼㅇㅡᆼ
ㅎㅘᆼㅂㅗ⑨
246
ㄷㅟᆺㅈㅘ⑨ㅅㅓᆨ
ㅎㅟ⑨ㅈㅓᆺ
##ㅂㅣ⑨ㅅ
ㄱㅐ⑨ㅎㅏᆨ
ㄱㅛ⑨ㄷㅗᆼ
ㅂㅗᆫㅇㅝᆫ
ㄱㅏ⑨ㅈㅣ⑨ㄹㅓᆫ
275
ㅅㅣ⑨ㅅㅏ⑨ㅎㅚ⑨
ㅂㅏᆨㅇㅕᆫㅊㅏ⑨
ㄱㅓ⑨ㅅㅏ⑨
ㅈㅏᆼㄱㅏ⑨
ㅇㅓ⑨ㄹㅠ⑨
ㅁㅏᆨㅅㅡ⑨
ㄱㅟ⑨ㅂㅣᆫ
ㅂㅜ⑨ㄷㅗᆼㅅㅏᆫ114
ㄲㅗᆨㅈㅣ⑨
ㅊㅚ⑨ㅈㅓ⑨ㅇㅣᆷㄱㅡᆷ
ㅁㅜ⑨ㄱㅔ⑨ㄱㅏᆷ
##iety
ㄲㅜᆷㅌㅡᆯㄱㅓ⑨ㄹㅣ⑨
ki
ㅇㅟ⑨ㅈㅏ⑨ㄹㅛ⑨
ㄴㅏ⑨ㄱㅡ⑨ㄴㅔ⑨
ㅇㅗ⑨ㄷㅗᆼ
ㅂㅐ⑨ㅇㅏ⑨
ㄷㅏ⑨ㄱㅜ⑨
##ㅋㅗᆸㅌㅓ⑨
ㅊㅏᆼㅇㅝ
ㅇㅐ⑨ㅂㅣ⑨
ㅌㅏᆷㅈㅓᆼ
##ㄱㅐ⑨ㅂㅏᆯㅇㅝᆫ
ㅁㅐ⑨ㅍㅛ⑨
ㅂㅕᆫㄷㅓᆨ
##eph
##ㅋㅗ⑨ㅇㅓ⑨
ㅇㅓᆷㅅㅓᆫ
ㅇㅏ⑨ㅇㅣ⑨ㄷㅔᆫㅌㅣ⑨ㅌㅣ⑨
kf
ㅈㅜ⑨ㄴㅜᆨ
ㅇㅝᆫㄴㅏ⑨ㄹㅏ⑨
##ㄱㅏᆨㅅㅐᆨ
ㅇㅓ⑨ㅈㅣ⑨ㄱㅏᆫ
ㅇㅠ⑨ㅈㅐ⑨ㅅㅓᆨ
ㅎㅕᆫㄷㅐ⑨ㅇㅗ⑨ㅇㅣᆯㅂㅐᆼㅋㅡ⑨
##ㅌㅏ⑨ㄱㅗ⑨
ㅇㅕᆨㅅㅏ⑨ㄱㅏ⑨
ㄹㅣ⑨ㅂㅣ⑨
ㅍㅡ⑨ㄹㅏᆼㅅㅜ⑨ㅇㅏ⑨
kai
ㅅㅡ⑨ㅌㅔ⑨ㅇㅣᆫㄹㅣ⑨ㅅㅡ⑨
ㅂㅡᆯㄹㅓ⑨
ㅌㅢ⑨ㅇㅜ⑨
ㅂㅜᆨㅅㅏᆼ
ㅅㅣᆨㄱㅕᆫ
ㅂㅗᆯㄹㅣᆼ
ㄴㅗ⑨ㅈㅓᆷㅅㅏᆼ
ㅍㅕᆼㅍㅕᆼ
ㅂㅕᆫㅂㅕᆫ
##ㄹㅔ⑨ㅇㅗ⑨
slbm
ㄱㅜ⑨ㄹㅗ⑨ㄱㅜ⑨
ㅅㅐ⑨ㅁㅏ⑨ㅇㅡᆯㄱㅡᆷㄱㅗ⑨
##ㄹㅚ
ㄱㅏ⑨ㅂㅕᆫ
ㅇㅕᆫㅇㅣ⑨
point
ㄱㅏ⑨ㅊㅓᆫ
ㅎㅏᆫㅅㅓᆫ
ㅅㅗ⑨ㅈㅏ⑨
ㅂㅏᆨㅂㅗ⑨
##ㅂㅗᆼㅅㅏ⑨
ㄷㅗᆼㅇㅣ⑨
ㅎㅘᆼㅈㅜ⑨
##ㅅㅣᆸㄹㅣ⑨
ㅅㅏᆼㄱㅗ⑨ㅅㅣᆷ
ㅁㅐ⑨ㅌㅣ⑨ㅅㅡ⑨
ㄱㅡᆸㅅㅏᆼㅅㅡᆼ
ㅇㅣ⑨ㅈㅔ⑨ㄲㅓᆺ
##ㄲㅜ⑨ㄹㅏ⑨ㅈㅣ⑨
ㅅㅡᆯㄹㅓᆷㅍㅡ⑨
ㅈㅏᆼㅁㅣᆺㅂㅣᆾ
ㄷㅜ⑨ㅌㅜᆷ
ㅍㅗ⑨ㅅㅓᆸ
ㄹㅣ⑨ㅂㅔ⑨
ㅎㅘᆼㅇㅣᆫ
ㅇㅏᆨㅈㅏᆼ
ㅅㅡ⑨ㅋㅜ
##ron
##ㄲㅜ
ㅁㅜᆫㅎㅏ⑨
ㅊㅔ⑨ㄱㅜ⑨
ㅌㅗ⑨ㄱㅣ⑨
ㅎㅐᆨㅁㅜ⑨ㅈㅏᆼ
ㅇㅚ⑨ㅂㅜ⑨ㅇㅣᆫ
nhㅌㅜ⑨ㅈㅏ⑨ㅈㅡᆼㄱㅝᆫ
ㅇㅐ⑨ㅌㅡᆺ
ㄱㅏ⑨ㅇㅕᆹ
ㄷㅗᆼㄱㅏᆼ
##ㄱㅡ⑨ㄹㅜ
ㅁㅣ⑨ㄷㅣ⑨ㅇㅓ⑨ㅂㅓᆸ
ㅇㅠ⑨ㅌㅣᆯㄹㅣ⑨ㅌㅣ⑨
ㅇㅔ⑨ㄷㅣ⑨ㅅㅡᆫ
cit
ㅇㅏ⑨ㅇㅗ⑨
ㅊㅗ⑨ㄴㅏ⑨ㄹㅏ⑨
ㅅㅔ⑨ㄱㅖ⑨ㅇㅡᆫㅎㅐᆼ
ㅈㅓᆸㅊㅏᆨ
##ㄷㅐ⑨ㅅㅏ⑨ㄱㅘᆫ
ㅈㅜᆼㄱㅡᆷㅅㅗᆨ
##ㄱㅗᆼㄱㅏᆫ
ㅅㅏᆫㅅㅔ⑨
ㅊㅔ⑨ㄹㅣ⑨
ㅇㅑᆨㅅㅗ
ㅅㅗᆼㅇㅏ⑨ㅈㅣ⑨
ㅈㅣᆼㄱㅓᆷ
ㅂㅏᆼㅅㅏ⑨ㅊㅓᆼ
tit
##ox
ㅂㅏᆼㅍㅏ⑨
ㅅㅣᆨㅈㅏ⑨ㅈㅐ⑨
ㅍㅕᆫㅎㅕᆸ
ㅅㅐᆼㅎㅘᆯㅎㅘᆫㄱㅕᆼ
ㄱㅗᆼㅁㅗ⑨ㅈㅜ⑨
god
ㄷㅏ⑨ㄹㅏᆨ
ㅎㅏᆫㄱㅜᆨㄷㅗ⑨ㄹㅗ⑨ㄱㅗᆼㅅㅏ⑨
##ㄷㅔ⑨ㄹㅔᆯ
##ㅅㅜᆺ
ㄴㅏ⑨ㄹㅗ⑨
ㅅㅏ⑨ㅌㅗ⑨
ㅂㅓᆫㅈㅣ
resear
ㅈㅔ⑨ㄱㅘ⑨
ㅇㅓᆯㄹㅣ⑨
##79
##89
ㄱㅣ⑨ㄱㅛ⑨
##ㅅㅗ⑨ㅅㅡ⑨
ㅂㅏᆫㅁㅗᆨ
mat
ㅅㅣᆫㄷㅡ⑨ㄹ
ㅍㅣ⑨ㄱㅕᆨ
ㅅㅗᆫㅇㅕᆫ
ㅊㅜᆼㄴㅏ
ㅇㅗᆫㅈㅓᆼ
ㄱㅕᆼㄴㅏᆷㄷㅐ⑨
ㅊㅜᆼㄷㅏᆼㄱㅡᆷ
ㅇㅠᆫㅁㅣ⑨ㅎㅑᆼ
ㅇㅑᆼㅂㅜᆫ
ㅇㅛ⑨ㅊㅜᆼㅈㅣ⑨
##ㅏ⑨ㅁㅣᆫ
ㅍㅣ⑨ㅎㅐ⑨ㅇㅐᆨ
ㅂㅡ⑨ㄹㅣ⑨ㅈㅣ⑨
ㄷㅐ⑨ㄹㅣᆸㄱㅏᆨ
##ee
ㄷㅜ⑨ㅁㅏᆫ
ㅈㅗ⑨ㅅㅓᆫㅁㅣᆫㅈㅜ⑨ㅈㅜ⑨ㅇㅢ⑨
ㄱㅣ⑨ㅅㅏ⑨ㄷㅏᆫ
ㄷㅓᆨㅌㅐᆨ
ㅋㅓᆯㄹㅓᆷㅂㅣ⑨ㅇㅏ⑨
ㅂㅜᆫㄷㅔ⑨ㅅㅡ⑨ㄹㅣ⑨ㄱㅏ⑨
ㅇㅕ⑨ㅅㅗ⑨ㅇㅑ⑨ㄷㅐ⑨
ㅌㅐ⑨ㅎㅗ⑨
ㄸㅓ⑨ㅁㅏᇀ
ㅁㅏ⑨ㄹㅡ⑨ㅋㅗ⑨
ㅎㅏᆫㄱㅜᆨㅌㅗ⑨ㅈㅣ⑨ㅈㅜ⑨ㅌㅐᆨㄱㅗᆼㅅㅏ⑨
##ㄱㅜᆫㅇㅛ
ㅇㅔ⑨ㄷㅣ⑨ㅅㅕᆫ
ㅈㅣ⑨ㄹㅔᆺ
ㄹㅣ⑨ㅇㅏ⑨
##ㅎㅕᆯㄱㅘᆫ
ㅇㅣ⑨ㄹㅏ⑨ㄷㅗ⑨
ㅈㅓᆼㅇㅕᆼ
ㅎㅐᆼㄱㅜᆫ
ㅊㅔᆯㄹㅗ⑨
ㅎㅏᆼㅇㅏᆷㅈㅔ⑨
##ㅎㅠ
ㄷㅗᆼㅅㅓᆨ
ㅂㅗᆯㅌㅣ⑨ㅁㅗ⑨
bre
ㅇㅏ⑨ㅋㅣᆯ
ㄱㅏᆷㅅㅣᆨ
ㅇㅏᆫㅈㅓᆫㅈㅏᆼㅊㅣ⑨
policy
ㄷㅡ⑨ㄹㅏ⑨ㅁㅏ
ㅇㅏ⑨ㅇㅜ⑨ㅅㅓᆼ
ㄴㅗ⑨ㄹㅕᆫㅎㅏ⑨
##48
##ㅅㅓᆨㅇㅣ⑨
ㅍㅏᆫㄷㅗᆨ
ㄴㅡ⑨ㄱㅡᆺㅎㅏ⑨
##ㅋㅐ⑨ㅅㅡ⑨ㅌㅡ⑨
ㅁㅗ⑨ㄱㅣ⑨ㅈㅣ⑨
##ㅅㅗᆫㅎㅐ⑨ㅂㅗ⑨ㅎㅓᆷ
ㅍㅗᆼ
ㅂㅜ⑨ㅎㅐᆼㅈㅏᆼ
ㅈㅣᆺㄴㅜ⑨ㄹㅡ⑨
ㅋㅓ⑨ㅌㅡ⑨
1921
ㄱㅡ⑨ㄹㅐᆫㅈㅓ⑨
nasa
ㅇㅣ⑨ㅋㅗ⑨ㄴㅗ⑨ㅁㅣ⑨ㅅㅡ⑨ㅌㅡ⑨
##ㄴㅏ⑨ㅋㅡ⑨
ㅅㅓᆯㄹㅣ⑨
ㅇㅑ⑨ㅈㅓᆫ
ㅂㅜ⑨ㅅㅏᆫㅇㅡᆫㅎㅐᆼ
ㄱㅣᆷㅈㅗᆼㅍㅣᆯ
london
ㄱㅏᆷㅁㅕᆼ
ㅊㅟ⑨ㅎㅏᆸ
ㄴㅜ⑨ㄴㅣᆷ
ㄱㅛ⑨ㅌㅗᆼㄹㅑᆼ
ㅅㅓᆸㄹㅣ⑨
ㅅㅗ⑨ㅍㅡ⑨ㅌㅡ⑨ㅂㅐᆼㅋㅡ⑨
ㅅㅣᆫㅇㅣᆫㅇㅘᆼ
lead
##ㅍㅔᆨㅌㅡ⑨
##ㄹㅗ⑨ㅇㅣ⑨ㄷㅡ⑨
ㅌㅗᆼㅅㅜ⑨
ㄴㅗ⑨ㄹㅏ⑨ㄱㅗ⑨
ㅅㅡ⑨ㄹㅣᆯㄹㅓ⑨
ㄱㅣ⑨ㅅㅡᆰ
ㅎㅕᆼㅊㅔ⑨
ㄱㅐ⑨ㅂㅏᆯㅂㅣ⑨
ㅂㅜ⑨ㄷㅗᆼㅅㅏ
##urn
ㅍㅏᆼ
ㅁㅗᆨㅁㅏ⑨ㄹㅡ⑨
ㄷㅗᆯㅂㅕᆫ
ㅂㅐᆨㅅㅓᆨ
232
ㅎㅗᆫㅈㅏᆺㅁㅏᆯ
ㅂㅜ⑨ㅈㅓ
ㅅㅓᆫㄱㅕᆯ
ㅇㅖ⑨ㄱㅡ
ㅇㅗᆯㅇㅣᆫ
ㅇㅏᆸㄷㅜᆯ
klpga
nl
ㅇㅗ⑨ㅎㅜ
ㅎㅕᆫㄹㅏᆫ
ㅇㅕᆼㅇㅕ
##ㅅㅔᆫㅌㅓ
390
ㅅㅜᆼㅅㅣᆯ
city
##42
ㄱㅘ⑨ㅂㅜ⑨
ㅊㅚ⑨ㄷㅏᆫ
ㅅㅣᆯㅊㅜ⑨
##ㅁㅣ⑨ㅌㅓ
##ㅣᆼㅋㅡ⑨
ㅊㅜᆨㅅㅗ
##ㅈㅡ⑨ㅋㅣ⑨
##ㄹㅣᆷㄷㅗᆼ
ㅂㅣ⑨ㅅㅏᆼㅅㅣ⑨
ㅈㅗ⑨ㅇㅠᆫㅅㅓᆫ
530
##ㅈㅏ⑨ㅇㅟ⑨
ㅅㅣ⑨ㅍㅕᆫ
ㅈㅣᆫㅇㅓᆫ
ㄱㅝᆫㄹㅕ
##ㄱㅗ⑨ㄱㅣ
##ㅕ⑨ㅈㅣ⑨
ㄷㅗ⑨ㅇㅡᆸ
ㅂㅏᆯㄹㅏᆯㅎㅏ⑨
ㅍㅡᆯㄹㅐ⑨ㄱㅡ⑨
ㅇㅏ⑨ㄲㅣᆷㅇㅓᆹㅇㅣ⑨
history
ㄱㅏ⑨ㄴㅡ⑨ㄷㅏ⑨ㄹㅏᇂ
##ㄷㅏ⑨ㅌㅜᆷ
ㄱㅏ⑨ㄱㅏᆷ
ㅅㅣᆫㄷㅔ⑨ㄹㅔᆯ
ㄱㅡᆫㄱㅓ⑨ㅈㅣ⑨
ㅋㅔ⑨ㅁㅣ⑨ㅋㅏᆯ
any
ㄷㅓᆷㅂㅣ⑨
ㅎㅗ⑨ㅈㅓᆨ
ㅈㅏᆸㅎㅘ⑨
ㅇㅓᆷㅇㅕᆫㅎㅏ⑨
ㅅㅓᆫㅌㅐᆨㅈㅣ⑨
ㄴㅏᆸㅈㅏᆨ
ㅈㅣ⑨ㅁㅕᆼㅈㅏ⑨
##ㅍㅡ⑨ㄹㅏ⑨ㄴㅗ⑨
ㅅㅏ⑨ㅁㅏ⑨ㅇㅢ⑨
ㅅㅣ⑨ㅁㅜ⑨
ㅁㅗ⑨ㅅㅓ⑨ㄹㅣ⑨
ㄷㅐ⑨ㅅㅏᆼㅈㅣ⑨
ㅌㅏ⑨ㄹㅕᆼ
open
ㄱㅐᆯㄹㅓ⑨ㄹㅣ⑨ㅇㅏ⑨
ㄱㅘᆯㅁㅗᆨ
ㅇㅣ⑨ㄹㅡ
ㅈㅗᆫㅊㅣ⑨
ㅂㅣᆨㅌㅓ⑨
470
ㅇㅕᆫㅂㅏᆼㅈㅜᆫㅂㅣ⑨
ㄱㅓ⑨ㅂㅓ⑨ㄴㅓᆫㅅㅡ⑨
ㄸㅏ⑨ㄴㅐ⑨
ㅅㅜ⑨ㄹㅓᆼ
ㅌㅡᆨㄱㅏᆷ
ㅅㅗᆼㅅㅡᆼ
doc
ㄱㅘᆫㄱㅖ⑨ㅇㅓᆹ
ㅂㅡᆯㄹㅗ⑨ㅋㅣᆼ
##49
ㅅㅜ⑨ㅇㅛ
ㅅㅜ⑨ㅌㅏᆯ
ㄱㅡ⑨ㄹㅓᆯ
ㅅㅣᆯㅎㅘ⑨
ㄷㅏᆫㅅㅣ⑨ㄱㅏᆫ
ㅁㅐ⑨ㅈㅓᆷ
ㅈㅗᆼㅎㅏ
ㅅㅣᆨㅅㅡ⑨
ㅇㅕᆼㅇㅓᆸㅅㅣ⑨ㄱㅏᆫ
ㅅㅡ⑨ㅍㅗ⑨ㅌㅣ⑨
ㅇㅣ⑨ㅇㅝᆯ
ㅍㅣ⑨ㅇㅔ⑨ㄹㅡ⑨
8500
##ㅅㅏ⑨ㅇㅠ⑨
ㄴㅗᆼㅅㅓᆼㅈㅏᆼ
ㅅㅣ⑨ㅂㅏᆯㅈㅓᆷ
ㄱㅗ⑨ㅂㅜ⑨
ㅈㅗ⑨ㅁㅣᆫ
ㅇㅏᆫㅌㅔ⑨
ㅇㅏᆫㄷㅡ⑨ㄹㅔ⑨
ㄷㅗᆼㅌㅐ⑨
ㅅㅏ⑨ㅇㅣᆨ
ㅋㅏ⑨ㅍㅔᆺ
ㅅㅣᆯㅇㅣᆨ
##ㅈㅓ⑨ㄱㅏ⑨
ㄱㅏᆨㅅㅓ⑨
##ㄱㅡ⑨ㄹㅓᇂ
ㅅㅣᆫㅊㅓᆼㅇㅣᆫ
ㄱㅣ⑨ㄴㅕᆷㅁㅜᆯ
ㅎㅏᆼㄱㅗᆼㅁㅗ⑨ㅎㅏᆷ
ㅂㅜᆰㅇㅓ⑨ㅈㅣ⑨
ㅎㅐ⑨ㄱㅗ⑨ㅈㅏ⑨
ㅉㅣ
##ㅁㅐᆼㅇㅣ⑨
ㅊㅏᆷㄱㅣ⑨ㄹㅡᆷ
ㅅㅏᆫㄱㅏᆫ
##ㅌㅔ⑨ㅋㅡ⑨ㄴㅗ⑨
ㅊㅣᆺㅅㅗᆯ
loc
ㅁㅜᆯㅈㅣ
ㅌㅜ⑨ㅎㅏ⑨
ㅆㅡ⑨ㄹㅔ⑨ㄱㅣ⑨ㅌㅗᆼ
##ㄱㅏ⑨ㄹㅡ⑨
##work
ㅇㅣ⑨ㄷㅏᆫ
ㅇㅣ⑨ㄷㅓᆨ
ㄷㅐ⑨ㅈㅓᆨ
ㅌㅐ⑨ㄷㅗᆼ
ㄲㅡᆯㅇㅓ⑨ㅁㅗ⑨ㅇㅡ⑨
##ession
1909
ㅊㅗᆼㅅㅐᆼㅅㅏᆫ
##ㅁㅏᆫㅊㅣ⑨
vi
ㅁㅗ⑨ㅍㅣ⑨
ㅁㅣ⑨ㅋㅣ⑨
ㅍㅐ⑨ㅅㅕ⑨
ㄹㅏ⑨ㅇㅣ⑨ㅅㅡ⑨
ㅎㅔᆯㅁㅔᆺ
ㅇㅟ⑨ㄷㅐ⑨ㅎㅏ⑨
ㅊㅚ⑨ㅁㅕᆫ
ㅁㅗᆨㄱㅜ⑨ㅁㅓᆼ
ㄷㅏᆷㅇㅛ⑨
ㅇㅠᆫㄷㅗᆼ
ㅅㅡ⑨ㅍㅏ⑨ㄹㅡ⑨
ㄴㅏ⑨ㄱㅗ⑨ㅇㅑ⑨
ㅈㅔ⑨ㄱㅜ⑨
ㅍㅜᆼㅈㅗ⑨
##ㅂㅔ⑨ㅅㅡ⑨ㅌㅡ⑨
ㅅㅣᆫㄹㅚ⑨ㄱㅏᆷ
ㅇㅣ⑨ㅈㅣ⑨ㅅㅡ⑨
##ㅍㅗᆼ
ㄴㅏᆯㄹㅕᆸ
ㄱㅓ⑨ㄹㅣ⑨ㄲㅣᆷ
##ㅍㅡᆯㄹㅔ⑨ㅇㅣ⑨ㅅㅕᆫ
ㅂㅣ⑨ㅁㅣᆯㅂㅓᆫㅎㅗ⑨
ㅂㅏᆨㄹㅏᆷㅎㅚ⑨ㅈㅏᆼ
ㅉㅣᆽㄱㅣ⑨
ㅂㅗᆯㄹㅣ⑨
ㅇㅢ⑨ㄱㅕ
ㅂㅜᆯㅎㅕᆸ
ㅇㅕᆯㅈㅓ
ㅅㅔ⑨ㄱㅖ⑨ㅁㅜ⑨ㅇㅕᆨ
ㅎㅗᆺㅋㅏ⑨ㅇㅣ⑨
##ㄸㅏ⑨ㄹ
##ㄱㅜᆨㄱㅏ⑨
ㅇㅗ⑨ㅅㅐᆨ
ㄴㅔ⑨ㅁㅗ⑨
ㅎㅟ⑨ㄱㅏᆷ
ㄱㅏ⑨ㅇㅑ⑨ㄱㅡᆷ
ㅇㅔ⑨ㅇㅣ⑨ㅈㅓᆫㅌㅡ⑨
ㄱㅗᆼㅊㅓ
ㅇㅓᆯㅁㅏ⑨ㄱㅏᆫ
ㄷㅏ⑨ㅇㅝᆫㅈㅜ⑨ㅇㅢ⑨
kebㅎㅏ⑨ㄴㅏ⑨ㅇㅡᆫㅎㅐᆼ
##az
ㅇㅝᆫㅊㅓᆼ
ㅅㅏ⑨ㅇㅓᆸㅈㅏ
ㅅㅏ⑨ㄹㅏᆼㅂㅏᆼ
ㄱㅗ⑨ㅇㅛᆼㅈㅜ⑨
rd
ㄱㅏᆼㄷㅏᆫ
ㅊㅏᆫㅊㅏᆫㅎㅣ⑨
sum
ㅇㅡᆫㅅㅣᆫ
ㅈㅣ⑨ㄹㅕᆼ
ㅈㅏᆼㅎㅘ⑨
ㅁㅣᆫㅂㅏᆨ
##ㄴㅏᆷㄷㅗᆼ
ㅊㅜᆼㅈㅓᆼ
ㅅㅠ⑨ㅌㅏ⑨ㅇㅣᆫ
ㅊㅜᆫㅊㅓ
ㅋㅐᆯㄹㅣ⑨ㅍㅗ⑨ㄴㅣ⑨ㅇㅏ⑨ㅈㅜ⑨
ㅍㅏ⑨ㄹㅏ⑨ㄷㅏ⑨ㅇㅣ⑨
##ㅋㅐᆷ
ㅇㅝᆫㅇㅣ
ㄹㅣ⑨ㅋㅓ⑨
ㅍㅓᆫㅊㅣ⑨
ㄱㅣᆷㅌㅐ⑨ㅎㅡᆷ
##ㄸㅟ⑨ㄱㅣ⑨
##72
ㅍㅕᆼㄱㅏ⑨ㄷㅏᆫ
ㅈㅓᆼㅂㅗ⑨ㅇㅝᆫㅈㅏᆼ
ㅌㅔ⑨ㄹㅡ⑨
ㅇㅔᆼ
ㄱㅕᆼㄱㅣ⑨ㄷㅗ⑨ㄱㅛ⑨ㅇㅠᆨㅊㅓᆼ
theory
ㅇㅣ⑨ㅇㅜᆺㅈㅣᆸ
ㅅㅜ⑨ㅈㅏ⑨ㅇㅝᆫㄱㅗᆼㅅㅏ⑨
ㅊㅚ⑨ㅎㅕᆼㅇㅜ⑨
ㅅㅣ⑨ㄴㅕ⑨
ㄷㅗᆼㄱㅜᆨㅈㅔ⑨
ㄴㅗ⑨ㅈㅓᆼ
ㅇㅑ⑨ㄱㅕᆼ
ㄴㅗ⑨ㄷㅗᆼㅈㅏ
ㅂㅓ⑨ㄹㅏ⑨ㅇㅣ⑨
ㅁㅕᆼㅈㅏᆨ
ㄱㅏᆫㅇㅏᆷ
ㄹㅣ⑨ㅌㅓᆫ
ㄹㅣ⑨ㄷㅣᆼ
ㅂㅓ⑨ㅋㅡ⑨
ㅁㅣᆯㄹㅓ⑨
##tis
ㅌㅜ⑨ㅍㅛ⑨ㅇㅣᆯ
ㄷㅏᆫㅇㅝᆫㄱㅗ⑨
ㄸㅓᆨㅂㅗᆩㅇㅣ⑨
ㅇㅕᆼㅁㅣ⑨
ㅇㅕᆯㄹㅑᆼ
ㅅㅗᆼㄴㅏ⑨ㄹㅏ⑨
ㄴㅏᆨㅅㅓ⑨
research
ㅅㅗ⑨ㅎㅏ⑨
ㅇㅖ⑨ㅁㅜᆫ
ㅊㅗᆼㅌㅗᆼ
ㅈㅏᆫㅎㅐ⑨
ㄱㅜᆼㅍㅣᆸ
ㅈㅓᆼㅈㅜ⑨ㅇㅕᆼ
ㅇㅣᆯㅇㅛᆼㅈㅣᆨ
first
##ㄱㅣ⑨ㅇㅓ
ㅂㅏᆫㅇㅓ⑨ㅂㅓᆸ
ㄴㅗ⑨ㅅㅡ⑨
ㅊㅜᆯㄹㅓᆼㅇㅣ⑨
ㅎㅘᆼㄹㅑᆼ
ㅂㅏᆼㅁㅜᆫㅈㅣᆫ
ㅂㅣ⑨ㄴㅣᆯㅎㅏ⑨ㅇㅜ⑨ㅅㅡ⑨
ㅊㅗᆼㅎㅏᆨㅅㅐᆼㅎㅚ⑨
##ㅎㅐ⑨ㅅㅜ⑨
ㅌㅜ
ㅈㅏ⑨ㅁㅕ⑨
ㄷㅗᆼㅁㅣᆫ
ㅎㅐ⑨ㅂㅏ⑨ㄹ
ㅂㅏᆨㅈㅔ⑨
ㅎㅘᆨㅇㅕᆫㅎㅏ⑨
ㅊㅣ⑨ㅇㅣ⑨
ㄱㅏᆷㅇㅕᆷㅈㅏ⑨
ㅅㅕ⑨ㅌㅓ⑨
ㅂㅓᆯㅋㅡ⑨
ㅈㅜᆼㅇㅏᆼㅅㅓᆫ
ㅍㅓ⑨ㅅㅡ⑨
ㄱㅝᆫㄹㅣ⑨ㄱㅡᆷ
##ㅋㅗᆫㅅㅓ⑨
ㅅㅏ⑨ㅈㅣᆨㅅㅓ⑨
##ㅈㅣ⑨ㅎㅏ⑨
ㅅㅏ⑨ㅁㅏ
ㅇㅏ⑨ㄴㅣ⑨ㅇㅛ⑨
ㅇㅘᆫㅎㅘ
ㄷㅐ⑨ㅎㅏᆫㅁㅣᆫㄱㅜ
ㄹㅣ⑨ㄷㅓ⑨ㅅㅣ
ㅈㅏ⑨ㅊㅣᆼ
ㅇㅏ⑨ㅍㅕᆫ
ㅂㅜᆯㅂㅜᇀ
##ㅊㅜ⑨ㅅㅔ⑨
ㄱㅘᆫㅈㅜᆼㅅㅓᆨ
ㅋㅐᆫㅂㅓ⑨ㅅㅡ⑨
ㅇㅏᆼㅅㅏᆼㅂㅡᆯ
ㅂㅣ⑨ㅌㅗᆼ
ㅊㅐ⑨ㄱㅝ
ㅍㅗᆨㅌㅏ
##any
ㅋㅗᆫㅌㅔ⑨
ㅍㅣᆯㄹㅣᆸㅅㅡ⑨
ㅇㅗᆼㅈㅣᆫㄱㅜᆫ
ext
ㅁㅏᆯㅎㅏ⑨ㄱㅣ⑨
ㅎㅏᆷㅂㅏᆨ
ㅅㅓᆫㅂㅏᆯㅈㅣᆫ
##ett
apec
ㄱㅕᆼㅎㅗ⑨ㅊㅓ⑨
ㅇㅕᆼㅇㅣᆯ
ㅈㅓᆼㅊㅣ⑨ㄹㅕᆨ
ㄴㅜ⑨ㅁㅕᆼ
ㅎㅘᆼㅇㅕᆼㅊㅓᆯ
ㅅㅏ⑨ㅅㅏ⑨ㄱㅓᆫㄱㅓᆫ
may
ㅂㅏᆼㅇㅏ⑨
ㅂㅏᆯㅍㅛ
ㅂㅜᆯㅁㅣ⑨
ㅅㅓᆸㅆㅣ⑨
ㅊㅏ⑨ㄱㅗᆨ
ㄱㅣ⑨ㄱㅗᆼㅅㅣᆨ
ㅇㅗ⑨ㄷㅜ⑨ㅁㅏᆨ
##ㅇㅣᆫㅌㅓ⑨
win
ㄷㅐ⑨ㅍㅛ⑨ㅂㅜ⑨
##ㅈㅜᆼㅇㅣᆯ
ㅍㅣ⑨ㅊㅣ⑨
##ㄱㅓᆷㅊㅏᆯ
ㅂㅜᆯㅎㅕᆸㅎㅘ⑨
ㅂㅗ⑨ㅈㅏᆯㄱㅓᆺ
ㄷㅏᆼㅊㅓᆼ
ㄱㅣᆷㅇㅜᆼ
ㄱㅡᆯㄹㅏ⑨ㅅㅡ⑨
ㅅㅏᆼㄷㅐ⑨ㄱㅜᆨ
ㅃㅏᆼㅈㅣᆸ
nba
##ㅈㅗᆼㅎㅘᆫ
ㅁㅏ⑨ㅇㅜᆫ
ㅊㅏᆫㅂㅏ⑨ㄹㅏᆷ
ㅎㅣ⑨ㅂㅡ⑨ㄹㅣ⑨
ㅎㅓᆯㄱㅏᆹ
ㄱㅡᆯㄹㅜ⑨
ㅎㅔᆯㄹㅣ⑨ㅋㅗᆸㅌㅓ⑨
ㅅㅣ⑨ㅅㅣᆨ
ㄴㅐ⑨ㅇㅛᆼㅁㅜᆯ
ㅂㅏᆩㅇㅔ
ㅇㅓ⑨ㄸㅓᇂㄷㅡᆫ
##ㅇㅝ⑨ㅍㅡ⑨
princ
ㅎㅜ⑨ㅈㅣᆫㄱㅜᆨ
ㅅㅜ⑨ㅍㅡ⑨
ㅁㅐ⑨ㅅㅡ⑨ㅋㅓᆷ
ㅎㅗ⑨ㅎㅘᆫ
ㄴㅡᆼㅎㅣ⑨
ㅎㅏᆯㅇㅣᆫㅈㅓᆷ
ㄱㅘᆼㅈㅜ⑨ㅅㅣ⑨ㅇㅢ⑨ㅎㅚ⑨
##ㅅㅣ⑨ㅂㅡ⑨
ㄷㅣᆷ
##36
ㅈㅓᆼㅎㅖ⑨
ㅎㅣᆷㅇㅓᆹ
ㅋㅔ⑨ㅇㅣ⑨ㅂㅡ
ㅎㅏᆷㅂㅜ⑨ㄹㅡ⑨ㅋㅡ⑨
ㄲㅏᆼㅌㅗᆼ
ㅎㅏᆨㄴㅐ⑨
ㅈㅏ⑨ㅇㅠ⑨ㅈㅏ⑨ㅈㅐ⑨
ㅍㅓ⑨ㅅㅣ⑨ㅍㅣᆨ
ㅂㅏᆫㄷㅗ⑨ㅊㅔ
ㅇㅓᇁㅊㅣ⑨
christi
ㄹㅣ⑨ㅎㅓ⑨ㅅㅓᆯ
fac
ㅇㅣᆯㄱㅣ
ㄷㅗᆼㅎㅐ
ㄱㅓᆫㄱㅏ
ㅈㅓᆷㅇㅝᆫ
ㄱㅡᆷㅇㅐ
ㅈㅡᆨㄷㅏᆸ
ㅁㅐᆨㅇㅏ⑨
ㅅㅓᆫㄷㅗᆼㅇㅕᆯ
ㅅㅏᆼㅋㅡᆷㅎㅏ⑨
##hip
ㄷㅗ⑨ㄹㅕᆫ
ㅈㅜᆼㅈㅓ⑨ㄱㅏ⑨
ㅍㅣ⑨ㅇㅔ⑨
ㅅㅡ⑨ㅋㅔ⑨ㅇㅣᆯ
##ㄹㅣ⑨ㅅㅡ
ㄱㅕᆯㅌㅏᆨ
ㅂㅗᆨㄱㅗ⑨
ㄱㅗ⑨ㅇㅡᆫ
ㄱㅛ⑨ㅅㅣ⑨
ㄴㅗ⑨ㄹㅜ⑨
ㅊㅏ⑨ㄹㅖ
ㅁㅏᆼㅁㅏᆨ
##ㅅㅏ⑨ㅇㅕᆫ
afp
ㄴㅣᆯㅅㅡᆫ
ㅈㅓᆫㄱㅘᆫㅇㅖ⑨
ㅍㅡᆯㄹㅣ⑨
ㄱㅜᆨㅁㅣᆫㄷㅐ⑨
ㄱㅜᆯㅈㅣ⑨
ㅍㅔᆫㅅㅣᆼ
ㅈㅓᆫㅅㅏᆫㅁㅏᆼ
ㅈㅏ⑨ㅁㅜᆯ
##ㄹㅡ⑨ㅂㅏ⑨
ㅈㅔ⑨ㄱㅏᆨㄱㅣ⑨
ㅅㅔ⑨ㅇㅣᆫㅌㅡ⑨ㄹㅜ⑨
ㅅㅜᆫㄹㅣ⑨
ㅅㅏᆼㅎㅘᆼㅅㅣᆯㅈㅏᆼ
ㄸㅓ⑨ㄴㅏ⑨ㅂㅗ⑨ㄴㅐ⑨
ㅅㅣ⑨ㅎㅘ⑨
ㄱㅣᆷㅎㅘᆼ
ㅇㅖ⑨ㅊㅔ⑨
ㅌㅐ⑨ㅅㅏᆫ
ㅈㅐᆼㅈㅐᆼ
##32
ㅇㅣᆯㄷㅗᆼ
ㅇㅘ⑨ㅇㅣ⑨ㄷㅡ⑨
##ㅎㅚ⑨ㅇㅢ
##ㅎㅣ⑨ㄷㅡ⑨
ㅇㅠᆫㄱㅓᆫ
ㄱㅜᆨㄴㅐ⑨ㅅㅓᆫ
ㄱㅟ⑨ㅅㅓᆼ
ㅌㅏ⑨ㅇㅣ⑨ㅇㅘᆫ
ㅌㅡᆨㄹㅖ⑨ㅂㅓᆸ
ㄱㅕᆼㅇㅝᆫ
ㅅㅏᆼㅈㅗ⑨
ㄴㅐ⑨ㅇㅕᆫ
ㅂㅏᆼㅇㅓᆫ
ㄷㅔ⑨ㅇㅜ⑨
ㅅㅏᆫㅅㅏᆫ
ㅈㅏᆨㅇㅓᆸㅈㅏ⑨
ㅈㅏ⑨ㅈㅗᆫㄱㅏᆷ
ㅅㅡ⑨ㅋㅣᆫㅅㅣᆸ
##land
##81
ㄷㅗᆼㅈㅗᆨ
ㄴㅗᆼㄷㅏ
ㅍㅡ⑨ㄹㅣ⑨ㄹㅐᆫ
ㄱㅜᆯㅈㅓᆯ
ㅌㅏᆫㅇㅝᆫㅅㅓ⑨
ㅇㅔ⑨ㅁㅓ⑨ㅅㅡᆫ
ㄱㅜ⑨ㄱㅏ⑨
ㅂㅜᆯㄱㅏ⑨ㄹㅣ⑨ㅇㅏ⑨
ㅈㅏᆼㅁㅏ⑨ㅊㅓᆯ
ㅅㅏ⑨ㄹㅕ⑨
ㅎㅡᆯㄹㅕ⑨
gㅁㅏ⑨ㅋㅔᆺ
ㄹㅣ⑨ㅍㅡ⑨ㅌㅡ⑨
ㄱㅘᆼㅈㅜ⑨ㅅㅣ⑨ㅈㅏᆼ
ㅅㅣ⑨ㅊㅗ⑨
ㅈㅜ⑨ㄱㅗ
ㅅㅔ⑨ㅌㅓ⑨
ㅂㅓᆸㄱㅘ
ㅋㅗ⑨ㅁ
##ㅌㅣ⑨ㅂㅡ
1912
##ㅎㅘ⑨ㄱㅏ⑨
sal
ㄷㅗᆼㄷㅗᆼ
ㅈㅏᆼㅎㅕᆫ
ㅊㅏᆼㅅㅏ⑨
ㅊㅐ⑨ㅅㅣᆨ
ㅆㅗ⑨ㅇㅏ⑨
ㄴㅗᆼㄱㅕᆼㅈㅣ⑨
ㅂㅐ⑨ㅉㅏᆼ
ㅊㅜᆯㅅㅣ
ㅊㅓᆯㅊㅐᆨ
ㅇㅘᆫㅍㅐ⑨
ㅍㅐ⑨ㅅㅕ
ㅊㅔ⑨ㅎㅓᆷㅈㅏᆼ
ㅍㅐᆫㅋㅡᆯㄹㅓᆸ
ㄱㅣᆷㅌㅐ⑨ㅇㅜ⑨
ㅁㅜ⑨ㅇㅛᆼㅈㅣ⑨ㅁㅜᆯ
ㄴㅐ
ㄱㅘ⑨ㅁㅣᆯ
ㅅㅓᆯㅇㅜᆷ
ㅅㅓ⑨ㅇㅜᆯㅅㅣ⑨ㅇㅢ⑨ㅎㅚ⑨
ㅅㅜ⑨ㅎㅏᆨㅇㅕ⑨ㅎㅐᆼ
ㄱㅗ⑨ㄱㅜᆫㅂㅜᆫㅌㅜ⑨
ㄱㅕᆼㄱㅜ⑨
ㅅㅓᆫㅇㅏᆨ
ㄱㅘᆼㅂㅜ⑨
##ㅌㅣ⑨ㅅㅣ⑨
ㅂㅜ⑨ㅈㅏᆼㄱㅘᆫ
ㅇㅣ⑨ㄷㅡᆫㅈㅣ⑨
ㅈㅣ⑨ㅌㅏᆫ
##ㅁㅣᆫㅈㅗᆨ
ㄹㅔ⑨ㅇㅏ⑨
##ㅇㅗ⑨ㅅㅕᆫ
ㅈㅏᆼㅅㅓ⑨
##ㅂㅡᆯㄹㅣᆨ
ㅇㅠ⑨ㄹㅖ⑨ㅇㅓᆹ
##au
ㄱㅏ⑨ㅇㅓᆸ
ㄱㅜ⑨ㅅㅏ
ㅎㅐᆼㅈㅏ⑨ㅂㅜ⑨
ㅂㅗ⑨ㅇㅣ⑨ㅅㅡ⑨
ㄱㅗᆼㅂㅜ⑨ㅂㅏᆼ
ㄹㅐ⑨ㅍㅓ⑨
his
##52
ㅈㅓᆫㄷㅏ
ㅇㅘ⑨ㅎㅐ⑨
ㅈㅗ⑨ㅈㅏ
ㅇㅗ⑨ㅂㅣ⑨
ㅋㅏ⑨ㅌㅏᆯ
ㅋㅣ⑨ㅂㅗ⑨ㄷㅡ⑨
ㄷㅡᆫㄱㅏ
ㅁㅜᆼㅋㅡᆯ
##ㅊㅏ⑨ㄱㅗᆨ
ㅅㅕ⑨ㅌㅡᆯㅂㅓ⑨ㅅㅡ⑨
ㅊㅏ⑨ㄱㅗᆨㅊㅏ⑨ㄱㅗᆨ
##ㄹㅏᆫㄷㅡ
##ㅁㅜᆼ
ㅅㅜ⑨ㄹㅕ⑨
ㅈㅔ⑨ㅇㅜ⑨ㅅㅡ⑨
ㅂㅜᆨㅈㅓᆨㅇㅣ⑨
ㅇㅕᆼㅎㅘ⑨ㄱㅏᆷㄷㅗᆨ
ㅇㅏᆷㄱㅏᆨ
ㅇㅑᆼㅅㅓᆼㅍㅕᆼㄷㅡᆼ
11ㅂㅓᆫㄱㅏ⑨
##ㅂㅣ⑨ㅇㅛᆼ
##ㅌㅏ⑨ㅇㅗ⑨
ㄴㅗ⑨ㄷㅗᆼㅂㅓᆸ
ㅇㅏᆨㅂㅗ⑨
ㅈㅏᆫㅈㅗᆫ
ㅇㅣᆷㅈㅣᆫㄱㅏᆼ
ㄹㅔ⑨ㅁㅣ⑨ㅋㅗᆫ
ㅁㅣᆫㄴㅏᆾ
ㅈㅗ⑨ㅅㅓᆫㅁㅣᆫㅈㅜ⑨ㅈㅜ⑨ㅇㅢ⑨ㅇㅣᆫㅁㅣᆫㄱㅗᆼㅎㅘ⑨ㄱㅜᆨ
##ㄹㅗ⑨ㅈㅣᆨ
ㅊㅚ⑨ㅇㅡᆫ
ㅅㅓᆨㄱㅣ⑨
elect
ㅌㅗᆯㅅㅡ⑨ㅌㅗ⑨
cur
ᆯㄴㅡᆫㅈㅣ⑨
ㅈㅔ⑨ㄷㅗᆨ
ㅊㅜ⑨ㄷㅗᆼ
ㅎㅕᆸㅅㅏ
ㄷㅔᆯㄹㅣ⑨
ㄷㅏ⑨ㄱㅏᆨㄷㅗ⑨
ㅊㅏᆼㅅㅣ⑨ㅈㅏ⑨
ㅅㅏᇀㅅㅏ
##ㄱㅔ⑨ㅇㅣ⑨ㅌㅡ⑨
##ㄴㅔ⑨ㅅㅣ⑨
##ㅁㅗ⑨ㄴㅣᆼ
ㄷㅟ⑨ㅇㅓᆼ
ㄱㅘᆼㅎㅘᆯ
ㅈㅜᆨㅇㅡ
ㅍㅖ⑨ㄱㅘᆼ
ㄴㅏᆼㅁㅏᆫㅈㅜ⑨ㅇㅢ⑨
##ㅊㅣᆸ
ㅈㅜ⑨ㅎㅗᆼ
ㅁㅜ⑨ㄷㅣ⑨
ㅂㅏᆨㅌㅔ⑨ㄹㅣ⑨ㅇㅏ⑨
ㅎㅑᆼㅇㅕᆫ
##ㅂㅏ⑨ㅅㅡ⑨
ㅎㅓᆷㅈㅣ⑨
##ral
##97
ㄱㅗ⑨ㅅㅏᆼ
ㄱㅜ⑨ㅅㅜ⑨
ㄴㅗ⑨ㄹㅑᆼ
##ines
ㅇㅣ⑨ㄴㅏᆷ
ㅈㅗ⑨ㅂㅕᆼ
ㅅㅣᆨㄷㅗ⑨
ㅇㅝᆷ
ㄷㅡᆼㄹㅗᆨㅈㅡᆼ
ㅁㅏ⑨ㅇㅣ⑨ㅇㅐ⑨
ㄷㅓᇁㄱㅐ⑨
ㅍㅜ⑨ㄹㅡ⑨ㅈㅣ⑨ㅇㅗ⑨
ㅇㅞ⑨ㅇㅣ⑨ㅂㅡ⑨
ㄴㅡᆨㅈㅏᆼ
ox
##ㅂㅏ⑨ㅇㅗ⑨
ㅅㅏᆼㅈㅏ
ㅊㅚ⑨ㅈㅜᆫ
ㅁㅕᆼㅈㅗᆼ
ㅇㅘᆫㄱㅜ⑨
ㄱㅕᆨㅇㅏᆼ
ㅂㅏ⑨ㄹㅡ⑨ㅌㅡ⑨
1922
ㅌㅜ⑨ㄷㅓᆯㄱㅓ⑨ㄹㅣ⑨
ㅌㅡᆨㅅㅏᆫㅍㅜᆷ
ㅇㅟ⑨ㄴㅏ⑨ㄹㅏ⑨
ㅈㅔ⑨ㄷㅡ⑨
##ㅎㅕᆸㅎㅚ
ㄹㅔ⑨ㅅㅡᆫ
ㅇㅣᆨㅅㅜᆨ
ㄴㅏᆼㅅㅗᆼ
ㅈㅣᆸㅇㅏᆫㅇㅣᆯ
iii
ㅇㅝᆫㄱㅣ⑨
ㅈㅐ⑨ㄱㅕᆯ
##ㅁㅏ⑨ㅊㅣ⑨
ㄹㅜ⑨ㅂㅣ⑨
state
ㅊㅟ⑨ㅇㅑᆨㅈㅓᆷ
ㄱㅜ⑨ㄹㅣ⑨ㅅㅣ⑨
ㄹㅗ⑨ㅇㅕᆯㅌㅣ⑨
##31
ㅅㅣᆷㅇㅗ⑨
ㄱㅣ⑨ㅈㅏ⑨ㅅㅣᆯ
ㅌㅐᆨㄱㅕᆫ
ㅍㅡᆯㄹㅓ⑨ㄱㅡ⑨
##ford
dgb
dig
ㄱㅕᆼㅊㅏ⑨
ㄴㅣ⑨ㅎㅗᆫ
ㄴㅏᆨㅊㅓᆫ
720
ㅇㅕᆼㅈㅗᆼㄷㅗ⑨
europ
ㄷㅗᆼㄱㅛ⑨ㄷㅗᆼ
ㅇㅕᆫㅅㅓᆯㅎㅚ⑨
cu
ㄷㅐ⑨ㅅㅓ
ㅌㅐ⑨ㄷㅗ
ㅇㅣ⑨ㄹㅗᆫㄱㅏ⑨
ㅎㅡᆸㅈㅗᆨ
ㅂㅣᆨㅌㅗ⑨ㄹㅡ⑨
dir
ㅇㅣᆫㅅㅗᆯ
ㅅㅏᆼㅅㅜ⑨ㅇㅝᆫ
ㅅㅓ⑨ㅂㅏ⑨ㅇㅣ⑨
ㅅㅓ⑨ㅌㅜ⑨ㄹㅡ⑨
ㅁㅕᆼㅁㅐᆨ
ㅁㅣᆫㅎㅘ⑨
ㅅㅗᆼㄷㅜ⑨ㄹㅣ⑨
ㅁㅏᆼㄱㅏ⑨
ㅌㅣ⑨ㅈㅓ⑨
##ㅅㅓ⑨ㅂㅣ⑨ㅅㅡ⑨
ㅈㅏ⑨ㅇㅠ⑨ㄷㅏᆼ
ㅂㅡᆯㄹㅏ⑨ㅇㅣᆫㄷㅡ⑨
ᆯㅅㅜ⑨ㄹㅗ
ㅇㅣ⑨ㅂㅗ⑨
ㅈㅓᆼㄱㅝ
ㅊㅗᆼㅇㅐ⑨
ㅈㅓᆼㅊㅣ⑨ㅍㅏᆫ
ㅇㅣ⑨ㄹㅡᆷㄴㅏ⑨
ㅇㅛ⑨ㅇㅑᆼㅇㅝᆫ
ㄱㅏ⑨ㄴㅡ
ㄸㅏ⑨ㄷㅗᆯ
ㄷㅗᆨㄹㅣᆸㄱㅜᆫ
ㅁㅗ⑨ㅂㅣᆯㄹㅣ⑨ㅌㅣ⑨
ㅍㅐ⑨ㅅㅡ⑨ㅌㅡ⑨ㅍㅜ⑨ㄷㅡ⑨
ㅇㅐ⑨ㄱㅜᆨㄱㅏ⑨
ㅎㅕᆫㅈㅜ⑨ㅅㅗ⑨
ㅆㅗ⑨ㅇㅏ⑨ㅂㅜᇀㅇㅣ⑨
ㅈㅓᆼㅈㅣ
ㅈㅗ⑨ㅈㅣᆫ
ㄱㅜ⑨ㄱㅏ
ㄲㅏᆼㅍㅐ⑨
ㅇㅢ⑨ㅇㅏᆫ
ㅁㅜ⑨ㅌㅓᆨ
ㅊㅓᆼㄹㅏ⑨
ㅊㅗ⑨ㄴㅕᆫ
ㅅㅜᆫㅂㅏᆯ
ㅍㅗᆨㄷㅗ⑨
##ㅁㅜᆫㅎㅘ⑨ㅇㅖ⑨ㅅㅜᆯ
ㅍㅏ⑨ㄹㅕᆷ
##ㅎㅐ⑨ㅇㅑ⑨
ㄱㅕᆨㅅㅣᆨ
ㅇㅏᆷㅂㅕᆨ
ㄷㅗ⑨ㄹㅗ⑨ㅂㅕᆫ
ㅅㅏᆼㅇㅕᆼㄱㅘᆫ
ibid
##ally
ㄷㅗᆼㅅㅣᆨㅁㅜᆯ
ㅇㅞ⑨ㅇㅓ⑨ㄹㅓ⑨ㅂㅡᆯ
ㅇㅡ⑨ㅇㅡ
ㅊㅓ⑨ㅇㅛᆼ
ㅅㅔᆫㅌㅓᆷ
ㅇㅗᆨㅊㅓᆫ
ㄷㅟ⑨ㅇㅓᆼㅋㅣ⑨
pat
##dc
ㅂㅜᆫㄹㅏᆫ
ㄱㅕᆯㅅㅓᆨ
ㄷㅜ⑨ㄱㅐ⑨
ㅅㅣ⑨ㄱㅏᆫㅍㅛ⑨
ㄷㅏᆸㅅㅡᆸ
ㄱㅏᆯㄱㅣ⑨
ㅈㅏᆼㅂㅕᆼㅇㅘᆫ
ㄴㅏᆷㄱㅜᆨ
ㅎㅘᆫㄱㅏᆨ
##ㅂㅏ⑨ㄹㅣ⑨
ㅍㅡ⑨ㄹㅏ⑨ㅇㅣ⑨ㅂㅓ⑨
ㅇㅏ⑨ㅂㅏᆫㄸㅔ⑨
ㅂㅗᆯㅁㅗ⑨
ㅈㅓᆯㅂㅏᆫㄱㅏ⑨ㄹ
560
ㅇㅣᆼㅌㅐ⑨
##ㄱㅕᆼㅈㅔ⑨ㅇㅕᆫㄱㅜ⑨ㅇㅝᆫ
ㄷㅏ⑨ㄷㅏᆫㄱㅖ⑨
ㅊㅏᆫㅅㅗᆼ
ㄱㅗ⑨ㄱㅐ
ㅂㅗ⑨ㅇㅣᆷ
ㅅㅓᆫㅂㅜᆯ
ㅂㅏᆨㅅㅜᆫ
##ㅂㅜᆯㅇㅟ⑨
ㅇㅙ⑨ㅈㅓᆨ
ㅊㅕ⑨ㄷㅡᆯㅇㅓ⑨ㅇㅗ⑨
ㅇㅏ⑨ㅅㅜ⑨ㄹㅏ⑨
##ych
##37
ㄷㅡᆯㅇㅣ⑨ㅁㅏ⑨ㅅㅣ⑨
ㄷㅐ⑨ㄱㅣ⑨ㅅㅣᆯ
ㅎㅗ⑨ㅈㅜ⑨ㅁㅓ⑨ㄴㅣ⑨
ㅅㅏᆼㅅㅗᆨㅇㅣᆫ
ㅎㅏᆫㅇㅢ⑨ㅅㅏ⑨
ㅇㅛᆼㄱㅏᆷㅎㅏ⑨
ㄱㅏ⑨ㅇㅏᆸ
ㅇㅠ⑨ㅍㅜᆷ
ㅇㅛᆼㅇㅏᆷ
ㄱㅣᆷㅎㅕᆼㅇㅗ⑨
ㅇㅠ⑨ㄱㅗ⑨ㅅㅡᆯㄹㅏ⑨
ㅇㅓ⑨ㅅㅜ⑨ㅅㅓᆫㅎㅏ⑨
ㅇㅜ⑨ㅇㅘᆼㅈㅘ⑨
ㅅㅏᇀㅅㅏᇀㅇㅣ⑨
ㅎㅏ⑨ㅈㅏ⑨
ㅂㅜ⑨ㄹㅑ⑨
ㅈㅗ⑨ㅅㅏ⑨ㄱㅘᆫ
ㅎㅜ⑨ㅇㅝᆫㅎㅚ⑨
ㄱㅣ⑨ㅇㅓ⑨ㅇㅣ⑨
ㅂㅡᆯㄹㅗ⑨ㄱㅓ⑨
ㅅㅓ⑨ㅇㅜᆯㄴㅏᆷㅂㅜ⑨
ㅎㅗᆫㅇㅛᆼ
ㅈㅓᆫㅎㅘᆫㄱㅣ⑨
ㄷㅏ⑨ㄹㅏᆷㅈㅟ⑨
##ㅅㅟ
ㅎㅏ⑨ㅇㅕᆷ
ㅅㅜ⑨ㄴㅗᇂ
ㅅㅓᆼㄱㅘ
ㅇㅝᆫㅌㅏᆨ
ㅁㅣ⑨ㅂㅐᆨ
ㄱㅏᆼㅎㅜᆫ
ㅍㅗ⑨ㅅㅡ⑨ㅌㅔᆨ
ㅈㅗᆼㅇㅏ⑨ㄹㅣ⑨
ㄱㅜᆨㅈㅔ⑨ㅊㅜᆨㄱㅜ⑨ㅇㅕᆫㅁㅐ
ㅂㅜᆫㅅㅓᆨㅎㅏᆨ
ㅅㅓᆫㅊㅏᆨㅈㅏᆼ
ㅋㅘᆼ
##ger
ㄱㅕᆼㄹㅣ⑨
ㅊㅚ⑨ㅊㅏᆼ
ㄱㅏᆼㄱㅘᆫ
ㅂㅏᆫㄷㅏᆯ
ㅁㅗᆺㅅㅐᆼㄱㅣ⑨
ㅈㅏᆸㅇㅣ⑨
ㅋㅡ⑨ㄹㅔ⑨ㅇㅣ⑨
ㄱㅗᆼㄷㅏ
ㅇㅣᆫㅅㅡ⑨
ㅈㅣᆨㅈㅔ⑨
ㅇㅣᆷㅅㅓᆼ
ㅁㅗᆷㄸㅜᆼ
ㄴㅗ⑨ㅁㅜ⑨ㅎㅕ
ㄱㅣᆷㅇㅣ⑨ㅅㅜ⑨
##ㅊㅜ⑨ㅅㅔ⑨ㅊㅡ⑨
ㅅㅗ⑨ㄴㅏ⑨ㄱㅣ⑨
ㅇㅣᆷㄱㅡᆷㅍㅣ⑨ㅋㅡ⑨
##86
ㅇㅝᆫㄴㅕᆫ
ㅁㅕᆼㅅㅡᆼ
ㅅㅡ⑨ㅁㅗᆯ
##ㅈㅜᆼㅅㅣᆷ
ㅊㅗ⑨ㅋㅗ⑨
##ㄷㅔ⑨ㅇㅣ⑨ㅅㅕᆫ
iss
great
ㅌㅏᆫㅅㅜ⑨ㅎㅘ⑨ㅁㅜᆯ
##96
ㄴㅡ⑨ㄲㅣ
ㅈㅜᆼㅅㅣᆷㅊㅜᆨ
ㅇㅢ⑨ㄹㅛ⑨ㅇㅣᆫ
ㅁㅜᆨㅎㅑᆼ
ㅅㅚ⑨ㅇㅑᆨ
950
ㄷㅗᆼㄱㅜᆨㅈㅔ⑨ㄱㅏᆼ
##ㅂㅏᆫㄱㅜ⑨
ㅇㅡᆫㅈㅣ
##ㅁㅜ⑨ㅅㅐ⑨
ㅌㅗ⑨ㄱㅓᆫ
ㅅㅏ⑨ㅁㅜ⑨ㅈㅏᆼ
ㄴㅏᆫㅈㅏ⑨
ㅍㅏ⑨ㄹㅕᆷㅊㅣ⑨
##ㅂㅜ⑨ㄷㅡᆯ
ho
ㅎㅘ⑨ㄱㅛ⑨
ㄷㅐ⑨ㅎㅏᆫㅊㅜᆨㄱㅜ⑨
fri
##fi
ㅇㅟ⑨ㄹㅕᆼ
ㅎㅕᆼㅅㅔ⑨
##ㅇㅜᆫㅇㅛᆼ
ㅂㅔ⑨ㄴㅣ⑨ㅅㅡ⑨
ㅈㅏᆷㅈㅏ⑨ㅋㅗ⑨
ㅈㅜ⑨ㄱㅏ
ㄱㅓᆫㅂㅐ⑨
ㄱㅣᆷㅇㅕᆼㅈㅜ⑨
ㄷㅔᆯㅌㅏ⑨
##ㅇㅏ⑨ㄹㅐ⑨
ㅇㅟ⑨ㅋㅡ⑨
ㅈㅗ⑨ㄲㅣ⑨
ㅇㅜ⑨ㅎㅏᆫ
ㅊㅓ⑨ㄴㅏᆷ
ㅂㅗᆼㅎㅘᆼ
ㅁㅐ⑨ㅌㅡ⑨ㄹㅣ⑨ㅅㅡ⑨
##ㅅㅣ⑨ㅇㅟ⑨
##ㅈㅣᆯㅅㅓ⑨
##ㅏᆼㅇㅣ⑨
ㅁㅏᆫㅂㅏᆫ
ㅊㅗ⑨ㄱㅗ⑨
ㅅㅣ⑨ㄱㅗᆼㄱㅏᆫ
ㅊㅚ⑨ㄱㅕᆼㅈㅜ⑨
ㅈㅜ⑨ㅁㅜ⑨ㄱㅘᆫ
##bl
ㅇㅕᆫㅅㅡ
##ular
##ㅈㅏ⑨ㅇㅘ⑨
ㅈㅓᆫㄱㅗᆼㅈㅏ⑨
ㅈㅏᆽㅇㅏ⑨ㄷㅡᆯ
ㅇㅔ⑨ㅂㅔ⑨
ㅍㅗ⑨ㅌㅓ⑨
ㅈㅣᆨㄱㅕᆼ
##ium
ㅅㅜ⑨ㅌㅡ⑨
ㅇㅣᆫㄹㅠᆫ
##ㅇㅛ⑨ㅇㅣ
1911
ㄱㅣ⑨ㄲㅓᆺㅎㅐ⑨ㅇㅑ⑨
mem
ㅇㅕᆼㅇㅜ⑨
ㅂㅏ⑨ㅂㅣᆯ
ㅈㅜᆫㅇㅓᆷ
ㅎㅏ⑨ㅇㅕ⑨ㄱㅏᆫ
ㄱㅜᆫㅇㅛᆼㄱㅣ⑨
ㄷㅗᆼㄱㅣ
ㅂㅏᆯㄹㅏ⑨ㄷㅡ⑨
ㅇㅕᆨㅈㅜ⑨
ㅍㅗ⑨ㅇㅠ⑨
ㄹㅣ⑨ㅈㅡ⑨
ㅌㅡ⑨ㄹㅏ⑨
ㅌㅔ⑨ㄹㅔ⑨
ㅁㅜ⑨ㅇㅛᆼㄷㅏᆫ
ㄷㅏᆫㅈㅏ
ㅂㅏᆷㅅㅐᆷ
ㅅㅣᆼㅇㅓ⑨
ㅅㅣᆫㅅㅡᆼ
ㅁㅕᆼㄹㅕ
ㅊㅗᆼㅁㅕᆼ
ㅍㅛ⑨ㅈㅔ⑨
ㅁㅔ⑨ㅅㅣ⑨ㅈㅣ
ㅂㅓᆸㄹㅠᆯㅇㅏ
ㅊㅓᆯㄷㅗ⑨ㅁㅏᆼ
lab
ㅌㅏᆼㅍㅕᆼ
ㅇㅣ⑨ㅎㅢ⑨ㅎㅗ⑨
ㅇㅓ⑨ㅇㅝ⑨
ㅎㅜ⑨ㄱㅕᆫ
ㅇㅕᆨㅈㅏ⑨
ㅇㅣᆯㅂㅏᆫㅂㅜ⑨
ㅇㅣ⑨ㄱㅘᆼㅅㅜ⑨
##ㄹㅓ⑨ㅅㅡ
ㅂㅜ⑨ㅇㅜᆯ
ㅈㅣᆨㅁㅜᆯ
##ㅁㅗ⑨ㄹㅣ⑨
##ㅊㅗᆼㅎㅚ⑨
ㅈㅣᆫㄷㅏᆫㅅㅓ⑨
ㅅㅗ⑨ㅈㅣ⑨ㅈㅏ⑨
society
ㅇㅏ⑨ㄱㅜᆫ
ㅍㅓᆼㅍㅓᆼ
##ㅁㅜᆫㅈㅔ⑨
ㄱㅠᆯ
##ㅅㅗᆷ
ㅅㅐᆼㄱㅣᆷ
ㅁㅜ⑨ㅊㅏᆷ
ㅅㅡ⑨ㅁㅏ⑨ㅇㅣᆯ
ㅊㅏᆷㅇㅕ
ㅎㅗ⑨ㅁㅕᆼ
ㅎㅣᆷㄱㅕ⑨
ㅂㅏᆼㅍㅏ⑨ㅈㅔ⑨
ㅈㅣ⑨ㅎㅘᆫ
ㄱㅣ⑨ㅍㅏᆫ
ㄷㅗ⑨ㅅㅓᆫ
ㅊㅚ⑨ㅅㅣ⑨
ㅍㅗᆨㅈㅡᆼ
ㅅㅓᆫㅍㅗ⑨ㅅㅣᆨ
ㅇㅏ⑨ㅋㅏ⑨ㄷㅔ⑨ㅁㅣ
ㅎㅏᆫㅈㅣᆫㄱㅡ⑨ㄹㅜᆸ
##ㅚᆷ
ㅈㅓᆫㅇㅕᆯ
ㅅㅣᆫㅌㅐ⑨ㅇㅛᆼ
ㅂㅕᆫㄱㅕ
ㅊㅗᆨㅂㅏᆨ
##ㅇㅕᆺ
ㅍㅡ⑨ㄹㅓᆫㅌㅡ⑨
ㄱㅏ⑨ㄷㅣ⑨ㅇㅓᆫ
ㅈㅓᆼㄱㅏᆷ
##ㅅㅠ⑨ㅌㅏ⑨
ㅅㅓᆼㅊㅟ⑨ㄱㅏᆷ
##ㅍㅐᆼㅇㅣ⑨
ㄱㅡᆸㅅㅓᆫㅁㅜ⑨
ㅇㅗᆨㅅㅡ⑨ㅍㅓ⑨ㄷㅡ⑨
water
ㅋㅏ⑨ㅇㅣᆫ
##ㅋㅔ⑨ㅇㅣ⑨ㄷㅡ⑨
ㅈㅜ⑨ㄴㅕ
ㄴㅡᆼㅅㅜᆨ
##idge
580
ㅈㅏᆫㄷㅣ⑨ㅂㅏᇀ
ㅁㅜ⑨ㄱㅜᆼㅁㅜ⑨ㅈㅣᆫ
ㅅㅗᆼㄷㅜ⑨ㄹㅣ⑨ㅉㅐ⑨
ㅅㅓ⑨ㅎㅕᆫ
ㄱㅣᆷㅅㅜᆫ
ㅈㅜᆫㅂㅓᆸ
ㄲㅣ⑨ㅇㅣ⑨
ㄷㅟᆺㅅㅏᆫ
ㅁㅗᆼㄷㅜᆼㅇㅣ⑨
ㅋㅓᆫㅌㅔ⑨ㅇㅣ⑨ㄴㅓ⑨ㅅㅓᆫ
ㅂㅣ⑨ㅅㅡ⑨ㄷㅡᆷ
##ㅅㅓ⑨ㄱㅣ⑨
ㅇㅢ⑨ㄹㅗᆸ
ㄱㅗ⑨ㅇㅓ⑨
ㄱㅕᆼㅈㅗᆼ
ㅇㅕᆼㅇㅕᆼ
ㅇㅕᆯㅎㅏᆫ
ㄱㅡ⑨ㄹㅣ⑨ㄷㅡ⑨
ㅅㅜᆫㅁㅜ⑨
ㄱㅗ⑨ㄷㅡᆼㅂㅜ⑨
ㅂㅡᆯㄹㅗᆨㅂㅓ⑨ㅅㅡ⑨ㅌㅓ⑨
ㅅㅣᆷㅇㅗ⑨ㅎㅏ⑨
ㄱㅡ⑨ㄴㅔ⑨
ㅈㅜ⑨ㅁㅜ⑨ㄹㅡ⑨
ㅅㅏᆼㄷㅗᆼ
ㄱㅣᆷㅈㅓᆼㅎㅗ⑨
ㅈㅗᆯㅇㅣ⑨
##ㅇㅞ⑨ㅇㅓ
##ㅎㅕᆯㅈㅡᆼ
ㅈㅣ⑨ㅎㅟ⑨ㅂㅜ⑨
660
ㅈㅣ⑨ㅅㅗ⑨ㅁㅣ⑨ㅇㅏ⑨
ㅈㅐ⑨ㅅㅓᆨ
ㅈㅣ⑨ㅎㅏ⑨ㅅㅣᆯ
ㅍㅐ⑨ㅋㅣ⑨ㅈㅣ
ㄱㅏᆼㅎㅗ⑨ㄷㅗᆼ
ㅁㅣ⑨ㄴㅔ⑨ㅅㅗ⑨
ㅂㅜᆯㅎㅕᆸㅎㅘ⑨ㅇㅡᆷ
ㄱㅓᆷㄷㅏᆫ
ㅎㅕᆸㅇㅕᆫ
ㅍㅡ⑨ㄹㅗ⑨ㅇㅣ⑨
ㅌㅡ⑨ㄹㅗ⑨ㅌㅡ⑨
ㅅㅡ⑨ㅌㅐᆫㄷㅓ⑨ㄷㅡ⑨
##ㅁㅏᆫㄱㅗᆼㅅㅏ⑨
ㅈㅜᆼㄹㅗᆫ
ㅂㅐᆨㅎㅖ⑨ㄹㅕᆫ
ㅎㅗᆼㅅㅓᆨ
ㄱㅠᆫㅇㅣᆯ
##ㅈㅣᆨㅎㅏ⑨
ㄷㅗ⑨ㅇㅛᆼ
ㄷㅜ⑨ㅁㅗᆨ
ㅎㅘᆯㄹㅗ⑨
ㅇㅣᆷㅍㅐᆨㅌㅡ⑨
ㅇㅏ⑨ㅇㅣ⑨ㅂㅣ⑨
ㅎㅕᆯㅇㅏᆫ
ㅍㅡᆯㄹㅐ⑨ㅋㅏ⑨ㄷㅡ⑨
##ㄱㅕᆼㄱㅜᆼ
uf
wm
ㄱㅗᆼㅈㅜ
ㅇㅣᆸㅎㅚ⑨
ㅊㅏᆷㅈㅓᆼㄱㅝᆫ
ㅊㅣᆫㅅㅜ⑨
ㅂㅕᆼㄹㅣ⑨
ㅎㅢ⑨ㅁㅏᆼㅌㅚ⑨ㅈㅣᆨ
ㅈㅚ⑨ㅇㅢ⑨ㅅㅣᆨ
ㅈㅣᆫㅉㅏ⑨ㄹㅗ⑨
peop
ㅁㅏ⑨ㅇㅗ⑨ㅉㅓ⑨
ㅎㅣᆷㄱㅕ⑨ㄹㅜ⑨
##ㅈㅓᆨㅅㅣᆸㅈㅏ⑨
ㄱㅣ⑨ㅂㅗᆨ
ㅇㅗ⑨ㄷㅐ⑨
ㅅㅗ⑨ㄹㅣᆷ
ㄱㅜ⑨ㅁㅏ
ㅊㅣᆫㅇㅟ⑨
ㅇㅏᆯㄹㅣ⑨ㅂㅏ⑨ㅂㅏ⑨
ㅎㅗᆫㅈㅓᆫ
ㄱㅓ⑨ㄹㅐ⑨ㅅㅗ
ㅅㅜ⑨ㅊㅣ⑨ㅅㅣᆷ
ㅃㅓᆫㅎㅣ⑨
cma
ㅎㅓ⑨ㅈㅓᆼㅁㅜ⑨
ㅃㅏᆫㅎㅣ⑨
##ㅂㅏ⑨ㅇㅟ⑨
ㅇㅣᆷㅈㅣ⑨
ㅊㅟ⑨ㅎㅏᆨ
ㅅㅏ⑨ㅇㅗᆸ
ㄴㅗ⑨ㅋㅓᆺ
ㅇㅚ⑨ㅈㅔ⑨
ㅋㅗ⑨ㅌㅡ⑨ㄹㅏ⑨
ㅍㅛ⑨ㅊㅏᆼㅈㅏᆼ
##38
ㄱㅏ⑨ㅅㅓᆼ
##ㅈㅓᆼㅅㅏᆼㅎㅚ⑨
ㄹㅏ⑨ㅋㅏᆼ
ㄱㅏᆫㅇㅣ⑨
ㄱㅗ⑨ㄹㅣ
ㅇㅕᆯㅅㅣᆷ
ㅁㅏᆨㄷㅐ⑨
ㄲㅏᆩㅇㅣ⑨
ㅇㅠ⑨ㄱㅗ⑨ㅅㅡᆯㄹㅏ⑨ㅂㅣ⑨ㅇㅏ⑨
ㅊㅜ⑨ㅁㅜᆫ
ㅊㅗ⑨ㅁㅣ⑨
ㅇㅐ⑨ㄷㅏᆼㅊㅗ⑨
ㅂㅓ⑨ㅁㅜ⑨ㄹㅣ⑨
ㅌㅗ⑨ㄹㅗᆫㅈㅏ⑨
ㅉㅗᆾㅇㅏ⑨ㅇㅗ⑨
ㅅㅓᆫㅂㅏᆫ
ㅇㅏᆫㅊㅐ⑨
ㄱㅛ⑨ㄱㅝᆫ
ㅍㅣ⑨ㅇㅣᆷ
ㅈㅗ⑨ㄱㅏᆨㄱㅏ⑨
1904
ㅅㅗ⑨ㅅㅣ⑨ㅈㅣ⑨
##ㄱㅖ⑨ㅎㅚᆨ
gw
ㅁㅣ⑨ㄹㅡ
ㄱㅜ⑨ㅁㅜᆫ
ㅊㅚ⑨ㅇㅝᆫ
ㅍㅜᆯㅇㅓ⑨ㅈㅣ⑨
ㅍㅏᆯㄷㅏ⑨ㄹㅣ⑨
##eck
##ev
ㅂㅜ⑨ㅈㅣ
ㅅㅣᆫㅈㅐ⑨
ㅎㅕᆫㄷㅐ⑨ㅈㅏ⑨ㄷㅗᆼ
ㄱㅗ⑨ㅅㅗᆨㅂㅓ⑨ㅅㅡ⑨
##98
ㅇㅡᆫㄷㅜᆫ
ㅅㅏᆼㄴㅑᆼ
ㅅㅓᆫㅎㅘ⑨
ㅇㅕᆼㅎㅢ⑨
ㄹㅏᆯㄲㅏ
ㄷㅟ⑨ㄷㅗᆯㅇㅏ⑨ㅂㅗ⑨
ㅈㅣ⑨ㄹㅔᆺㄷㅐ⑨
##ㄴㅣ⑨ㅇㅓᆫ
##ㅇㅏ⑨ㄴㅣ⑨ㅇㅏ⑨
ㅈㅗ⑨ㅇㅑ
ㅈㅜᆫㅈㅏᆼ
ㅋㅡᆫㄷㅗᆫ
ㅎㅓᆷㅇㅏᆨ
sds
ㄱㅏᆷㅅㅏᆫ
ㄱㅏᆫㅊㅓᆼ
ㅎㅗᆼㅈㅗᆼ
ㄱㅣ⑨ㅂㅗᆫㄱㅡᆸ
ㄱㅓᆫㄱㅏᆼㅅㅣᆨㅍㅜᆷ
ㅊㅗ⑨ㄱㅖ⑨ㄱㅣ⑨
ㅅㅐᆯㄹㅓ⑨ㄹㅣ⑨ㅁㅐᆫ
##78
##ㅂㅏᆼㅅㅗ
ㅁㅜᆫㅈㅔ⑨ㅈㅣ⑨
ㅎㅕᆸㅅㅏᆼㄹㅕᆨ
ㄱㅣᆷㅈㅗᆼㄷㅐ⑨
##ission
ㄷㅗ⑨ㅈㅣ⑨ㅅㅏ
ㄲㅓᆼㅊㅜᆼ
##ㅉㅣ
ㅅㅣᆫㄷㅐ⑨
ㅍㅗ⑨ㅊㅓᆫㅅㅣ⑨
ㅁㅔ⑨ㅅㅔ⑨
ㄴㅗᆫㅅㅓᆯㅇㅟ⑨ㅇㅝᆫ
ㄱㅕᆼㅅㅗᆯ
ㅎㅐᆨㅅㅣ
##att
ㅍㅕᆫㅈㅣᆸㄱㅜᆨㅈㅏᆼ
ㄷㅏ⑨ㅈㅣ⑨ㅁㅏᆫ
540
park
ㅅㅜ⑨ㅊㅜᆯㅇㅣᆸㅇㅡᆫㅎㅐᆼ
ㅇㅣ⑨ㅅㅡ⑨ㅌㅏᆫㅂㅜᆯ
ㄷㅜ⑨ㅁㅏᆫㄱㅏᆼ
ㅎㅏ⑨ㄹㅏ
ㅅㅏ⑨ㅈㅓᆨ
ㅊㅚ⑨ㅂㅕᆼ
ㅇㅐ⑨ㅎㅘᆫ
ㄷㅡᆼㅅㅏᆫㄱㅐᆨ
##ㅇㅞᆫ
ㅅㅜ⑨ㅅㅏᆫㅇㅓᆸ
ㄴㅔ⑨ㅍㅏᆯ
ㄴㅏᆽㅈㅏᆷ
ㄴㅑ⑨ㅁㅕ⑨
ㅅㅣᆫㄱㅣ⑨ㅎㅏ⑨
ㄱㅣᆷㅎㅘᆼㅅㅣᆨ
ㅅㅓᆫㅈㅣ⑨
##ㅋㅗ⑨ㅈㅣ⑨
##ㅐᆺㅁㅜᆯ
ㄹㅔ⑨ㅂㅓ⑨
ㄴㅏᆸㅂㅜᆨ
ㅌㅔ⑨ㅁㅏ⑨ㅈㅜ⑨
ㅇㅏᆼㄷㅡ⑨ㄹㅔ⑨
ㄹㅏ⑨ㄱㅓ⑨ㄴㅏ⑨
ㅂㅣ⑨ㅈㅗᆸ
fun
iv
##ㅞᆯ
ㄷㅐ⑨ㄱㅔ⑨
ㅈㅏ⑨ㅈㅗ⑨
ㅈㅏᆼㄴㅕ⑨
ㄱㅘᆼㅈㅜ⑨ㅇㅡᆫㅎㅐᆼ
ㄷㅏ⑨ㄴㅣ⑨ㄲㅏ
##ㅈㅣᆺㄱㅣ⑨
ㄱㅞ⑨ㅂㅕᆫ
ㅅㅓ⑨ㅌㅐ⑨ㅈㅣ⑨
ㄱㅏ⑨ㅂㅕ⑨ㅇㅝ⑨ㅈㅣ⑨
##82
ㄷㅗᆼㅅㅜ⑨
ㅈㅗᆼㄱㅜᆨ
ㄷㅡᆼㄹㅗᆨㅅㅔ⑨
ㅇㅣᆸㅊㅜᆯㄱㅡᆷ
ㅁㅐ⑨ㄱㅓ⑨ㅈㅣᆫ
ㅍㅡ⑨ㄹㅣ⑨ㄹㅐᆫㅅㅓ⑨
##tt
ㄷㅐ⑨ㅇㅑ⑨
ㄴㅐ⑨ㅍㅐᆼ
ㅂㅓᆯㅍㅏᆫ
ㅇㅏ⑨ㅍㅏ⑨ㅎㅏ⑨
ㅅㅗ⑨ㅂㅏᆼㅊㅏ⑨
ㅅㅡ⑨ㅍㅔ⑨ㅇㅣ
ㅇㅏᆫㅌㅔ⑨ㄴㅏ⑨
ㄴㅏᆯㄹㅕᆸㅎㅏ⑨
ㄷㅏ⑨ㅂㅗ⑨ㅅㅡ⑨
ㅁㅏ⑨ㅌㅐ⑨
ㄴㅏᆫㄷㅗᆼ
ㄱㅣ⑨ㅈㅣ⑨ㄱㅜᆨ
ㅎㅡᆯㄹㅓ⑨ㄷㅡᆯ
ㅊㅜ⑨ㅁㅗ⑨ㅅㅣᆨ
##ㅋㅣᆫㅅㅡᆫ
ㅈㅜ⑨ㅇㅣ
ㅅㅡ⑨ㅅㅡ⑨
ㅈㅣ⑨ㅂㅏᆼㅊㅐ⑨
ㅅㅣ⑨ㅎㅗ⑨
ㅇㅕ⑨ㅅㅏᆼ
##ㅊㅓ⑨ㅅㅡ⑨
ㄱㅜᆫㅅㅏ⑨ㅂㅜᆫ
cjㅇㅗ⑨
ㅎㅏ⑨ㅇㅣ⑨ㅌㅡ⑨ㅈㅣᆫ
ㅇㅣᆫㅅㅏᆫ
ㅇㅝᆫㅇㅖ⑨
ㄱㅗ⑨ㄹㅕ⑨ㄷㅐ⑨ㅎㅏᆨㄱㅛ⑨
##ㅋㅔ⑨ㅇㅣᆫ
ㅍㅗᆨㅂㅏᆯㅁㅜᆯ
ㅎㅏᆫㄱㅜᆨㄱㅕᆼㅈㅔ⑨ㅅㅣᆫㅁㅜᆫ
ㅂㅗᆯㅌㅣ⑨ㅁㅗ⑨ㅇㅓ⑨
ㅈㅓᆯㅂㅏᆫㄱㅏ⑨ㄹㅑᆼ
##ㅈㅣ⑨ㅅㅜ⑨
ㅇㅢ⑨ㅎㅏᆨㄱㅘ⑨
ㄱㅔ⑨ㄹㅣ⑨
ㄴㅠ⑨ㅈㅓ⑨
ㅇㅗᆨㅈㅚ⑨
ㅈㅗᆨㅎㅏ⑨
##ㅇㅓ⑨ㅁㅓ⑨ㄴㅣ⑨
ㄹㅣᆨ
##ㄱㅜᆺ
ㄱㅗᆼㄷㅡᆯㅇㅣ⑨
ㅁㅏᆯㄷㅏᆫ
ㅈㅏᆼㅁㅏᆨ
ㄹㅣ⑨ㅁ
ㅎㅢ⑨ㅎㅏᆫ
##ㄱㅡ⑨ㅈㅔ⑨
ㅌㅠ⑨ㄴㅣᆼ
##ㅏ⑨ㅇㅜᆫㅌㅡ⑨
##ㄷㅐ⑨ㄱㅗ⑨
ㄴㅓᆼ
ㅅㅓᆫㄷㅓᆨㅇㅕ⑨
ㅁㅜ⑨ㅈㅣᆫ
ㅇㅠᆫㅎㅘᆯ
ㄹㅔ⑨ㅇㅣᆷ
ㅍㅜ⑨ㄴㅕᆷ
ㅈㅗᆯㅇㅓᆸㅈㅏ⑨
ㄷㅓ⑨ㄹㅓᆸㅎㅣ⑨
ㄱㅖ⑨ㅇㅑᆼㄱㅜ⑨
ㅊㅗᆼㅅㅏ⑨ㅌㅚ⑨
##94
##76
ㅈㅓᆼㅂㅗᆼㅈㅜ⑨
ㅇㅣᆸㄷㅏᆷ
ㅍㅕᆼㅇㅑ⑨
ㅅㅏᆷㄱㅗ⑨
ㅊㅐᆨㅂㅏᆼ
ㅍㅐ⑨ㄱㅝᆫㅈㅜ⑨ㅇㅢ⑨
ㅇㅜ⑨ㅇㅘᆼㅈㅘ⑨ㅇㅘᆼ
##ㅊㅠ⑨
ㅅㅏᆼㄷㅏᆷㅎㅚ⑨
ㅂㅏᆼㄱㅘᆼ
ㅅㅗᆫㄷㅐ⑨
ㅇㅔᆫㅈㅔᆯ
ㅇㅗᆺㅈㅏᆼ
ㄴㅔᆺㅍㅡᆯㄹ
ㅅㅐᆫㄷㅓ⑨ㅅㅡ⑨
ㅍㅡ⑨ㄹㅏ⑨ㅇㅣ⑨ㅂㅓ⑨ㅅㅣ⑨
ㅅㅗ⑨ㅈㅏ
ㅈㅓᆯㅈㅓᆯ
ㅌㅐ⑨ㄱㅡ⑨
ㅁㅓ⑨ㅅㅡᆷ
1906
hom
ㅇㅡᆫㅇㅕᆼ
ㅈㅓᆨㅈㅣ⑨
ㅈㅓᆼㄹㅣ
ㅎㅏᆫㄱㅜ⑨ㅅㅓᆨ
ㄱㅏᆼㅎㅛ⑨
ㅂㅜᆯㄱㅏᆷ
ㅅㅏᆯㄹㅏ⑨
3200
ㅈㅓᆼㅅㅓᆼㄲㅓᆺ
ㅆㅗᆯㄹㅣᆷ
ㅌㅗᆯㅅㅡ⑨ㅌㅗ⑨ㅇㅣ⑨
ㅈㅣ⑨ㄴㅏ⑨ㅇㅗ⑨
ㅈㅓᆫㅎㅚᆼ
ㅂㅜ⑨ㅇㅝᆫ
##ㄱㅣᆯㄷㅗᆼ
ㅅㅡ⑨ㅍㅣ⑨ㅊㅣ⑨
ㅇㅏ⑨ㅌㅡ⑨ㅎㅗᆯ
##ㅂㅏ⑨ㄱㅔ⑨
ㅂㅗ⑨ㅎㅏᆸ
ㅎㅐ⑨ㄱㅕᆯㅅㅏ⑨
##ㄷㅗᆯㅍㅡ⑨
##ㅊㅣᆯㄹㅣ⑨ㅇㅏ⑨
ㅋㅗᆯㄹㅣᆫ
ㅅㅡ⑨ㅋㅡ⑨ㄹㅐᆸ
ㅅㅜ⑨ㅅㅗᆼㄱㅣ⑨
center
gh
mart
ㄴㅏᆫㅌㅏ⑨
ㄱㅣ⑨ㅇㅓᆨㄴㅏ⑨
ㅊㅟ⑨ㅇㅓᆸㄴㅏᆫ
ㅇㅣᆯㄹㅔᆨㅌㅡ⑨ㄹㅗ⑨
##ㅈㅜᆺ
ㅇㅣ⑨ㄱㅖ⑨
ㄷㅐ⑨ㅍㅐ⑨
ㅈㅜ⑨ㄱㅝᆫㅈㅏ⑨
ㅊㅐ⑨ㄱㅜᆯ
ㅋㅏ⑨ㅍㅔ⑨ㅇㅣᆫ
##ㄱㅡᆯㄹㅣ⑨
##ㅅㅡᆯㄹㅗ⑨
ㅇㅏᆯㅍㅏ⑨ㅂㅔᆺ
ㄱㅒ⑨
ㄱㅗ⑨ㅊㅜᆺㄱㅏ⑨ㄹㅜ⑨
ㅁㅜ⑨ㄴㅏᆫㅎㅣ⑨
##ㅅㅔᆫㅌㅡ
##uss
ㅇㅔ⑨ㅅㅡ⑨ㅋㅔ⑨ㅇㅣ⑨
ㅎㅗᆺㅋㅏ⑨ㅇㅣ⑨ㄷㅗ⑨
ㅇㅣᆷㄱㅡᆷㅍㅣ⑨ㅋㅡ⑨ㅈㅔ⑨
ㄷㅡᆯㅁㅓᆨㅇㅣ⑨
##ㅡ⑨ㄹㅏ⑨ㄹㅣ⑨
ㅌㅏ⑨ㅇㅣ⑨ㄹㅡ⑨
ㅇㅜᆷㅊㅡ⑨ㄹㅣ⑨
ㅌㅔᆨㅅㅡ⑨
ㅇㅗ⑨ㄴㅣ⑨
ㅊㅔ⑨ㄴㅏᆸㅈㅏ⑨
ㅈㅣᆼㄱㅓᆷㄷㅏ⑨ㄹㅣ⑨
ㅈㅜ⑨ㄱㅓᆷ
ㅂㅏᆫㄷㅡᆺ
ㅇㅠᆫㅊㅏᆼ
ㅋㅡ⑨ㄹㅏ⑨ㅇㅜ⑨ㄷㅡ⑨
ㄱㅣᆷㅁㅣᆫㅅㅓᆨ
ㅋㅏᆯㄹㅓᆷㄴㅣ⑨ㅅㅡ⑨ㅌㅡ⑨
ㄱㅣ⑨ㅁㅏ⑨
ㅂㅜ⑨ㄷㅐ
ㄱㅕᆼㅊㅗᆼ
ㅅㅔ⑨ㅌㅐ⑨
ㅊㅏᆼㅇㅓ
ㅇㅣ⑨ㅈㅐ⑨ㅁㅕ
ㅌㅏ⑨ㅇㅢ⑨
ㅌㅏ⑨ㄱㅖ⑨
##ㅂㅔᆯㄹㅣ⑨
ㄱㅗᆼㅎㅏᆨㅂㅜ⑨
ㅇㅡᆷㄹㅏᆫㅁㅜᆯ
##ㅅㅓᆼㅈㅏᆼ
ng
ser
ㄹㅗ⑨ㅁ
ㅈㅏ⑨ㅋㅡ⑨
ㅅㅗ⑨ㅍㅡ⑨ㄹㅏ⑨ㄴㅗ⑨
ㄴㅟ⑨ㅇㅜ⑨ㅊㅣ⑨
ㅈㅔ⑨ㄴㅓ⑨ㄹㅓᆯ
ㅈㅓᆫㅇㅠ⑨ㅁㅜᆯ
ㄷㅐ⑨ㄸㅡᆷ
ㅂㅗ⑨ㅇㅠ
##ㅂㅗ⑨ㄹㅣ⑨
ㅅㅐ⑨ㅎㅏ⑨
ㅅㅏᆫㄷㅗᆼ
ㅍㅣ⑨ㄱㅏᆷ
ㅎㅏᆨㅅㅐᆼㅎㅚ⑨
ㅇㅣ⑨ㅌㅐ⑨ㄱㅠ⑨
ㅅㅡ⑨ㅍㅏ⑨ㄹㅡ⑨ㅌㅏ⑨
ia
ㅈㅜᆼㄷㅏ
ㅅㅓᆼㅊㅓᆯ
ㅂㅜᆫㅁㅏᆯ
ㄷㅏᆫㅈㅚ⑨
ㅇㅑᆼㅌㅐ⑨
ㄱㅡᆫㅈㅓ⑨ㄷㅏᆼ
ㅎㅡᆼㄱㅜᆨㅅㅐᆼㅁㅕᆼ
ㅇㅏ⑨ㅌㅐ⑨
ㅍㅡ⑨ㄹㅏ⑨ㅈㅏ⑨
##ㄸㅜᆯㅇㅓ⑨ㅈㅣ⑨
ㅍㅣᆸㅂㅏᆨ
##ㅍㅏ⑨ㅈㅓᆫ
##93
##ен
ㄷㅐ⑨ㅈㅜ⑨ㄱㅛ⑨
ㅇㅕᆫㅎㅐ⑨
ㅈㅏᆼㅇㅓ⑨
ㅈㅏ⑨ㄱㅗ
ㅍㅖ⑨ㅈㅣ
##ane
ㄴㅏᆫㄹㅗ⑨
ㅇㅕᆷㅊㅣ⑨
ㅅㅜ⑨ㅇㅓᆸㄹㅛ⑨
ㄱㅣᆷㅅㅏᆼㅎㅕᆫ
ㄱㅗᆫㄷㅜ⑨ㅂㅏᆨㅈㅣᆯ
ㄷㅐ⑨ㅎㅏᆸ
ㄴㅗ⑨ㅁㅗ⑨
ㅇㅕᆨㅎㅛ⑨ㄱㅘ⑨
ㅇㅓᆫㄴㅣ
ㅎㅠ⑨ㅎㅏᆨ
ㅈㅘ⑨ㅈㅜᆼ
ㅅㅡ⑨ㅌㅔ⑨ㅇㅣ⑨ㅈㅣ⑨
ㅈㅐᆼㅈㅐᆼㅎㅏ⑨
ᆸㄴㅣ⑨
ㅈㅓᆫㅊㅣ⑨
ㅂㅣ⑨ㅌㅏᆯ
ㅅㅣᆯㄹㅜ⑨
ㄴㅜᆫㄷㅓᆼㅇㅣ⑨
ㅍㅐ⑨ㅌㅡ⑨
ㅅㅣᆫㄱㅕᆼㅈㅡᆼ
ㅇㅕᆫㅅㅔ⑨ㄷㅐ⑨ㅎㅏᆨㄱㅛ⑨
##ㅇㅕ⑨ㅇㅜᆷ
ㅊㅜ⑨ㅇㅏᆨ
ㅎㅗ⑨ㅎㅖ⑨
ㅅㅜᆫㅊㅏᆼ
##way
ㅌㅜ⑨ㅇㅗᆨ
ㄱㅖ⑨ㅈㅜ⑨
ㄸㅓ⑨ㅁㅣᆯㄹㅣ⑨
ㄷㅗᆼㅇㅏ⑨ㄷㅐ⑨
ㄱㅗᆼㄷㅏᆼ
ㅅㅣᆫㅊㅜᆫ
ㅍㅣ⑨ㅅㅏ⑨
ㅇㅣᆷㅅㅜ⑨
ㄷㅐ⑨ㅎㅏᆫㅂㅕᆫ
ㅇㅜᆼㅂㅕᆫ
ㅅㅏᆯㅇㅣᆫㅈㅏ⑨
ㅁㅜ⑨ㅌㅓᆨㄷㅐ⑨ㄱㅗ⑨
ㅂㅜ⑨ㄹㅑ⑨ㅂㅜ⑨
##ㅍㅏ⑨ㅌㅡ⑨
ㄷㅏ⑨ㄱㅗ⑨ㅇㅛ
ㅂㅏ⑨ㅆㅏᆨ
ㅊㅏᆷㅈㅏᆨ
ㅍㅏᆫㅎㅘ⑨
##ㅂㅐᆨㅅㅏᆫ
ㅅㅡ⑨ㅍㅔ⑨ㅇㅣᆫㅇㅓ⑨
ㅃㅏᆨㅃㅏᆨ
ㅇㅡ⑨ㄹㅑ
ㅅㅏᆼㅁㅜ
ㅁㅜᆯㄱㅣ⑨
ㅅㅗᆼㅅㅣ⑨
ㅁㅕᆯㅅㅣ⑨
##51
ㅅㅜ⑨ㅎㅕᆫ
ㅅㅓ⑨ㄷㅏᆼ
ㅈㅐ⑨ㅌㅐᆨ
ㅈㅣᆯㅈㅣᆯ
ㅊㅣᆫㅂㅜᆨ
ㅎㅏᆯㅁㅓ⑨ㄴㅣ
ㅋㅗᆯㄹㅏ⑨ㄱ
ㅅㅣᆫㅊㅔ⑨ㄱㅓᆷㅅㅏ⑨
ㅅㅓ⑨ㅇㅑᆼㅇㅣᆫ
ㄴㅗᆼㅇㅓ⑨ㅇㅓᆸ
ㅇㅣ⑨ㅎㅐ⑨ㄱㅘᆫㄱㅖ⑨ㅈㅏ⑨
ㅅㅓ⑨ㅍㅗ⑨ㅌㅓ⑨ㅈㅡ⑨
ㅈㅓᆫㄱㅜᆨㄱㅕᆼㅈㅔ⑨ㅇㅣᆫㅇㅕᆫㅎㅏᆸㅎㅚ⑨
##34
ㄹㅗ⑨ㅁㅣᆼ
ㅂㅜ⑨ㅊㅣᆷ
ㅇㅏᆯㄹㅐ⑨
ㅅㅜᆫㅈㅏ⑨ㅅㅏᆫ
ㄷㅐ⑨ㅎㅏᆫㅊㅔ⑨ㅇㅠᆨㅎㅚ⑨
##ㄱㅓᆷㅈㅏᆼ
ㄴㅏᆫㄷㅔ⑨
ㄴㅗᆨㅇㅏ⑨ㄷㅡᆯ
ㅅㅏ⑨ㅇㅗᆸㄴㅣ⑨ㄷㅏ
##ㅇㅓ⑨ㅊㅗᆫ
ㅅㅓᆼㅆㅣ⑨
ㄷㅓᆫㅈㅣ
ㅅㅓᆨㄱㅗ⑨
ㅇㅗ⑨ㅍㅡ⑨ㄴㅣᆼ
ㅍㅗ⑨ㅋㅔᆺㅁㅗᆫ
ㄱㅐ⑨ㄴㅕ
ㅂㅏᆯㅅㅏ
ㅎㅐ⑨ㅅㅏ⑨
ㅊㅓᆼㅅㅐᆨ
ㅊㅓᆺㅇㅣᆫ
know
ㅅㅐᆼㄱㅣᆷㅅㅐ⑨
ㅅㅐ⑨ㅎㅏ⑨ㅇㅑᇂ
ㅅㅏ⑨ㅁㅣᆫㄷㅏᆼ
ㅎㅏᆸㅅㅣᆷ
ㅈㅣᆯㄱㅣ⑨
ㅁㅓ⑨ㄹㅣ⑨ㅋㅏᆯ
ㅁㅏᆽㄷㅐ⑨ㅇㅡᆼ
ㅅㅣ⑨ㅇㅚ⑨ㅂㅓ⑨ㅅㅡ⑨
ㅈㅓᆼㅇㅠᆨ
ㅈㅓ⑨ㅊㅗᆨ
ㅁㅣᆫㅁㅜᆯ
ㅎㅘᆼㅅㅐᆨ
ㅅㅗ⑨ㄹㅕᆫㄱㅜᆫ
ㄲㅏᆩㅇㅏ⑨ㄴㅐ⑨ㄹㅣ⑨
ㅈㅐ⑨ㄹㅐ⑨ㅅㅣᆨ
ㅂㅜ⑨ㄹㅑ⑨ㅂㅜ⑨ㄹㅑ⑨
ㄹㅑ⑨ㅇㅗ⑨
ㅊㅏ⑨ㅇㅣᆯ
ㅇㅣ⑨ㅌㅐᆨ
ㄱㅜᆨㅇㅓ
##ㅇㅣᆯㄹㅔ⑨
ㅎㅏᆫㄱㅜᆨㄱㅏ⑨ㅅㅡ⑨
ㅇㅐ⑨ㅌㅏ⑨
ㅌㅏᆫㅇㅑᆨ
ㅁㅏ⑨ㄴㅣᆯㄹㅏ⑨
##ㄱㅏ⑨ㄱㅔ⑨
ㄱㅣᆷㅅㅔ⑨ㅇㅕᆫ
ㄱㅜᆫㅅㅏ⑨ㅂㅜᆫㄱㅖ⑨ㅅㅓᆫ
ㅋㅡ⑨ㄹㅏ⑨
ㅇㅓᆽ
ㅈㅓᆫㅇㅏᆸ
ㅎㅓ⑨ㄹㅣ⑨ㄸㅣ⑨
ㅁㅜ⑨ㄹㅣᆷㅁㅐᆼ
ㅊㅣᆯㄱㅗᆨㄱㅜᆫ
ㅌㅡᆯㅇㅓ⑨ㅁㅏᆨ
ㄷㅐ⑨ㅎㅏᆫㅊㅜᆨㄱㅜ⑨ㅎㅕᆸㅎㅚ⑨
ㅅㅏ⑨ㅅㅏ⑨
ㅇㅗ⑨ㅅㅗᆯ
ㅂㅏᆫㅇㅑ⑨
ㅂㅏᆫㅇㅝᆯ
ㅅㅏᆯㄹㅗᆼ
ㅊㅜ⑨ㄱㅕᆼㅎㅗ⑨
##ㅇㅓ⑨ㅊㅣ⑨ㅇㅜ⑨
ㅇㅡᆷㅅㅣ
ㅇㅏᆷㄱㅏᆨㅎㅘ⑨
bp
let
##ㅌㅏ⑨ㄴㅏ⑨
ㅇㅔ⑨ㄷㅗ⑨
ㅅㅏ⑨ㅂㅏᆯ
ㅅㅗᆨㅎㅣ⑨
ㅍㅏ⑨ㅅㅡ⑨ㅌㅏ⑨
ㅇㅡᆷㅇㅏᆨㅇㅣᆫ
ㄴㅟ⑨ㅇㅏᆼㅅㅡ⑨
ㅌㅐ⑨ㅂㅐᆨㅅㅏᆫ
##ㅊㅏᆷㅁㅗ⑨
##ㅍㅡᆯㄹㅐᆫ
ㅂㅜᆯㅁㅕᆫㅈㅡᆼ
ㅂㅜ⑨ㅇㅜᆯㄱㅕᆼ
ㅈㅏᆼㅅㅗ
ㄱㅣᆷㅈㅜᆼ
ㄱㅏᆷㄱㅠᆯ
ㅎㅏᆫㄱㅜᆨㅅㅗ⑨ㅂㅣ⑨
ㅇㅣᆯㅂㅕᆫㄷㅗ⑨
ㅂㅣ⑨ㅁㅣ
ㅂㅏᆫㄱㅜ⑨
ㅋㅗ⑨ㄷㅡ
ㄴㅗᆼㄱㅜ
##ㄷㅗ⑨ㅅㅏ⑨
##ㅋㅏ⑨ㅁ
ㅈㅓᆫㅈㅗ⑨
ㅇㅣᆫㅈㅐ
ㅁㅣ⑨ㄴㅏ⑨
ㄷㅜ⑨ㄹㅣ⑨ㅂㅓᆫ
ㅈㅓᆼㅍㅕᆼ
ㅎㅜ⑨ㅅㅗᆼ
ㅂㅏᆨㅈㅣ⑨ㅎㅕᆫ
ㄱㅚ⑨ㄹㅗᆸㅎㅣᆷ
ㅅㅗᆺㅇㅏ⑨ㄴㅏ⑨
ㅇㅗ⑨ㅅㅏᆫㅅㅣ⑨
##91
ㅎㅏᆫㄷㅔ⑨
ㅇㅟ⑨ㄷㅡ⑨
ㅈㅗ⑨ㄷㅐ⑨
ㅅㅓᆫㅁㅏᆼ
ㅈㅏᆼㅈㅓ
ㅁㅣᆫㅈㅗ
ㅎㅏᆫㄱㅜᆨㄱㅘ⑨ㅎㅏᆨㄱㅣ⑨ㅅㅜᆯ
##eration
ㅊㅜᆯㅇㅕᆫㄹㅛ⑨
##ㅎㅣ⑨ㅌㅡ⑨
ㅈㅐ⑨ㅂㅓᆷ
ㅇㅓᆨㅅㅐ⑨
ㅇㅏ⑨ㄴㅡᆨ
ㅈㅣᆫㅅㅣ⑨ㅎㅘᆼ
ㅂㅓᆸㅇㅝ
ㄱㅡᆫㄱㅓ⑨ㄹㅣ⑨
ㄱㅓᆯㅍㅡ⑨
ㄱㅖ⑨ㅅㅏᆫㅅㅓ⑨
ㅌㅡᆨㅎㅓ⑨ㅊㅓᆼ
ㄱㅏᆼㅅㅗ⑨ㄱㅣ⑨ㅇㅓᆸ
ㅈㅓᆼㅎㅗᆼㅇㅝᆫ
##der
ㅇㅣ⑨ㄷㅗ⑨
ㄱㅜᆨㄴㅏᆫ
ㅇㅣᆫㅈㅓ
ㅇㅕᆼㄹㅕᆼ
ㄷㅏ⑨ㅁㅕᆫㅅㅓ
ㅂㅜ⑨ㄷㅐ⑨ㅅㅣ⑨ㅅㅓᆯ
ㄱㅡᆸㅅㅣᆨㅂㅣ⑨
anal
ㅆㅡᆯㅁㅗ⑨ㅇㅓᆹ
##ㄱㅜ⑨ㅈㅗ⑨
ㄱㅗ⑨ㅂㅗᆼ
ㄷㅗ⑨ㅊㅜᆨ
ㅂㅏᆨㅈㅟ⑨
ㅍㅣᆯㅎㅏ⑨
ㄱㅕ⑨ㅈㅏ⑨
ㄴㅏᆫㅎㅐ⑨
ㅎㅣᆷㄱㅕ⑨ㄹㅜ⑨ㄱㅣ⑨
##73
ㄷㅗ⑨ㅌㅐ⑨
ㅁㅗ⑨ㅌㅣ⑨
ㅅㅔ⑨ㄹㅏ⑨
ㅇㅕᆫㅊㅓᆯ
ㅎㅜ⑨ㅊㅓᆫ
ㄱㅜᆽ
ㄴㅚ⑨ㅎㅕᆯㄱㅘᆫ
school
ㅂㅜ⑨ㄲㅡ⑨ㄹㅓ⑨ㅇㅝ⑨ㅎㅏ⑨
ㄷㅣ⑨ㄹㅔᆨㅌㅓ⑨
ㅈㅓᆫㄱㅡᆫ
ㄱㅏᆨㅁㅏᆨ
ㅇㅣ⑨ㅇㅛᆼㅎㅗ⑨
ㄷㅐ⑨ㅈㅜᆼㄱㅜᆨ
fbi
##ㅊㅏ⑨ㅁㅏᆫ
ㅅㅓᆼㅅㅡ⑨ㄹㅓᆸ
ㄱㅜᆫㅅㅏ
ㅅㅡ⑨ㅍㅗ⑨ㅊㅡ⑨ㅋㅏ⑨
##ective
ㄷㅡᆯㅇㅣ⑨ㅂㅏᆮ
ㅎㅠᆼㄴㅗ⑨
ㅊㅜ⑨ㅈㅗᆼㅈㅏ⑨
ibkㄱㅣ⑨ㅇㅓᆸ
ㅁㅏ⑨ㅇㅣ⑨ㅇㅐ⑨ㅁㅣ⑨
##ㅂㅐᆫㄷㅡ⑨
##ㅡᆫㅎㅐ
ㅂㅜᆨㅈㅗ⑨ㅅㅓᆫ
ㅇㅞᆸㅌㅜ
##ㄷㅏ⑨ㅂㅣ⑨
##ㅂㅏᆫㅎㅏ⑨
ㅍㅔᆯㄹㅣ⑨
ㅇㅔ⑨ㅁㅣ⑨
ㄱㅏ⑨ㄱㅗᆨ
ㅇㅚ⑨ㅅㅏᆷ
ㄱㅘᆼㄱㅜ⑨
ㅅㅣᆨㄱㅏᆷ
ㅇㅠᆫㅂㅕᆼ
ㄷㅡ⑨ㄹㅏ⑨
ㅅㅡ⑨ㅌㅣᆷ
ㅁㅏ⑨ㅇㅣᆫ
ㅆㅡ⑨ㄹㅏ⑨ㄹㅣ⑨
ㅎㅏ⑨ㅂㅣ⑨
ㅇㅗ⑨ㅃㅏ
ㅊㅓᆫㅊㅏ⑨ㅁㅏᆫ
ㅇㅕᆸㄱㅣ⑨
##ㄱㅜᆫㄷㅔ⑨
back
ㄷㅏ⑨ㄴㅏ⑨
ㄷㅗ⑨ㅂㅐ⑨
ㅎㅐ⑨ㄴㅕ⑨
black
ㅇㅜ⑨ㅍㅕᆫㅁㅜᆯ
ㅁㅣ⑨ㄱㅜᆨㅅㅣᆨ
##ㅂㅜᆯㅅㅓᆼ
ㅈㅏ⑨ㅇㅕᆫㄱㅕᆼ
ㅇㅓ⑨ㄹㅣᆫㅇㅣ⑨ㄴㅏᆯ
ㅌㅏ⑨ㅇㅝ
ㅈㅓᆨㄷㅏᆼㅎㅏ⑨
ㅇㅟ⑨ㄹㅖ⑨ㅅㅣᆫㄷㅗ⑨ㅅㅣ⑨
ㄱㅕᆯㄱㅕᆨ
ㅇㅣᆫㅅㅏ⑨ㄷㅗᆼ
ㅈㅣ⑨ㅎㅑᆼㅈㅓᆷ
ㄷㅓ⑨ㄹㅏ⑨ㄱㅜ⑨ㅇㅛ
ㄱㅜᆫㄷㅔ⑨ㄱㅜᆫㄷㅔ⑨
##ㅇㅓ⑨ㅅㅏ⑨
ㅈㅣ⑨ㅍㅡ⑨
ㄷㅗ⑨ㅎㅏ⑨
ㄴㅗ⑨ㅁㅕᆫ
ㅈㅡᆼㅅㅏᆫ
ㄷㅗᆼㅅㅣ⑨ㄷㅏ⑨ㅂㅏᆯ
ㅅㅜ⑨ㅇㅣᆨㅈㅏ⑨
ㅅㅣ⑨ㄷㅗ⑨ㅈㅣ⑨ㅅㅏ⑨
ㅎㅟ⑨ㄴㅏᆯㄹㅣ⑨
ㅇㅓᆼㅋㅣ⑨
ㄱㅓᆯㅇㅡᆷㄱㅓᆯㅇㅣ⑨
ㅅㅏ⑨ㄹㅡ⑨ㅌㅡ⑨ㄹㅡ⑨
ㅇㅐ⑨ㅌㅡᆯㄹㅐᆫㅌㅏ⑨
ㄹㅐᆯㄹㅣ⑨
ㅁㅜ⑨ㄸㅜᆨ
ㅇㅖ⑨ㅅㅡ⑨
ㅇㅕᆼㅇㅢ⑨ㅈㅓᆼ
ㅍㅗ⑨ㅅㅡ⑨ㅋㅗ
ㄱㅛ⑨ㅌㅗᆼㅂㅣ⑨
ㄹㅗ⑨ㄱㅜ
ㅈㅓᆨㅂㅏᆫㅎㅏ⑨
ㅂㅓᆫㄴㅚ⑨
##ㅊㅜ⑨ㅇㅟ⑨
ㅇㅠᆨㅅㅓ
ㅎㅕᆨㅅㅣᆫㅊㅓ⑨
ㅂㅐ⑨ㅅㅣᆫㄱㅏᆷ
ㄱㅔ⑨ㄴㅏ
ㅇㅜ⑨ㅎㅘ⑨
ㅁㅣ⑨ㅇㅕᆫ
ㅊㅚ⑨ㄱㅠ⑨
ㅂㅏ⑨ㅋㅏᆼ
ㅊㅏ⑨ㄹㅕ⑨
ㅂㅡ⑨ㄹㅓ⑨
ㅍㅏᆨㅍㅏᆨ
ㅇㅚ⑨ㅌㅗᆼㅇㅟ⑨
ㅂㅓᆯㄱㅓ⑨ㅂㅓᆺ
ㅇㅡ⑨ㅆㅡᆨ
ㅂㅏᆯㄱㅕ
ㅌㅜ⑨ㅊㅓᆯ
ㄱㅘᆼㅈㅣᆫ
ㅌㅜ⑨ㅈㅏ⑨ㅂㅣ⑨
ㅅㅡ⑨ㅋㅗᆯ
ㅇㅟᆺㅅㅓᆫ
ㄹㅜ⑨ㅅㅡ⑨ㅂㅔᆯㅌㅡ⑨
ㅅㅏᆼㄱㅕᆫ
##ㅅㅓᆫㅈㅣ⑨
ㄱㅛ⑨ㄹㅠ
ㅊㅗᆼㄱㅜᆨ
ㅅㅗᆨㄹㅕᆨ
ㄷㅡᆯㅇㅣ⑨ㅋㅕ⑨
ㅎㅏ⑨ㅎㅏ⑨ㅎㅏ⑨
ㅇㅗ⑨ㅇㅣ⑨ㄷㅣ⑨
ㄱㅕᆼㅊㅜᆨㅅㅏ⑨
ㅅㅜ⑨ㄱㅝᆫ
ㅂㅜᆯㅇㅣᆷ
ㅅㅓᆯㅍㅏ⑨
ㅇㅑᆼㅂㅏᆼ
ㅂㅜ⑨ㅅㅏᆫㅈㅣᆫㄱㅜ⑨
ㄱㅗᆫㅇㅛᆨ
ㄸㅡᆫㄱㅡᆷ
ㄱㅣ⑨ㅇㅣᆸ
ㅈㅏᆼㅁㅜᆫ
ㅍㅗ⑨ㅌㅏᆯ
ㅎㅏᆼㅅㅓᆼ
ㅍㅏ⑨ㅂㅓᆯ
ㅊㅓᆯㄱㅏᆼㅇㅓᆸ
ㄷㅗᆼㄷㅐ⑨ㅁㅜᆫㄱㅜ⑨
ㄱㅘᆫㅅㅓᆼ
ㅁㅗ⑨ㅅㅕᆫ
ㄴㅗᆼㅅㅏᆫ
ㅎㅏᆫㄱㅜᆨㅁㅜ⑨ㅇㅕᆨㅎㅕᆸㅎㅚ⑨
##ㅂㅐᆯㄹㅣ⑨
ㅅㅓ⑨ㅁㅓ⑨
ㅁㅣ⑨ㅈㅔ⑨
ㄷㅏᆸㅂㅕᆫㅅㅓ⑨
##line
ㅈㅓᆼㅅㅓᆼㅎㅗ⑨
ㅈㅣᆫㅌㅗᆼㅈㅔ⑨
ㄹㅗ⑨ㄹㅣ⑨
ㄹㅏ⑨ㅍㅏ⑨ㅇ
ㅈㅡᆼㄱㅏᆷ
ㅇㅔᆯㅅㅣ⑨ㅌㅣ⑨
ㅊㅜᆨㄱㅜ⑨ㄷㅏᆫ
ㅊㅓᆼㄱㅜ⑨ㅅㅓ⑨
ㄱㅣᆷㅈㅐ⑨ㅊㅓᆯ
ㅈㅏ⑨ㅁㅜᆯㅅㅚ⑨
##ㅅㅏ⑨ㄷㅏᆫ
ㅂㅣ⑨ㅂㅏ⑨ㄹㅏᆷ
ㅂㅜᆯㅂㅓ
ㅁㅣᆫㅇㅜ⑨
ㅊㅟ⑨ㅈㅣ
ㅍㅕᆼㅎㅘ⑨ㅅㅏᆼ
##ㅂㅔ⑨ㄹㅡ⑨ㅌㅡ⑨
ㅅㅗᆫㅇㅕᆫㅈㅐ⑨
ㅁㅣ⑨ㄷㅣ⑨ㅇㅓ
ㅈㅣᆫㅅㅓᆫㅁㅣ⑨
ㅈㅣᆸㄴㅕᆷ
##ㅅㅡ⑨ㅌㅡ⑨ㄹㅗ⑨
##ㄷㅡ⑨ㄹㅐ⑨
ㄱㅣᆷㅇㅠ⑨ㅈㅓᆼ
ㅈㅔ⑨ㄱㅏᆨㄱㅏᆨ
ㅇㅗ⑨ㅎㅏ⑨ㅇㅣ⑨
ㅇㅢ⑨ㅈㅏᆼㅅㅣᆯ
ㅇㅔ⑨ㅇㅣ⑨ㅍㅡ⑨ㄹ
ㅇㅗ⑨ㄹㅏᆼㅋㅐ⑨
ㅇㅝᆯㄷㅡ
ㅌㅜ⑨ㅎㅏᆼ
ㅈㅓᆫㅅㅔ⑨ㄱㅣ⑨
ㅊㅜᆼㅈㅓᆫㅅㅗ⑨
ㅇㅏ⑨ㄹㅏ⑨ㅂㅣ⑨ㅇㅏ⑨
ㅁㅜ⑨ㄸㅜᆨㄸㅜᆨ
ㄱㅕᆼㄱㅖ⑨ㅅㅣᆷ
##so
ㅈㅣ⑨ㅂㅏ
ㄴㅗ⑨ㅋㅡ⑨
ㄲㅗ⑨ㄹㅣ⑨ㅍㅛ⑨
ㄹㅣᆷㅍㅡ⑨
ㄸㅏ⑨ㄷㅗᆯㄹㅣᆷ
##ㅇㅣ⑨ㄷㅗᆼ
##ㅂㅗ⑨ㅅㅏᆯ
3600
resp
ㄱㅣᆸ
##ㅁㅔ
ㄱㅗ⑨ㄷㅏᆯㅍㅡ⑨
ㄷㅐ⑨ㄴㅏᆸ
ㅍㅐ⑨ㅅㅣᆼ
ㄴㅏᆫㄷㅗ⑨
ㄴㅐᆼㄷㅏᆷ
ㅁㅜ⑨ㄹㅡᆺ
ㄱㅣᆷㄱㅣ⑨ㅅㅣᆨ
ㅌㅏᆨㅇㅝᆯㅎㅏ⑨
ㅂㅐᆯㄹㅣ
ㄷㅣ⑨ㅂㅏ⑨ㅇㅣ⑨ㅅㅡ⑨
##ㅍㅓ⑨ㅅㅡ
stand
ㅁㅗ⑨ㄹㅗ⑨ㅋㅗ⑨
ㅂㅡᆯㄹㅣ⑨
ㅁㅜᆫㅅㅜ⑨
ㅌㅗᆼㅋㅙ⑨
ㅂㅜᆫㅅㅙ⑨
ㅇㅖ⑨ㅌㅏᆨ
ㅈㅓᆼㅊㅣ⑨ㅂㅜ⑨
ㅅㅐᆼㅅㅏᆫㄹㅕᆨ
ㅍㅏ⑨ㄹㅣ⑨ㅂㅏ⑨ㄱㅔ⑨
ㅇㅣ⑨ㅁㅣᆫㅎㅗ⑨
ㅆㅣᆺㄱㅣ⑨
ㅎㅏᆫㅁㅣᆫㄱㅜ⑨
ㅇㅣ⑨ㅎㅛ⑨ㄹㅣ⑨
##ㅎㅏᆫㄱㅣ⑨
##ㄲㅡ⑨
ㄱㅣ⑨ㄱㅡᆫ
ㅁㅣ⑨ㅅㅣ⑨ㄱㅏᆫ
ㄱㅏᆼㅇㅛᆼㅅㅓᆨ
ㄱㅐ⑨ㅊㅚ⑨ㄱㅜᆨ
ㄱㅕᆼㄴㅏᆷㄱㅣ⑨ㅇㅓᆸ
ㄷㅗᆼㅇㅢ⑨ㅅㅓ⑨
ㅊㅣᆯㅅㅓᆼ
ipo
ㄱㅔ⑨ㅇㅡ⑨ㄹㅡᆷ
ㅅㅜᆫㅂㅏᆯㄹㅕᆨ
ㅁㅜᆫㅈㅏ
ㅁㅏ⑨ㅅㅜ⑨
ㅊㅔ⑨ㅎㅏ⑨
ㅎㅕᆯㅈㅓᆫ
##ㅅㅡᆯㄹㅔ⑨
ㅇㅠ⑨ㅅㅓᆼㅇㅕᆸ
ㄱㅐᆸ
ㅅㅓᆯㅁㅕᆼㅎㅚ
lgㅅㅐᆼㅎㅘᆯ
ㅅㅡ⑨ㅋㅜ⑨
##ㅊㅣᆯㅅㅓᆼ
ㅇㅓ⑨ㄹㅣ⑨ㄷㅜᆼㅈㅓᆯㅎㅏ⑨
ㅍㅏ⑨ㄴㅏ⑨
ㅇㅣ⑨ㅅㅏᆼㄷㅡᆨ
##ㅈㅣᆸㅎㅐᆼ
ㅂㅣ⑨ㅅㅏᆼㅅㅏ⑨ㅌㅐ⑨
ㄷㅏ⑨ㄹㅣ
ㄴㅗ⑨ㅅㅜᆨㅈㅏ⑨
ㅍㅏ⑨ㅇㅜ⑨ㄷㅓ⑨
ㅎㅏ⑨ㅇㅕᆷㅇㅓᆹㅇㅣ⑨
ㅋㅠ⑨ㅂㅡ⑨
ㅎㅟᆨ
ㅅㅣᆫㄹㅏᆯㅎㅏ⑨
ㅈㅣᆫㅇㅔ⑨ㅇㅓ⑨
ㅇㅓᆸㅁㅜ
ㄴㅜᆫㄲㅓ⑨ㅍㅜᆯ
ㄷㅡᆯㅇㅓ⑨ㅊㅏ⑨
ㅇㅓᆷㅁㅣᆯㅎㅣ⑨
ㅎㅐᆼㅈㅓᆼㅊㅓᆼ
ㄱㅡᆯㅆㅔ⑨ㅇㅛ
ㅁㅣᆺㅁㅣᆺ
ㅌㅓᆷ
ㅇㅣᆯㅈㅗᆨ
ㅌㅗᆼㅈㅏ
ㅈㅏ⑨ㅇㅣᆷ
ㅌㅔᆷㅍㅡᆯ
ㄷㅏᆷㄷㅐ⑨
ㅂㅓ⑨ㄹㅓᆨ
ㅇㅖ⑨ㅅㅜᆯㅇㅢ⑨ㅈㅓᆫㄷㅏᆼ
ㅌㅜ⑨ㅈㅏ⑨ㅇㅐᆨ
ㅍㅕᆼㅎㅐᆼㅅㅓᆫ
ㄷㅐ⑨ㄱㅕᆫ
ㅌㅗᆼㄴㅏ⑨ㅁㅜ⑨
ㅎㅕᆫㅈㅐ
ㅈㅐᆼㅌㅏᆯ
ㅊㅣᆼㄱㅣ⑨ㅈㅡ⑨
ㄷㅏᆼㄴㅏ⑨ㄱㅟ⑨
ㅂㅗᆺ
ㅇㅣ⑨ㅇㅕ⑨
ㅋㅏ⑨ㅌㅗᆨ
ㄱㅓᆮㄱㅣ⑨
ㅅㅡ⑨ㅌㅗ⑨ㄹㅣ
group
ㅇㅓᆷㅈㅣ⑨ㅅㅗᆫㄱㅏ⑨ㄹㅏᆨ
mi
ㄱㅏ⑨ㅈㅏ⑨
ㅈㅓᆨㅅㅐᆨ
ㅈㅗᆼㄱㅛ
ㄱㅜᆫㄹㅏᆨ
ㅍㅕᆫㅅㅡᆼ
ㅊㅣᆫㅎㅕᆼ
ㄸㅓ⑨ㄷㅏ⑨ㄴㅣ⑨
ㄷㅡ⑨ㄹㅣ⑨ㅇㅝ⑨ㅈㅣ⑨
ㅋㅗᆯㄹㅗ⑨ㄹㅏ⑨ㄷㅗ⑨
ㅍㅏ⑨ㄹㅏ⑨ㄷㅏ⑨ㅇㅣ⑨ㅅㅡ⑨
ㅎㅏᆫㅅㅗᆯ
ㅁㅐ⑨ㅅㅏ⑨ㅊㅜ⑨ㅅㅔ⑨ㅊㅡ⑨
ㅅㅜ⑨ㄹㅏ⑨
ㅈㅓ⑨ㄱㅗ⑨ㄹㅣ⑨
ㅂㅏᆯㄹㅏᆯ
ㅂㅜ⑨ㅅㅏᆫㅁㅜᆯ
ㅇㅠ⑨ㅌㅠ⑨
afc
ㅈㅓᆼㄱㅏᆨ
ㄷㅗᆼㅎㅑ
ㅊㅜᆯㄷㅜ⑨
214
ㄷㅐ⑨ㄱㅘᆫㄹㅕᆼ
ㄹㅗ⑨ㅁㅐᆫㅌㅣᆨㅎㅏ⑨
ㅋㅡ⑨ㄹㅏ⑨ㅇㅣ⑨ㅅㅡᆯㄹㅓ⑨
##hr
ㅂㅜ⑨ㅎㅘ⑨
ㅁㅏᆫㅊㅟ⑨
ㅍㅗ⑨ㅂㅕᆼ
ㅊㅓᆫㅅㅣᆫ
ㅊㅜᆨㅎㅕᆸ
ㅇㅐ⑨ㅊㅣᆼ
ㅊㅓᆼㅇㅘ⑨ㄷㅐ
ㅊㅚ⑨ㅈㅗᆼㅈㅓᆫ
dmb
##ㅎㅐᆷ
ㅇㅣᆫㅊㅣᆼ
ㅎㅚ⑨ㅅㅣᆫ
ㅊㅏᆼㅂㅏᆩ
ㅌㅗ⑨ㅅㅓᆼ
ㄱㅐ⑨ㅂㅏᆯㅅㅏ⑨
ㅂㅏᆨㅈㅜᆫㅇㅕᆼ
##ㅇㅔ⑨ㅍㅡ⑨
mri
ㅅㅗ⑨ㄱㅜᆨ
##ㅈㅐ⑨ㅎㅕᆫ
ㅊㅚ⑨ㄹㅜ⑨
##ㅍㅕᆼㅅㅐᆼ
ㄹㅔ⑨ㅂㅓ⑨ㄹㅣ⑨
3300
ㅇㅏᆯㄹㅐ⑨ㅅㅡ⑨ㅋㅏ⑨
ㅉㅣᆯ
ㅍㅐᆷ
ㅈㅓᆫㅇㅠᆯ
ㅅㅏᆼㄷㅗ⑨
ㄱㅗᆼㅇㅕᆫㅎㅣ⑨
ㅈㅏ⑨ㅇㅕᆫㄱㅕᆼㄱㅘᆫ
##ㄹㅕ⑨ㄷㅏ⑨ㄴㅣ⑨
##iation
ㅈㅓᆼㅊㅓᆯ
ㅈㅜᆼㅎㅡᆼ
ㅇㅠ⑨ㅂㅜᆯㄹㅣ⑨
ㅁㅣ⑨ㅅㅏᆼ
ㅇㅓᆷㅂㅓᆯ
ㅇㅠᆼㅅㅓᆼ
##ㅅㅡ⑨ㅌㅗ⑨ㄹㅣ⑨
ㄷㅗᆼㅇㅑᆼㅇㅣᆫ
ㅇㅖ⑨ㄱㅡᆷㅈㅏ⑨
ㅋㅕᆫ
ㅇㅏᆫㅂㅐ⑨
ㅍㅣ⑨ㅂㅜ⑨ㅇㅕᆷ
stu
ㅋㅡ⑨ㄹㅣ
3800
ㅅㅏᆼㅅㅣᆯㄱㅏᆷ
ㅊㅚ⑨ㅇㅣᆫㅎㅗ⑨
christian
